{
  "version": "1.0",
  "truncation": null,
  "padding": null,
  "added_tokens": [
    {
      "id": 0,
      "content": "[UNK]",
      "single_word": false,
      "lstrip": false,
      "rstrip": false,
      "normalized": false,
      "special": true
    },
    {
      "id": 1,
      "content": "[CLS]",
      "single_word": false,
      "lstrip": false,
      "rstrip": false,
      "normalized": false,
      "special": true
    },
    {
      "id": 2,
      "content": "[SEP]",
      "single_word": false,
      "lstrip": false,
      "rstrip": false,
      "normalized": false,
      "special": true
    },
    {
      "id": 3,
      "content": "[PAD]",
      "single_word": false,
      "lstrip": false,
      "rstrip": false,
      "normalized": false,
      "special": true
    },
    {
      "id": 4,
      "content": "[MASK]",
      "single_word": false,
      "lstrip": false,
      "rstrip": false,
      "normalized": false,
      "special": true
    }
  ],
  "normalizer": {
    "type": "Sequence",
    "normalizers": [
      {
        "type": "NFKC"
      },
      {
        "type": "Replace",
        "pattern": {
          "Regex": "\\s+"
        },
        "content": " "
      },
      {
        "type": "Lowercase"
      }
    ]
  },
  "pre_tokenizer": {
    "type": "Metaspace",
    "replacement": "▁",
    "prepend_scheme": "always",
    "split": true
  },
  "post_processor": {
    "type": "TemplateProcessing",
    "single": [
      {
        "SpecialToken": {
          "id": "[CLS]",
          "type_id": 0
        }
      },
      {
        "Sequence": {
          "id": "A",
          "type_id": 0
        }
      },
      {
        "SpecialToken": {
          "id": "[SEP]",
          "type_id": 0
        }
      }
    ],
    "pair": [
      {
        "SpecialToken": {
          "id": "[CLS]",
          "type_id": 0
        }
      },
      {
        "Sequence": {
          "id": "A",
          "type_id": 0
        }
      },
      {
        "SpecialToken": {
          "id": "[SEP]",
          "type_id": 0
        }
      },
      {
        "Sequence": {
          "id": "B",
          "type_id": 0
        }
      },
      {
        "SpecialToken": {
          "id": "[SEP]",
          "type_id": 0
        }
      }
    ],
    "special_tokens": {
      "[CLS]": {
        "id": "[CLS]",
        "ids": [
          1
        ],
        "tokens": [
          "[CLS]"
        ]
      },
      "[SEP]": {
        "id": "[SEP]",
        "ids": [
          2
        ],
        "tokens": [
          "[SEP]"
        ]
      }
    }
  },
  "decoder": {
    "type": "Metaspace",
    "replacement": "▁",
    "prepend_scheme": "always",
    "split": true
  },
  "model": {
    "type": "BPE",
    "dropout": null,
    "unk_token": "[UNK]",
    "continuing_subword_prefix": null,
    "end_of_word_suffix": null,
    "fuse_unk": false,
    "byte_fallback": false,
    "ignore_merges": false,
    "vocab": {
      "[UNK]": 0,
      "[CLS]": 1,
      "[SEP]": 2,
      "[PAD]": 3,
      "[MASK]": 4,
      "!": 5,
      "\"": 6,
      "#": 7,
      "$": 8,
      "%": 9,
      "&": 10,
      "'": 11,
      "(": 12,
      ")": 13,
      "*": 14,
      "+": 15,
      ",": 16,
      "-": 17,
      ".": 18,
      "/": 19,
      "0": 20,
      "1": 21,
      "2": 22,
      "3": 23,
      "4": 24,
      "5": 25,
      "6": 26,
      "7": 27,
      "8": 28,
      "9": 29,
      ":": 30,
      ";": 31,
      "<": 32,
      "=": 33,
      ">": 34,
      "?": 35,
      "@": 36,
      "[": 37,
      "\\": 38,
      "]": 39,
      "^": 40,
      "_": 41,
      "a": 42,
      "b": 43,
      "c": 44,
      "d": 45,
      "e": 46,
      "f": 47,
      "g": 48,
      "h": 49,
      "i": 50,
      "j": 51,
      "k": 52,
      "l": 53,
      "m": 54,
      "n": 55,
      "o": 56,
      "p": 57,
      "q": 58,
      "r": 59,
      "s": 60,
      "t": 61,
      "u": 62,
      "v": 63,
      "w": 64,
      "x": 65,
      "y": 66,
      "z": 67,
      "{": 68,
      "|": 69,
      "}": 70,
      "~": 71,
      "": 72,
      "": 73,
      "": 74,
      "": 75,
      "": 76,
      "¡": 77,
      "¢": 78,
      "£": 79,
      "¤": 80,
      "¥": 81,
      "¦": 82,
      "§": 83,
      "©": 84,
      "¬": 85,
      "­": 86,
      "®": 87,
      "°": 88,
      "±": 89,
      "¶": 90,
      "·": 91,
      "¿": 92,
      "×": 93,
      "ß": 94,
      "à": 95,
      "á": 96,
      "â": 97,
      "ã": 98,
      "ä": 99,
      "å": 100,
      "æ": 101,
      "ç": 102,
      "è": 103,
      "é": 104,
      "ê": 105,
      "ë": 106,
      "ì": 107,
      "í": 108,
      "î": 109,
      "ï": 110,
      "ð": 111,
      "ñ": 112,
      "ò": 113,
      "ó": 114,
      "ô": 115,
      "õ": 116,
      "ö": 117,
      "÷": 118,
      "ø": 119,
      "ù": 120,
      "ú": 121,
      "û": 122,
      "ü": 123,
      "ý": 124,
      "þ": 125,
      "ÿ": 126,
      "ā": 127,
      "ă": 128,
      "ą": 129,
      "ć": 130,
      "ċ": 131,
      "č": 132,
      "ď": 133,
      "đ": 134,
      "ē": 135,
      "ĕ": 136,
      "ė": 137,
      "ę": 138,
      "ě": 139,
      "ĝ": 140,
      "ğ": 141,
      "ġ": 142,
      "ģ": 143,
      "ĥ": 144,
      "ħ": 145,
      "ĩ": 146,
      "ī": 147,
      "ĭ": 148,
      "į": 149,
      "ı": 150,
      "ķ": 151,
      "ļ": 152,
      "ľ": 153,
      "ł": 154,
      "ń": 155,
      "ņ": 156,
      "ň": 157,
      "ŋ": 158,
      "ō": 159,
      "ŏ": 160,
      "ő": 161,
      "œ": 162,
      "ŕ": 163,
      "ř": 164,
      "ś": 165,
      "ŝ": 166,
      "ş": 167,
      "š": 168,
      "ţ": 169,
      "ť": 170,
      "ũ": 171,
      "ū": 172,
      "ŭ": 173,
      "ů": 174,
      "ű": 175,
      "ų": 176,
      "ŵ": 177,
      "ŷ": 178,
      "ź": 179,
      "ż": 180,
      "ž": 181,
      "ƌ": 182,
      "ƒ": 183,
      "ƕ": 184,
      "ƙ": 185,
      "ơ": 186,
      "ư": 187,
      "ǎ": 188,
      "ǐ": 189,
      "ǒ": 190,
      "ǔ": 191,
      "ǘ": 192,
      "ǚ": 193,
      "ǜ": 194,
      "ǟ": 195,
      "ǡ": 196,
      "ǣ": 197,
      "ǧ": 198,
      "ǫ": 199,
      "ǹ": 200,
      "ǻ": 201,
      "ȁ": 202,
      "ȃ": 203,
      "ș": 204,
      "ț": 205,
      "ȝ": 206,
      "ȧ": 207,
      "ɂ": 208,
      "ɉ": 209,
      "ɏ": 210,
      "ɐ": 211,
      "ɑ": 212,
      "ɒ": 213,
      "ɔ": 214,
      "ɕ": 215,
      "ɗ": 216,
      "ɘ": 217,
      "ə": 218,
      "ɛ": 219,
      "ɡ": 220,
      "ɣ": 221,
      "ɦ": 222,
      "ɨ": 223,
      "ɩ": 224,
      "ɪ": 225,
      "ɫ": 226,
      "ɬ": 227,
      "ɯ": 228,
      "ɲ": 229,
      "ɳ": 230,
      "ɶ": 231,
      "ɷ": 232,
      "ɸ": 233,
      "ɹ": 234,
      "ɺ": 235,
      "ʀ": 236,
      "ʁ": 237,
      "ʃ": 238,
      "ʊ": 239,
      "ʋ": 240,
      "ʌ": 241,
      "ʎ": 242,
      "ʏ": 243,
      "ʐ": 244,
      "ʒ": 245,
      "ʔ": 246,
      "ʕ": 247,
      "ʘ": 248,
      "ʻ": 249,
      "ʽ": 250,
      "ʾ": 251,
      "ʿ": 252,
      "ˀ": 253,
      "ˆ": 254,
      "ˇ": 255,
      "ˈ": 256,
      "ˊ": 257,
      "ˋ": 258,
      "ˌ": 259,
      "ˍ": 260,
      "ː": 261,
      "˹": 262,
      "˺": 263,
      "̀": 264,
      "́": 265,
      "̃": 266,
      "̄": 267,
      "̆": 268,
      "̇": 269,
      "̈": 270,
      "̉": 271,
      "̊": 272,
      "̋": 273,
      "̌": 274,
      "̍": 275,
      "̎": 276,
      "̏": 277,
      "̐": 278,
      "̑": 279,
      "̒": 280,
      "̓": 281,
      "̔": 282,
      "̕": 283,
      "̖": 284,
      "̗": 285,
      "̘": 286,
      "̙": 287,
      "̚": 288,
      "̛": 289,
      "̜": 290,
      "̝": 291,
      "̞": 292,
      "̟": 293,
      "̠": 294,
      "̢": 295,
      "̣": 296,
      "̤": 297,
      "̥": 298,
      "̦": 299,
      "̧": 300,
      "̨": 301,
      "̩": 302,
      "̪": 303,
      "̫": 304,
      "̬": 305,
      "̭": 306,
      "̮": 307,
      "̯": 308,
      "̰": 309,
      "̱": 310,
      "̲": 311,
      "̳": 312,
      "̴": 313,
      "̵": 314,
      "̶": 315,
      "̷": 316,
      "̸": 317,
      "̹": 318,
      "̺": 319,
      "̻": 320,
      "̽": 321,
      "̾": 322,
      "̿": 323,
      "͂": 324,
      "ͅ": 325,
      "͆": 326,
      "͇": 327,
      "͈": 328,
      "͉": 329,
      "͊": 330,
      "͋": 331,
      "͍": 332,
      "͎": 333,
      "͑": 334,
      "͒": 335,
      "͓": 336,
      "͕": 337,
      "͖": 338,
      "͗": 339,
      "͘": 340,
      "͙": 341,
      "͚": 342,
      "͛": 343,
      "͜": 344,
      "͝": 345,
      "͠": 346,
      "͡": 347,
      "ͼ": 348,
      "ά": 349,
      "έ": 350,
      "ή": 351,
      "ί": 352,
      "α": 353,
      "β": 354,
      "γ": 355,
      "δ": 356,
      "ε": 357,
      "ζ": 358,
      "η": 359,
      "θ": 360,
      "ι": 361,
      "κ": 362,
      "λ": 363,
      "μ": 364,
      "ν": 365,
      "ξ": 366,
      "ο": 367,
      "π": 368,
      "ρ": 369,
      "ς": 370,
      "σ": 371,
      "τ": 372,
      "υ": 373,
      "φ": 374,
      "χ": 375,
      "ψ": 376,
      "ω": 377,
      "ό": 378,
      "ύ": 379,
      "ώ": 380,
      "а": 381,
      "б": 382,
      "в": 383,
      "г": 384,
      "д": 385,
      "е": 386,
      "ж": 387,
      "з": 388,
      "и": 389,
      "й": 390,
      "к": 391,
      "л": 392,
      "м": 393,
      "н": 394,
      "о": 395,
      "п": 396,
      "р": 397,
      "с": 398,
      "т": 399,
      "у": 400,
      "х": 401,
      "ц": 402,
      "ч": 403,
      "ш": 404,
      "ъ": 405,
      "ы": 406,
      "ь": 407,
      "э": 408,
      "ю": 409,
      "я": 410,
      "ё": 411,
      "ђ": 412,
      "є": 413,
      "і": 414,
      "ї": 415,
      "ј": 416,
      "ћ": 417,
      "ѧ": 418,
      "ҫ": 419,
      "ұ": 420,
      "ҳ": 421,
      "ҷ": 422,
      "ә": 423,
      "ө": 424,
      "ա": 425,
      "ե": 426,
      "հ": 427,
      "յ": 428,
      "ն": 429,
      "ր": 430,
      "֮": 431,
      "ְ": 432,
      "ֲ": 433,
      "ִ": 434,
      "ֶ": 435,
      "ַ": 436,
      "ָ": 437,
      "ֹ": 438,
      "ּ": 439,
      "א": 440,
      "ב": 441,
      "ג": 442,
      "ד": 443,
      "ה": 444,
      "ו": 445,
      "ח": 446,
      "ט": 447,
      "י": 448,
      "ך": 449,
      "כ": 450,
      "ל": 451,
      "ם": 452,
      "מ": 453,
      "ן": 454,
      "נ": 455,
      "ס": 456,
      "ע": 457,
      "פ": 458,
      "צ": 459,
      "ר": 460,
      "ש": 461,
      "ת": 462,
      "״": 463,
      "؟": 464,
      "ء": 465,
      "آ": 466,
      "أ": 467,
      "إ": 468,
      "ئ": 469,
      "ا": 470,
      "ب": 471,
      "ة": 472,
      "ت": 473,
      "ث": 474,
      "ج": 475,
      "ح": 476,
      "خ": 477,
      "د": 478,
      "ذ": 479,
      "ر": 480,
      "ز": 481,
      "س": 482,
      "ش": 483,
      "ص": 484,
      "ض": 485,
      "ط": 486,
      "ظ": 487,
      "ع": 488,
      "غ": 489,
      "ـ": 490,
      "ف": 491,
      "ق": 492,
      "ك": 493,
      "ل": 494,
      "م": 495,
      "ن": 496,
      "ه": 497,
      "و": 498,
      "ى": 499,
      "ي": 500,
      "ً": 501,
      "ٌ": 502,
      "ٍ": 503,
      "َ": 504,
      "ُ": 505,
      "ِ": 506,
      "ّ": 507,
      "ْ": 508,
      "ٓ": 509,
      "ٔ": 510,
      "١": 511,
      "٢": 512,
      "٤": 513,
      "٥": 514,
      "٦": 515,
      "٧": 516,
      "٨": 517,
      "٩": 518,
      "ٰ": 519,
      "ٱ": 520,
      "چ": 521,
      "ڠ": 522,
      "ک": 523,
      "گ": 524,
      "ں": 525,
      "ھ": 526,
      "ہ": 527,
      "ی": 528,
      "ۖ": 529,
      "ۗ": 530,
      "ۚ": 531,
      "۝": 532,
      "ۢ": 533,
      "ۥ": 534,
      "ۦ": 535,
      "ۭ": 536,
      "އ": 537,
      "މ": 538,
      "ލ": 539,
      "ސ": 540,
      "ޤ": 541,
      "ަ": 542,
      "ާ": 543,
      "ީ": 544,
      "ު": 545,
      "ް": 546,
      "ँ": 547,
      "ं": 548,
      "ः": 549,
      "अ": 550,
      "आ": 551,
      "इ": 552,
      "ई": 553,
      "उ": 554,
      "ऊ": 555,
      "ए": 556,
      "ऐ": 557,
      "ओ": 558,
      "औ": 559,
      "क": 560,
      "ख": 561,
      "ग": 562,
      "घ": 563,
      "च": 564,
      "छ": 565,
      "ज": 566,
      "झ": 567,
      "ञ": 568,
      "ट": 569,
      "ठ": 570,
      "ड": 571,
      "ढ": 572,
      "ण": 573,
      "त": 574,
      "थ": 575,
      "द": 576,
      "ध": 577,
      "न": 578,
      "प": 579,
      "फ": 580,
      "ब": 581,
      "भ": 582,
      "म": 583,
      "य": 584,
      "र": 585,
      "ऱ": 586,
      "ल": 587,
      "ळ": 588,
      "व": 589,
      "श": 590,
      "ष": 591,
      "स": 592,
      "ह": 593,
      "़": 594,
      "ा": 595,
      "ि": 596,
      "ी": 597,
      "ु": 598,
      "ू": 599,
      "ृ": 600,
      "ॅ": 601,
      "े": 602,
      "ै": 603,
      "ॉ": 604,
      "ो": 605,
      "ौ": 606,
      "्": 607,
      "ॐ": 608,
      "।": 609,
      "॥": 610,
      "०": 611,
      "१": 612,
      "२": 613,
      "३": 614,
      "४": 615,
      "५": 616,
      "६": 617,
      "७": 618,
      "८": 619,
      "९": 620,
      "ং": 621,
      "অ": 622,
      "আ": 623,
      "উ": 624,
      "ও": 625,
      "ক": 626,
      "গ": 627,
      "ছ": 628,
      "জ": 629,
      "ট": 630,
      "ড": 631,
      "ণ": 632,
      "ত": 633,
      "থ": 634,
      "দ": 635,
      "ধ": 636,
      "ন": 637,
      "প": 638,
      "ফ": 639,
      "ব": 640,
      "ম": 641,
      "য": 642,
      "র": 643,
      "ল": 644,
      "শ": 645,
      "স": 646,
      "হ": 647,
      "়": 648,
      "া": 649,
      "ি": 650,
      "ী": 651,
      "ু": 652,
      "ূ": 653,
      "ে": 654,
      "ৈ": 655,
      "ো": 656,
      "্": 657,
      "২": 658,
      "৩": 659,
      "৲": 660,
      "৳": 661,
      "ਂ": 662,
      "ਅ": 663,
      "ਆ": 664,
      "ਉ": 665,
      "ਕ": 666,
      "ਖ": 667,
      "ਗ": 668,
      "ਚ": 669,
      "ਜ": 670,
      "ਟ": 671,
      "ਠ": 672,
      "ਡ": 673,
      "ਣ": 674,
      "ਤ": 675,
      "ਥ": 676,
      "ਦ": 677,
      "ਨ": 678,
      "ਪ": 679,
      "ਫ": 680,
      "ਬ": 681,
      "ਰ": 682,
      "ਲ": 683,
      "ਵ": 684,
      "ਸ": 685,
      "ਹ": 686,
      "਼": 687,
      "ਾ": 688,
      "ਿ": 689,
      "ੀ": 690,
      "ੁ": 691,
      "ੇ": 692,
      "ੋ": 693,
      "੍": 694,
      "ੱ": 695,
      "ં": 696,
      "અ": 697,
      "આ": 698,
      "એ": 699,
      "ઓ": 700,
      "ક": 701,
      "ખ": 702,
      "ગ": 703,
      "ચ": 704,
      "છ": 705,
      "જ": 706,
      "ટ": 707,
      "ણ": 708,
      "ત": 709,
      "થ": 710,
      "દ": 711,
      "ધ": 712,
      "ન": 713,
      "પ": 714,
      "બ": 715,
      "મ": 716,
      "ય": 717,
      "ર": 718,
      "લ": 719,
      "વ": 720,
      "હ": 721,
      "ા": 722,
      "િ": 723,
      "ી": 724,
      "ુ": 725,
      "ે": 726,
      "ો": 727,
      "્": 728,
      "૫": 729,
      "ଁ": 730,
      "ଂ": 731,
      "ଃ": 732,
      "ଅ": 733,
      "ଆ": 734,
      "ଇ": 735,
      "ଉ": 736,
      "ଏ": 737,
      "ଓ": 738,
      "କ": 739,
      "ଖ": 740,
      "ଗ": 741,
      "ଘ": 742,
      "ଙ": 743,
      "ଚ": 744,
      "ଛ": 745,
      "ଜ": 746,
      "ଝ": 747,
      "ଞ": 748,
      "ଟ": 749,
      "ଠ": 750,
      "ଡ": 751,
      "ଢ": 752,
      "ଣ": 753,
      "ତ": 754,
      "ଥ": 755,
      "ଦ": 756,
      "ଧ": 757,
      "ନ": 758,
      "ପ": 759,
      "ଫ": 760,
      "ବ": 761,
      "ଭ": 762,
      "ମ": 763,
      "ଯ": 764,
      "ର": 765,
      "ଲ": 766,
      "ଳ": 767,
      "ଵ": 768,
      "ଶ": 769,
      "ଷ": 770,
      "ସ": 771,
      "ହ": 772,
      "଼": 773,
      "ା": 774,
      "ି": 775,
      "ୀ": 776,
      "ୁ": 777,
      "ୂ": 778,
      "ୃ": 779,
      "େ": 780,
      "ୋ": 781,
      "ୌ": 782,
      "୍": 783,
      "ୟ": 784,
      "ୱ": 785,
      "அ": 786,
      "ஆ": 787,
      "இ": 788,
      "உ": 789,
      "எ": 790,
      "ஐ": 791,
      "ஒ": 792,
      "ஓ": 793,
      "க": 794,
      "ங": 795,
      "ச": 796,
      "ஜ": 797,
      "ஞ": 798,
      "ட": 799,
      "ண": 800,
      "த": 801,
      "ந": 802,
      "ன": 803,
      "ப": 804,
      "ம": 805,
      "ய": 806,
      "ர": 807,
      "ற": 808,
      "ல": 809,
      "ள": 810,
      "ழ": 811,
      "வ": 812,
      "ஸ": 813,
      "ஹ": 814,
      "ா": 815,
      "ி": 816,
      "ீ": 817,
      "ு": 818,
      "ூ": 819,
      "ெ": 820,
      "ே": 821,
      "ை": 822,
      "ொ": 823,
      "ோ": 824,
      "்": 825,
      "ం": 826,
      "అ": 827,
      "ఆ": 828,
      "ఇ": 829,
      "ఉ": 830,
      "ఎ": 831,
      "ఏ": 832,
      "ఐ": 833,
      "ఒ": 834,
      "క": 835,
      "ఖ": 836,
      "గ": 837,
      "చ": 838,
      "జ": 839,
      "ట": 840,
      "ఠ": 841,
      "డ": 842,
      "ణ": 843,
      "త": 844,
      "ద": 845,
      "న": 846,
      "ప": 847,
      "బ": 848,
      "భ": 849,
      "మ": 850,
      "య": 851,
      "ర": 852,
      "ల": 853,
      "ళ": 854,
      "వ": 855,
      "శ": 856,
      "ష": 857,
      "స": 858,
      "హ": 859,
      "ా": 860,
      "ి": 861,
      "ీ": 862,
      "ు": 863,
      "ూ": 864,
      "ె": 865,
      "ే": 866,
      "ై": 867,
      "ొ": 868,
      "ో": 869,
      "్": 870,
      "ಂ": 871,
      "ಃ": 872,
      "ಅ": 873,
      "ಆ": 874,
      "ಇ": 875,
      "ಈ": 876,
      "ಉ": 877,
      "ಋ": 878,
      "ಎ": 879,
      "ಏ": 880,
      "ಐ": 881,
      "ಒ": 882,
      "ಓ": 883,
      "ಕ": 884,
      "ಖ": 885,
      "ಗ": 886,
      "ಚ": 887,
      "ಜ": 888,
      "ಟ": 889,
      "ಠ": 890,
      "ಡ": 891,
      "ಣ": 892,
      "ತ": 893,
      "ಥ": 894,
      "ದ": 895,
      "ಧ": 896,
      "ನ": 897,
      "ಪ": 898,
      "ಬ": 899,
      "ಭ": 900,
      "ಮ": 901,
      "ಯ": 902,
      "ರ": 903,
      "ಲ": 904,
      "ಳ": 905,
      "ವ": 906,
      "ಶ": 907,
      "ಷ": 908,
      "ಸ": 909,
      "ಹ": 910,
      "ಾ": 911,
      "ಿ": 912,
      "ೀ": 913,
      "ು": 914,
      "ೂ": 915,
      "ೃ": 916,
      "ೆ": 917,
      "ೇ": 918,
      "ೈ": 919,
      "ೊ": 920,
      "ೋ": 921,
      "್": 922,
      "ක": 923,
      "ජ": 924,
      "ට": 925,
      "ඩ": 926,
      "ණ": 927,
      "ත": 928,
      "න": 929,
      "බ": 930,
      "ම": 931,
      "ය": 932,
      "ර": 933,
      "ල": 934,
      "ව": 935,
      "ස": 936,
      "්": 937,
      "ා": 938,
      "ි": 939,
      "ෙ": 940,
      "ේ": 941,
      "ො": 942,
      "ෝ": 943,
      "ก": 944,
      "ข": 945,
      "ง": 946,
      "จ": 947,
      "ช": 948,
      "ซ": 949,
      "ด": 950,
      "ต": 951,
      "ถ": 952,
      "ท": 953,
      "ธ": 954,
      "น": 955,
      "บ": 956,
      "ป": 957,
      "พ": 958,
      "ภ": 959,
      "ม": 960,
      "ย": 961,
      "ร": 962,
      "ฤ": 963,
      "ล": 964,
      "ว": 965,
      "ศ": 966,
      "ส": 967,
      "ห": 968,
      "อ": 969,
      "ะ": 970,
      "ั": 971,
      "า": 972,
      "ิ": 973,
      "ี": 974,
      "ุ": 975,
      "ู": 976,
      "เ": 977,
      "แ": 978,
      "โ": 979,
      "ไ": 980,
      "็": 981,
      "่": 982,
      "้": 983,
      "์": 984,
      "ํ": 985,
      "་": 986,
      "།": 987,
      "စ": 988,
      "ဗ": 989,
      "မ": 990,
      "ာ": 991,
      "၄": 992,
      "၈": 993,
      "ა": 994,
      "ე": 995,
      "თ": 996,
      "ი": 997,
      "ლ": 998,
      "ნ": 999,
      "რ": 1000,
      "უ": 1001,
      "ქ": 1002,
      "ᄂ": 1003,
      "ᐃ": 1004,
      "ᐱ": 1005,
      "ᐳ": 1006,
      "ᐸ": 1007,
      "ᑎ": 1008,
      "ᑐ": 1009,
      "ᑕ": 1010,
      "ᑦ": 1011,
      "ᒃ": 1012,
      "ᓄ": 1013,
      "ᓗ": 1014,
      "ᖃ": 1015,
      "ក": 1016,
      "ខ": 1017,
      "គ": 1018,
      "ដ": 1019,
      "ព": 1020,
      "ភ": 1021,
      "ម": 1022,
      "រ": 1023,
      "ស": 1024,
      "ា": 1025,
      "ើ": 1026,
      "ែ": 1027,
      "ៃ": 1028,
      "្": 1029,
      "០": 1030,
      "១": 1031,
      "២": 1032,
      "៣": 1033,
      "៤": 1034,
      "៥": 1035,
      "៦": 1036,
      "៧": 1037,
      "៨": 1038,
      "៩": 1039,
      "ᶏ": 1040,
      "ḁ": 1041,
      "ḇ": 1042,
      "ḋ": 1043,
      "ḍ": 1044,
      "ḏ": 1045,
      "ḗ": 1046,
      "ḙ": 1047,
      "ḡ": 1048,
      "ḥ": 1049,
      "ḫ": 1050,
      "ḱ": 1051,
      "ḵ": 1052,
      "ḷ": 1053,
      "ḻ": 1054,
      "ṁ": 1055,
      "ṃ": 1056,
      "ṅ": 1057,
      "ṇ": 1058,
      "ṉ": 1059,
      "ṓ": 1060,
      "ṗ": 1061,
      "ṙ": 1062,
      "ṛ": 1063,
      "ṟ": 1064,
      "ṣ": 1065,
      "ṫ": 1066,
      "ṭ": 1067,
      "ṯ": 1068,
      "ṱ": 1069,
      "ṳ": 1070,
      "ẏ": 1071,
      "ẓ": 1072,
      "ạ": 1073,
      "ả": 1074,
      "ấ": 1075,
      "ầ": 1076,
      "ẩ": 1077,
      "ẫ": 1078,
      "ậ": 1079,
      "ắ": 1080,
      "ằ": 1081,
      "ẳ": 1082,
      "ẵ": 1083,
      "ặ": 1084,
      "ẹ": 1085,
      "ẻ": 1086,
      "ẽ": 1087,
      "ế": 1088,
      "ề": 1089,
      "ể": 1090,
      "ễ": 1091,
      "ệ": 1092,
      "ỉ": 1093,
      "ị": 1094,
      "ọ": 1095,
      "ỏ": 1096,
      "ố": 1097,
      "ồ": 1098,
      "ộ": 1099,
      "ớ": 1100,
      "ờ": 1101,
      "ở": 1102,
      "ợ": 1103,
      "ụ": 1104,
      "ủ": 1105,
      "ứ": 1106,
      "ừ": 1107,
      "ữ": 1108,
      "ự": 1109,
      "ỳ": 1110,
      "ỹ": 1111,
      "ἀ": 1112,
      "ἄ": 1113,
      "ἐ": 1114,
      "ἑ": 1115,
      "ἔ": 1116,
      "ἕ": 1117,
      "ἡ": 1118,
      "ἤ": 1119,
      "ἥ": 1120,
      "ἰ": 1121,
      "ἱ": 1122,
      "ἴ": 1123,
      "ἶ": 1124,
      "ὀ": 1125,
      "ὐ": 1126,
      "ὑ": 1127,
      "ὕ": 1128,
      "ὰ": 1129,
      "ὲ": 1130,
      "ῃ": 1131,
      "ῆ": 1132,
      "ῇ": 1133,
      "ῖ": 1134,
      "ῥ": 1135,
      "ῦ": 1136,
      "ῶ": 1137,
      "ῷ": 1138,
      "​": 1139,
      "‌": 1140,
      "‍": 1141,
      "‎": 1142,
      "‏": 1143,
      "‐": 1144,
      "―": 1145,
      "‖": 1146,
      "†": 1147,
      "‡": 1148,
      "•": 1149,
      "‭": 1150,
      "‰": 1151,
      "′": 1152,
      "‹": 1153,
      "›": 1154,
      "※": 1155,
      "‿": 1156,
      "⁂": 1157,
      "⁄": 1158,
      "⁎": 1159,
      "⁠": 1160,
      "⁣": 1161,
      "₡": 1162,
      "₤": 1163,
      "₩": 1164,
      "€": 1165,
      "₮": 1166,
      "₴": 1167,
      "₵": 1168,
      "₹": 1169,
      "₽": 1170,
      "⃣": 1171,
      "←": 1172,
      "↑": 1173,
      "→": 1174,
      "↓": 1175,
      "↔": 1176,
      "↗": 1177,
      "↫": 1178,
      "↵": 1179,
      "⇆": 1180,
      "⇒": 1181,
      "⇱": 1182,
      "∂": 1183,
      "∆": 1184,
      "∇": 1185,
      "∈": 1186,
      "−": 1187,
      "∕": 1188,
      "∗": 1189,
      "∘": 1190,
      "∙": 1191,
      "√": 1192,
      "∝": 1193,
      "∞": 1194,
      "∟": 1195,
      "∠": 1196,
      "∧": 1197,
      "∨": 1198,
      "∪": 1199,
      "∴": 1200,
      "∵": 1201,
      "∶": 1202,
      "∷": 1203,
      "∼": 1204,
      "≈": 1205,
      "≌": 1206,
      "≠": 1207,
      "≡": 1208,
      "≤": 1209,
      "≥": 1210,
      "≧": 1211,
      "⊆": 1212,
      "⊇": 1213,
      "⊕": 1214,
      "⊙": 1215,
      "⋅": 1216,
      "⋯": 1217,
      "⌈": 1218,
      "⌉": 1219,
      "⌊": 1220,
      "⌋": 1221,
      "⌒": 1222,
      "⌘": 1223,
      "─": 1224,
      "━": 1225,
      "│": 1226,
      "┅": 1227,
      "├": 1228,
      "═": 1229,
      "╳": 1230,
      "▁": 1231,
      "█": 1232,
      "▔": 1233,
      "■": 1234,
      "□": 1235,
      "▪": 1236,
      "▲": 1237,
      "△": 1238,
      "▶": 1239,
      "►": 1240,
      "▼": 1241,
      "◀": 1242,
      "◆": 1243,
      "◇": 1244,
      "◉": 1245,
      "◊": 1246,
      "○": 1247,
      "◎": 1248,
      "●": 1249,
      "◢": 1250,
      "◤": 1251,
      "◦": 1252,
      "◻": 1253,
      "☀": 1254,
      "☁": 1255,
      "☄": 1256,
      "★": 1257,
      "☆": 1258,
      "☉": 1259,
      "☐": 1260,
      "☺": 1261,
      "☻": 1262,
      "♀": 1263,
      "♂": 1264,
      "♒": 1265,
      "♠": 1266,
      "♡": 1267,
      "♢": 1268,
      "♣": 1269,
      "♥": 1270,
      "♦": 1271,
      "♬": 1272,
      "♭": 1273,
      "♯": 1274,
      "⚠": 1275,
      "✂": 1276,
      "✓": 1277,
      "✔": 1278,
      "✗": 1279,
      "✙": 1280,
      "✩": 1281,
      "✭": 1282,
      "✯": 1283,
      "✿": 1284,
      "❄": 1285,
      "❌": 1286,
      "❏": 1287,
      "❗": 1288,
      "➙": 1289,
      "➜": 1290,
      "➤": 1291,
      "➨": 1292,
      "⟨": 1293,
      "⟩": 1294,
      "⠀": 1295,
      "⠅": 1296,
      "⠇": 1297,
      "⠑": 1298,
      "⠓": 1299,
      "⠙": 1300,
      "⠠": 1301,
      "⠢": 1302,
      "⠻": 1303,
      "⧼": 1304,
      "⧽": 1305,
      "⬄": 1306,
      "ⱥ": 1307,
      "ⴰ": 1308,
      "ⴱ": 1309,
      "ⵉ": 1310,
      "ⵍ": 1311,
      "ⵎ": 1312,
      "ⵏ": 1313,
      "ⵓ": 1314,
      "ⵔ": 1315,
      "ⵖ": 1316,
      "ⵜ": 1317,
      "⺠": 1318,
      "⻐": 1319,
      "、": 1320,
      "。": 1321,
      "〇": 1322,
      "〈": 1323,
      "〉": 1324,
      "《": 1325,
      "》": 1326,
      "「": 1327,
      "」": 1328,
      "『": 1329,
      "』": 1330,
      "【": 1331,
      "】": 1332,
      "〔": 1333,
      "〕": 1334,
      "〜": 1335,
      "あ": 1336,
      "か": 1337,
      "が": 1338,
      "き": 1339,
      "く": 1340,
      "け": 1341,
      "げ": 1342,
      "こ": 1343,
      "さ": 1344,
      "ざ": 1345,
      "し": 1346,
      "せ": 1347,
      "そ": 1348,
      "た": 1349,
      "だ": 1350,
      "っ": 1351,
      "で": 1352,
      "と": 1353,
      "ど": 1354,
      "な": 1355,
      "の": 1356,
      "ば": 1357,
      "ひ": 1358,
      "ぴ": 1359,
      "ふ": 1360,
      "ぽ": 1361,
      "も": 1362,
      "ら": 1363,
      "り": 1364,
      "れ": 1365,
      "ん": 1366,
      "ア": 1367,
      "イ": 1368,
      "ウ": 1369,
      "ェ": 1370,
      "ォ": 1371,
      "オ": 1372,
      "カ": 1373,
      "ガ": 1374,
      "キ": 1375,
      "グ": 1376,
      "ケ": 1377,
      "コ": 1378,
      "サ": 1379,
      "シ": 1380,
      "ジ": 1381,
      "ス": 1382,
      "ソ": 1383,
      "タ": 1384,
      "チ": 1385,
      "ッ": 1386,
      "ツ": 1387,
      "ト": 1388,
      "ド": 1389,
      "ナ": 1390,
      "ニ": 1391,
      "ノ": 1392,
      "バ": 1393,
      "ビ": 1394,
      "フ": 1395,
      "プ": 1396,
      "ミ": 1397,
      "メ": 1398,
      "ャ": 1399,
      "ュ": 1400,
      "ョ": 1401,
      "ラ": 1402,
      "リ": 1403,
      "ル": 1404,
      "ロ": 1405,
      "ン": 1406,
      "・": 1407,
      "ー": 1408,
      "ㄉ": 1409,
      "ㄏ": 1410,
      "ㄘ": 1411,
      "ㄚ": 1412,
      "ㄟ": 1413,
      "ㄣ": 1414,
      "ㄤ": 1415,
      "ㄥ": 1416,
      "ㄨ": 1417,
      "㇏": 1418,
      "㔙": 1419,
      "㠁": 1420,
      "㠂": 1421,
      "㲴": 1422,
      "䜣": 1423,
      "䜩": 1424,
      "䣭": 1425,
      "䥻": 1426,
      "䩗": 1427,
      "䴕": 1428,
      "一": 1429,
      "丁": 1430,
      "七": 1431,
      "丅": 1432,
      "万": 1433,
      "丈": 1434,
      "三": 1435,
      "上": 1436,
      "下": 1437,
      "不": 1438,
      "与": 1439,
      "丐": 1440,
      "丑": 1441,
      "专": 1442,
      "且": 1443,
      "丕": 1444,
      "世": 1445,
      "丘": 1446,
      "丙": 1447,
      "业": 1448,
      "丛": 1449,
      "东": 1450,
      "丝": 1451,
      "丞": 1452,
      "丟": 1453,
      "丢": 1454,
      "两": 1455,
      "严": 1456,
      "並": 1457,
      "丧": 1458,
      "丨": 1459,
      "个": 1460,
      "丫": 1461,
      "丬": 1462,
      "中": 1463,
      "丰": 1464,
      "串": 1465,
      "临": 1466,
      "丶": 1467,
      "丷": 1468,
      "丸": 1469,
      "丹": 1470,
      "为": 1471,
      "主": 1472,
      "丽": 1473,
      "举": 1474,
      "丿": 1475,
      "乂": 1476,
      "乃": 1477,
      "久": 1478,
      "么": 1479,
      "义": 1480,
      "之": 1481,
      "乌": 1482,
      "乍": 1483,
      "乎": 1484,
      "乏": 1485,
      "乐": 1486,
      "乒": 1487,
      "乓": 1488,
      "乔": 1489,
      "乖": 1490,
      "乘": 1491,
      "乙": 1492,
      "乜": 1493,
      "九": 1494,
      "乞": 1495,
      "也": 1496,
      "习": 1497,
      "乡": 1498,
      "书": 1499,
      "乩": 1500,
      "买": 1501,
      "乱": 1502,
      "乳": 1503,
      "乾": 1504,
      "亀": 1505,
      "了": 1506,
      "予": 1507,
      "争": 1508,
      "事": 1509,
      "二": 1510,
      "于": 1511,
      "亏": 1512,
      "云": 1513,
      "互": 1514,
      "亓": 1515,
      "五": 1516,
      "井": 1517,
      "亘": 1518,
      "亚": 1519,
      "些": 1520,
      "亞": 1521,
      "亟": 1522,
      "亡": 1523,
      "亢": 1524,
      "交": 1525,
      "亥": 1526,
      "亦": 1527,
      "产": 1528,
      "亨": 1529,
      "亩": 1530,
      "享": 1531,
      "京": 1532,
      "亭": 1533,
      "亮": 1534,
      "亲": 1535,
      "亳": 1536,
      "亵": 1537,
      "亶": 1538,
      "人": 1539,
      "亻": 1540,
      "亿": 1541,
      "什": 1542,
      "仁": 1543,
      "仃": 1544,
      "仄": 1545,
      "仅": 1546,
      "仆": 1547,
      "仇": 1548,
      "仉": 1549,
      "今": 1550,
      "介": 1551,
      "仍": 1552,
      "从": 1553,
      "仑": 1554,
      "仓": 1555,
      "仔": 1556,
      "仕": 1557,
      "他": 1558,
      "仗": 1559,
      "付": 1560,
      "仙": 1561,
      "仝": 1562,
      "仞": 1563,
      "仡": 1564,
      "代": 1565,
      "令": 1566,
      "以": 1567,
      "仨": 1568,
      "仪": 1569,
      "们": 1570,
      "仮": 1571,
      "仰": 1572,
      "仲": 1573,
      "仵": 1574,
      "件": 1575,
      "价": 1576,
      "任": 1577,
      "份": 1578,
      "仿": 1579,
      "企": 1580,
      "伉": 1581,
      "伊": 1582,
      "伍": 1583,
      "伎": 1584,
      "伏": 1585,
      "伐": 1586,
      "休": 1587,
      "伕": 1588,
      "众": 1589,
      "优": 1590,
      "伙": 1591,
      "会": 1592,
      "伝": 1593,
      "伞": 1594,
      "伟": 1595,
      "传": 1596,
      "伢": 1597,
      "伤": 1598,
      "伥": 1599,
      "伦": 1600,
      "伧": 1601,
      "伪": 1602,
      "伫": 1603,
      "伯": 1604,
      "估": 1605,
      "伲": 1606,
      "伴": 1607,
      "伶": 1608,
      "伸": 1609,
      "伺": 1610,
      "伻": 1611,
      "似": 1612,
      "伽": 1613,
      "佁": 1614,
      "佃": 1615,
      "但": 1616,
      "位": 1617,
      "低": 1618,
      "住": 1619,
      "佐": 1620,
      "佑": 1621,
      "体": 1622,
      "何": 1623,
      "佗": 1624,
      "佘": 1625,
      "余": 1626,
      "佚": 1627,
      "佛": 1628,
      "作": 1629,
      "佝": 1630,
      "佞": 1631,
      "佟": 1632,
      "你": 1633,
      "佢": 1634,
      "佣": 1635,
      "佤": 1636,
      "佥": 1637,
      "佩": 1638,
      "佬": 1639,
      "佯": 1640,
      "佰": 1641,
      "佳": 1642,
      "佶": 1643,
      "佺": 1644,
      "佻": 1645,
      "佼": 1646,
      "使": 1647,
      "侂": 1648,
      "侃": 1649,
      "侄": 1650,
      "來": 1651,
      "侈": 1652,
      "侉": 1653,
      "例": 1654,
      "侍": 1655,
      "侏": 1656,
      "侑": 1657,
      "侗": 1658,
      "供": 1659,
      "依": 1660,
      "侠": 1661,
      "侣": 1662,
      "侥": 1663,
      "侦": 1664,
      "侧": 1665,
      "侨": 1666,
      "侩": 1667,
      "侪": 1668,
      "侬": 1669,
      "侮": 1670,
      "侯": 1671,
      "侵": 1672,
      "便": 1673,
      "係": 1674,
      "促": 1675,
      "俄": 1676,
      "俅": 1677,
      "俊": 1678,
      "俎": 1679,
      "俏": 1680,
      "俐": 1681,
      "俑": 1682,
      "俗": 1683,
      "俘": 1684,
      "俚": 1685,
      "保": 1686,
      "俞": 1687,
      "俟": 1688,
      "信": 1689,
      "俣": 1690,
      "俨": 1691,
      "俩": 1692,
      "俪": 1693,
      "俭": 1694,
      "修": 1695,
      "俯": 1696,
      "俱": 1697,
      "俶": 1698,
      "俸": 1699,
      "俺": 1700,
      "俾": 1701,
      "個": 1702,
      "倌": 1703,
      "倍": 1704,
      "倏": 1705,
      "們": 1706,
      "倒": 1707,
      "倔": 1708,
      "倘": 1709,
      "候": 1710,
      "倚": 1711,
      "倜": 1712,
      "借": 1713,
      "倡": 1714,
      "倥": 1715,
      "倦": 1716,
      "倨": 1717,
      "倩": 1718,
      "倪": 1719,
      "倫": 1720,
      "倭": 1721,
      "倮": 1722,
      "债": 1723,
      "值": 1724,
      "倾": 1725,
      "偃": 1726,
      "假": 1727,
      "偈": 1728,
      "偌": 1729,
      "偎": 1730,
      "偏": 1731,
      "偓": 1732,
      "偕": 1733,
      "做": 1734,
      "停": 1735,
      "健": 1736,
      "偬": 1737,
      "偱": 1738,
      "側": 1739,
      "偶": 1740,
      "偷": 1741,
      "偸": 1742,
      "偻": 1743,
      "偾": 1744,
      "偿": 1745,
      "傀": 1746,
      "傅": 1747,
      "傍": 1748,
      "傑": 1749,
      "傕": 1750,
      "備": 1751,
      "傢": 1752,
      "傣": 1753,
      "傥": 1754,
      "储": 1755,
      "傩": 1756,
      "催": 1757,
      "傲": 1758,
      "傳": 1759,
      "傷": 1760,
      "傻": 1761,
      "僇": 1762,
      "像": 1763,
      "僖": 1764,
      "僚": 1765,
      "僣": 1766,
      "僦": 1767,
      "僧": 1768,
      "僭": 1769,
      "僮": 1770,
      "僰": 1771,
      "僳": 1772,
      "僵": 1773,
      "價": 1774,
      "僻": 1775,
      "儆": 1776,
      "儋": 1777,
      "儍": 1778,
      "儒": 1779,
      "償": 1780,
      "儡": 1781,
      "儵": 1782,
      "儿": 1783,
      "兀": 1784,
      "允": 1785,
      "元": 1786,
      "兄": 1787,
      "充": 1788,
      "兆": 1789,
      "先": 1790,
      "光": 1791,
      "克": 1792,
      "免": 1793,
      "兑": 1794,
      "兒": 1795,
      "兔": 1796,
      "兖": 1797,
      "党": 1798,
      "兜": 1799,
      "兢": 1800,
      "入": 1801,
      "內": 1802,
      "全": 1803,
      "兩": 1804,
      "八": 1805,
      "公": 1806,
      "六": 1807,
      "兮": 1808,
      "兰": 1809,
      "共": 1810,
      "关": 1811,
      "兴": 1812,
      "兵": 1813,
      "其": 1814,
      "具": 1815,
      "典": 1816,
      "兹": 1817,
      "养": 1818,
      "兼": 1819,
      "兽": 1820,
      "冀": 1821,
      "冂": 1822,
      "内": 1823,
      "冇": 1824,
      "冈": 1825,
      "冉": 1826,
      "册": 1827,
      "再": 1828,
      "冒": 1829,
      "冕": 1830,
      "冗": 1831,
      "写": 1832,
      "军": 1833,
      "农": 1834,
      "冠": 1835,
      "冢": 1836,
      "冤": 1837,
      "冥": 1838,
      "冫": 1839,
      "冬": 1840,
      "冯": 1841,
      "冰": 1842,
      "冱": 1843,
      "冲": 1844,
      "决": 1845,
      "况": 1846,
      "冶": 1847,
      "冷": 1848,
      "冻": 1849,
      "冼": 1850,
      "冽": 1851,
      "净": 1852,
      "凄": 1853,
      "准": 1854,
      "凇": 1855,
      "凉": 1856,
      "凋": 1857,
      "凌": 1858,
      "减": 1859,
      "凑": 1860,
      "凛": 1861,
      "凝": 1862,
      "几": 1863,
      "凡": 1864,
      "凤": 1865,
      "凫": 1866,
      "凭": 1867,
      "凯": 1868,
      "凰": 1869,
      "凳": 1870,
      "凵": 1871,
      "凶": 1872,
      "凸": 1873,
      "凹": 1874,
      "出": 1875,
      "击": 1876,
      "函": 1877,
      "凿": 1878,
      "刀": 1879,
      "刁": 1880,
      "刂": 1881,
      "刃": 1882,
      "分": 1883,
      "切": 1884,
      "刈": 1885,
      "刊": 1886,
      "刍": 1887,
      "刎": 1888,
      "刑": 1889,
      "划": 1890,
      "刓": 1891,
      "列": 1892,
      "刘": 1893,
      "则": 1894,
      "刚": 1895,
      "创": 1896,
      "初": 1897,
      "删": 1898,
      "判": 1899,
      "別": 1900,
      "刨": 1901,
      "利": 1902,
      "别": 1903,
      "刮": 1904,
      "到": 1905,
      "刳": 1906,
      "制": 1907,
      "刷": 1908,
      "券": 1909,
      "刹": 1910,
      "刺": 1911,
      "刻": 1912,
      "刽": 1913,
      "刿": 1914,
      "剁": 1915,
      "剂": 1916,
      "剃": 1917,
      "削": 1918,
      "剌": 1919,
      "前": 1920,
      "剐": 1921,
      "剑": 1922,
      "剔": 1923,
      "剖": 1924,
      "剜": 1925,
      "剡": 1926,
      "剥": 1927,
      "剧": 1928,
      "剩": 1929,
      "剪": 1930,
      "副": 1931,
      "割": 1932,
      "創": 1933,
      "剽": 1934,
      "剿": 1935,
      "劈": 1936,
      "劓": 1937,
      "力": 1938,
      "劝": 1939,
      "办": 1940,
      "功": 1941,
      "加": 1942,
      "务": 1943,
      "劣": 1944,
      "动": 1945,
      "助": 1946,
      "努": 1947,
      "劫": 1948,
      "劭": 1949,
      "励": 1950,
      "劲": 1951,
      "劳": 1952,
      "劵": 1953,
      "劼": 1954,
      "劾": 1955,
      "势": 1956,
      "勃": 1957,
      "勇": 1958,
      "勉": 1959,
      "勋": 1960,
      "勐": 1961,
      "勒": 1962,
      "動": 1963,
      "勖": 1964,
      "勘": 1965,
      "務": 1966,
      "勝": 1967,
      "勞": 1968,
      "募": 1969,
      "勣": 1970,
      "勤": 1971,
      "勰": 1972,
      "勵": 1973,
      "勺": 1974,
      "勾": 1975,
      "勿": 1976,
      "匀": 1977,
      "包": 1978,
      "匆": 1979,
      "匈": 1980,
      "匍": 1981,
      "匏": 1982,
      "匐": 1983,
      "匕": 1984,
      "化": 1985,
      "北": 1986,
      "匙": 1987,
      "匝": 1988,
      "匠": 1989,
      "匡": 1990,
      "匣": 1991,
      "匪": 1992,
      "匮": 1993,
      "匯": 1994,
      "匹": 1995,
      "区": 1996,
      "医": 1997,
      "匾": 1998,
      "匿": 1999,
      "區": 2000,
      "十": 2001,
      "千": 2002,
      "卅": 2003,
      "升": 2004,
      "午": 2005,
      "卉": 2006,
      "半": 2007,
      "华": 2008,
      "协": 2009,
      "卑": 2010,
      "卒": 2011,
      "卓": 2012,
      "单": 2013,
      "卖": 2014,
      "南": 2015,
      "博": 2016,
      "卜": 2017,
      "卞": 2018,
      "卟": 2019,
      "占": 2020,
      "卡": 2021,
      "卢": 2022,
      "卤": 2023,
      "卦": 2024,
      "卧": 2025,
      "卫": 2026,
      "卮": 2027,
      "卯": 2028,
      "印": 2029,
      "危": 2030,
      "即": 2031,
      "却": 2032,
      "卵": 2033,
      "卷": 2034,
      "卸": 2035,
      "卿": 2036,
      "厂": 2037,
      "厄": 2038,
      "厅": 2039,
      "历": 2040,
      "厉": 2041,
      "压": 2042,
      "厌": 2043,
      "厕": 2044,
      "厘": 2045,
      "厚": 2046,
      "厝": 2047,
      "原": 2048,
      "厢": 2049,
      "厣": 2050,
      "厥": 2051,
      "厦": 2052,
      "厨": 2053,
      "厩": 2054,
      "厮": 2055,
      "去": 2056,
      "县": 2057,
      "叁": 2058,
      "参": 2059,
      "參": 2060,
      "又": 2061,
      "叉": 2062,
      "及": 2063,
      "友": 2064,
      "双": 2065,
      "反": 2066,
      "发": 2067,
      "叔": 2068,
      "取": 2069,
      "受": 2070,
      "变": 2071,
      "叙": 2072,
      "叛": 2073,
      "叟": 2074,
      "叠": 2075,
      "口": 2076,
      "古": 2077,
      "句": 2078,
      "另": 2079,
      "叨": 2080,
      "叩": 2081,
      "只": 2082,
      "叫": 2083,
      "召": 2084,
      "叭": 2085,
      "叮": 2086,
      "可": 2087,
      "台": 2088,
      "叱": 2089,
      "史": 2090,
      "右": 2091,
      "叵": 2092,
      "叶": 2093,
      "号": 2094,
      "司": 2095,
      "叹": 2096,
      "叻": 2097,
      "叼": 2098,
      "叽": 2099,
      "吁": 2100,
      "吃": 2101,
      "各": 2102,
      "吆": 2103,
      "合": 2104,
      "吉": 2105,
      "吊": 2106,
      "同": 2107,
      "名": 2108,
      "后": 2109,
      "吏": 2110,
      "吐": 2111,
      "向": 2112,
      "吒": 2113,
      "吓": 2114,
      "吕": 2115,
      "吖": 2116,
      "吗": 2117,
      "君": 2118,
      "吝": 2119,
      "吞": 2120,
      "吟": 2121,
      "吠": 2122,
      "吡": 2123,
      "否": 2124,
      "吧": 2125,
      "吨": 2126,
      "吩": 2127,
      "含": 2128,
      "听": 2129,
      "吭": 2130,
      "吮": 2131,
      "启": 2132,
      "吱": 2133,
      "吲": 2134,
      "吴": 2135,
      "吵": 2136,
      "吶": 2137,
      "吸": 2138,
      "吹": 2139,
      "吻": 2140,
      "吼": 2141,
      "吾": 2142,
      "呀": 2143,
      "呃": 2144,
      "呆": 2145,
      "呈": 2146,
      "告": 2147,
      "呋": 2148,
      "呎": 2149,
      "呐": 2150,
      "呑": 2151,
      "呒": 2152,
      "呓": 2153,
      "呔": 2154,
      "呕": 2155,
      "呖": 2156,
      "呗": 2157,
      "员": 2158,
      "呛": 2159,
      "呜": 2160,
      "呢": 2161,
      "呣": 2162,
      "呤": 2163,
      "呦": 2164,
      "周": 2165,
      "呯": 2166,
      "呱": 2167,
      "呲": 2168,
      "味": 2169,
      "呵": 2170,
      "呶": 2171,
      "呷": 2172,
      "呸": 2173,
      "呻": 2174,
      "呼": 2175,
      "命": 2176,
      "呿": 2177,
      "咀": 2178,
      "咂": 2179,
      "咄": 2180,
      "咆": 2181,
      "咋": 2182,
      "和": 2183,
      "咎": 2184,
      "咏": 2185,
      "咐": 2186,
      "咒": 2187,
      "咔": 2188,
      "咕": 2189,
      "咖": 2190,
      "咙": 2191,
      "咚": 2192,
      "咛": 2193,
      "咝": 2194,
      "咡": 2195,
      "咣": 2196,
      "咤": 2197,
      "咥": 2198,
      "咦": 2199,
      "咧": 2200,
      "咨": 2201,
      "咩": 2202,
      "咪": 2203,
      "咫": 2204,
      "咬": 2205,
      "咭": 2206,
      "咯": 2207,
      "咱": 2208,
      "咲": 2209,
      "咳": 2210,
      "咴": 2211,
      "咵": 2212,
      "咸": 2213,
      "咻": 2214,
      "咽": 2215,
      "咾": 2216,
      "咿": 2217,
      "哀": 2218,
      "品": 2219,
      "哂": 2220,
      "哄": 2221,
      "哆": 2222,
      "哇": 2223,
      "哈": 2224,
      "哉": 2225,
      "哋": 2226,
      "响": 2227,
      "哎": 2228,
      "哏": 2229,
      "哐": 2230,
      "哑": 2231,
      "哒": 2232,
      "哓": 2233,
      "哔": 2234,
      "哗": 2235,
      "哙": 2236,
      "哚": 2237,
      "哝": 2238,
      "哞": 2239,
      "哟": 2240,
      "哥": 2241,
      "哦": 2242,
      "哧": 2243,
      "哨": 2244,
      "哩": 2245,
      "哪": 2246,
      "哭": 2247,
      "哮": 2248,
      "哲": 2249,
      "哳": 2250,
      "哺": 2251,
      "哼": 2252,
      "哽": 2253,
      "哿": 2254,
      "唁": 2255,
      "唆": 2256,
      "唇": 2257,
      "唉": 2258,
      "唏": 2259,
      "唐": 2260,
      "唑": 2261,
      "唒": 2262,
      "唔": 2263,
      "唛": 2264,
      "唠": 2265,
      "唢": 2266,
      "唤": 2267,
      "唦": 2268,
      "唧": 2269,
      "唬": 2270,
      "售": 2271,
      "唯": 2272,
      "唰": 2273,
      "唱": 2274,
      "唳": 2275,
      "唷": 2276,
      "唸": 2277,
      "唾": 2278,
      "唿": 2279,
      "啁": 2280,
      "啃": 2281,
      "啄": 2282,
      "商": 2283,
      "啉": 2284,
      "啊": 2285,
      "啌": 2286,
      "問": 2287,
      "啐": 2288,
      "啕": 2289,
      "啖": 2290,
      "啜": 2291,
      "啡": 2292,
      "啤": 2293,
      "啥": 2294,
      "啦": 2295,
      "啧": 2296,
      "啪": 2297,
      "啫": 2298,
      "啬": 2299,
      "啭": 2300,
      "啮": 2301,
      "啰": 2302,
      "啵": 2303,
      "啶": 2304,
      "啷": 2305,
      "啸": 2306,
      "啻": 2307,
      "啼": 2308,
      "啾": 2309,
      "喀": 2310,
      "喁": 2311,
      "喂": 2312,
      "喃": 2313,
      "善": 2314,
      "喆": 2315,
      "喇": 2316,
      "喉": 2317,
      "喊": 2318,
      "喋": 2319,
      "喏": 2320,
      "喑": 2321,
      "喔": 2322,
      "喘": 2323,
      "喙": 2324,
      "喚": 2325,
      "喜": 2326,
      "喝": 2327,
      "喟": 2328,
      "喧": 2329,
      "單": 2330,
      "喱": 2331,
      "喲": 2332,
      "喳": 2333,
      "喵": 2334,
      "喷": 2335,
      "喹": 2336,
      "喻": 2337,
      "喽": 2338,
      "喾": 2339,
      "嗄": 2340,
      "嗅": 2341,
      "嗉": 2342,
      "嗍": 2343,
      "嗎": 2344,
      "嗐": 2345,
      "嗑": 2346,
      "嗒": 2347,
      "嗓": 2348,
      "嗔": 2349,
      "嗖": 2350,
      "嗜": 2351,
      "嗝": 2352,
      "嗞": 2353,
      "嗟": 2354,
      "嗡": 2355,
      "嗣": 2356,
      "嗤": 2357,
      "嗥": 2358,
      "嗦": 2359,
      "嗨": 2360,
      "嗫": 2361,
      "嗬": 2362,
      "嗮": 2363,
      "嗯": 2364,
      "嗲": 2365,
      "嗳": 2366,
      "嗵": 2367,
      "嗷": 2368,
      "嗽": 2369,
      "嘀": 2370,
      "嘁": 2371,
      "嘈": 2372,
      "嘉": 2373,
      "嘌": 2374,
      "嘎": 2375,
      "嘏": 2376,
      "嘘": 2377,
      "嘚": 2378,
      "嘛": 2379,
      "嘞": 2380,
      "嘟": 2381,
      "嘢": 2382,
      "嘣": 2383,
      "嘤": 2384,
      "嘧": 2385,
      "嘬": 2386,
      "嘭": 2387,
      "嘱": 2388,
      "嘲": 2389,
      "嘴": 2390,
      "嘶": 2391,
      "嘹": 2392,
      "嘻": 2393,
      "嘿": 2394,
      "噌": 2395,
      "噍": 2396,
      "噎": 2397,
      "噔": 2398,
      "噗": 2399,
      "噘": 2400,
      "噙": 2401,
      "噜": 2402,
      "噢": 2403,
      "噤": 2404,
      "器": 2405,
      "噩": 2406,
      "噪": 2407,
      "噫": 2408,
      "噬": 2409,
      "噱": 2410,
      "噶": 2411,
      "噹": 2412,
      "噻": 2413,
      "噼": 2414,
      "嚅": 2415,
      "嚇": 2416,
      "嚎": 2417,
      "嚏": 2418,
      "嚐": 2419,
      "嚓": 2420,
      "嚕": 2421,
      "嚣": 2422,
      "嚯": 2423,
      "嚷": 2424,
      "嚼": 2425,
      "囉": 2426,
      "囊": 2427,
      "囔": 2428,
      "囗": 2429,
      "囚": 2430,
      "四": 2431,
      "回": 2432,
      "因": 2433,
      "囡": 2434,
      "团": 2435,
      "囤": 2436,
      "囧": 2437,
      "囫": 2438,
      "园": 2439,
      "困": 2440,
      "囱": 2441,
      "围": 2442,
      "囵": 2443,
      "囹": 2444,
      "固": 2445,
      "国": 2446,
      "图": 2447,
      "囿": 2448,
      "圃": 2449,
      "圄": 2450,
      "圆": 2451,
      "圈": 2452,
      "圊": 2453,
      "國": 2454,
      "圏": 2455,
      "園": 2456,
      "圓": 2457,
      "團": 2458,
      "圜": 2459,
      "土": 2460,
      "圣": 2461,
      "在": 2462,
      "圩": 2463,
      "圭": 2464,
      "圮": 2465,
      "圯": 2466,
      "地": 2467,
      "圳": 2468,
      "场": 2469,
      "圻": 2470,
      "圾": 2471,
      "址": 2472,
      "坂": 2473,
      "均": 2474,
      "坊": 2475,
      "坍": 2476,
      "坎": 2477,
      "坏": 2478,
      "坐": 2479,
      "坑": 2480,
      "块": 2481,
      "坚": 2482,
      "坛": 2483,
      "坝": 2484,
      "坞": 2485,
      "坟": 2486,
      "坠": 2487,
      "坡": 2488,
      "坤": 2489,
      "坦": 2490,
      "坨": 2491,
      "坩": 2492,
      "坪": 2493,
      "坯": 2494,
      "坳": 2495,
      "坷": 2496,
      "坻": 2497,
      "坼": 2498,
      "垂": 2499,
      "垃": 2500,
      "垄": 2501,
      "垅": 2502,
      "垆": 2503,
      "型": 2504,
      "垒": 2505,
      "垓": 2506,
      "垚": 2507,
      "垛": 2508,
      "垝": 2509,
      "垟": 2510,
      "垠": 2511,
      "垡": 2512,
      "垢": 2513,
      "垣": 2514,
      "垦": 2515,
      "垧": 2516,
      "垩": 2517,
      "垫": 2518,
      "垭": 2519,
      "垮": 2520,
      "垸": 2521,
      "埂": 2522,
      "埃": 2523,
      "埋": 2524,
      "城": 2525,
      "埔": 2526,
      "埘": 2527,
      "埙": 2528,
      "埚": 2529,
      "埝": 2530,
      "域": 2531,
      "埠": 2532,
      "埳": 2533,
      "埶": 2534,
      "埸": 2535,
      "培": 2536,
      "基": 2537,
      "埽": 2538,
      "堂": 2539,
      "堅": 2540,
      "堆": 2541,
      "堇": 2542,
      "堑": 2543,
      "堕": 2544,
      "堙": 2545,
      "堞": 2546,
      "堠": 2547,
      "堡": 2548,
      "堤": 2549,
      "堪": 2550,
      "堰": 2551,
      "報": 2552,
      "場": 2553,
      "堵": 2554,
      "塁": 2555,
      "塆": 2556,
      "塊": 2557,
      "塌": 2558,
      "塍": 2559,
      "塑": 2560,
      "塔": 2561,
      "塘": 2562,
      "塞": 2563,
      "填": 2564,
      "塬": 2565,
      "塯": 2566,
      "塾": 2567,
      "墀": 2568,
      "境": 2569,
      "墅": 2570,
      "墉": 2571,
      "墊": 2572,
      "墒": 2573,
      "墓": 2574,
      "増": 2575,
      "墙": 2576,
      "增": 2577,
      "墟": 2578,
      "墨": 2579,
      "墩": 2580,
      "墫": 2581,
      "壁": 2582,
      "壅": 2583,
      "壑": 2584,
      "壕": 2585,
      "壞": 2586,
      "壤": 2587,
      "士": 2588,
      "壬": 2589,
      "壮": 2590,
      "声": 2591,
      "壳": 2592,
      "壶": 2593,
      "壹": 2594,
      "处": 2595,
      "备": 2596,
      "复": 2597,
      "夏": 2598,
      "夔": 2599,
      "夕": 2600,
      "外": 2601,
      "夙": 2602,
      "多": 2603,
      "夜": 2604,
      "够": 2605,
      "夢": 2606,
      "夤": 2607,
      "夥": 2608,
      "大": 2609,
      "天": 2610,
      "太": 2611,
      "夫": 2612,
      "夭": 2613,
      "央": 2614,
      "夯": 2615,
      "失": 2616,
      "头": 2617,
      "夷": 2618,
      "夸": 2619,
      "夹": 2620,
      "夺": 2621,
      "奁": 2622,
      "奂": 2623,
      "奄": 2624,
      "奇": 2625,
      "奈": 2626,
      "奉": 2627,
      "奋": 2628,
      "奎": 2629,
      "奏": 2630,
      "契": 2631,
      "奓": 2632,
      "奔": 2633,
      "奕": 2634,
      "奖": 2635,
      "套": 2636,
      "奘": 2637,
      "奚": 2638,
      "奠": 2639,
      "奢": 2640,
      "奥": 2641,
      "奭": 2642,
      "奮": 2643,
      "女": 2644,
      "奴": 2645,
      "奶": 2646,
      "奸": 2647,
      "她": 2648,
      "好": 2649,
      "妁": 2650,
      "如": 2651,
      "妃": 2652,
      "妄": 2653,
      "妆": 2654,
      "妇": 2655,
      "妈": 2656,
      "妊": 2657,
      "妍": 2658,
      "妒": 2659,
      "妓": 2660,
      "妖": 2661,
      "妙": 2662,
      "妞": 2663,
      "妤": 2664,
      "妥": 2665,
      "妨": 2666,
      "妩": 2667,
      "妪": 2668,
      "妮": 2669,
      "妯": 2670,
      "妲": 2671,
      "妳": 2672,
      "妹": 2673,
      "妻": 2674,
      "妾": 2675,
      "姆": 2676,
      "姊": 2677,
      "始": 2678,
      "姐": 2679,
      "姑": 2680,
      "姒": 2681,
      "姓": 2682,
      "委": 2683,
      "姗": 2684,
      "姘": 2685,
      "姚": 2686,
      "姜": 2687,
      "姝": 2688,
      "姣": 2689,
      "姥": 2690,
      "姨": 2691,
      "姫": 2692,
      "姬": 2693,
      "姹": 2694,
      "姻": 2695,
      "姿": 2696,
      "威": 2697,
      "娃": 2698,
      "娄": 2699,
      "娅": 2700,
      "娆": 2701,
      "娇": 2702,
      "娈": 2703,
      "娉": 2704,
      "娌": 2705,
      "娑": 2706,
      "娓": 2707,
      "娘": 2708,
      "娜": 2709,
      "娟": 2710,
      "娠": 2711,
      "娡": 2712,
      "娣": 2713,
      "娥": 2714,
      "娩": 2715,
      "娱": 2716,
      "娲": 2717,
      "娴": 2718,
      "娶": 2719,
      "娼": 2720,
      "婀": 2721,
      "婆": 2722,
      "婉": 2723,
      "婊": 2724,
      "婕": 2725,
      "婚": 2726,
      "婞": 2727,
      "婢": 2728,
      "婦": 2729,
      "婧": 2730,
      "婪": 2731,
      "婴": 2732,
      "婵": 2733,
      "婶": 2734,
      "婷": 2735,
      "婺": 2736,
      "婻": 2737,
      "婿": 2738,
      "媒": 2739,
      "媚": 2740,
      "媛": 2741,
      "媪": 2742,
      "媲": 2743,
      "媳": 2744,
      "媷": 2745,
      "媸": 2746,
      "媽": 2747,
      "媾": 2748,
      "嫁": 2749,
      "嫂": 2750,
      "嫄": 2751,
      "嫉": 2752,
      "嫋": 2753,
      "嫌": 2754,
      "嫐": 2755,
      "嫔": 2756,
      "嫖": 2757,
      "嫘": 2758,
      "嫚": 2759,
      "嫠": 2760,
      "嫡": 2761,
      "嫣": 2762,
      "嫦": 2763,
      "嫩": 2764,
      "嫱": 2765,
      "嫲": 2766,
      "嬅": 2767,
      "嬉": 2768,
      "嬖": 2769,
      "嬛": 2770,
      "嬰": 2771,
      "嬲": 2772,
      "嬴": 2773,
      "嬷": 2774,
      "孀": 2775,
      "子": 2776,
      "孑": 2777,
      "孒": 2778,
      "孓": 2779,
      "孔": 2780,
      "孕": 2781,
      "字": 2782,
      "存": 2783,
      "孙": 2784,
      "孚": 2785,
      "孛": 2786,
      "孜": 2787,
      "孝": 2788,
      "孟": 2789,
      "孢": 2790,
      "季": 2791,
      "孤": 2792,
      "孥": 2793,
      "学": 2794,
      "孩": 2795,
      "孪": 2796,
      "孫": 2797,
      "孬": 2798,
      "孰": 2799,
      "孱": 2800,
      "孵": 2801,
      "學": 2802,
      "孺": 2803,
      "孽": 2804,
      "孿": 2805,
      "宀": 2806,
      "宁": 2807,
      "它": 2808,
      "宄": 2809,
      "宅": 2810,
      "宇": 2811,
      "守": 2812,
      "安": 2813,
      "宋": 2814,
      "完": 2815,
      "宏": 2816,
      "宓": 2817,
      "宕": 2818,
      "宗": 2819,
      "官": 2820,
      "宙": 2821,
      "定": 2822,
      "宛": 2823,
      "宜": 2824,
      "宝": 2825,
      "实": 2826,
      "宠": 2827,
      "审": 2828,
      "客": 2829,
      "宣": 2830,
      "室": 2831,
      "宥": 2832,
      "宦": 2833,
      "宪": 2834,
      "宫": 2835,
      "宰": 2836,
      "害": 2837,
      "宴": 2838,
      "宵": 2839,
      "家": 2840,
      "宸": 2841,
      "容": 2842,
      "宽": 2843,
      "宾": 2844,
      "宿": 2845,
      "寂": 2846,
      "寄": 2847,
      "寅": 2848,
      "密": 2849,
      "寇": 2850,
      "富": 2851,
      "寐": 2852,
      "寒": 2853,
      "寓": 2854,
      "寔": 2855,
      "寝": 2856,
      "寞": 2857,
      "察": 2858,
      "寡": 2859,
      "寤": 2860,
      "寥": 2861,
      "實": 2862,
      "寧": 2863,
      "寨": 2864,
      "寮": 2865,
      "寰": 2866,
      "寸": 2867,
      "对": 2868,
      "寺": 2869,
      "寻": 2870,
      "导": 2871,
      "寿": 2872,
      "封": 2873,
      "射": 2874,
      "将": 2875,
      "尉": 2876,
      "尊": 2877,
      "尋": 2878,
      "對": 2879,
      "小": 2880,
      "少": 2881,
      "尔": 2882,
      "尕": 2883,
      "尖": 2884,
      "尘": 2885,
      "尚": 2886,
      "尜": 2887,
      "尝": 2888,
      "尢": 2889,
      "尤": 2890,
      "尥": 2891,
      "尧": 2892,
      "尬": 2893,
      "就": 2894,
      "尴": 2895,
      "尸": 2896,
      "尹": 2897,
      "尺": 2898,
      "尻": 2899,
      "尼": 2900,
      "尽": 2901,
      "尾": 2902,
      "尿": 2903,
      "局": 2904,
      "屁": 2905,
      "层": 2906,
      "屄": 2907,
      "居": 2908,
      "屈": 2909,
      "屉": 2910,
      "届": 2911,
      "屋": 2912,
      "屌": 2913,
      "屎": 2914,
      "屏": 2915,
      "屐": 2916,
      "屑": 2917,
      "展": 2918,
      "屙": 2919,
      "属": 2920,
      "屠": 2921,
      "屡": 2922,
      "屣": 2923,
      "履": 2924,
      "屯": 2925,
      "山": 2926,
      "屹": 2927,
      "屿": 2928,
      "岀": 2929,
      "岁": 2930,
      "岂": 2931,
      "岌": 2932,
      "岐": 2933,
      "岑": 2934,
      "岔": 2935,
      "岖": 2936,
      "岗": 2937,
      "岘": 2938,
      "岙": 2939,
      "岚": 2940,
      "岛": 2941,
      "岡": 2942,
      "岩": 2943,
      "岫": 2944,
      "岬": 2945,
      "岭": 2946,
      "岱": 2947,
      "岳": 2948,
      "岷": 2949,
      "岸": 2950,
      "岿": 2951,
      "峁": 2952,
      "峋": 2953,
      "峒": 2954,
      "峙": 2955,
      "峡": 2956,
      "峣": 2957,
      "峤": 2958,
      "峥": 2959,
      "峦": 2960,
      "峨": 2961,
      "峪": 2962,
      "峭": 2963,
      "峯": 2964,
      "峰": 2965,
      "島": 2966,
      "峻": 2967,
      "崀": 2968,
      "崂": 2969,
      "崃": 2970,
      "崆": 2971,
      "崇": 2972,
      "崎": 2973,
      "崑": 2974,
      "崔": 2975,
      "崖": 2976,
      "崛": 2977,
      "崤": 2978,
      "崦": 2979,
      "崧": 2980,
      "崩": 2981,
      "崭": 2982,
      "崴": 2983,
      "崽": 2984,
      "崾": 2985,
      "嵇": 2986,
      "嵊": 2987,
      "嵋": 2988,
      "嵌": 2989,
      "嵘": 2990,
      "嵛": 2991,
      "嵩": 2992,
      "嵫": 2993,
      "嵬": 2994,
      "嵯": 2995,
      "嶂": 2996,
      "嶒": 2997,
      "嶙": 2998,
      "嶷": 2999,
      "巅": 3000,
      "巉": 3001,
      "巍": 3002,
      "巘": 3003,
      "川": 3004,
      "州": 3005,
      "巡": 3006,
      "巢": 3007,
      "工": 3008,
      "左": 3009,
      "巧": 3010,
      "巨": 3011,
      "巩": 3012,
      "巫": 3013,
      "差": 3014,
      "巯": 3015,
      "己": 3016,
      "已": 3017,
      "巳": 3018,
      "巴": 3019,
      "巷": 3020,
      "巽": 3021,
      "巾": 3022,
      "巿": 3023,
      "币": 3024,
      "市": 3025,
      "布": 3026,
      "帅": 3027,
      "帆": 3028,
      "师": 3029,
      "希": 3030,
      "帏": 3031,
      "帐": 3032,
      "帑": 3033,
      "帔": 3034,
      "帕": 3035,
      "帖": 3036,
      "帘": 3037,
      "帙": 3038,
      "帚": 3039,
      "帛": 3040,
      "帜": 3041,
      "帝": 3042,
      "带": 3043,
      "帧": 3044,
      "師": 3045,
      "席": 3046,
      "帮": 3047,
      "帯": 3048,
      "帶": 3049,
      "帷": 3050,
      "常": 3051,
      "帼": 3052,
      "帽": 3053,
      "幂": 3054,
      "幄": 3055,
      "幅": 3056,
      "幌": 3057,
      "幍": 3058,
      "幔": 3059,
      "幕": 3060,
      "幡": 3061,
      "幢": 3062,
      "幣": 3063,
      "幫": 3064,
      "干": 3065,
      "平": 3066,
      "年": 3067,
      "幵": 3068,
      "并": 3069,
      "幷": 3070,
      "幸": 3071,
      "幹": 3072,
      "幺": 3073,
      "幻": 3074,
      "幼": 3075,
      "幽": 3076,
      "幾": 3077,
      "广": 3078,
      "広": 3079,
      "庄": 3080,
      "庆": 3081,
      "庇": 3082,
      "床": 3083,
      "序": 3084,
      "庐": 3085,
      "庑": 3086,
      "库": 3087,
      "应": 3088,
      "底": 3089,
      "庖": 3090,
      "店": 3091,
      "庙": 3092,
      "庚": 3093,
      "府": 3094,
      "庞": 3095,
      "废": 3096,
      "庥": 3097,
      "度": 3098,
      "座": 3099,
      "庭": 3100,
      "庵": 3101,
      "庶": 3102,
      "康": 3103,
      "庸": 3104,
      "庹": 3105,
      "庾": 3106,
      "廉": 3107,
      "廊": 3108,
      "廋": 3109,
      "廓": 3110,
      "廕": 3111,
      "廖": 3112,
      "廪": 3113,
      "延": 3114,
      "廷": 3115,
      "建": 3116,
      "廿": 3117,
      "开": 3118,
      "弁": 3119,
      "异": 3120,
      "弃": 3121,
      "弄": 3122,
      "弈": 3123,
      "弊": 3124,
      "弋": 3125,
      "式": 3126,
      "弑": 3127,
      "弓": 3128,
      "引": 3129,
      "弗": 3130,
      "弘": 3131,
      "弛": 3132,
      "弟": 3133,
      "张": 3134,
      "弥": 3135,
      "弦": 3136,
      "弧": 3137,
      "弩": 3138,
      "弭": 3139,
      "弯": 3140,
      "弱": 3141,
      "張": 3142,
      "弶": 3143,
      "強": 3144,
      "弹": 3145,
      "强": 3146,
      "弼": 3147,
      "彀": 3148,
      "彊": 3149,
      "彎": 3150,
      "归": 3151,
      "当": 3152,
      "录": 3153,
      "彖": 3154,
      "彗": 3155,
      "彘": 3156,
      "彝": 3157,
      "形": 3158,
      "彤": 3159,
      "彦": 3160,
      "彧": 3161,
      "彩": 3162,
      "彪": 3163,
      "彬": 3164,
      "彭": 3165,
      "彰": 3166,
      "影": 3167,
      "彳": 3168,
      "彷": 3169,
      "役": 3170,
      "彻": 3171,
      "彼": 3172,
      "往": 3173,
      "征": 3174,
      "徂": 3175,
      "径": 3176,
      "待": 3177,
      "徇": 3178,
      "很": 3179,
      "徉": 3180,
      "徊": 3181,
      "律": 3182,
      "後": 3183,
      "徐": 3184,
      "徒": 3185,
      "徕": 3186,
      "得": 3187,
      "徘": 3188,
      "徙": 3189,
      "徜": 3190,
      "從": 3191,
      "御": 3192,
      "徨": 3193,
      "復": 3194,
      "循": 3195,
      "徭": 3196,
      "微": 3197,
      "徳": 3198,
      "徵": 3199,
      "德": 3200,
      "徹": 3201,
      "徽": 3202,
      "心": 3203,
      "忄": 3204,
      "必": 3205,
      "忆": 3206,
      "忌": 3207,
      "忍": 3208,
      "忏": 3209,
      "忐": 3210,
      "忑": 3211,
      "忒": 3212,
      "忖": 3213,
      "志": 3214,
      "忘": 3215,
      "忙": 3216,
      "忠": 3217,
      "忡": 3218,
      "忤": 3219,
      "忧": 3220,
      "忪": 3221,
      "快": 3222,
      "忭": 3223,
      "忮": 3224,
      "忱": 3225,
      "念": 3226,
      "忸": 3227,
      "忻": 3228,
      "忽": 3229,
      "忾": 3230,
      "忿": 3231,
      "怀": 3232,
      "态": 3233,
      "怂": 3234,
      "怃": 3235,
      "怄": 3236,
      "怅": 3237,
      "怆": 3238,
      "怍": 3239,
      "怎": 3240,
      "怏": 3241,
      "怒": 3242,
      "怔": 3243,
      "怕": 3244,
      "怖": 3245,
      "怙": 3246,
      "怜": 3247,
      "思": 3248,
      "怠": 3249,
      "怡": 3250,
      "急": 3251,
      "怦": 3252,
      "性": 3253,
      "怨": 3254,
      "怩": 3255,
      "怪": 3256,
      "怫": 3257,
      "怯": 3258,
      "怵": 3259,
      "总": 3260,
      "怼": 3261,
      "恁": 3262,
      "恂": 3263,
      "恃": 3264,
      "恋": 3265,
      "恍": 3266,
      "恐": 3267,
      "恒": 3268,
      "恕": 3269,
      "恙": 3270,
      "恢": 3271,
      "恣": 3272,
      "恤": 3273,
      "恨": 3274,
      "恩": 3275,
      "恪": 3276,
      "恫": 3277,
      "恬": 3278,
      "恭": 3279,
      "息": 3280,
      "恰": 3281,
      "恳": 3282,
      "恶": 3283,
      "恸": 3284,
      "恹": 3285,
      "恺": 3286,
      "恻": 3287,
      "恼": 3288,
      "恽": 3289,
      "恿": 3290,
      "悄": 3291,
      "悅": 3292,
      "悉": 3293,
      "悌": 3294,
      "悍": 3295,
      "悒": 3296,
      "悔": 3297,
      "悖": 3298,
      "悚": 3299,
      "悛": 3300,
      "悝": 3301,
      "悟": 3302,
      "悠": 3303,
      "悢": 3304,
      "患": 3305,
      "悦": 3306,
      "您": 3307,
      "悫": 3308,
      "悬": 3309,
      "悭": 3310,
      "悯": 3311,
      "悱": 3312,
      "悲": 3313,
      "悴": 3314,
      "悸": 3315,
      "悻": 3316,
      "悼": 3317,
      "情": 3318,
      "惆": 3319,
      "惇": 3320,
      "惊": 3321,
      "惋": 3322,
      "惑": 3323,
      "惕": 3324,
      "惘": 3325,
      "惚": 3326,
      "惜": 3327,
      "惝": 3328,
      "惟": 3329,
      "惠": 3330,
      "惦": 3331,
      "惧": 3332,
      "惨": 3333,
      "惩": 3334,
      "惫": 3335,
      "惬": 3336,
      "惭": 3337,
      "惮": 3338,
      "惯": 3339,
      "惰": 3340,
      "惱": 3341,
      "想": 3342,
      "惴": 3343,
      "惶": 3344,
      "惹": 3345,
      "惺": 3346,
      "愀": 3347,
      "愁": 3348,
      "愆": 3349,
      "愈": 3350,
      "愉": 3351,
      "愍": 3352,
      "愎": 3353,
      "意": 3354,
      "愔": 3355,
      "愕": 3356,
      "愚": 3357,
      "愛": 3358,
      "感": 3359,
      "愠": 3360,
      "愣": 3361,
      "愤": 3362,
      "愧": 3363,
      "愫": 3364,
      "愿": 3365,
      "慈": 3366,
      "慌": 3367,
      "慎": 3368,
      "慑": 3369,
      "慓": 3370,
      "慕": 3371,
      "慜": 3372,
      "慢": 3373,
      "慥": 3374,
      "慧": 3375,
      "慨": 3376,
      "慰": 3377,
      "慵": 3378,
      "慶": 3379,
      "慷": 3380,
      "憋": 3381,
      "憎": 3382,
      "憑": 3383,
      "憔": 3384,
      "憙": 3385,
      "憧": 3386,
      "憨": 3387,
      "憩": 3388,
      "憬": 3389,
      "憾": 3390,
      "懂": 3391,
      "懈": 3392,
      "應": 3393,
      "懊": 3394,
      "懋": 3395,
      "懑": 3396,
      "懒": 3397,
      "懦": 3398,
      "懵": 3399,
      "懿": 3400,
      "戆": 3401,
      "戈": 3402,
      "戊": 3403,
      "戌": 3404,
      "戍": 3405,
      "戎": 3406,
      "戏": 3407,
      "成": 3408,
      "我": 3409,
      "戒": 3410,
      "戓": 3411,
      "戕": 3412,
      "或": 3413,
      "戗": 3414,
      "战": 3415,
      "戚": 3416,
      "戛": 3417,
      "戟": 3418,
      "截": 3419,
      "戬": 3420,
      "戮": 3421,
      "戳": 3422,
      "戴": 3423,
      "戶": 3424,
      "户": 3425,
      "戽": 3426,
      "戾": 3427,
      "房": 3428,
      "所": 3429,
      "扁": 3430,
      "扃": 3431,
      "扇": 3432,
      "扈": 3433,
      "扉": 3434,
      "手": 3435,
      "扌": 3436,
      "才": 3437,
      "扎": 3438,
      "扑": 3439,
      "扒": 3440,
      "打": 3441,
      "扔": 3442,
      "托": 3443,
      "扛": 3444,
      "扠": 3445,
      "扣": 3446,
      "扦": 3447,
      "执": 3448,
      "扩": 3449,
      "扪": 3450,
      "扫": 3451,
      "扬": 3452,
      "扭": 3453,
      "扮": 3454,
      "扯": 3455,
      "扰": 3456,
      "扳": 3457,
      "扶": 3458,
      "批": 3459,
      "扼": 3460,
      "扽": 3461,
      "找": 3462,
      "承": 3463,
      "技": 3464,
      "抃": 3465,
      "抄": 3466,
      "抉": 3467,
      "把": 3468,
      "抑": 3469,
      "抒": 3470,
      "抓": 3471,
      "抔": 3472,
      "投": 3473,
      "抖": 3474,
      "抗": 3475,
      "折": 3476,
      "抚": 3477,
      "抛": 3478,
      "抟": 3479,
      "抠": 3480,
      "抡": 3481,
      "抢": 3482,
      "护": 3483,
      "报": 3484,
      "抨": 3485,
      "披": 3486,
      "抬": 3487,
      "抱": 3488,
      "抵": 3489,
      "抹": 3490,
      "抻": 3491,
      "押": 3492,
      "抽": 3493,
      "抿": 3494,
      "拂": 3495,
      "拃": 3496,
      "拄": 3497,
      "担": 3498,
      "拆": 3499,
      "拇": 3500,
      "拈": 3501,
      "拉": 3502,
      "拊": 3503,
      "拌": 3504,
      "拍": 3505,
      "拎": 3506,
      "拏": 3507,
      "拐": 3508,
      "拒": 3509,
      "拓": 3510,
      "拔": 3511,
      "拖": 3512,
      "拗": 3513,
      "拘": 3514,
      "拙": 3515,
      "拚": 3516,
      "招": 3517,
      "拜": 3518,
      "拟": 3519,
      "拢": 3520,
      "拣": 3521,
      "拤": 3522,
      "拥": 3523,
      "拦": 3524,
      "拧": 3525,
      "拨": 3526,
      "择": 3527,
      "括": 3528,
      "拭": 3529,
      "拮": 3530,
      "拯": 3531,
      "拱": 3532,
      "拳": 3533,
      "拴": 3534,
      "拷": 3535,
      "拼": 3536,
      "拽": 3537,
      "拾": 3538,
      "拿": 3539,
      "持": 3540,
      "挂": 3541,
      "指": 3542,
      "挈": 3543,
      "按": 3544,
      "挎": 3545,
      "挑": 3546,
      "挖": 3547,
      "挚": 3548,
      "挛": 3549,
      "挝": 3550,
      "挞": 3551,
      "挟": 3552,
      "挠": 3553,
      "挡": 3554,
      "挣": 3555,
      "挤": 3556,
      "挥": 3557,
      "挨": 3558,
      "挪": 3559,
      "挫": 3560,
      "振": 3561,
      "挲": 3562,
      "挹": 3563,
      "挺": 3564,
      "挽": 3565,
      "捂": 3566,
      "捅": 3567,
      "捆": 3568,
      "捉": 3569,
      "捋": 3570,
      "捌": 3571,
      "捍": 3572,
      "捎": 3573,
      "捏": 3574,
      "捐": 3575,
      "捕": 3576,
      "捞": 3577,
      "损": 3578,
      "捡": 3579,
      "换": 3580,
      "捣": 3581,
      "捧": 3582,
      "捭": 3583,
      "据": 3584,
      "捯": 3585,
      "捱": 3586,
      "捶": 3587,
      "捷": 3588,
      "捺": 3589,
      "捻": 3590,
      "掀": 3591,
      "掂": 3592,
      "掇": 3593,
      "授": 3594,
      "掉": 3595,
      "掊": 3596,
      "掌": 3597,
      "掏": 3598,
      "掐": 3599,
      "排": 3600,
      "掖": 3601,
      "掘": 3602,
      "掠": 3603,
      "採": 3604,
      "探": 3605,
      "掣": 3606,
      "接": 3607,
      "控": 3608,
      "推": 3609,
      "掩": 3610,
      "措": 3611,
      "掬": 3612,
      "掮": 3613,
      "掰": 3614,
      "掳": 3615,
      "掴": 3616,
      "掷": 3617,
      "掸": 3618,
      "掺": 3619,
      "掼": 3620,
      "掾": 3621,
      "揄": 3622,
      "揆": 3623,
      "揉": 3624,
      "揍": 3625,
      "揎": 3626,
      "描": 3627,
      "提": 3628,
      "揑": 3629,
      "插": 3630,
      "揖": 3631,
      "換": 3632,
      "揠": 3633,
      "握": 3634,
      "揣": 3635,
      "揩": 3636,
      "揪": 3637,
      "揭": 3638,
      "揳": 3639,
      "援": 3640,
      "揶": 3641,
      "揺": 3642,
      "揽": 3643,
      "揾": 3644,
      "揿": 3645,
      "搀": 3646,
      "搁": 3647,
      "搂": 3648,
      "搅": 3649,
      "搏": 3650,
      "搐": 3651,
      "搓": 3652,
      "搔": 3653,
      "搛": 3654,
      "搜": 3655,
      "搞": 3656,
      "搡": 3657,
      "搧": 3658,
      "搪": 3659,
      "搬": 3660,
      "搭": 3661,
      "搯": 3662,
      "携": 3663,
      "搽": 3664,
      "搿": 3665,
      "摁": 3666,
      "摄": 3667,
      "摆": 3668,
      "摇": 3669,
      "摈": 3670,
      "摊": 3671,
      "摒": 3672,
      "摔": 3673,
      "摘": 3674,
      "摞": 3675,
      "摧": 3676,
      "摩": 3677,
      "摭": 3678,
      "摸": 3679,
      "摹": 3680,
      "撂": 3681,
      "撅": 3682,
      "撇": 3683,
      "撑": 3684,
      "撒": 3685,
      "撕": 3686,
      "撞": 3687,
      "撤": 3688,
      "撩": 3689,
      "撬": 3690,
      "播": 3691,
      "撮": 3692,
      "撰": 3693,
      "撲": 3694,
      "撵": 3695,
      "撷": 3696,
      "撸": 3697,
      "撺": 3698,
      "撼": 3699,
      "撿": 3700,
      "擀": 3701,
      "擂": 3702,
      "擅": 3703,
      "操": 3704,
      "擎": 3705,
      "擐": 3706,
      "擒": 3707,
      "擔": 3708,
      "擘": 3709,
      "擞": 3710,
      "擠": 3711,
      "擡": 3712,
      "擢": 3713,
      "擤": 3714,
      "擦": 3715,
      "擱": 3716,
      "擺": 3717,
      "擾": 3718,
      "攀": 3719,
      "攒": 3720,
      "攘": 3721,
      "攤": 3722,
      "攥": 3723,
      "攫": 3724,
      "攮": 3725,
      "支": 3726,
      "收": 3727,
      "攸": 3728,
      "改": 3729,
      "攻": 3730,
      "放": 3731,
      "政": 3732,
      "故": 3733,
      "效": 3734,
      "敌": 3735,
      "敏": 3736,
      "救": 3737,
      "敕": 3738,
      "敖": 3739,
      "教": 3740,
      "敛": 3741,
      "敝": 3742,
      "敞": 3743,
      "敢": 3744,
      "散": 3745,
      "敦": 3746,
      "敫": 3747,
      "敬": 3748,
      "数": 3749,
      "敲": 3750,
      "整": 3751,
      "敷": 3752,
      "數": 3753,
      "文": 3754,
      "斋": 3755,
      "斌": 3756,
      "斐": 3757,
      "斑": 3758,
      "斓": 3759,
      "斗": 3760,
      "料": 3761,
      "斛": 3762,
      "斜": 3763,
      "斟": 3764,
      "斡": 3765,
      "斤": 3766,
      "斥": 3767,
      "斧": 3768,
      "斩": 3769,
      "斫": 3770,
      "断": 3771,
      "斯": 3772,
      "新": 3773,
      "斶": 3774,
      "斷": 3775,
      "方": 3776,
      "於": 3777,
      "施": 3778,
      "旁": 3779,
      "旃": 3780,
      "旄": 3781,
      "旅": 3782,
      "旆": 3783,
      "旋": 3784,
      "旌": 3785,
      "旎": 3786,
      "族": 3787,
      "旖": 3788,
      "旗": 3789,
      "无": 3790,
      "既": 3791,
      "日": 3792,
      "旦": 3793,
      "旧": 3794,
      "旨": 3795,
      "早": 3796,
      "旬": 3797,
      "旭": 3798,
      "旮": 3799,
      "旯": 3800,
      "旱": 3801,
      "时": 3802,
      "旷": 3803,
      "旸": 3804,
      "旺": 3805,
      "旻": 3806,
      "昀": 3807,
      "昂": 3808,
      "昃": 3809,
      "昆": 3810,
      "昇": 3811,
      "昉": 3812,
      "昊": 3813,
      "昌": 3814,
      "明": 3815,
      "昏": 3816,
      "易": 3817,
      "昔": 3818,
      "昕": 3819,
      "昙": 3820,
      "星": 3821,
      "映": 3822,
      "春": 3823,
      "昧": 3824,
      "昨": 3825,
      "昭": 3826,
      "是": 3827,
      "昱": 3828,
      "昵": 3829,
      "昶": 3830,
      "昼": 3831,
      "显": 3832,
      "晁": 3833,
      "時": 3834,
      "晃": 3835,
      "晋": 3836,
      "晌": 3837,
      "晏": 3838,
      "晒": 3839,
      "晓": 3840,
      "晔": 3841,
      "晕": 3842,
      "晖": 3843,
      "晗": 3844,
      "晚": 3845,
      "晞": 3846,
      "晟": 3847,
      "晤": 3848,
      "晦": 3849,
      "晨": 3850,
      "晩": 3851,
      "晬": 3852,
      "普": 3853,
      "景": 3854,
      "晰": 3855,
      "晳": 3856,
      "晴": 3857,
      "晶": 3858,
      "晷": 3859,
      "智": 3860,
      "晻": 3861,
      "晾": 3862,
      "暂": 3863,
      "暄": 3864,
      "暇": 3865,
      "暑": 3866,
      "暖": 3867,
      "暗": 3868,
      "暝": 3869,
      "暧": 3870,
      "暨": 3871,
      "暮": 3872,
      "暱": 3873,
      "暴": 3874,
      "暹": 3875,
      "曈": 3876,
      "曙": 3877,
      "曛": 3878,
      "曜": 3879,
      "曝": 3880,
      "曦": 3881,
      "曩": 3882,
      "曰": 3883,
      "曲": 3884,
      "曳": 3885,
      "更": 3886,
      "曷": 3887,
      "書": 3888,
      "曹": 3889,
      "曼": 3890,
      "曾": 3891,
      "替": 3892,
      "最": 3893,
      "會": 3894,
      "月": 3895,
      "有": 3896,
      "朊": 3897,
      "朋": 3898,
      "服": 3899,
      "朐": 3900,
      "朔": 3901,
      "朕": 3902,
      "朗": 3903,
      "望": 3904,
      "朝": 3905,
      "期": 3906,
      "朦": 3907,
      "木": 3908,
      "未": 3909,
      "末": 3910,
      "本": 3911,
      "札": 3912,
      "术": 3913,
      "朱": 3914,
      "朴": 3915,
      "朵": 3916,
      "机": 3917,
      "朽": 3918,
      "杀": 3919,
      "杂": 3920,
      "权": 3921,
      "杄": 3922,
      "杆": 3923,
      "杈": 3924,
      "杉": 3925,
      "杌": 3926,
      "李": 3927,
      "杏": 3928,
      "材": 3929,
      "村": 3930,
      "杓": 3931,
      "杖": 3932,
      "杜": 3933,
      "杞": 3934,
      "束": 3935,
      "杠": 3936,
      "条": 3937,
      "来": 3938,
      "杨": 3939,
      "杪": 3940,
      "杭": 3941,
      "杮": 3942,
      "杯": 3943,
      "杰": 3944,
      "東": 3945,
      "杲": 3946,
      "杳": 3947,
      "杵": 3948,
      "杷": 3949,
      "杼": 3950,
      "松": 3951,
      "板": 3952,
      "极": 3953,
      "构": 3954,
      "枇": 3955,
      "枉": 3956,
      "析": 3957,
      "枕": 3958,
      "林": 3959,
      "枚": 3960,
      "果": 3961,
      "枝": 3962,
      "枞": 3963,
      "枢": 3964,
      "枣": 3965,
      "枥": 3966,
      "枨": 3967,
      "枪": 3968,
      "枫": 3969,
      "枬": 3970,
      "枭": 3971,
      "枯": 3972,
      "枰": 3973,
      "枳": 3974,
      "架": 3975,
      "枷": 3976,
      "枸": 3977,
      "枹": 3978,
      "枻": 3979,
      "柄": 3980,
      "柏": 3981,
      "某": 3982,
      "柑": 3983,
      "柒": 3984,
      "染": 3985,
      "柔": 3986,
      "柘": 3987,
      "柚": 3988,
      "柜": 3989,
      "柝": 3990,
      "柞": 3991,
      "柠": 3992,
      "查": 3993,
      "柩": 3994,
      "柬": 3995,
      "柯": 3996,
      "柱": 3997,
      "柳": 3998,
      "柴": 3999,
      "柺": 4000,
      "査": 4001,
      "柽": 4002,
      "柿": 4003,
      "栀": 4004,
      "栂": 4005,
      "栅": 4006,
      "标": 4007,
      "栈": 4008,
      "栉": 4009,
      "栊": 4010,
      "栋": 4011,
      "栌": 4012,
      "栎": 4013,
      "栏": 4014,
      "树": 4015,
      "栓": 4016,
      "栖": 4017,
      "栗": 4018,
      "栘": 4019,
      "校": 4020,
      "栩": 4021,
      "株": 4022,
      "栱": 4023,
      "栲": 4024,
      "栳": 4025,
      "样": 4026,
      "核": 4027,
      "根": 4028,
      "格": 4029,
      "栽": 4030,
      "栾": 4031,
      "桀": 4032,
      "桂": 4033,
      "桃": 4034,
      "桅": 4035,
      "框": 4036,
      "案": 4037,
      "桉": 4038,
      "桌": 4039,
      "桎": 4040,
      "桐": 4041,
      "桑": 4042,
      "桓": 4043,
      "桔": 4044,
      "桠": 4045,
      "桡": 4046,
      "桢": 4047,
      "档": 4048,
      "桤": 4049,
      "桥": 4050,
      "桦": 4051,
      "桧": 4052,
      "桨": 4053,
      "桩": 4054,
      "桫": 4055,
      "桶": 4056,
      "桷": 4057,
      "桼": 4058,
      "梁": 4059,
      "梅": 4060,
      "梆": 4061,
      "梏": 4062,
      "梓": 4063,
      "梗": 4064,
      "條": 4065,
      "梠": 4066,
      "梢": 4067,
      "梦": 4068,
      "梧": 4069,
      "梨": 4070,
      "梭": 4071,
      "梯": 4072,
      "械": 4073,
      "梳": 4074,
      "梵": 4075,
      "检": 4076,
      "棂": 4077,
      "棄": 4078,
      "棉": 4079,
      "棋": 4080,
      "棍": 4081,
      "棒": 4082,
      "棕": 4083,
      "棗": 4084,
      "棘": 4085,
      "棚": 4086,
      "棠": 4087,
      "棣": 4088,
      "棨": 4089,
      "棪": 4090,
      "森": 4091,
      "棱": 4092,
      "棵": 4093,
      "棹": 4094,
      "棺": 4095,
      "椁": 4096,
      "椅": 4097,
      "椋": 4098,
      "植": 4099,
      "椎": 4100,
      "椒": 4101,
      "椟": 4102,
      "椤": 4103,
      "椪": 4104,
      "椭": 4105,
      "椰": 4106,
      "椴": 4107,
      "椹": 4108,
      "椽": 4109,
      "椿": 4110,
      "楂": 4111,
      "楔": 4112,
      "楚": 4113,
      "楞": 4114,
      "楠": 4115,
      "楣": 4116,
      "楫": 4117,
      "業": 4118,
      "極": 4119,
      "楷": 4120,
      "楸": 4121,
      "楹": 4122,
      "楼": 4123,
      "楽": 4124,
      "概": 4125,
      "榄": 4126,
      "榆": 4127,
      "榈": 4128,
      "榉": 4129,
      "榔": 4130,
      "榕": 4131,
      "榖": 4132,
      "榘": 4133,
      "榛": 4134,
      "榜": 4135,
      "榧": 4136,
      "榨": 4137,
      "榭": 4138,
      "榮": 4139,
      "榴": 4140,
      "榷": 4141,
      "榻": 4142,
      "槁": 4143,
      "槃": 4144,
      "槊": 4145,
      "槌": 4146,
      "槎": 4147,
      "槐": 4148,
      "槛": 4149,
      "槟": 4150,
      "槲": 4151,
      "槽": 4152,
      "槿": 4153,
      "樂": 4154,
      "樊": 4155,
      "樗": 4156,
      "樘": 4157,
      "樟": 4158,
      "模": 4159,
      "樣": 4160,
      "横": 4161,
      "樯": 4162,
      "樱": 4163,
      "樵": 4164,
      "樹": 4165,
      "樺": 4166,
      "樽": 4167,
      "樾": 4168,
      "橄": 4169,
      "橇": 4170,
      "橋": 4171,
      "橐": 4172,
      "橘": 4173,
      "橙": 4174,
      "橛": 4175,
      "機": 4176,
      "橡": 4177,
      "橱": 4178,
      "橹": 4179,
      "檀": 4180,
      "檄": 4181,
      "檐": 4182,
      "檗": 4183,
      "檩": 4184,
      "檬": 4185,
      "櫃": 4186,
      "櫈": 4187,
      "欠": 4188,
      "次": 4189,
      "欢": 4190,
      "欣": 4191,
      "欤": 4192,
      "欧": 4193,
      "欲": 4194,
      "欷": 4195,
      "欸": 4196,
      "欹": 4197,
      "欺": 4198,
      "欻": 4199,
      "款": 4200,
      "歃": 4201,
      "歆": 4202,
      "歇": 4203,
      "歉": 4204,
      "歌": 4205,
      "歐": 4206,
      "歘": 4207,
      "歙": 4208,
      "歠": 4209,
      "歡": 4210,
      "止": 4211,
      "正": 4212,
      "此": 4213,
      "步": 4214,
      "武": 4215,
      "歧": 4216,
      "歪": 4217,
      "歲": 4218,
      "歸": 4219,
      "歹": 4220,
      "死": 4221,
      "歼": 4222,
      "殁": 4223,
      "殂": 4224,
      "殃": 4225,
      "殄": 4226,
      "殆": 4227,
      "殇": 4228,
      "殉": 4229,
      "殊": 4230,
      "残": 4231,
      "殍": 4232,
      "殒": 4233,
      "殓": 4234,
      "殖": 4235,
      "殚": 4236,
      "殡": 4237,
      "殪": 4238,
      "殴": 4239,
      "段": 4240,
      "殷": 4241,
      "殿": 4242,
      "毁": 4243,
      "毂": 4244,
      "毅": 4245,
      "毋": 4246,
      "母": 4247,
      "每": 4248,
      "毒": 4249,
      "毓": 4250,
      "比": 4251,
      "毕": 4252,
      "毗": 4253,
      "毙": 4254,
      "毛": 4255,
      "毡": 4256,
      "毫": 4257,
      "毯": 4258,
      "毳": 4259,
      "毽": 4260,
      "氅": 4261,
      "氆": 4262,
      "氇": 4263,
      "氏": 4264,
      "氐": 4265,
      "民": 4266,
      "氓": 4267,
      "气": 4268,
      "氕": 4269,
      "氖": 4270,
      "気": 4271,
      "氘": 4272,
      "氙": 4273,
      "氚": 4274,
      "氛": 4275,
      "氟": 4276,
      "氡": 4277,
      "氢": 4278,
      "氣": 4279,
      "氤": 4280,
      "氦": 4281,
      "氧": 4282,
      "氨": 4283,
      "氩": 4284,
      "氪": 4285,
      "氮": 4286,
      "氯": 4287,
      "氰": 4288,
      "氲": 4289,
      "水": 4290,
      "氵": 4291,
      "永": 4292,
      "氹": 4293,
      "氽": 4294,
      "汀": 4295,
      "汁": 4296,
      "求": 4297,
      "汇": 4298,
      "汉": 4299,
      "汊": 4300,
      "汐": 4301,
      "汕": 4302,
      "汗": 4303,
      "汛": 4304,
      "汜": 4305,
      "汝": 4306,
      "汞": 4307,
      "江": 4308,
      "池": 4309,
      "污": 4310,
      "汤": 4311,
      "汨": 4312,
      "汩": 4313,
      "汪": 4314,
      "汭": 4315,
      "汰": 4316,
      "汲": 4317,
      "汴": 4318,
      "汶": 4319,
      "汹": 4320,
      "決": 4321,
      "汽": 4322,
      "汾": 4323,
      "沁": 4324,
      "沂": 4325,
      "沃": 4326,
      "沅": 4327,
      "沆": 4328,
      "沈": 4329,
      "沉": 4330,
      "沌": 4331,
      "沏": 4332,
      "沐": 4333,
      "沒": 4334,
      "沓": 4335,
      "沔": 4336,
      "沙": 4337,
      "沛": 4338,
      "沟": 4339,
      "没": 4340,
      "沣": 4341,
      "沤": 4342,
      "沥": 4343,
      "沦": 4344,
      "沧": 4345,
      "沪": 4346,
      "沫": 4347,
      "沬": 4348,
      "沭": 4349,
      "沮": 4350,
      "沱": 4351,
      "河": 4352,
      "沷": 4353,
      "沸": 4354,
      "油": 4355,
      "治": 4356,
      "沼": 4357,
      "沽": 4358,
      "沾": 4359,
      "沿": 4360,
      "泄": 4361,
      "泅": 4362,
      "泉": 4363,
      "泊": 4364,
      "泌": 4365,
      "泓": 4366,
      "泔": 4367,
      "法": 4368,
      "泗": 4369,
      "泛": 4370,
      "泞": 4371,
      "泠": 4372,
      "泡": 4373,
      "波": 4374,
      "泣": 4375,
      "泥": 4376,
      "注": 4377,
      "泪": 4378,
      "泫": 4379,
      "泮": 4380,
      "泯": 4381,
      "泰": 4382,
      "泱": 4383,
      "泳": 4384,
      "泵": 4385,
      "泷": 4386,
      "泸": 4387,
      "泺": 4388,
      "泻": 4389,
      "泼": 4390,
      "泽": 4391,
      "泾": 4392,
      "洁": 4393,
      "洄": 4394,
      "洇": 4395,
      "洋": 4396,
      "洌": 4397,
      "洎": 4398,
      "洐": 4399,
      "洒": 4400,
      "洗": 4401,
      "洙": 4402,
      "洛": 4403,
      "洞": 4404,
      "津": 4405,
      "洨": 4406,
      "洪": 4407,
      "洮": 4408,
      "洱": 4409,
      "洲": 4410,
      "洳": 4411,
      "洵": 4412,
      "洹": 4413,
      "活": 4414,
      "洼": 4415,
      "洽": 4416,
      "派": 4417,
      "流": 4418,
      "浃": 4419,
      "浅": 4420,
      "浆": 4421,
      "浇": 4422,
      "浊": 4423,
      "测": 4424,
      "济": 4425,
      "浏": 4426,
      "浐": 4427,
      "浑": 4428,
      "浒": 4429,
      "浓": 4430,
      "浔": 4431,
      "浙": 4432,
      "浚": 4433,
      "浜": 4434,
      "浠": 4435,
      "浣": 4436,
      "浥": 4437,
      "浦": 4438,
      "浩": 4439,
      "浪": 4440,
      "浮": 4441,
      "浴": 4442,
      "海": 4443,
      "浸": 4444,
      "涂": 4445,
      "涅": 4446,
      "消": 4447,
      "涉": 4448,
      "涊": 4449,
      "涌": 4450,
      "涎": 4451,
      "涑": 4452,
      "涓": 4453,
      "涔": 4454,
      "涕": 4455,
      "涘": 4456,
      "涛": 4457,
      "涝": 4458,
      "涞": 4459,
      "涟": 4460,
      "涡": 4461,
      "涣": 4462,
      "涤": 4463,
      "润": 4464,
      "涧": 4465,
      "涨": 4466,
      "涩": 4467,
      "涪": 4468,
      "涮": 4469,
      "涯": 4470,
      "液": 4471,
      "涵": 4472,
      "涸": 4473,
      "涿": 4474,
      "淀": 4475,
      "淄": 4476,
      "淅": 4477,
      "淆": 4478,
      "淇": 4479,
      "淈": 4480,
      "淋": 4481,
      "淌": 4482,
      "淑": 4483,
      "淓": 4484,
      "淖": 4485,
      "淘": 4486,
      "淙": 4487,
      "淝": 4488,
      "淞": 4489,
      "淡": 4490,
      "淤": 4491,
      "淦": 4492,
      "淫": 4493,
      "淬": 4494,
      "淮": 4495,
      "深": 4496,
      "淳": 4497,
      "混": 4498,
      "淹": 4499,
      "添": 4500,
      "淼": 4501,
      "清": 4502,
      "渊": 4503,
      "渌": 4504,
      "渍": 4505,
      "渎": 4506,
      "渐": 4507,
      "渑": 4508,
      "渔": 4509,
      "渗": 4510,
      "渚": 4511,
      "渝": 4512,
      "渠": 4513,
      "渡": 4514,
      "渣": 4515,
      "渤": 4516,
      "渥": 4517,
      "温": 4518,
      "渭": 4519,
      "港": 4520,
      "渲": 4521,
      "渴": 4522,
      "游": 4523,
      "渺": 4524,
      "湃": 4525,
      "湄": 4526,
      "湉": 4527,
      "湍": 4528,
      "湎": 4529,
      "湓": 4530,
      "湖": 4531,
      "湘": 4532,
      "湛": 4533,
      "湟": 4534,
      "湩": 4535,
      "湫": 4536,
      "湮": 4537,
      "湯": 4538,
      "湲": 4539,
      "湾": 4540,
      "湿": 4541,
      "満": 4542,
      "溃": 4543,
      "溅": 4544,
      "溉": 4545,
      "溏": 4546,
      "源": 4547,
      "準": 4548,
      "溘": 4549,
      "溜": 4550,
      "溟": 4551,
      "溢": 4552,
      "溥": 4553,
      "溧": 4554,
      "溪": 4555,
      "溫": 4556,
      "溯": 4557,
      "溱": 4558,
      "溴": 4559,
      "溶": 4560,
      "溺": 4561,
      "溼": 4562,
      "溽": 4563,
      "滁": 4564,
      "滂": 4565,
      "滅": 4566,
      "滇": 4567,
      "滋": 4568,
      "滑": 4569,
      "滓": 4570,
      "滔": 4571,
      "滕": 4572,
      "滖": 4573,
      "滚": 4574,
      "滞": 4575,
      "滟": 4576,
      "满": 4577,
      "滢": 4578,
      "滤": 4579,
      "滥": 4580,
      "滦": 4581,
      "滨": 4582,
      "滩": 4583,
      "滫": 4584,
      "滴": 4585,
      "滹": 4586,
      "滿": 4587,
      "漁": 4588,
      "漂": 4589,
      "漆": 4590,
      "漉": 4591,
      "漏": 4592,
      "漓": 4593,
      "演": 4594,
      "漕": 4595,
      "漠": 4596,
      "漩": 4597,
      "漪": 4598,
      "漫": 4599,
      "漯": 4600,
      "漱": 4601,
      "漳": 4602,
      "漸": 4603,
      "漾": 4604,
      "潇": 4605,
      "潋": 4606,
      "潍": 4607,
      "潘": 4608,
      "潜": 4609,
      "潞": 4610,
      "潟": 4611,
      "潢": 4612,
      "潦": 4613,
      "潭": 4614,
      "潮": 4615,
      "潴": 4616,
      "潸": 4617,
      "潺": 4618,
      "潼": 4619,
      "澄": 4620,
      "澈": 4621,
      "澍": 4622,
      "澎": 4623,
      "澔": 4624,
      "澜": 4625,
      "澡": 4626,
      "澦": 4627,
      "澧": 4628,
      "澳": 4629,
      "澶": 4630,
      "澹": 4631,
      "激": 4632,
      "濂": 4633,
      "濑": 4634,
      "濒": 4635,
      "濕": 4636,
      "濛": 4637,
      "濞": 4638,
      "濠": 4639,
      "濡": 4640,
      "濮": 4641,
      "濯": 4642,
      "濺": 4643,
      "瀑": 4644,
      "瀚": 4645,
      "瀛": 4646,
      "瀣": 4647,
      "灌": 4648,
      "灏": 4649,
      "灜": 4650,
      "灞": 4651,
      "火": 4652,
      "灬": 4653,
      "灭": 4654,
      "灯": 4655,
      "灰": 4656,
      "灵": 4657,
      "灶": 4658,
      "灸": 4659,
      "灼": 4660,
      "灾": 4661,
      "灿": 4662,
      "炀": 4663,
      "炅": 4664,
      "炆": 4665,
      "炉": 4666,
      "炊": 4667,
      "炎": 4668,
      "炏": 4669,
      "炒": 4670,
      "炔": 4671,
      "炕": 4672,
      "炖": 4673,
      "炙": 4674,
      "炜": 4675,
      "炝": 4676,
      "炫": 4677,
      "炬": 4678,
      "炭": 4679,
      "炮": 4680,
      "炯": 4681,
      "炳": 4682,
      "炷": 4683,
      "炸": 4684,
      "点": 4685,
      "為": 4686,
      "炼": 4687,
      "炽": 4688,
      "烀": 4689,
      "烁": 4690,
      "烂": 4691,
      "烃": 4692,
      "烈": 4693,
      "烊": 4694,
      "烏": 4695,
      "烘": 4696,
      "烙": 4697,
      "烛": 4698,
      "烟": 4699,
      "烤": 4700,
      "烦": 4701,
      "烧": 4702,
      "烨": 4703,
      "烩": 4704,
      "烫": 4705,
      "烬": 4706,
      "热": 4707,
      "烯": 4708,
      "烷": 4709,
      "烹": 4710,
      "烽": 4711,
      "焉": 4712,
      "焊": 4713,
      "焐": 4714,
      "焓": 4715,
      "焕": 4716,
      "焖": 4717,
      "焗": 4718,
      "焘": 4719,
      "焙": 4720,
      "焚": 4721,
      "無": 4722,
      "焦": 4723,
      "焯": 4724,
      "焰": 4725,
      "焱": 4726,
      "然": 4727,
      "煅": 4728,
      "煊": 4729,
      "煌": 4730,
      "煎": 4731,
      "煙": 4732,
      "煜": 4733,
      "煞": 4734,
      "煣": 4735,
      "煤": 4736,
      "煦": 4737,
      "照": 4738,
      "煨": 4739,
      "煩": 4740,
      "煮": 4741,
      "煲": 4742,
      "煳": 4743,
      "煸": 4744,
      "煽": 4745,
      "熄": 4746,
      "熇": 4747,
      "熊": 4748,
      "熏": 4749,
      "熔": 4750,
      "熙": 4751,
      "熟": 4752,
      "熠": 4753,
      "熨": 4754,
      "熬": 4755,
      "熱": 4756,
      "熳": 4757,
      "熵": 4758,
      "熹": 4759,
      "燃": 4760,
      "燊": 4761,
      "燋": 4762,
      "燎": 4763,
      "燒": 4764,
      "燔": 4765,
      "燕": 4766,
      "燚": 4767,
      "燥": 4768,
      "燧": 4769,
      "燮": 4770,
      "燹": 4771,
      "燼": 4772,
      "爆": 4773,
      "爚": 4774,
      "爨": 4775,
      "爪": 4776,
      "爬": 4777,
      "爰": 4778,
      "爱": 4779,
      "爵": 4780,
      "父": 4781,
      "爷": 4782,
      "爸": 4783,
      "爹": 4784,
      "爻": 4785,
      "爽": 4786,
      "爾": 4787,
      "爿": 4788,
      "片": 4789,
      "版": 4790,
      "牌": 4791,
      "牍": 4792,
      "牒": 4793,
      "牖": 4794,
      "牙": 4795,
      "牛": 4796,
      "牟": 4797,
      "牠": 4798,
      "牡": 4799,
      "牢": 4800,
      "牦": 4801,
      "牧": 4802,
      "物": 4803,
      "牯": 4804,
      "牲": 4805,
      "牵": 4806,
      "特": 4807,
      "牺": 4808,
      "犀": 4809,
      "犁": 4810,
      "犄": 4811,
      "犇": 4812,
      "犊": 4813,
      "犍": 4814,
      "犏": 4815,
      "犒": 4816,
      "犟": 4817,
      "犬": 4818,
      "犭": 4819,
      "犯": 4820,
      "犰": 4821,
      "犴": 4822,
      "状": 4823,
      "犷": 4824,
      "犸": 4825,
      "犹": 4826,
      "狁": 4827,
      "狂": 4828,
      "狄": 4829,
      "狈": 4830,
      "狍": 4831,
      "狎": 4832,
      "狐": 4833,
      "狒": 4834,
      "狗": 4835,
      "狙": 4836,
      "狝": 4837,
      "狞": 4838,
      "狠": 4839,
      "狡": 4840,
      "狩": 4841,
      "独": 4842,
      "狭": 4843,
      "狮": 4844,
      "狯": 4845,
      "狰": 4846,
      "狱": 4847,
      "狲": 4848,
      "狳": 4849,
      "狸": 4850,
      "狻": 4851,
      "狼": 4852,
      "猁": 4853,
      "猊": 4854,
      "猎": 4855,
      "猕": 4856,
      "猖": 4857,
      "猗": 4858,
      "猛": 4859,
      "猜": 4860,
      "猝": 4861,
      "猞": 4862,
      "猢": 4863,
      "猥": 4864,
      "猩": 4865,
      "猪": 4866,
      "猫": 4867,
      "猬": 4868,
      "献": 4869,
      "猰": 4870,
      "猴": 4871,
      "猷": 4872,
      "猹": 4873,
      "猾": 4874,
      "猿": 4875,
      "獅": 4876,
      "獎": 4877,
      "獐": 4878,
      "獒": 4879,
      "獗": 4880,
      "獠": 4881,
      "獬": 4882,
      "獭": 4883,
      "獯": 4884,
      "獲": 4885,
      "獴": 4886,
      "獵": 4887,
      "獾": 4888,
      "玄": 4889,
      "率": 4890,
      "玉": 4891,
      "王": 4892,
      "玑": 4893,
      "玕": 4894,
      "玖": 4895,
      "玛": 4896,
      "玟": 4897,
      "玥": 4898,
      "玦": 4899,
      "玩": 4900,
      "玫": 4901,
      "玮": 4902,
      "环": 4903,
      "现": 4904,
      "玲": 4905,
      "玳": 4906,
      "玷": 4907,
      "玺": 4908,
      "玻": 4909,
      "珀": 4910,
      "珂": 4911,
      "珅": 4912,
      "珈": 4913,
      "珊": 4914,
      "珍": 4915,
      "珏": 4916,
      "珐": 4917,
      "珑": 4918,
      "珙": 4919,
      "珞": 4920,
      "珠": 4921,
      "珣": 4922,
      "珥": 4923,
      "珩": 4924,
      "珪": 4925,
      "班": 4926,
      "珮": 4927,
      "珰": 4928,
      "珲": 4929,
      "珺": 4930,
      "現": 4931,
      "球": 4932,
      "琅": 4933,
      "理": 4934,
      "琉": 4935,
      "琊": 4936,
      "琍": 4937,
      "琏": 4938,
      "琐": 4939,
      "琚": 4940,
      "琛": 4941,
      "琢": 4942,
      "琥": 4943,
      "琦": 4944,
      "琨": 4945,
      "琪": 4946,
      "琬": 4947,
      "琮": 4948,
      "琰": 4949,
      "琳": 4950,
      "琴": 4951,
      "琵": 4952,
      "琶": 4953,
      "琹": 4954,
      "琼": 4955,
      "瑁": 4956,
      "瑄": 4957,
      "瑕": 4958,
      "瑙": 4959,
      "瑚": 4960,
      "瑛": 4961,
      "瑜": 4962,
      "瑝": 4963,
      "瑞": 4964,
      "瑟": 4965,
      "瑪": 4966,
      "瑭": 4967,
      "瑰": 4968,
      "瑶": 4969,
      "瑷": 4970,
      "瑾": 4971,
      "璀": 4972,
      "璃": 4973,
      "璇": 4974,
      "璋": 4975,
      "璎": 4976,
      "璐": 4977,
      "璘": 4978,
      "璜": 4979,
      "璞": 4980,
      "璟": 4981,
      "璧": 4982,
      "璨": 4983,
      "環": 4984,
      "璿": 4985,
      "瓒": 4986,
      "瓜": 4987,
      "瓠": 4988,
      "瓢": 4989,
      "瓣": 4990,
      "瓤": 4991,
      "瓦": 4992,
      "瓮": 4993,
      "瓯": 4994,
      "瓴": 4995,
      "瓶": 4996,
      "瓷": 4997,
      "甄": 4998,
      "甑": 4999,
      "甓": 5000,
      "甘": 5001,
      "甙": 5002,
      "甚": 5003,
      "甜": 5004,
      "生": 5005,
      "甥": 5006,
      "用": 5007,
      "甩": 5008,
      "甫": 5009,
      "甬": 5010,
      "甭": 5011,
      "甯": 5012,
      "田": 5013,
      "由": 5014,
      "甲": 5015,
      "申": 5016,
      "电": 5017,
      "男": 5018,
      "甸": 5019,
      "町": 5020,
      "画": 5021,
      "畅": 5022,
      "畈": 5023,
      "界": 5024,
      "畏": 5025,
      "畔": 5026,
      "留": 5027,
      "畚": 5028,
      "畛": 5029,
      "畜": 5030,
      "略": 5031,
      "畦": 5032,
      "番": 5033,
      "畲": 5034,
      "畴": 5035,
      "當": 5036,
      "畸": 5037,
      "畹": 5038,
      "畿": 5039,
      "疆": 5040,
      "疋": 5041,
      "疏": 5042,
      "疑": 5043,
      "疔": 5044,
      "疖": 5045,
      "疗": 5046,
      "疙": 5047,
      "疚": 5048,
      "疝": 5049,
      "疟": 5050,
      "疡": 5051,
      "疣": 5052,
      "疤": 5053,
      "疥": 5054,
      "疫": 5055,
      "疮": 5056,
      "疯": 5057,
      "疱": 5058,
      "疲": 5059,
      "疵": 5060,
      "疸": 5061,
      "疹": 5062,
      "疼": 5063,
      "疽": 5064,
      "疾": 5065,
      "痂": 5066,
      "病": 5067,
      "症": 5068,
      "痈": 5069,
      "痉": 5070,
      "痊": 5071,
      "痍": 5072,
      "痒": 5073,
      "痔": 5074,
      "痕": 5075,
      "痘": 5076,
      "痛": 5077,
      "痞": 5078,
      "痢": 5079,
      "痣": 5080,
      "痤": 5081,
      "痦": 5082,
      "痧": 5083,
      "痨": 5084,
      "痪": 5085,
      "痫": 5086,
      "痰": 5087,
      "痱": 5088,
      "痴": 5089,
      "痹": 5090,
      "痼": 5091,
      "痿": 5092,
      "瘀": 5093,
      "瘁": 5094,
      "瘆": 5095,
      "瘌": 5096,
      "瘐": 5097,
      "瘙": 5098,
      "瘟": 5099,
      "瘠": 5100,
      "瘢": 5101,
      "瘤": 5102,
      "瘦": 5103,
      "瘩": 5104,
      "瘪": 5105,
      "瘫": 5106,
      "瘮": 5107,
      "瘴": 5108,
      "瘸": 5109,
      "瘾": 5110,
      "瘿": 5111,
      "癌": 5112,
      "癖": 5113,
      "癜": 5114,
      "癞": 5115,
      "癣": 5116,
      "癫": 5117,
      "癯": 5118,
      "癸": 5119,
      "登": 5120,
      "發": 5121,
      "白": 5122,
      "百": 5123,
      "皂": 5124,
      "的": 5125,
      "皆": 5126,
      "皇": 5127,
      "皈": 5128,
      "皋": 5129,
      "皎": 5130,
      "皑": 5131,
      "皓": 5132,
      "皖": 5133,
      "皙": 5134,
      "皮": 5135,
      "皱": 5136,
      "皲": 5137,
      "皴": 5138,
      "皿": 5139,
      "盂": 5140,
      "盅": 5141,
      "盆": 5142,
      "盈": 5143,
      "益": 5144,
      "盍": 5145,
      "盎": 5146,
      "盏": 5147,
      "盐": 5148,
      "监": 5149,
      "盒": 5150,
      "盔": 5151,
      "盖": 5152,
      "盗": 5153,
      "盘": 5154,
      "盛": 5155,
      "盜": 5156,
      "盟": 5157,
      "盥": 5158,
      "盬": 5159,
      "目": 5160,
      "盯": 5161,
      "盱": 5162,
      "盲": 5163,
      "直": 5164,
      "相": 5165,
      "盹": 5166,
      "盼": 5167,
      "盾": 5168,
      "省": 5169,
      "眄": 5170,
      "眆": 5171,
      "眇": 5172,
      "眈": 5173,
      "眉": 5174,
      "看": 5175,
      "県": 5176,
      "眙": 5177,
      "真": 5178,
      "眠": 5179,
      "眦": 5180,
      "眨": 5181,
      "眩": 5182,
      "眬": 5183,
      "眯": 5184,
      "眶": 5185,
      "眷": 5186,
      "眸": 5187,
      "眺": 5188,
      "眼": 5189,
      "眾": 5190,
      "着": 5191,
      "睁": 5192,
      "睇": 5193,
      "睐": 5194,
      "睑": 5195,
      "睚": 5196,
      "睛": 5197,
      "睡": 5198,
      "睢": 5199,
      "督": 5200,
      "睥": 5201,
      "睦": 5202,
      "睨": 5203,
      "睫": 5204,
      "睬": 5205,
      "睹": 5206,
      "睽": 5207,
      "睾": 5208,
      "睿": 5209,
      "瞀": 5210,
      "瞄": 5211,
      "瞅": 5212,
      "瞇": 5213,
      "瞋": 5214,
      "瞌": 5215,
      "瞍": 5216,
      "瞎": 5217,
      "瞑": 5218,
      "瞒": 5219,
      "瞟": 5220,
      "瞠": 5221,
      "瞥": 5222,
      "瞧": 5223,
      "瞩": 5224,
      "瞪": 5225,
      "瞬": 5226,
      "瞭": 5227,
      "瞰": 5228,
      "瞳": 5229,
      "瞻": 5230,
      "瞽": 5231,
      "瞿": 5232,
      "矇": 5233,
      "矍": 5234,
      "矗": 5235,
      "矛": 5236,
      "矜": 5237,
      "矢": 5238,
      "矣": 5239,
      "知": 5240,
      "矩": 5241,
      "矫": 5242,
      "矬": 5243,
      "短": 5244,
      "矮": 5245,
      "石": 5246,
      "矶": 5247,
      "矸": 5248,
      "矽": 5249,
      "矾": 5250,
      "矿": 5251,
      "砀": 5252,
      "码": 5253,
      "砂": 5254,
      "砌": 5255,
      "砍": 5256,
      "砒": 5257,
      "研": 5258,
      "砖": 5259,
      "砚": 5260,
      "砝": 5261,
      "砣": 5262,
      "砥": 5263,
      "砦": 5264,
      "砧": 5265,
      "砩": 5266,
      "砬": 5267,
      "砭": 5268,
      "砰": 5269,
      "破": 5270,
      "砷": 5271,
      "砸": 5272,
      "砹": 5273,
      "砺": 5274,
      "砻": 5275,
      "砾": 5276,
      "础": 5277,
      "硅": 5278,
      "硌": 5279,
      "硎": 5280,
      "硏": 5281,
      "硒": 5282,
      "硕": 5283,
      "硖": 5284,
      "硚": 5285,
      "硝": 5286,
      "硫": 5287,
      "硬": 5288,
      "确": 5289,
      "硼": 5290,
      "碉": 5291,
      "碌": 5292,
      "碍": 5293,
      "碎": 5294,
      "碏": 5295,
      "碑": 5296,
      "碗": 5297,
      "碘": 5298,
      "碚": 5299,
      "碛": 5300,
      "碜": 5301,
      "碟": 5302,
      "碡": 5303,
      "碣": 5304,
      "碧": 5305,
      "碰": 5306,
      "碱": 5307,
      "碳": 5308,
      "碴": 5309,
      "碾": 5310,
      "磁": 5311,
      "磅": 5312,
      "磊": 5313,
      "磋": 5314,
      "磐": 5315,
      "磕": 5316,
      "磙": 5317,
      "磞": 5318,
      "磡": 5319,
      "磨": 5320,
      "磬": 5321,
      "磴": 5322,
      "磷": 5323,
      "磺": 5324,
      "礁": 5325,
      "礅": 5326,
      "礓": 5327,
      "礴": 5328,
      "示": 5329,
      "礼": 5330,
      "社": 5331,
      "祀": 5332,
      "祁": 5333,
      "祆": 5334,
      "祇": 5335,
      "祈": 5336,
      "祉": 5337,
      "祎": 5338,
      "祐": 5339,
      "祓": 5340,
      "祖": 5341,
      "祗": 5342,
      "祚": 5343,
      "祛": 5344,
      "祜": 5345,
      "祝": 5346,
      "神": 5347,
      "祟": 5348,
      "祠": 5349,
      "祥": 5350,
      "祧": 5351,
      "票": 5352,
      "祭": 5353,
      "祯": 5354,
      "祷": 5355,
      "祸": 5356,
      "祺": 5357,
      "禀": 5358,
      "禁": 5359,
      "禄": 5360,
      "禅": 5361,
      "禊": 5362,
      "福": 5363,
      "禤": 5364,
      "禧": 5365,
      "禮": 5366,
      "禳": 5367,
      "禹": 5368,
      "禺": 5369,
      "离": 5370,
      "禽": 5371,
      "禾": 5372,
      "秀": 5373,
      "私": 5374,
      "秃": 5375,
      "秆": 5376,
      "秉": 5377,
      "秋": 5378,
      "种": 5379,
      "科": 5380,
      "秒": 5381,
      "秕": 5382,
      "秘": 5383,
      "租": 5384,
      "秣": 5385,
      "秤": 5386,
      "秦": 5387,
      "秧": 5388,
      "秩": 5389,
      "秫": 5390,
      "秭": 5391,
      "积": 5392,
      "称": 5393,
      "秸": 5394,
      "移": 5395,
      "秽": 5396,
      "稀": 5397,
      "程": 5398,
      "稍": 5399,
      "税": 5400,
      "稔": 5401,
      "稗": 5402,
      "稚": 5403,
      "稜": 5404,
      "稞": 5405,
      "稠": 5406,
      "稣": 5407,
      "稧": 5408,
      "種": 5409,
      "稳": 5410,
      "稷": 5411,
      "稹": 5412,
      "稻": 5413,
      "稼": 5414,
      "稽": 5415,
      "稿": 5416,
      "穆": 5417,
      "穑": 5418,
      "穗": 5419,
      "穩": 5420,
      "穫": 5421,
      "穰": 5422,
      "穴": 5423,
      "究": 5424,
      "穷": 5425,
      "穹": 5426,
      "空": 5427,
      "穿": 5428,
      "突": 5429,
      "窃": 5430,
      "窄": 5431,
      "窈": 5432,
      "窋": 5433,
      "窍": 5434,
      "窑": 5435,
      "窒": 5436,
      "窕": 5437,
      "窖": 5438,
      "窗": 5439,
      "窘": 5440,
      "窜": 5441,
      "窝": 5442,
      "窟": 5443,
      "窠": 5444,
      "窣": 5445,
      "窥": 5446,
      "窦": 5447,
      "窨": 5448,
      "窩": 5449,
      "窮": 5450,
      "窸": 5451,
      "窾": 5452,
      "窿": 5453,
      "立": 5454,
      "竖": 5455,
      "站": 5456,
      "竞": 5457,
      "竟": 5458,
      "章": 5459,
      "竣": 5460,
      "童": 5461,
      "竦": 5462,
      "竭": 5463,
      "端": 5464,
      "竹": 5465,
      "竺": 5466,
      "竽": 5467,
      "竿": 5468,
      "笃": 5469,
      "笄": 5470,
      "笆": 5471,
      "笈": 5472,
      "笋": 5473,
      "笏": 5474,
      "笑": 5475,
      "笔": 5476,
      "笕": 5477,
      "笙": 5478,
      "笛": 5479,
      "笞": 5480,
      "笠": 5481,
      "笤": 5482,
      "笥": 5483,
      "符": 5484,
      "笨": 5485,
      "第": 5486,
      "笮": 5487,
      "笳": 5488,
      "笸": 5489,
      "笺": 5490,
      "笼": 5491,
      "笾": 5492,
      "等": 5493,
      "筊": 5494,
      "筋": 5495,
      "筏": 5496,
      "筐": 5497,
      "筑": 5498,
      "筒": 5499,
      "答": 5500,
      "策": 5501,
      "筘": 5502,
      "筚": 5503,
      "筛": 5504,
      "筜": 5505,
      "筝": 5506,
      "筠": 5507,
      "筢": 5508,
      "筮": 5509,
      "筱": 5510,
      "筲": 5511,
      "筳": 5512,
      "筵": 5513,
      "筷": 5514,
      "筹": 5515,
      "筼": 5516,
      "签": 5517,
      "简": 5518,
      "箅": 5519,
      "箍": 5520,
      "箐": 5521,
      "箔": 5522,
      "箕": 5523,
      "算": 5524,
      "箜": 5525,
      "管": 5526,
      "箢": 5527,
      "箨": 5528,
      "箩": 5529,
      "箪": 5530,
      "箫": 5531,
      "箬": 5532,
      "箭": 5533,
      "箱": 5534,
      "箴": 5535,
      "箸": 5536,
      "篁": 5537,
      "篆": 5538,
      "篇": 5539,
      "築": 5540,
      "篌": 5541,
      "篑": 5542,
      "篓": 5543,
      "篙": 5544,
      "篝": 5545,
      "篡": 5546,
      "篥": 5547,
      "篦": 5548,
      "篮": 5549,
      "篱": 5550,
      "篳": 5551,
      "篷": 5552,
      "篼": 5553,
      "篾": 5554,
      "簇": 5555,
      "簌": 5556,
      "簟": 5557,
      "簧": 5558,
      "簪": 5559,
      "簫": 5560,
      "簸": 5561,
      "簿": 5562,
      "籁": 5563,
      "籃": 5564,
      "籍": 5565,
      "米": 5566,
      "籴": 5567,
      "类": 5568,
      "籼": 5569,
      "籽": 5570,
      "粄": 5571,
      "粉": 5572,
      "粑": 5573,
      "粒": 5574,
      "粕": 5575,
      "粗": 5576,
      "粘": 5577,
      "粝": 5578,
      "粟": 5579,
      "粤": 5580,
      "粥": 5581,
      "粧": 5582,
      "粪": 5583,
      "粮": 5584,
      "粱": 5585,
      "粳": 5586,
      "粹": 5587,
      "粼": 5588,
      "粽": 5589,
      "精": 5590,
      "糅": 5591,
      "糊": 5592,
      "糌": 5593,
      "糍": 5594,
      "糕": 5595,
      "糖": 5596,
      "糗": 5597,
      "糙": 5598,
      "糜": 5599,
      "糟": 5600,
      "糠": 5601,
      "糧": 5602,
      "糨": 5603,
      "糯": 5604,
      "系": 5605,
      "紊": 5606,
      "納": 5607,
      "紙": 5608,
      "級": 5609,
      "素": 5610,
      "索": 5611,
      "紧": 5612,
      "紫": 5613,
      "累": 5614,
      "細": 5615,
      "終": 5616,
      "絃": 5617,
      "結": 5618,
      "絜": 5619,
      "給": 5620,
      "絮": 5621,
      "統": 5622,
      "絲": 5623,
      "絷": 5624,
      "綁": 5625,
      "經": 5626,
      "綝": 5627,
      "緊": 5628,
      "線": 5629,
      "編": 5630,
      "緫": 5631,
      "縻": 5632,
      "績": 5633,
      "繁": 5634,
      "繇": 5635,
      "繞": 5636,
      "繩": 5637,
      "繼": 5638,
      "纂": 5639,
      "續": 5640,
      "纛": 5641,
      "纠": 5642,
      "纡": 5643,
      "红": 5644,
      "纣": 5645,
      "纤": 5646,
      "纥": 5647,
      "约": 5648,
      "级": 5649,
      "纨": 5650,
      "纪": 5651,
      "纫": 5652,
      "纬": 5653,
      "纭": 5654,
      "纮": 5655,
      "纯": 5656,
      "纰": 5657,
      "纱": 5658,
      "纲": 5659,
      "纳": 5660,
      "纵": 5661,
      "纶": 5662,
      "纷": 5663,
      "纸": 5664,
      "纹": 5665,
      "纺": 5666,
      "纽": 5667,
      "纾": 5668,
      "线": 5669,
      "绀": 5670,
      "练": 5671,
      "组": 5672,
      "绅": 5673,
      "细": 5674,
      "织": 5675,
      "终": 5676,
      "绉": 5677,
      "绊": 5678,
      "绌": 5679,
      "绍": 5680,
      "绎": 5681,
      "经": 5682,
      "绐": 5683,
      "绑": 5684,
      "绒": 5685,
      "结": 5686,
      "绔": 5687,
      "绕": 5688,
      "绘": 5689,
      "给": 5690,
      "绚": 5691,
      "绛": 5692,
      "络": 5693,
      "绝": 5694,
      "绞": 5695,
      "统": 5696,
      "绡": 5697,
      "绢": 5698,
      "绣": 5699,
      "绥": 5700,
      "绦": 5701,
      "继": 5702,
      "绨": 5703,
      "绩": 5704,
      "绪": 5705,
      "绫": 5706,
      "续": 5707,
      "绮": 5708,
      "绯": 5709,
      "绰": 5710,
      "绱": 5711,
      "绳": 5712,
      "维": 5713,
      "绵": 5714,
      "绶": 5715,
      "绷": 5716,
      "绸": 5717,
      "绺": 5718,
      "绻": 5719,
      "综": 5720,
      "绽": 5721,
      "绾": 5722,
      "绿": 5723,
      "缀": 5724,
      "缁": 5725,
      "缄": 5726,
      "缅": 5727,
      "缆": 5728,
      "缇": 5729,
      "缈": 5730,
      "缉": 5731,
      "缍": 5732,
      "缎": 5733,
      "缑": 5734,
      "缓": 5735,
      "缔": 5736,
      "缕": 5737,
      "编": 5738,
      "缗": 5739,
      "缘": 5740,
      "缙": 5741,
      "缚": 5742,
      "缛": 5743,
      "缜": 5744,
      "缝": 5745,
      "缟": 5746,
      "缠": 5747,
      "缡": 5748,
      "缢": 5749,
      "缣": 5750,
      "缤": 5751,
      "缥": 5752,
      "缨": 5753,
      "缩": 5754,
      "缪": 5755,
      "缫": 5756,
      "缬": 5757,
      "缭": 5758,
      "缮": 5759,
      "缯": 5760,
      "缰": 5761,
      "缱": 5762,
      "缳": 5763,
      "缴": 5764,
      "缶": 5765,
      "缸": 5766,
      "缺": 5767,
      "罂": 5768,
      "罄": 5769,
      "罅": 5770,
      "罐": 5771,
      "网": 5772,
      "罔": 5773,
      "罕": 5774,
      "罗": 5775,
      "罘": 5776,
      "罚": 5777,
      "罝": 5778,
      "罟": 5779,
      "罡": 5780,
      "罢": 5781,
      "罥": 5782,
      "罩": 5783,
      "罪": 5784,
      "置": 5785,
      "署": 5786,
      "罴": 5787,
      "罹": 5788,
      "罾": 5789,
      "羁": 5790,
      "羊": 5791,
      "羌": 5792,
      "美": 5793,
      "羔": 5794,
      "羚": 5795,
      "羞": 5796,
      "羟": 5797,
      "羡": 5798,
      "群": 5799,
      "羧": 5800,
      "羨": 5801,
      "義": 5802,
      "羯": 5803,
      "羰": 5804,
      "羲": 5805,
      "羸": 5806,
      "羹": 5807,
      "羽": 5808,
      "羿": 5809,
      "翀": 5810,
      "翁": 5811,
      "翅": 5812,
      "翊": 5813,
      "翌": 5814,
      "翎": 5815,
      "習": 5816,
      "翔": 5817,
      "翕": 5818,
      "翘": 5819,
      "翟": 5820,
      "翠": 5821,
      "翡": 5822,
      "翦": 5823,
      "翩": 5824,
      "翰": 5825,
      "翱": 5826,
      "翳": 5827,
      "翻": 5828,
      "翼": 5829,
      "耀": 5830,
      "老": 5831,
      "考": 5832,
      "耄": 5833,
      "者": 5834,
      "耆": 5835,
      "耋": 5836,
      "而": 5837,
      "耍": 5838,
      "耐": 5839,
      "耒": 5840,
      "耕": 5841,
      "耗": 5842,
      "耘": 5843,
      "耙": 5844,
      "耜": 5845,
      "耦": 5846,
      "耰": 5847,
      "耳": 5848,
      "耶": 5849,
      "耷": 5850,
      "耸": 5851,
      "耻": 5852,
      "耽": 5853,
      "耿": 5854,
      "聂": 5855,
      "聃": 5856,
      "聆": 5857,
      "聊": 5858,
      "聋": 5859,
      "职": 5860,
      "聒": 5861,
      "联": 5862,
      "聖": 5863,
      "聘": 5864,
      "聚": 5865,
      "聡": 5866,
      "聩": 5867,
      "聪": 5868,
      "聰": 5869,
      "聱": 5870,
      "聲": 5871,
      "聽": 5872,
      "聿": 5873,
      "肃": 5874,
      "肄": 5875,
      "肆": 5876,
      "肇": 5877,
      "肉": 5878,
      "肋": 5879,
      "肌": 5880,
      "肓": 5881,
      "肖": 5882,
      "肘": 5883,
      "肚": 5884,
      "肛": 5885,
      "肝": 5886,
      "肠": 5887,
      "股": 5888,
      "肢": 5889,
      "肤": 5890,
      "肥": 5891,
      "肩": 5892,
      "肪": 5893,
      "肫": 5894,
      "肮": 5895,
      "肯": 5896,
      "肱": 5897,
      "育": 5898,
      "肴": 5899,
      "肺": 5900,
      "肼": 5901,
      "肽": 5902,
      "肾": 5903,
      "肿": 5904,
      "胀": 5905,
      "胁": 5906,
      "胃": 5907,
      "胄": 5908,
      "胆": 5909,
      "背": 5910,
      "胎": 5911,
      "胖": 5912,
      "胗": 5913,
      "胚": 5914,
      "胛": 5915,
      "胜": 5916,
      "胝": 5917,
      "胞": 5918,
      "胡": 5919,
      "胤": 5920,
      "胥": 5921,
      "胧": 5922,
      "胨": 5923,
      "胪": 5924,
      "胫": 5925,
      "胭": 5926,
      "胯": 5927,
      "胰": 5928,
      "胱": 5929,
      "胳": 5930,
      "胶": 5931,
      "胸": 5932,
      "胺": 5933,
      "胼": 5934,
      "能": 5935,
      "脂": 5936,
      "脅": 5937,
      "脆": 5938,
      "脉": 5939,
      "脊": 5940,
      "脍": 5941,
      "脎": 5942,
      "脏": 5943,
      "脐": 5944,
      "脑": 5945,
      "脓": 5946,
      "脖": 5947,
      "脘": 5948,
      "脚": 5949,
      "脩": 5950,
      "脯": 5951,
      "脱": 5952,
      "脲": 5953,
      "脸": 5954,
      "脾": 5955,
      "腆": 5956,
      "腈": 5957,
      "腊": 5958,
      "腋": 5959,
      "腌": 5960,
      "腐": 5961,
      "腑": 5962,
      "腓": 5963,
      "腔": 5964,
      "腕": 5965,
      "腚": 5966,
      "腥": 5967,
      "腦": 5968,
      "腩": 5969,
      "腭": 5970,
      "腮": 5971,
      "腰": 5972,
      "腱": 5973,
      "腳": 5974,
      "腴": 5975,
      "腸": 5976,
      "腹": 5977,
      "腺": 5978,
      "腻": 5979,
      "腼": 5980,
      "腾": 5981,
      "腿": 5982,
      "膀": 5983,
      "膈": 5984,
      "膊": 5985,
      "膏": 5986,
      "膑": 5987,
      "膘": 5988,
      "膛": 5989,
      "膜": 5990,
      "膝": 5991,
      "膦": 5992,
      "膨": 5993,
      "膳": 5994,
      "膺": 5995,
      "膻": 5996,
      "膽": 5997,
      "臀": 5998,
      "臂": 5999,
      "臃": 6000,
      "臆": 6001,
      "臉": 6002,
      "臊": 6003,
      "臌": 6004,
      "臣": 6005,
      "臧": 6006,
      "自": 6007,
      "臬": 6008,
      "臭": 6009,
      "至": 6010,
      "致": 6011,
      "臻": 6012,
      "臼": 6013,
      "臾": 6014,
      "舀": 6015,
      "舁": 6016,
      "舂": 6017,
      "舅": 6018,
      "舆": 6019,
      "興": 6020,
      "舌": 6021,
      "舍": 6022,
      "舐": 6023,
      "舒": 6024,
      "舔": 6025,
      "舖": 6026,
      "舛": 6027,
      "舜": 6028,
      "舞": 6029,
      "舟": 6030,
      "舡": 6031,
      "舢": 6032,
      "航": 6033,
      "舫": 6034,
      "般": 6035,
      "舰": 6036,
      "舱": 6037,
      "舳": 6038,
      "舴": 6039,
      "舵": 6040,
      "舶": 6041,
      "舷": 6042,
      "舸": 6043,
      "船": 6044,
      "舻": 6045,
      "艄": 6046,
      "艇": 6047,
      "艉": 6048,
      "艋": 6049,
      "艘": 6050,
      "艮": 6051,
      "良": 6052,
      "艰": 6053,
      "色": 6054,
      "艳": 6055,
      "艹": 6056,
      "艺": 6057,
      "艾": 6058,
      "艿": 6059,
      "节": 6060,
      "芃": 6061,
      "芄": 6062,
      "芈": 6063,
      "芊": 6064,
      "芋": 6065,
      "芍": 6066,
      "芎": 6067,
      "芒": 6068,
      "芙": 6069,
      "芜": 6070,
      "芝": 6071,
      "芡": 6072,
      "芥": 6073,
      "芦": 6074,
      "芨": 6075,
      "芩": 6076,
      "芪": 6077,
      "芫": 6078,
      "芬": 6079,
      "芭": 6080,
      "芮": 6081,
      "芯": 6082,
      "芰": 6083,
      "花": 6084,
      "芳": 6085,
      "芴": 6086,
      "芷": 6087,
      "芸": 6088,
      "芹": 6089,
      "芼": 6090,
      "芽": 6091,
      "芾": 6092,
      "苁": 6093,
      "苄": 6094,
      "苇": 6095,
      "苋": 6096,
      "苌": 6097,
      "苍": 6098,
      "苎": 6099,
      "苏": 6100,
      "苑": 6101,
      "苒": 6102,
      "苓": 6103,
      "苔": 6104,
      "苕": 6105,
      "苗": 6106,
      "苘": 6107,
      "苛": 6108,
      "苜": 6109,
      "苞": 6110,
      "苟": 6111,
      "苡": 6112,
      "苣": 6113,
      "苤": 6114,
      "若": 6115,
      "苦": 6116,
      "苧": 6117,
      "苫": 6118,
      "苯": 6119,
      "英": 6120,
      "苴": 6121,
      "苷": 6122,
      "苹": 6123,
      "苻": 6124,
      "茁": 6125,
      "茂": 6126,
      "范": 6127,
      "茄": 6128,
      "茅": 6129,
      "茆": 6130,
      "茉": 6131,
      "茌": 6132,
      "茎": 6133,
      "茏": 6134,
      "茔": 6135,
      "茕": 6136,
      "茗": 6137,
      "茚": 6138,
      "茛": 6139,
      "茜": 6140,
      "茧": 6141,
      "茨": 6142,
      "茫": 6143,
      "茬": 6144,
      "茭": 6145,
      "茯": 6146,
      "茱": 6147,
      "茴": 6148,
      "茵": 6149,
      "茶": 6150,
      "茸": 6151,
      "茹": 6152,
      "茼": 6153,
      "荀": 6154,
      "荃": 6155,
      "荆": 6156,
      "荇": 6157,
      "草": 6158,
      "荏": 6159,
      "荐": 6160,
      "荑": 6161,
      "荒": 6162,
      "荔": 6163,
      "荘": 6164,
      "荚": 6165,
      "荜": 6166,
      "荞": 6167,
      "荟": 6168,
      "荠": 6169,
      "荡": 6170,
      "荣": 6171,
      "荤": 6172,
      "荥": 6173,
      "荧": 6174,
      "荨": 6175,
      "荪": 6176,
      "荫": 6177,
      "药": 6178,
      "荷": 6179,
      "荸": 6180,
      "荻": 6181,
      "荼": 6182,
      "莅": 6183,
      "莆": 6184,
      "莉": 6185,
      "莊": 6186,
      "莎": 6187,
      "莒": 6188,
      "莓": 6189,
      "莘": 6190,
      "莜": 6191,
      "莞": 6192,
      "莠": 6193,
      "莨": 6194,
      "莩": 6195,
      "莫": 6196,
      "莱": 6197,
      "莲": 6198,
      "莳": 6199,
      "莴": 6200,
      "获": 6201,
      "莸": 6202,
      "莹": 6203,
      "莺": 6204,
      "莽": 6205,
      "菀": 6206,
      "菁": 6207,
      "菅": 6208,
      "菇": 6209,
      "菊": 6210,
      "菌": 6211,
      "菏": 6212,
      "菖": 6213,
      "菘": 6214,
      "菜": 6215,
      "菟": 6216,
      "菠": 6217,
      "菡": 6218,
      "菩": 6219,
      "菪": 6220,
      "華": 6221,
      "菱": 6222,
      "菲": 6223,
      "菽": 6224,
      "萁": 6225,
      "萃": 6226,
      "萄": 6227,
      "萋": 6228,
      "萌": 6229,
      "萍": 6230,
      "萎": 6231,
      "萏": 6232,
      "萑": 6233,
      "萘": 6234,
      "萜": 6235,
      "萝": 6236,
      "萡": 6237,
      "萤": 6238,
      "营": 6239,
      "萦": 6240,
      "萧": 6241,
      "萨": 6242,
      "萬": 6243,
      "萱": 6244,
      "萸": 6245,
      "萼": 6246,
      "落": 6247,
      "葆": 6248,
      "葎": 6249,
      "著": 6250,
      "葚": 6251,
      "葛": 6252,
      "葡": 6253,
      "董": 6254,
      "葩": 6255,
      "葫": 6256,
      "葬": 6257,
      "葭": 6258,
      "葱": 6259,
      "葳": 6260,
      "葵": 6261,
      "葺": 6262,
      "蒂": 6263,
      "蒋": 6264,
      "蒌": 6265,
      "蒖": 6266,
      "蒙": 6267,
      "蒜": 6268,
      "蒡": 6269,
      "蒱": 6270,
      "蒲": 6271,
      "蒴": 6272,
      "蒸": 6273,
      "蒹": 6274,
      "蒺": 6275,
      "蒿": 6276,
      "蓄": 6277,
      "蓉": 6278,
      "蓊": 6279,
      "蓋": 6280,
      "蓍": 6281,
      "蓐": 6282,
      "蓑": 6283,
      "蓓": 6284,
      "蓝": 6285,
      "蓞": 6286,
      "蓟": 6287,
      "蓦": 6288,
      "蓬": 6289,
      "蓴": 6290,
      "蓼": 6291,
      "蓿": 6292,
      "蔑": 6293,
      "蔓": 6294,
      "蔗": 6295,
      "蔘": 6296,
      "蔚": 6297,
      "蔡": 6298,
      "蔫": 6299,
      "蔬": 6300,
      "蔭": 6301,
      "蔷": 6302,
      "蔺": 6303,
      "蔻": 6304,
      "蔼": 6305,
      "蔽": 6306,
      "蕃": 6307,
      "蕈": 6308,
      "蕉": 6309,
      "蕊": 6310,
      "蕖": 6311,
      "蕙": 6312,
      "蕤": 6313,
      "蕨": 6314,
      "蕲": 6315,
      "蕴": 6316,
      "蕾": 6317,
      "薄": 6318,
      "薅": 6319,
      "薇": 6320,
      "薏": 6321,
      "薛": 6322,
      "薜": 6323,
      "薠": 6324,
      "薤": 6325,
      "薨": 6326,
      "薩": 6327,
      "薪": 6328,
      "薮": 6329,
      "薯": 6330,
      "薰": 6331,
      "薷": 6332,
      "薹": 6333,
      "藁": 6334,
      "藉": 6335,
      "藏": 6336,
      "藐": 6337,
      "藓": 6338,
      "藕": 6339,
      "藜": 6340,
      "藤": 6341,
      "藩": 6342,
      "藴": 6343,
      "藻": 6344,
      "藿": 6345,
      "蘅": 6346,
      "蘑": 6347,
      "蘖": 6348,
      "蘩": 6349,
      "蘸": 6350,
      "蘼": 6351,
      "虎": 6352,
      "虏": 6353,
      "虐": 6354,
      "虑": 6355,
      "虔": 6356,
      "處": 6357,
      "虚": 6358,
      "虞": 6359,
      "虢": 6360,
      "虫": 6361,
      "虬": 6362,
      "虱": 6363,
      "虹": 6364,
      "虻": 6365,
      "虽": 6366,
      "虾": 6367,
      "虿": 6368,
      "蚀": 6369,
      "蚁": 6370,
      "蚂": 6371,
      "蚊": 6372,
      "蚋": 6373,
      "蚌": 6374,
      "蚓": 6375,
      "蚕": 6376,
      "蚜": 6377,
      "蚝": 6378,
      "蚣": 6379,
      "蚤": 6380,
      "蚧": 6381,
      "蚨": 6382,
      "蚩": 6383,
      "蚪": 6384,
      "蚯": 6385,
      "蚰": 6386,
      "蚱": 6387,
      "蚴": 6388,
      "蚶": 6389,
      "蛀": 6390,
      "蛄": 6391,
      "蛆": 6392,
      "蛇": 6393,
      "蛉": 6394,
      "蛊": 6395,
      "蛋": 6396,
      "蛎": 6397,
      "蛏": 6398,
      "蛐": 6399,
      "蛔": 6400,
      "蛙": 6401,
      "蛛": 6402,
      "蛞": 6403,
      "蛟": 6404,
      "蛤": 6405,
      "蛩": 6406,
      "蛭": 6407,
      "蛮": 6408,
      "蛰": 6409,
      "蛱": 6410,
      "蛳": 6411,
      "蛴": 6412,
      "蛸": 6413,
      "蛹": 6414,
      "蛾": 6415,
      "蜀": 6416,
      "蜂": 6417,
      "蜃": 6418,
      "蜇": 6419,
      "蜈": 6420,
      "蜉": 6421,
      "蜊": 6422,
      "蜍": 6423,
      "蜒": 6424,
      "蜓": 6425,
      "蜕": 6426,
      "蜗": 6427,
      "蜘": 6428,
      "蜚": 6429,
      "蜜": 6430,
      "蜡": 6431,
      "蜢": 6432,
      "蜣": 6433,
      "蜥": 6434,
      "蜴": 6435,
      "蜷": 6436,
      "蜻": 6437,
      "蜿": 6438,
      "蝇": 6439,
      "蝈": 6440,
      "蝉": 6441,
      "蝌": 6442,
      "蝎": 6443,
      "蝓": 6444,
      "蝗": 6445,
      "蝙": 6446,
      "蝠": 6447,
      "蝣": 6448,
      "蝥": 6449,
      "蝮": 6450,
      "蝰": 6451,
      "蝴": 6452,
      "蝶": 6453,
      "蝸": 6454,
      "蝻": 6455,
      "蝼": 6456,
      "蝾": 6457,
      "螂": 6458,
      "螃": 6459,
      "螅": 6460,
      "螈": 6461,
      "融": 6462,
      "螓": 6463,
      "螟": 6464,
      "螨": 6465,
      "螫": 6466,
      "螬": 6467,
      "螭": 6468,
      "螯": 6469,
      "螳": 6470,
      "螵": 6471,
      "螺": 6472,
      "蟀": 6473,
      "蟆": 6474,
      "蟊": 6475,
      "蟋": 6476,
      "蟑": 6477,
      "蟒": 6478,
      "蟜": 6479,
      "蟠": 6480,
      "蟦": 6481,
      "蟪": 6482,
      "蟮": 6483,
      "蟹": 6484,
      "蟾": 6485,
      "蠕": 6486,
      "蠖": 6487,
      "蠡": 6488,
      "蠢": 6489,
      "蠹": 6490,
      "血": 6491,
      "衅": 6492,
      "行": 6493,
      "衍": 6494,
      "衔": 6495,
      "街": 6496,
      "衙": 6497,
      "衡": 6498,
      "衢": 6499,
      "衣": 6500,
      "补": 6501,
      "表": 6502,
      "衩": 6503,
      "衫": 6504,
      "衬": 6505,
      "衰": 6506,
      "衲": 6507,
      "衷": 6508,
      "衹": 6509,
      "衽": 6510,
      "衾": 6511,
      "衿": 6512,
      "袁": 6513,
      "袂": 6514,
      "袄": 6515,
      "袅": 6516,
      "袈": 6517,
      "袋": 6518,
      "袍": 6519,
      "袒": 6520,
      "袖": 6521,
      "袜": 6522,
      "袤": 6523,
      "被": 6524,
      "袭": 6525,
      "袱": 6526,
      "袴": 6527,
      "袼": 6528,
      "裀": 6529,
      "裁": 6530,
      "裂": 6531,
      "装": 6532,
      "裆": 6533,
      "裉": 6534,
      "裌": 6535,
      "裒": 6536,
      "裔": 6537,
      "裕": 6538,
      "裘": 6539,
      "裙": 6540,
      "補": 6541,
      "裝": 6542,
      "裟": 6543,
      "裡": 6544,
      "裢": 6545,
      "裤": 6546,
      "裨": 6547,
      "裰": 6548,
      "裱": 6549,
      "裳": 6550,
      "裴": 6551,
      "裸": 6552,
      "裹": 6553,
      "裼": 6554,
      "裾": 6555,
      "褂": 6556,
      "褐": 6557,
      "褒": 6558,
      "褓": 6559,
      "褙": 6560,
      "褚": 6561,
      "褛": 6562,
      "褡": 6563,
      "褥": 6564,
      "褪": 6565,
      "褰": 6566,
      "褴": 6567,
      "褶": 6568,
      "襁": 6569,
      "襄": 6570,
      "襟": 6571,
      "襦": 6572,
      "襻": 6573,
      "西": 6574,
      "要": 6575,
      "覃": 6576,
      "覆": 6577,
      "見": 6578,
      "視": 6579,
      "親": 6580,
      "観": 6581,
      "覺": 6582,
      "见": 6583,
      "观": 6584,
      "规": 6585,
      "觅": 6586,
      "视": 6587,
      "觇": 6588,
      "览": 6589,
      "觉": 6590,
      "觊": 6591,
      "觍": 6592,
      "觎": 6593,
      "觐": 6594,
      "觑": 6595,
      "角": 6596,
      "觞": 6597,
      "解": 6598,
      "觥": 6599,
      "触": 6600,
      "觿": 6601,
      "言": 6602,
      "訇": 6603,
      "討": 6604,
      "訓": 6605,
      "記": 6606,
      "訚": 6607,
      "訞": 6608,
      "許": 6609,
      "訴": 6610,
      "註": 6611,
      "詩": 6612,
      "話": 6613,
      "該": 6614,
      "詹": 6615,
      "誉": 6616,
      "誊": 6617,
      "誌": 6618,
      "認": 6619,
      "誎": 6620,
      "誓": 6621,
      "語": 6622,
      "說": 6623,
      "誰": 6624,
      "請": 6625,
      "諌": 6626,
      "論": 6627,
      "諲": 6628,
      "諾": 6629,
      "謇": 6630,
      "講": 6631,
      "謝": 6632,
      "謟": 6633,
      "識": 6634,
      "譞": 6635,
      "警": 6636,
      "譬": 6637,
      "護": 6638,
      "讀": 6639,
      "變": 6640,
      "讓": 6641,
      "计": 6642,
      "订": 6643,
      "讣": 6644,
      "认": 6645,
      "讥": 6646,
      "讦": 6647,
      "讧": 6648,
      "讨": 6649,
      "让": 6650,
      "讪": 6651,
      "讫": 6652,
      "训": 6653,
      "议": 6654,
      "讯": 6655,
      "记": 6656,
      "讱": 6657,
      "讲": 6658,
      "讳": 6659,
      "讴": 6660,
      "讵": 6661,
      "讶": 6662,
      "讷": 6663,
      "许": 6664,
      "讹": 6665,
      "论": 6666,
      "讼": 6667,
      "讽": 6668,
      "设": 6669,
      "访": 6670,
      "诀": 6671,
      "证": 6672,
      "诂": 6673,
      "诃": 6674,
      "评": 6675,
      "诅": 6676,
      "识": 6677,
      "诈": 6678,
      "诉": 6679,
      "诊": 6680,
      "诋": 6681,
      "诌": 6682,
      "词": 6683,
      "诏": 6684,
      "译": 6685,
      "诒": 6686,
      "诓": 6687,
      "诔": 6688,
      "试": 6689,
      "诗": 6690,
      "诘": 6691,
      "诙": 6692,
      "诚": 6693,
      "诛": 6694,
      "诜": 6695,
      "话": 6696,
      "诞": 6697,
      "诟": 6698,
      "诠": 6699,
      "诡": 6700,
      "询": 6701,
      "诣": 6702,
      "诤": 6703,
      "该": 6704,
      "详": 6705,
      "诧": 6706,
      "诨": 6707,
      "诩": 6708,
      "诫": 6709,
      "诬": 6710,
      "语": 6711,
      "诮": 6712,
      "误": 6713,
      "诰": 6714,
      "诱": 6715,
      "诲": 6716,
      "诳": 6717,
      "说": 6718,
      "诵": 6719,
      "诶": 6720,
      "请": 6721,
      "诸": 6722,
      "诹": 6723,
      "诺": 6724,
      "读": 6725,
      "诽": 6726,
      "课": 6727,
      "诿": 6728,
      "谀": 6729,
      "谁": 6730,
      "谂": 6731,
      "调": 6732,
      "谄": 6733,
      "谅": 6734,
      "谆": 6735,
      "谇": 6736,
      "谈": 6737,
      "谊": 6738,
      "谋": 6739,
      "谌": 6740,
      "谍": 6741,
      "谎": 6742,
      "谏": 6743,
      "谐": 6744,
      "谑": 6745,
      "谒": 6746,
      "谓": 6747,
      "谔": 6748,
      "谕": 6749,
      "谖": 6750,
      "谗": 6751,
      "谘": 6752,
      "谙": 6753,
      "谚": 6754,
      "谛": 6755,
      "谜": 6756,
      "谟": 6757,
      "谠": 6758,
      "谡": 6759,
      "谢": 6760,
      "谣": 6761,
      "谤": 6762,
      "谥": 6763,
      "谦": 6764,
      "谧": 6765,
      "谨": 6766,
      "谩": 6767,
      "谪": 6768,
      "谬": 6769,
      "谭": 6770,
      "谮": 6771,
      "谯": 6772,
      "谰": 6773,
      "谱": 6774,
      "谲": 6775,
      "谴": 6776,
      "谶": 6777,
      "谷": 6778,
      "谿": 6779,
      "豁": 6780,
      "豆": 6781,
      "豇": 6782,
      "豉": 6783,
      "豊": 6784,
      "豌": 6785,
      "豕": 6786,
      "豖": 6787,
      "豚": 6788,
      "象": 6789,
      "豢": 6790,
      "豪": 6791,
      "豫": 6792,
      "豳": 6793,
      "豸": 6794,
      "豹": 6795,
      "豺": 6796,
      "貂": 6797,
      "貅": 6798,
      "貉": 6799,
      "貌": 6800,
      "貐": 6801,
      "貓": 6802,
      "貔": 6803,
      "貘": 6804,
      "貙": 6805,
      "貝": 6806,
      "貪": 6807,
      "貴": 6808,
      "貶": 6809,
      "買": 6810,
      "貼": 6811,
      "賠": 6812,
      "賣": 6813,
      "賦": 6814,
      "賺": 6815,
      "賽": 6816,
      "贏": 6817,
      "贝": 6818,
      "贞": 6819,
      "负": 6820,
      "贡": 6821,
      "财": 6822,
      "责": 6823,
      "贤": 6824,
      "败": 6825,
      "账": 6826,
      "货": 6827,
      "质": 6828,
      "贩": 6829,
      "贪": 6830,
      "贫": 6831,
      "贬": 6832,
      "购": 6833,
      "贮": 6834,
      "贯": 6835,
      "贰": 6836,
      "贱": 6837,
      "贲": 6838,
      "贴": 6839,
      "贵": 6840,
      "贷": 6841,
      "贸": 6842,
      "费": 6843,
      "贺": 6844,
      "贻": 6845,
      "贼": 6846,
      "贽": 6847,
      "贾": 6848,
      "贿": 6849,
      "赁": 6850,
      "赂": 6851,
      "赃": 6852,
      "资": 6853,
      "赅": 6854,
      "赈": 6855,
      "赊": 6856,
      "赋": 6857,
      "赌": 6858,
      "赍": 6859,
      "赎": 6860,
      "赏": 6861,
      "赐": 6862,
      "赓": 6863,
      "赔": 6864,
      "赕": 6865,
      "赖": 6866,
      "赘": 6867,
      "赚": 6868,
      "赛": 6869,
      "赝": 6870,
      "赞": 6871,
      "赟": 6872,
      "赠": 6873,
      "赡": 6874,
      "赢": 6875,
      "赣": 6876,
      "赤": 6877,
      "赦": 6878,
      "赫": 6879,
      "赭": 6880,
      "走": 6881,
      "赳": 6882,
      "赴": 6883,
      "赵": 6884,
      "赶": 6885,
      "起": 6886,
      "趁": 6887,
      "趄": 6888,
      "超": 6889,
      "越": 6890,
      "趋": 6891,
      "趑": 6892,
      "趔": 6893,
      "趕": 6894,
      "趟": 6895,
      "趣": 6896,
      "足": 6897,
      "趴": 6898,
      "趵": 6899,
      "趸": 6900,
      "趾": 6901,
      "趿": 6902,
      "跂": 6903,
      "跃": 6904,
      "跄": 6905,
      "跆": 6906,
      "跋": 6907,
      "跌": 6908,
      "跎": 6909,
      "跑": 6910,
      "跖": 6911,
      "跘": 6912,
      "跚": 6913,
      "跛": 6914,
      "距": 6915,
      "跞": 6916,
      "跟": 6917,
      "跤": 6918,
      "跨": 6919,
      "跩": 6920,
      "跪": 6921,
      "跫": 6922,
      "跬": 6923,
      "路": 6924,
      "跳": 6925,
      "践": 6926,
      "跶": 6927,
      "跷": 6928,
      "跹": 6929,
      "跺": 6930,
      "跻": 6931,
      "踅": 6932,
      "踉": 6933,
      "踊": 6934,
      "踌": 6935,
      "踏": 6936,
      "踝": 6937,
      "踞": 6938,
      "踟": 6939,
      "踡": 6940,
      "踢": 6941,
      "踦": 6942,
      "踩": 6943,
      "踪": 6944,
      "踫": 6945,
      "踮": 6946,
      "踯": 6947,
      "踰": 6948,
      "踱": 6949,
      "踵": 6950,
      "踹": 6951,
      "踼": 6952,
      "踽": 6953,
      "蹀": 6954,
      "蹁": 6955,
      "蹂": 6956,
      "蹄": 6957,
      "蹇": 6958,
      "蹈": 6959,
      "蹉": 6960,
      "蹊": 6961,
      "蹋": 6962,
      "蹑": 6963,
      "蹒": 6964,
      "蹓": 6965,
      "蹙": 6966,
      "蹚": 6967,
      "蹤": 6968,
      "蹦": 6969,
      "蹩": 6970,
      "蹬": 6971,
      "蹭": 6972,
      "蹰": 6973,
      "蹲": 6974,
      "蹴": 6975,
      "蹶": 6976,
      "蹼": 6977,
      "蹿": 6978,
      "躁": 6979,
      "躅": 6980,
      "躇": 6981,
      "躏": 6982,
      "躐": 6983,
      "躞": 6984,
      "身": 6985,
      "躬": 6986,
      "躯": 6987,
      "躲": 6988,
      "躺": 6989,
      "車": 6990,
      "軍": 6991,
      "輕": 6992,
      "輗": 6993,
      "輛": 6994,
      "輮": 6995,
      "轆": 6996,
      "轜": 6997,
      "车": 6998,
      "轧": 6999,
      "轨": 7000,
      "轩": 7001,
      "转": 7002,
      "轭": 7003,
      "轮": 7004,
      "软": 7005,
      "轰": 7006,
      "轱": 7007,
      "轲": 7008,
      "轴": 7009,
      "轶": 7010,
      "轸": 7011,
      "轺": 7012,
      "轻": 7013,
      "轼": 7014,
      "载": 7015,
      "轿": 7016,
      "辂": 7017,
      "较": 7018,
      "辄": 7019,
      "辅": 7020,
      "辆": 7021,
      "辇": 7022,
      "辈": 7023,
      "辉": 7024,
      "辋": 7025,
      "辍": 7026,
      "辎": 7027,
      "辐": 7028,
      "辑": 7029,
      "输": 7030,
      "辔": 7031,
      "辕": 7032,
      "辖": 7033,
      "辗": 7034,
      "辘": 7035,
      "辙": 7036,
      "辚": 7037,
      "辛": 7038,
      "辜": 7039,
      "辞": 7040,
      "辟": 7041,
      "辣": 7042,
      "辦": 7043,
      "辧": 7044,
      "辨": 7045,
      "辩": 7046,
      "辫": 7047,
      "辰": 7048,
      "辱": 7049,
      "農": 7050,
      "边": 7051,
      "辽": 7052,
      "达": 7053,
      "迁": 7054,
      "迂": 7055,
      "迄": 7056,
      "迅": 7057,
      "过": 7058,
      "迈": 7059,
      "迎": 7060,
      "运": 7061,
      "近": 7062,
      "返": 7063,
      "还": 7064,
      "这": 7065,
      "进": 7066,
      "远": 7067,
      "违": 7068,
      "连": 7069,
      "迟": 7070,
      "迢": 7071,
      "迤": 7072,
      "迥": 7073,
      "迦": 7074,
      "迨": 7075,
      "迩": 7076,
      "迪": 7077,
      "迫": 7078,
      "迭": 7079,
      "述": 7080,
      "迳": 7081,
      "迴": 7082,
      "迷": 7083,
      "迸": 7084,
      "迹": 7085,
      "追": 7086,
      "退": 7087,
      "送": 7088,
      "适": 7089,
      "逃": 7090,
      "逄": 7091,
      "逅": 7092,
      "逆": 7093,
      "选": 7094,
      "逊": 7095,
      "逋": 7096,
      "逍": 7097,
      "透": 7098,
      "逐": 7099,
      "逑": 7100,
      "递": 7101,
      "途": 7102,
      "逖": 7103,
      "逗": 7104,
      "這": 7105,
      "通": 7106,
      "逛": 7107,
      "逝": 7108,
      "逞": 7109,
      "速": 7110,
      "造": 7111,
      "逡": 7112,
      "逢": 7113,
      "逦": 7114,
      "逮": 7115,
      "進": 7116,
      "逵": 7117,
      "逶": 7118,
      "逸": 7119,
      "逻": 7120,
      "逼": 7121,
      "逾": 7122,
      "遁": 7123,
      "遂": 7124,
      "遇": 7125,
      "運": 7126,
      "遍": 7127,
      "過": 7128,
      "遏": 7129,
      "遐": 7130,
      "遑": 7131,
      "遒": 7132,
      "道": 7133,
      "達": 7134,
      "遗": 7135,
      "遛": 7136,
      "遠": 7137,
      "遢": 7138,
      "遣": 7139,
      "遥": 7140,
      "遨": 7141,
      "適": 7142,
      "遭": 7143,
      "遮": 7144,
      "遴": 7145,
      "遵": 7146,
      "選": 7147,
      "遺": 7148,
      "遽": 7149,
      "避": 7150,
      "邀": 7151,
      "邂": 7152,
      "邃": 7153,
      "還": 7154,
      "邈": 7155,
      "邊": 7156,
      "邋": 7157,
      "邑": 7158,
      "邓": 7159,
      "邕": 7160,
      "邙": 7161,
      "邛": 7162,
      "邝": 7163,
      "邢": 7164,
      "那": 7165,
      "邦": 7166,
      "邪": 7167,
      "邬": 7168,
      "邮": 7169,
      "邯": 7170,
      "邰": 7171,
      "邱": 7172,
      "邳": 7173,
      "邵": 7174,
      "邸": 7175,
      "邹": 7176,
      "邺": 7177,
      "邻": 7178,
      "邾": 7179,
      "郁": 7180,
      "郄": 7181,
      "郅": 7182,
      "郇": 7183,
      "郊": 7184,
      "郎": 7185,
      "郑": 7186,
      "郓": 7187,
      "郗": 7188,
      "郜": 7189,
      "郝": 7190,
      "郡": 7191,
      "郢": 7192,
      "郤": 7193,
      "郦": 7194,
      "郧": 7195,
      "部": 7196,
      "郪": 7197,
      "郫": 7198,
      "郭": 7199,
      "郯": 7200,
      "郴": 7201,
      "郸": 7202,
      "都": 7203,
      "郾": 7204,
      "郿": 7205,
      "鄂": 7206,
      "鄉": 7207,
      "鄙": 7208,
      "鄜": 7209,
      "鄞": 7210,
      "鄠": 7211,
      "鄢": 7212,
      "鄯": 7213,
      "鄰": 7214,
      "鄱": 7215,
      "酉": 7216,
      "酊": 7217,
      "酋": 7218,
      "酌": 7219,
      "配": 7220,
      "酐": 7221,
      "酒": 7222,
      "酗": 7223,
      "酚": 7224,
      "酝": 7225,
      "酞": 7226,
      "酢": 7227,
      "酣": 7228,
      "酥": 7229,
      "酩": 7230,
      "酪": 7231,
      "酬": 7232,
      "酮": 7233,
      "酯": 7234,
      "酰": 7235,
      "酱": 7236,
      "酲": 7237,
      "酵": 7238,
      "酶": 7239,
      "酷": 7240,
      "酸": 7241,
      "酹": 7242,
      "酽": 7243,
      "酾": 7244,
      "酿": 7245,
      "醅": 7246,
      "醇": 7247,
      "醉": 7248,
      "醋": 7249,
      "醌": 7250,
      "醍": 7251,
      "醐": 7252,
      "醒": 7253,
      "醚": 7254,
      "醛": 7255,
      "醨": 7256,
      "醪": 7257,
      "醫": 7258,
      "醭": 7259,
      "醮": 7260,
      "醴": 7261,
      "醵": 7262,
      "醺": 7263,
      "釆": 7264,
      "采": 7265,
      "釉": 7266,
      "释": 7267,
      "釋": 7268,
      "里": 7269,
      "重": 7270,
      "野": 7271,
      "量": 7272,
      "金": 7273,
      "釜": 7274,
      "鈅": 7275,
      "鈒": 7276,
      "鈴": 7277,
      "鉆": 7278,
      "鉴": 7279,
      "鉶": 7280,
      "銑": 7281,
      "銛": 7282,
      "銮": 7283,
      "銶": 7284,
      "鋪": 7285,
      "錁": 7286,
      "錄": 7287,
      "錒": 7288,
      "錡": 7289,
      "錢": 7290,
      "錯": 7291,
      "録": 7292,
      "錾": 7293,
      "鍪": 7294,
      "鎏": 7295,
      "鎮": 7296,
      "鏖": 7297,
      "鐲": 7298,
      "鑫": 7299,
      "针": 7300,
      "钉": 7301,
      "钊": 7302,
      "钋": 7303,
      "钍": 7304,
      "钎": 7305,
      "钏": 7306,
      "钐": 7307,
      "钒": 7308,
      "钓": 7309,
      "钗": 7310,
      "钘": 7311,
      "钙": 7312,
      "钛": 7313,
      "钜": 7314,
      "钝": 7315,
      "钞": 7316,
      "钟": 7317,
      "钠": 7318,
      "钡": 7319,
      "钢": 7320,
      "钣": 7321,
      "钥": 7322,
      "钦": 7323,
      "钧": 7324,
      "钨": 7325,
      "钩": 7326,
      "钪": 7327,
      "钫": 7328,
      "钮": 7329,
      "钯": 7330,
      "钰": 7331,
      "钱": 7332,
      "钲": 7333,
      "钳": 7334,
      "钴": 7335,
      "钵": 7336,
      "钹": 7337,
      "钺": 7338,
      "钻": 7339,
      "钼": 7340,
      "钾": 7341,
      "钿": 7342,
      "铀": 7343,
      "铁": 7344,
      "铂": 7345,
      "铃": 7346,
      "铄": 7347,
      "铅": 7348,
      "铆": 7349,
      "铉": 7350,
      "铋": 7351,
      "铍": 7352,
      "铎": 7353,
      "铐": 7354,
      "铖": 7355,
      "铛": 7356,
      "铜": 7357,
      "铝": 7358,
      "铠": 7359,
      "铡": 7360,
      "铢": 7361,
      "铣": 7362,
      "铤": 7363,
      "铦": 7364,
      "铧": 7365,
      "铨": 7366,
      "铩": 7367,
      "铬": 7368,
      "铭": 7369,
      "铮": 7370,
      "铯": 7371,
      "铰": 7372,
      "铱": 7373,
      "铲": 7374,
      "铳": 7375,
      "铵": 7376,
      "银": 7377,
      "铷": 7378,
      "铸": 7379,
      "铺": 7380,
      "铻": 7381,
      "链": 7382,
      "铿": 7383,
      "销": 7384,
      "锁": 7385,
      "锂": 7386,
      "锃": 7387,
      "锄": 7388,
      "锅": 7389,
      "锆": 7390,
      "锈": 7391,
      "锉": 7392,
      "锋": 7393,
      "锌": 7394,
      "锏": 7395,
      "锐": 7396,
      "锒": 7397,
      "锖": 7398,
      "锗": 7399,
      "错": 7400,
      "锚": 7401,
      "锛": 7402,
      "锟": 7403,
      "锡": 7404,
      "锢": 7405,
      "锣": 7406,
      "锤": 7407,
      "锥": 7408,
      "锦": 7409,
      "锨": 7410,
      "锭": 7411,
      "键": 7412,
      "锯": 7413,
      "锰": 7414,
      "锱": 7415,
      "锲": 7416,
      "锵": 7417,
      "锶": 7418,
      "锷": 7419,
      "锸": 7420,
      "锹": 7421,
      "锺": 7422,
      "锻": 7423,
      "镀": 7424,
      "镁": 7425,
      "镂": 7426,
      "镇": 7427,
      "镉": 7428,
      "镊": 7429,
      "镌": 7430,
      "镍": 7431,
      "镏": 7432,
      "镐": 7433,
      "镑": 7434,
      "镒": 7435,
      "镓": 7436,
      "镖": 7437,
      "镚": 7438,
      "镛": 7439,
      "镜": 7440,
      "镝": 7441,
      "镠": 7442,
      "镢": 7443,
      "镣": 7444,
      "镪": 7445,
      "镫": 7446,
      "镬": 7447,
      "镭": 7448,
      "镯": 7449,
      "镰": 7450,
      "镲": 7451,
      "镳": 7452,
      "镶": 7453,
      "長": 7454,
      "长": 7455,
      "門": 7456,
      "開": 7457,
      "間": 7458,
      "閟": 7459,
      "関": 7460,
      "閩": 7461,
      "闆": 7462,
      "闇": 7463,
      "關": 7464,
      "门": 7465,
      "闩": 7466,
      "闪": 7467,
      "闫": 7468,
      "闭": 7469,
      "问": 7470,
      "闯": 7471,
      "闰": 7472,
      "闱": 7473,
      "闲": 7474,
      "闳": 7475,
      "间": 7476,
      "闵": 7477,
      "闷": 7478,
      "闸": 7479,
      "闹": 7480,
      "闺": 7481,
      "闻": 7482,
      "闼": 7483,
      "闽": 7484,
      "闾": 7485,
      "闿": 7486,
      "阀": 7487,
      "阁": 7488,
      "阂": 7489,
      "阄": 7490,
      "阅": 7491,
      "阆": 7492,
      "阇": 7493,
      "阈": 7494,
      "阉": 7495,
      "阊": 7496,
      "阋": 7497,
      "阎": 7498,
      "阏": 7499,
      "阐": 7500,
      "阑": 7501,
      "阒": 7502,
      "阔": 7503,
      "阕": 7504,
      "阖": 7505,
      "阗": 7506,
      "阙": 7507,
      "阚": 7508,
      "阜": 7509,
      "队": 7510,
      "阡": 7511,
      "阪": 7512,
      "阮": 7513,
      "阱": 7514,
      "防": 7515,
      "阳": 7516,
      "阴": 7517,
      "阵": 7518,
      "阶": 7519,
      "阻": 7520,
      "阼": 7521,
      "阿": 7522,
      "陀": 7523,
      "陂": 7524,
      "附": 7525,
      "际": 7526,
      "陆": 7527,
      "陇": 7528,
      "陈": 7529,
      "陉": 7530,
      "陋": 7531,
      "陌": 7532,
      "降": 7533,
      "陏": 7534,
      "限": 7535,
      "陕": 7536,
      "陛": 7537,
      "陜": 7538,
      "陟": 7539,
      "陡": 7540,
      "院": 7541,
      "除": 7542,
      "陨": 7543,
      "险": 7544,
      "陪": 7545,
      "陬": 7546,
      "陰": 7547,
      "陲": 7548,
      "陴": 7549,
      "陵": 7550,
      "陶": 7551,
      "陷": 7552,
      "陽": 7553,
      "隅": 7554,
      "隆": 7555,
      "隈": 7556,
      "隋": 7557,
      "隍": 7558,
      "随": 7559,
      "隐": 7560,
      "隔": 7561,
      "隗": 7562,
      "隘": 7563,
      "隙": 7564,
      "障": 7565,
      "隟": 7566,
      "隧": 7567,
      "隨": 7568,
      "隰": 7569,
      "隳": 7570,
      "隶": 7571,
      "隻": 7572,
      "隼": 7573,
      "隽": 7574,
      "难": 7575,
      "雀": 7576,
      "雁": 7577,
      "雄": 7578,
      "雅": 7579,
      "集": 7580,
      "雇": 7581,
      "雉": 7582,
      "雌": 7583,
      "雍": 7584,
      "雎": 7585,
      "雏": 7586,
      "雒": 7587,
      "雕": 7588,
      "雞": 7589,
      "雠": 7590,
      "離": 7591,
      "雨": 7592,
      "雩": 7593,
      "雪": 7594,
      "雯": 7595,
      "雲": 7596,
      "雳": 7597,
      "零": 7598,
      "雷": 7599,
      "雹": 7600,
      "雾": 7601,
      "需": 7602,
      "霁": 7603,
      "霄": 7604,
      "霆": 7605,
      "震": 7606,
      "霈": 7607,
      "霉": 7608,
      "霍": 7609,
      "霎": 7610,
      "霏": 7611,
      "霓": 7612,
      "霖": 7613,
      "霜": 7614,
      "霞": 7615,
      "霧": 7616,
      "霪": 7617,
      "霭": 7618,
      "霰": 7619,
      "露": 7620,
      "霸": 7621,
      "霹": 7622,
      "霾": 7623,
      "青": 7624,
      "靓": 7625,
      "靖": 7626,
      "静": 7627,
      "靛": 7628,
      "非": 7629,
      "靠": 7630,
      "靡": 7631,
      "面": 7632,
      "靥": 7633,
      "革": 7634,
      "靳": 7635,
      "靴": 7636,
      "靶": 7637,
      "靼": 7638,
      "鞅": 7639,
      "鞋": 7640,
      "鞍": 7641,
      "鞑": 7642,
      "鞒": 7643,
      "鞘": 7644,
      "鞠": 7645,
      "鞣": 7646,
      "鞭": 7647,
      "鞮": 7648,
      "鞯": 7649,
      "韦": 7650,
      "韧": 7651,
      "韩": 7652,
      "韪": 7653,
      "韫": 7654,
      "韬": 7655,
      "韭": 7656,
      "音": 7657,
      "韵": 7658,
      "韶": 7659,
      "韻": 7660,
      "頂": 7661,
      "須": 7662,
      "頓": 7663,
      "領": 7664,
      "頫": 7665,
      "頭": 7666,
      "顏": 7667,
      "顗": 7668,
      "類": 7669,
      "顧": 7670,
      "页": 7671,
      "顶": 7672,
      "顷": 7673,
      "顸": 7674,
      "项": 7675,
      "顺": 7676,
      "须": 7677,
      "顼": 7678,
      "顽": 7679,
      "顾": 7680,
      "顿": 7681,
      "颀": 7682,
      "颁": 7683,
      "颂": 7684,
      "预": 7685,
      "颅": 7686,
      "领": 7687,
      "颇": 7688,
      "颈": 7689,
      "颉": 7690,
      "颊": 7691,
      "颌": 7692,
      "颍": 7693,
      "颏": 7694,
      "颐": 7695,
      "频": 7696,
      "颓": 7697,
      "颔": 7698,
      "颖": 7699,
      "颗": 7700,
      "题": 7701,
      "颙": 7702,
      "颚": 7703,
      "颛": 7704,
      "颜": 7705,
      "额": 7706,
      "颞": 7707,
      "颠": 7708,
      "颢": 7709,
      "颤": 7710,
      "颦": 7711,
      "颧": 7712,
      "風": 7713,
      "飄": 7714,
      "风": 7715,
      "飐": 7716,
      "飒": 7717,
      "飓": 7718,
      "飕": 7719,
      "飖": 7720,
      "飘": 7721,
      "飙": 7722,
      "飚": 7723,
      "飛": 7724,
      "飞": 7725,
      "食": 7726,
      "飢": 7727,
      "飨": 7728,
      "飪": 7729,
      "飯": 7730,
      "飲": 7731,
      "養": 7732,
      "餐": 7733,
      "餓": 7734,
      "餬": 7735,
      "餮": 7736,
      "餵": 7737,
      "饔": 7738,
      "饕": 7739,
      "饥": 7740,
      "饨": 7741,
      "饪": 7742,
      "饬": 7743,
      "饭": 7744,
      "饮": 7745,
      "饯": 7746,
      "饰": 7747,
      "饱": 7748,
      "饲": 7749,
      "饴": 7750,
      "饵": 7751,
      "饶": 7752,
      "饷": 7753,
      "饸": 7754,
      "饹": 7755,
      "饺": 7756,
      "饼": 7757,
      "饽": 7758,
      "饿": 7759,
      "馀": 7760,
      "馁": 7761,
      "馄": 7762,
      "馅": 7763,
      "馆": 7764,
      "馈": 7765,
      "馊": 7766,
      "馋": 7767,
      "馍": 7768,
      "馏": 7769,
      "馐": 7770,
      "馑": 7771,
      "馒": 7772,
      "馓": 7773,
      "馔": 7774,
      "馕": 7775,
      "首": 7776,
      "馗": 7777,
      "香": 7778,
      "馥": 7779,
      "馨": 7780,
      "馬": 7781,
      "駁": 7782,
      "騙": 7783,
      "驆": 7784,
      "驢": 7785,
      "马": 7786,
      "驭": 7787,
      "驮": 7788,
      "驯": 7789,
      "驰": 7790,
      "驱": 7791,
      "驳": 7792,
      "驴": 7793,
      "驶": 7794,
      "驷": 7795,
      "驸": 7796,
      "驹": 7797,
      "驻": 7798,
      "驼": 7799,
      "驽": 7800,
      "驾": 7801,
      "驿": 7802,
      "骁": 7803,
      "骂": 7804,
      "骃": 7805,
      "骄": 7806,
      "骅": 7807,
      "骆": 7808,
      "骇": 7809,
      "骈": 7810,
      "骊": 7811,
      "骋": 7812,
      "验": 7813,
      "骏": 7814,
      "骐": 7815,
      "骑": 7816,
      "骒": 7817,
      "骓": 7818,
      "骖": 7819,
      "骗": 7820,
      "骘": 7821,
      "骚": 7822,
      "骛": 7823,
      "骜": 7824,
      "骝": 7825,
      "骞": 7826,
      "骠": 7827,
      "骡": 7828,
      "骢": 7829,
      "骤": 7830,
      "骥": 7831,
      "骧": 7832,
      "骨": 7833,
      "骰": 7834,
      "骶": 7835,
      "骷": 7836,
      "骸": 7837,
      "骺": 7838,
      "骼": 7839,
      "髀": 7840,
      "髁": 7841,
      "髂": 7842,
      "髄": 7843,
      "髅": 7844,
      "髋": 7845,
      "髓": 7846,
      "高": 7847,
      "髙": 7848,
      "髡": 7849,
      "髦": 7850,
      "髫": 7851,
      "髭": 7852,
      "髮": 7853,
      "髯": 7854,
      "髻": 7855,
      "鬂": 7856,
      "鬃": 7857,
      "鬈": 7858,
      "鬓": 7859,
      "鬟": 7860,
      "鬣": 7861,
      "鬯": 7862,
      "鬻": 7863,
      "鬼": 7864,
      "魁": 7865,
      "魂": 7866,
      "魃": 7867,
      "魄": 7868,
      "魅": 7869,
      "魆": 7870,
      "魇": 7871,
      "魈": 7872,
      "魉": 7873,
      "魍": 7874,
      "魏": 7875,
      "魑": 7876,
      "魔": 7877,
      "魚": 7878,
      "魟": 7879,
      "鮄": 7880,
      "鮟": 7881,
      "鮮": 7882,
      "鯤": 7883,
      "鱇": 7884,
      "鱷": 7885,
      "鱼": 7886,
      "鱿": 7887,
      "鲁": 7888,
      "鲂": 7889,
      "鲅": 7890,
      "鲇": 7891,
      "鲈": 7892,
      "鲋": 7893,
      "鲍": 7894,
      "鲎": 7895,
      "鲑": 7896,
      "鲚": 7897,
      "鲛": 7898,
      "鲜": 7899,
      "鲞": 7900,
      "鲟": 7901,
      "鲠": 7902,
      "鲡": 7903,
      "鲢": 7904,
      "鲣": 7905,
      "鲤": 7906,
      "鲦": 7907,
      "鲧": 7908,
      "鲨": 7909,
      "鲩": 7910,
      "鲫": 7911,
      "鲭": 7912,
      "鲮": 7913,
      "鲰": 7914,
      "鲱": 7915,
      "鲲": 7916,
      "鲳": 7917,
      "鲵": 7918,
      "鲶": 7919,
      "鲷": 7920,
      "鲸": 7921,
      "鲻": 7922,
      "鲼": 7923,
      "鲽": 7924,
      "鳃": 7925,
      "鳄": 7926,
      "鳅": 7927,
      "鳌": 7928,
      "鳍": 7929,
      "鳎": 7930,
      "鳏": 7931,
      "鳐": 7932,
      "鳓": 7933,
      "鳔": 7934,
      "鳕": 7935,
      "鳖": 7936,
      "鳗": 7937,
      "鳙": 7938,
      "鳜": 7939,
      "鳝": 7940,
      "鳞": 7941,
      "鳟": 7942,
      "鳥": 7943,
      "鴨": 7944,
      "鵬": 7945,
      "鷟": 7946,
      "鸑": 7947,
      "鸟": 7948,
      "鸠": 7949,
      "鸡": 7950,
      "鸢": 7951,
      "鸣": 7952,
      "鸥": 7953,
      "鸦": 7954,
      "鸧": 7955,
      "鸨": 7956,
      "鸩": 7957,
      "鸪": 7958,
      "鸫": 7959,
      "鸬": 7960,
      "鸭": 7961,
      "鸮": 7962,
      "鸯": 7963,
      "鸱": 7964,
      "鸲": 7965,
      "鸳": 7966,
      "鸵": 7967,
      "鸶": 7968,
      "鸸": 7969,
      "鸹": 7970,
      "鸽": 7971,
      "鸾": 7972,
      "鸿": 7973,
      "鹂": 7974,
      "鹃": 7975,
      "鹄": 7976,
      "鹅": 7977,
      "鹇": 7978,
      "鹈": 7979,
      "鹉": 7980,
      "鹊": 7981,
      "鹋": 7982,
      "鹌": 7983,
      "鹏": 7984,
      "鹑": 7985,
      "鹒": 7986,
      "鹕": 7987,
      "鹗": 7988,
      "鹘": 7989,
      "鹚": 7990,
      "鹜": 7991,
      "鹞": 7992,
      "鹣": 7993,
      "鹤": 7994,
      "鹦": 7995,
      "鹧": 7996,
      "鹩": 7997,
      "鹫": 7998,
      "鹬": 7999,
      "鹭": 8000,
      "鹰": 8001,
      "鹳": 8002,
      "鹿": 8003,
      "麂": 8004,
      "麇": 8005,
      "麋": 8006,
      "麒": 8007,
      "麓": 8008,
      "麗": 8009,
      "麝": 8010,
      "麟": 8011,
      "麦": 8012,
      "麴": 8013,
      "麵": 8014,
      "麸": 8015,
      "麻": 8016,
      "麼": 8017,
      "麽": 8018,
      "麾": 8019,
      "黃": 8020,
      "黄": 8021,
      "黍": 8022,
      "黎": 8023,
      "黏": 8024,
      "黑": 8025,
      "黒": 8026,
      "黔": 8027,
      "默": 8028,
      "黛": 8029,
      "黜": 8030,
      "黝": 8031,
      "點": 8032,
      "黠": 8033,
      "黢": 8034,
      "黥": 8035,
      "黧": 8036,
      "黩": 8037,
      "黮": 8038,
      "黯": 8039,
      "黻": 8040,
      "黼": 8041,
      "黾": 8042,
      "鼋": 8043,
      "鼎": 8044,
      "鼐": 8045,
      "鼓": 8046,
      "鼙": 8047,
      "鼠": 8048,
      "鼬": 8049,
      "鼯": 8050,
      "鼴": 8051,
      "鼷": 8052,
      "鼹": 8053,
      "鼻": 8054,
      "鼾": 8055,
      "齁": 8056,
      "齐": 8057,
      "齒": 8058,
      "齡": 8059,
      "齮": 8060,
      "齾": 8061,
      "齿": 8062,
      "龃": 8063,
      "龄": 8064,
      "龅": 8065,
      "龆": 8066,
      "龇": 8067,
      "龈": 8068,
      "龉": 8069,
      "龊": 8070,
      "龋": 8071,
      "龌": 8072,
      "龙": 8073,
      "龚": 8074,
      "龛": 8075,
      "龟": 8076,
      "龢": 8077,
      "鿏": 8078,
      "ꜥ": 8079,
      "ꜧ": 8080,
      "꞉": 8081,
      "ꞯ": 8082,
      "ꠇ": 8083,
      "ꠉ": 8084,
      "ꠌ": 8085,
      "ꠍ": 8086,
      "ꠎ": 8087,
      "ꠘ": 8088,
      "ꠞ": 8089,
      "ꠢ": 8090,
      "ꠣ": 8091,
      "가": 8092,
      "갔": 8093,
      "같": 8094,
      "거": 8095,
      "건": 8096,
      "걸": 8097,
      "게": 8098,
      "겠": 8099,
      "결": 8100,
      "계": 8101,
      "고": 8102,
      "광": 8103,
      "그": 8104,
      "근": 8105,
      "기": 8106,
      "까": 8107,
      "께": 8108,
      "나": 8109,
      "날": 8110,
      "노": 8111,
      "는": 8112,
      "다": 8113,
      "더": 8114,
      "데": 8115,
      "도": 8116,
      "돌": 8117,
      "돼": 8118,
      "든": 8119,
      "들": 8120,
      "등": 8121,
      "때": 8122,
      "또": 8123,
      "렇": 8124,
      "레": 8125,
      "렛": 8126,
      "로": 8127,
      "론": 8128,
      "르": 8129,
      "를": 8130,
      "리": 8131,
      "릭": 8132,
      "마": 8133,
      "만": 8134,
      "먹": 8135,
      "며": 8136,
      "모": 8137,
      "문": 8138,
      "미": 8139,
      "민": 8140,
      "바": 8141,
      "버": 8142,
      "번": 8143,
      "벤": 8144,
      "보": 8145,
      "부": 8146,
      "브": 8147,
      "블": 8148,
      "사": 8149,
      "산": 8150,
      "샤": 8151,
      "성": 8152,
      "속": 8153,
      "수": 8154,
      "숙": 8155,
      "스": 8156,
      "시": 8157,
      "실": 8158,
      "아": 8159,
      "알": 8160,
      "어": 8161,
      "었": 8162,
      "에": 8163,
      "영": 8164,
      "오": 8165,
      "와": 8166,
      "요": 8167,
      "용": 8168,
      "우": 8169,
      "울": 8170,
      "웅": 8171,
      "워": 8172,
      "원": 8173,
      "위": 8174,
      "은": 8175,
      "을": 8176,
      "의": 8177,
      "이": 8178,
      "인": 8179,
      "있": 8180,
      "장": 8181,
      "재": 8182,
      "저": 8183,
      "져": 8184,
      "죠": 8185,
      "주": 8186,
      "즈": 8187,
      "지": 8188,
      "천": 8189,
      "첫": 8190,
      "치": 8191,
      "칼": 8192,
      "캐": 8193,
      "켰": 8194,
      "퀵": 8195,
      "키": 8196,
      "택": 8197,
      "터": 8198,
      "투": 8199,
      "트": 8200,
      "하": 8201,
      "한": 8202,
      "함": 8203,
      "해": 8204,
      "호": 8205,
      "화": 8206,
      "확": 8207,
      "흥": 8208,
      "": 8209,
      "": 8210,
      "": 8211,
      "": 8212,
      "": 8213,
      "": 8214,
      "": 8215,
      "": 8216,
      "": 8217,
      "": 8218,
      "": 8219,
      "": 8220,
      "": 8221,
      "": 8222,
      "": 8223,
      "": 8224,
      "": 8225,
      "": 8226,
      "": 8227,
      "": 8228,
      "": 8229,
      "": 8230,
      "": 8231,
      "": 8232,
      "": 8233,
      "": 8234,
      "": 8235,
      "": 8236,
      "": 8237,
      "": 8238,
      "": 8239,
      "": 8240,
      "": 8241,
      "": 8242,
      "": 8243,
      "": 8244,
      "️": 8245,
      "�": 8246,
      "🆖": 8247,
      "🇫": 8248,
      "🇮": 8249,
      "🇱": 8250,
      "🇳": 8251,
      "🇷": 8252,
      "🏆": 8253,
      "🏰": 8254,
      "🏴": 8255,
      "👽": 8256,
      "📺": 8257,
      "🖂": 8258,
      "😄": 8259,
      "😅": 8260,
      "😍": 8261,
      "🙏": 8262,
      "🤨": 8263,
      "🤯": 8264,
      "🤲": 8265,
      "🥰": 8266,
      "🥳": 8267,
      "🧚": 8268,
      "𤞤": 8269,
      "𫐓": 8270,
      "𫗦": 8271,
      "𬀪": 8272,
      "󠁢": 8273,
      "󠁧": 8274,
      "󠁬": 8275,
      "󠁳": 8276,
      "󠁷": 8277,
      "󠁿": 8278,
      "􏿾": 8279,
      "en": 8280,
      "▁t": 8281,
      "er": 8282,
      "▁i": 8283,
      "▁d": 8284,
      "▁h": 8285,
      "an": 8286,
      "▁w": 8287,
      "▁o": 8288,
      "▁m": 8289,
      "▁a": 8290,
      "▁th": 8291,
      "▁s": 8292,
      "et": 8293,
      "at": 8294,
      "▁b": 8295,
      "▁.": 8296,
      "in": 8297,
      "ch": 8298,
      "▁g": 8299,
      "ar": 8300,
      "▁*": 8301,
      "▁n": 8302,
      "▁v": 8303,
      "el": 8304,
      "or": 8305,
      "ou": 8306,
      "▁the": 8307,
      "ij": 8308,
      "es": 8309,
      "ot": 8310,
      "▁j": 8311,
      "on": 8312,
      "ed": 8313,
      "▁z": 8314,
      "▁l": 8315,
      "▁de": 8316,
      "▁p": 8317,
      "▁e": 8318,
      "▁k": 8319,
      "and": 8320,
      "it": 8321,
      "▁c": 8322,
      "ing": 8323,
      "▁in": 8324,
      "▁f": 8325,
      "▁y": 8326,
      "is": 8327,
      "re": 8328,
      "al": 8329,
      "as": 8330,
      "chi": 8331,
      "om": 8332,
      "▁to": 8333,
      "▁is": 8334,
      "ie": 8335,
      "▁he": 8336,
      "aar": 8337,
      "mot": 8338,
      "▁*mot": 8339,
      "▁je": 8340,
      "▁you": 8341,
      "▁and": 8342,
      "▁het": 8343,
      "▁,": 8344,
      "▁ik": 8345,
      "ll": 8346,
      "▁*mot:": 8347,
      "ig": 8348,
      "▁of": 8349,
      "▁een": 8350,
      "st": 8351,
      "▁u": 8352,
      "▁r": 8353,
      "▁on": 8354,
      "▁en": 8355,
      "▁we": 8356,
      "oor": 8357,
      "▁st": 8358,
      "▁*chi": 8359,
      "ad": 8360,
      "▁*chi:": 8361,
      "oo": 8362,
      "▁wh": 8363,
      "le": 8364,
      "▁?": 8365,
      "▁be": 8366,
      "▁it": 8367,
      "▁ge": 8368,
      "id": 8369,
      "ld": 8370,
      "▁van": 8371,
      "'s": 8372,
      "ere": 8373,
      "ow": 8374,
      "▁dat": 8375,
      "..": 8376,
      "▁me": 8377,
      "am": 8378,
      "iet": 8379,
      "ak": 8380,
      "ur": 8381,
      "ut": 8382,
      "ent": 8383,
      "ve": 8384,
      "▁op": 8385,
      "▁that": 8386,
      "ijn": 8387,
      "▁ver": 8388,
      "▁was": 8389,
      "ver": 8390,
      "▁niet": 8391,
      "▁al": 8392,
      "ay": 8393,
      "▁do": 8394,
      "▁我": 8395,
      "cht": 8396,
      "ic": 8397,
      "ag": 8398,
      "est": 8399,
      "ro": 8400,
      "il": 8401,
      "▁te": 8402,
      "▁ze": 8403,
      "un": 8404,
      "de": 8405,
      "▁er": 8406,
      "ra": 8407,
      "▁no": 8408,
      "se": 8409,
      "ee": 8410,
      "▁'": 8411,
      "▁go": 8412,
      "▁sh": 8413,
      "▁你": 8414,
      "im": 8415,
      "▁\"": 8416,
      "gen": 8417,
      "den": 8418,
      "her": 8419,
      "ijk": 8420,
      "▁wat": 8421,
      "ik": 8422,
      "▁voor": 8423,
      "▁mo": 8424,
      "e.": 8425,
      "▁re": 8426,
      "der": 8427,
      "ir": 8428,
      "ant": 8429,
      "▁heb": 8430,
      "ft": 8431,
      "oe": 8432,
      "us": 8433,
      "'t": 8434,
      "ol": 8435,
      "▁for": 8436,
      "ven": 8437,
      "▁all": 8438,
      "ap": 8439,
      "▁zijn": 8440,
      "▁met": 8441,
      "ion": 8442,
      "ly": 8443,
      "ht": 8444,
      "op": 8445,
      "ell": 8446,
      "em": 8447,
      "▁-": 8448,
      "ct": 8449,
      "▁...": 8450,
      "ken": 8451,
      "ers": 8452,
      "▁ha": 8453,
      "▁die": 8454,
      "▁1": 8455,
      "get": 8456,
      "▁what": 8457,
      "▁le": 8458,
      "▁ga": 8459,
      "▁[": 8460,
      "ier": 8461,
      "▁an": 8462,
      "▁als": 8463,
      "child": 8464,
      "ck": 8465,
      "▁*t": 8466,
      "en.": 8467,
      "▁hij": 8468,
      "s.": 8469,
      "ill": 8470,
      "▁maar": 8471,
      "ith": 8472,
      "ist": 8473,
      "▁wor": 8474,
      "ight": 8475,
      "▁sp": 8476,
      "▁aan": 8477,
      "ge": 8478,
      "什么": 8479,
      "▁as": 8480,
      "▁with": 8481,
      "arget": 8482,
      "child:": 8483,
      "_child:": 8484,
      "▁*target": 8485,
      "▁*target_child:": 8486,
      "▁om": 8487,
      "ri": 8488,
      "▁over": 8489,
      "▁ju": 8490,
      "▁this": 8491,
      "xx": 8492,
      "▁zo": 8493,
      "▁这": 8494,
      "ce": 8495,
      "la": 8496,
      "▁at": 8497,
      "ome": 8498,
      "ok": 8499,
      "all": 8500,
      "▁had": 8501,
      "▁not": 8502,
      "▁uit": 8503,
      "th": 8504,
      "▁dan": 8505,
      "inv": 8506,
      "▁they": 8507,
      "ind": 8508,
      "▁ne": 8509,
      "um": 8510,
      "▁*inv": 8511,
      "一个": 8512,
      "▁fr": 8513,
      "▁waar": 8514,
      "▁ch": 8515,
      "▁(": 8516,
      "ea": 8517,
      "▁so": 8518,
      "ul": 8519,
      "je": 8520,
      "▁there": 8521,
      "▁kn": 8522,
      "ast": 8523,
      "ze": 8524,
      "$$": 8525,
      "▁2": 8526,
      "eld": 8527,
      "h.": 8528,
      "▁have": 8529,
      "▁are": 8530,
      "ould": 8531,
      "▁sch": 8532,
      "▁her": 8533,
      "▁she": 8534,
      "▁can": 8535,
      "ook": 8536,
      "art": 8537,
      "y.": 8538,
      "我们": 8539,
      "▁naar": 8540,
      "ug": 8541,
      "ang": 8542,
      "ter": 8543,
      "就是": 8544,
      "▁ben": 8545,
      "▁but": 8546,
      "ood": 8547,
      "▁don": 8548,
      "eer": 8549,
      "▁!": 8550,
      "▁his": 8551,
      "▁br": 8552,
      "...": 8553,
      "▁moet": 8554,
      "her:": 8555,
      "ab": 8556,
      "▁dit": 8557,
      "▁i'": 8558,
      "oun": 8559,
      "▁pr": 8560,
      "▁wel": 8561,
      "nen": 8562,
      "▁kom": 8563,
      "这个": 8564,
      "ond": 8565,
      "▁man": 8566,
      "▁tw": 8567,
      "ink": 8568,
      "end": 8569,
      "os": 8570,
      "▁ma": 8571,
      "▁hier": 8572,
      "▁wer": 8573,
      "rij": 8574,
      "▁up": 8575,
      "ens": 8576,
      "ess": 8577,
      "aal": 8578,
      "▁pro": 8579,
      "ard": 8580,
      "▁your": 8581,
      "es.": 8582,
      "▁bij": 8583,
      "▁or": 8584,
      "▁my": 8585,
      "▁那": 8586,
      "▁know": 8587,
      "ru": 8588,
      "elijk": 8589,
      "out": 8590,
      "aat": 8591,
      "▁ook": 8592,
      "▁kan": 8593,
      "▁bo": 8594,
      "▁*mother:": 8595,
      "没有": 8596,
      "▁bl": 8597,
      "ich": 8598,
      "▁one": 8599,
      "▁sa": 8600,
      "怎么": 8601,
      "▁yea": 8602,
      "▁ja": 8603,
      "不是": 8604,
      "▁gr": 8605,
      "eel": 8606,
      "▁nog": 8607,
      "ien": 8608,
      "aan": 8609,
      "▁mijn": 8610,
      "▁goed": 8611,
      "ike": 8612,
      "▁pl": 8613,
      "ele": 8614,
      "itt": 8615,
      "▁get": 8616,
      "s,": 8617,
      "▁ab": 8618,
      "eft": 8619,
      "▁com": 8620,
      "be": 8621,
      "▁oh": 8622,
      "▁don't": 8623,
      "▁hoe": 8624,
      "we": 8625,
      "▁su": 8626,
      "▁af": 8627,
      "▁ar": 8628,
      "▁daar": 8629,
      "▁door": 8630,
      "▁se": 8631,
      "▁con": 8632,
      "▁kun": 8633,
      "▁it's": 8634,
      "qu": 8635,
      "▁他": 8636,
      "▁un": 8637,
      "ouw": 8638,
      "▁wil": 8639,
      "▁out": 8640,
      "ation": 8641,
      "▁like": 8642,
      "elf": 8643,
      "ong": 8644,
      "he": 8645,
      "ry": 8646,
      "00": 8647,
      "ain": 8648,
      "na": 8649,
      "▁mak": 8650,
      "te": 8651,
      "oug": 8652,
      "ff": 8653,
      "▁ex": 8654,
      "▁him": 8655,
      "▁from": 8656,
      "知道": 8657,
      "▁look": 8658,
      "n't": 8659,
      "pp": 8660,
      "ber": 8661,
      "e,": 8662,
      "ank": 8663,
      "▁heeft": 8664,
      "▁did": 8665,
      "▁*inv:": 8666,
      "▁jij": 8667,
      "▁*f": 8668,
      "▁by": 8669,
      "▁see": 8670,
      "▁xx": 8671,
      "'re": 8672,
      "acht": 8673,
      "ben": 8674,
      "▁geen": 8675,
      "▁xxx": 8676,
      "▁ok": 8677,
      "ies": 8678,
      "自己": 8679,
      "▁will": 8680,
      "ort": 8681,
      "ste": 8682,
      "▁deze": 8683,
      "▁bet": 8684,
      "ator": 8685,
      "iss": 8686,
      "ore": 8687,
      "▁here": 8688,
      "▁want": 8689,
      "▁hebben": 8690,
      "▁*fat": 8691,
      "▁hou": 8692,
      "▁ro": 8693,
      "ust": 8694,
      "▁nu": 8695,
      "▁dr": 8696,
      "ound": 8697,
      "ine": 8698,
      "▁hem": 8699,
      "现在": 8700,
      "▁were": 8701,
      "ing.": 8702,
      "时候": 8703,
      "▁nee": 8704,
      "▁just": 8705,
      "▁them": 8706,
      "▁that's": 8707,
      "pen": 8708,
      "ijd": 8709,
      "▁who": 8710,
      "▁weet": 8711,
      "▁if": 8712,
      "ive": 8713,
      "uur": 8714,
      "ame": 8715,
      "▁some": 8716,
      "own": 8717,
      "▁now": 8718,
      "▁19": 8719,
      "▁不": 8720,
      "▁am": 8721,
      "estig": 8722,
      "ke": 8723,
      "eren": 8724,
      "▁di": 8725,
      "▁word": 8726,
      "er.": 8727,
      "▁right": 8728,
      "og": 8729,
      "▁when": 8730,
      "▁got": 8731,
      "▁well": 8732,
      "▁el": 8733,
      "uit": 8734,
      "▁hel": 8735,
      "y,": 8736,
      "▁haar": 8737,
      "▁i'm": 8738,
      "▁meer": 8739,
      "au": 8740,
      "▁about": 8741,
      "ia": 8742,
      "ack": 8743,
      "estigator": 8744,
      "▁ter": 8745,
      "ally": 8746,
      "▁是": 8747,
      "aten": 8748,
      "pt": 8749,
      "▁*investigator": 8750,
      "▁*investigator:": 8751,
      "▁bed": 8752,
      "▁think": 8753,
      "een": 8754,
      "▁yeah.": 8755,
      "▁*fat:": 8756,
      "可以": 8757,
      "ingen": 8758,
      "oon": 8759,
      "▁kl": 8760,
      "iv": 8761,
      "▁onder": 8762,
      "if": 8763,
      "our": 8764,
      "ets": 8765,
      "▁gaan": 8766,
      "ick": 8767,
      "▁cl": 8768,
      "▁car": 8769,
      "uk": 8770,
      "▁would": 8771,
      "▁said": 8772,
      "▁zeg": 8773,
      "▁geb": 8774,
      "▁then": 8775,
      "ree": 8776,
      "ite": 8777,
      "ip": 8778,
      "ay.": 8779,
      "▁beg": 8780,
      "land": 8781,
      "oord": 8782,
      "one": 8783,
      "▁zou": 8784,
      "▁tim": 8785,
      "].": 8786,
      "orm": 8787,
      "▁bel": 8788,
      "▁na": 8789,
      "▁mar": 8790,
      "▁gaat": 8791,
      "▁where": 8792,
      "他们": 8793,
      "eden": 8794,
      "bl": 8795,
      "ten": 8796,
      "ass": 8797,
      "▁tr": 8798,
      "▁how": 8799,
      "ish": 8800,
      "▁any": 8801,
      "ed.": 8802,
      "▁ag": 8803,
      "▁hu": 8804,
      "▁gew": 8805,
      "▁vol": 8806,
      "ide": 8807,
      "▁hand": 8808,
      "lijk": 8809,
      "▁let": 8810,
      "▁good": 8811,
      "然后": 8812,
      "▁it.": 8813,
      "▁lo": 8814,
      "to": 8815,
      ",\"": 8816,
      "eder": 8817,
      "▁co": 8818,
      "▁doen": 8819,
      "ef": 8820,
      "▁even": 8821,
      "llie": 8822,
      "ige": 8823,
      "▁vo": 8824,
      "▁best": 8825,
      "▁put": 8826,
      "▁den": 8827,
      "per": 8828,
      "▁bent": 8829,
      "觉得": 8830,
      "▁som": 8831,
      "▁20": 8832,
      "es,": 8833,
      "▁say": 8834,
      "▁jullie": 8835,
      "▁gel": 8836,
      "ach": 8837,
      "uw": 8838,
      "ool": 8839,
      "▁laat": 8840,
      "sch": 8841,
      "▁down": 8842,
      "▁sl": 8843,
      "ker": 8844,
      "因为": 8845,
      "▁wordt": 8846,
      "▁tak": 8847,
      "▁我们": 8848,
      "▁qu": 8849,
      "elen": 8850,
      "▁come": 8851,
      "你们": 8852,
      "▁off": 8853,
      "aak": 8854,
      "▁worden": 8855,
      "kt": 8856,
      "ull": 8857,
      "a.": 8858,
      "▁min": 8859,
      "--": 8860,
      "ittle": 8861,
      "▁mij": 8862,
      "ate": 8863,
      "▁us": 8864,
      "ough": 8865,
      "▁little": 8866,
      "other": 8867,
      "ud": 8868,
      "那个": 8869,
      "▁back": 8870,
      "▁·": 8871,
      "icht": 8872,
      "▁sn": 8873,
      "▁就": 8874,
      "▁gen": 8875,
      "▁pe": 8876,
      "eten": 8877,
      "▁veel": 8878,
      "▁vr": 8879,
      "这么": 8880,
      "▁一": 8881,
      "isch": 8882,
      "av": 8883,
      "▁war": 8884,
      "▁tot": 8885,
      "▁3": 8886,
      "dat": 8887,
      "▁been": 8888,
      "▁好": 8889,
      "▁ons": 8890,
      "▁ont": 8891,
      "▁fl": 8892,
      "▁no.": 8893,
      "▁kunnen": 8894,
      "ect": 8895,
      "▁mens": 8896,
      "的时候": 8897,
      "▁has": 8898,
      "ings": 8899,
      "▁which": 8900,
      "▁eer": 8901,
      "zen": 8902,
      "ble": 8903,
      "atie": 8904,
      "▁could": 8905,
      "ep": 8906,
      "h,": 8907,
      "▁per": 8908,
      "▁kijk": 8909,
      "int": 8910,
      "ause": 8911,
      "▁zal": 8912,
      "▁their": 8913,
      "▁miss": 8914,
      "ther": 8915,
      "这样": 8916,
      "▁going": 8917,
      "▁hun": 8918,
      "▁two": 8919,
      "▁bec": 8920,
      "▁weg": 8921,
      "hing": 8922,
      "▁hebt": 8923,
      "▁nie": 8924,
      "ous": 8925,
      "jes": 8926,
      "bo": 8927,
      "▁iets": 8928,
      "heid": 8929,
      "了,": 8930,
      "▁very": 8931,
      "▁you're": 8932,
      "agen": 8933,
      "▁ho": 8934,
      "▁gev": 8935,
      "▁sc": 8936,
      "m.": 8937,
      "但是": 8938,
      "▁fe": 8939,
      "▁ever": 8940,
      "我的": 8941,
      "▁有": 8942,
      "▁gro": 8943,
      "sen": 8944,
      "!\"": 8945,
      "ult": 8946,
      "ian": 8947,
      "ger": 8948,
      "▁jo": 8949,
      "▁ad": 8950,
      "raag": 8951,
      "▁other": 8952,
      "oek": 8953,
      "?\"": 8954,
      "ure": 8955,
      "▁echt": 8956,
      "onder": 8957,
      "als": 8958,
      "▁pla": 8959,
      "所以": 8960,
      ".\"": 8961,
      "▁还": 8962,
      "wer": 8963,
      "ek": 8964,
      "pl": 8965,
      "oof": 8966,
      "gel": 8967,
      "▁vert": 8968,
      "ice": 8969,
      "已经": 8970,
      "▁mr": 8971,
      "orn": 8972,
      "racht": 8973,
      "了。": 8974,
      "▁mu": 8975,
      "▁more": 8976,
      "▁waarom": 8977,
      "▁ged": 8978,
      "▁maak": 8979,
      "way": 8980,
      "alk": 8981,
      "sp": 8982,
      "▁play": 8983,
      "▁xxx.": 8984,
      "ose": 8985,
      "▁terug": 8986,
      "的人": 8987,
      "▁lu": 8988,
      "▁gre": 8989,
      "ed,": 8990,
      "▁part": 8991,
      "▁twee": 8992,
      "ear": 8993,
      "igen": 8994,
      "▁sm": 8995,
      "真的": 8996,
      "act": 8997,
      "▁alleen": 8998,
      "riend": 8999,
      "ost": 9000,
      "▁mensen": 9001,
      "ment": 9002,
      "mp": 9003,
      "你的": 9004,
      "▁tegen": 9005,
      "▁moeten": 9006,
      "▁weer": 9007,
      "▁kon": 9008,
      "▁在": 9009,
      "urn": 9010,
      "ild": 9011,
      "▁mag": 9012,
      "▁la": 9013,
      "en,": 9014,
      "ci": 9015,
      "ade": 9016,
      "如果": 9017,
      "▁fir": 9018,
      "▁小": 9019,
      "▁对": 9020,
      "▁tijd": 9021,
      "amen": 9022,
      "▁str": 9023,
      "man": 9024,
      "me": 9025,
      "▁aft": 9026,
      "ert": 9027,
      "可能": 9028,
      "dy": 9029,
      "▁gon": 9030,
      "▁bes": 9031,
      "umm": 9032,
      "▁toch": 9033,
      "今天": 9034,
      "oot": 9035,
      "'ll": 9036,
      "innen": 9037,
      "ne": 9038,
      "▁ple": 9039,
      "不能": 9040,
      "▁into": 9041,
      "▁zien": 9042,
      "▁然后": 9043,
      "▁land": 9044,
      "iz": 9045,
      "▁dus": 9046,
      "孩子": 9047,
      "一下": 9048,
      "▁men": 9049,
      "▁eens": 9050,
      "▁blij": 9051,
      "▁you.": 9052,
      "age": 9053,
      "ief": 9054,
      "cc": 9055,
      "elt": 9056,
      "▁mee": 9057,
      ":\"": 9058,
      "还是": 9059,
      "d.": 9060,
      "ople": 9061,
      "iek": 9062,
      "▁wan": 9063,
      "▁gez": 9064,
      "ity": 9065,
      "dig": 9066,
      "▁mom": 9067,
      "▁nou": 9068,
      "chter": 9069,
      "emaal": 9070,
      "ruik": 9071,
      "ater": 9072,
      "▁does": 9073,
      "app": 9074,
      "▁wie": 9075,
      "都是": 9076,
      "▁after": 9077,
      "▁again": 9078,
      "kom": 9079,
      ",我": 9080,
      "▁ste": 9081,
      "▁alles": 9082,
      "▁people": 9083,
      "gr": 9084,
      "▁kw": 9085,
      "▁komt": 9086,
      "af": 9087,
      "▁act": 9088,
      "▁doe": 9089,
      "▁du": 9090,
      "ing,": 9091,
      "▁heel": 9092,
      "men": 9093,
      "▁lang": 9094,
      "▁somet": 9095,
      "▁make": 9096,
      "▁tell": 9097,
      "▁4": 9098,
      "▁new": 9099,
      "▁first": 9100,
      "▁jou": 9101,
      "喜欢": 9102,
      "到了": 9103,
      "▁take": 9104,
      "t.": 9105,
      "gens": 9106,
      "。\"": 9107,
      "▁par": 9108,
      "▁leven": 9109,
      "cl": 9110,
      "▁work": 9111,
      "amp": 9112,
      "par": 9113,
      "▁kle": 9114,
      "来了": 9115,
      "▁may": 9116,
      "ount": 9117,
      "▁call": 9118,
      "▁why": 9119,
      "ath": 9120,
      "ought": 9121,
      "▁gonna": 9122,
      "朋友": 9123,
      "▁it?": 9124,
      "▁krij": 9125,
      "▁because": 9126,
      "▁verd": 9127,
      "▁time": 9128,
      "▁cont": 9129,
      "▁zich": 9130,
      "els": 9131,
      "▁tra": 9132,
      "▁ges": 9133,
      "▁werd": 9134,
      "ord": 9135,
      "▁too": 9136,
      "▁toen": 9137,
      "事儿": 9138,
      "ans": 9139,
      "▁jaar": 9140,
      "ile": 9141,
      "妈妈": 9142,
      "▁what's": 9143,
      "▁bu": 9144,
      "大家": 9145,
      "▁every": 9146,
      "▁gebruik": 9147,
      "ett": 9148,
      "ale": 9149,
      "ooit": 9150,
      "▁vl": 9151,
      "pr": 9152,
      "▁school": 9153,
      "ire": 9154,
      "▁these": 9155,
      "▁zelf": 9156,
      "▁werk": 9157,
      "▁嗯": 9158,
      "ote": 9159,
      "▁pol": 9160,
      "▁fa": 9161,
      "oop": 9162,
      "▁gu": 9163,
      "时间": 9164,
      "io": 9165,
      "▁inter": 9166,
      "▁dis": 9167,
      "▁jon": 9168,
      "▁also": 9169,
      "wh": 9170,
      "inn": 9171,
      "ma": 9172,
      "也不": 9173,
      "▁nooit": 9174,
      "▁vind": 9175,
      "▁water": 9176,
      "▁cr": 9177,
      "▁denk": 9178,
      "▁he's": 9179,
      "ied": 9180,
      "▁only": 9181,
      "▁stop": 9182,
      "▁5": 9183,
      "▁andere": 9184,
      "▁sle": 9185,
      "咱们": 9186,
      "▁our": 9187,
      "gt": 9188,
      "▁app": 9189,
      "'ve": 9190,
      "了一": 9191,
      "wn": 9192,
      "▁zw": 9193,
      "▁big": 9194,
      "▁there.": 9195,
      "ather": 9196,
      "▁gl": 9197,
      "ische": 9198,
      "▁thr": 9199,
      "也是": 9200,
      "出来": 9201,
      "ict": 9202,
      "▁can't": 9203,
      "其实": 9204,
      "可是": 9205,
      "ister": 9206,
      "▁yes.": 9207,
      "▁should": 9208,
      "▁201": 9209,
      "▁vers": 9210,
      "ende": 9211,
      "的话": 9212,
      "ader": 9213,
      "inder": 9214,
      "▁nat": 9215,
      "▁need": 9216,
      "mo": 9217,
      "▁po": 9218,
      "▁laten": 9219,
      "▁maken": 9220,
      "▁tre": 9221,
      "事情": 9222,
      "▁i'll": 9223,
      "▁sec": 9224,
      "▁day": 9225,
      "▁elk": 9226,
      "▁bab": 9227,
      "▁net": 9228,
      "sh": 9229,
      "▁god": 9230,
      "▁comm": 9231,
      "▁ser": 9232,
      "▁wij": 9233,
      "▁hal": 9234,
      "▁zie": 9235,
      "起来": 9236,
      "▁way": 9237,
      "▁就是": 9238,
      "▁chi": 9239,
      "oorden": 9240,
      "应该": 9241,
      "én": 9242,
      "▁要": 9243,
      "▁open": 9244,
      "ellen": 9245,
      "ely": 9246,
      "▁wr": 9247,
      "的是": 9248,
      "▁res": 9249,
      "▁comp": 9250,
      "zelf": 9251,
      "vo": 9252,
      "东西": 9253,
      "oren": 9254,
      "▁staat": 9255,
      "du": 9256,
      "一定": 9257,
      "▁zei": 9258,
      "▁但是": 9259,
      "▁komen": 9260,
      "▁ken": 9261,
      "▁really": 9262,
      "▁啊": 9263,
      "▁help": 9264,
      "br": 9265,
      "oud": 9266,
      "voor": 9267,
      "那么": 9268,
      "ph": 9269,
      "▁dag": 9270,
      "▁spe": 9271,
      "ary": 9272,
      "给我": 9273,
      "cher": 9274,
      "▁didn't": 9275,
      "▁alle": 9276,
      "▁long": 9277,
      "cent": 9278,
      "▁year": 9279,
      "oog": 9280,
      "able": 9281,
      "▁okay.": 9282,
      "onden": 9283,
      "他的": 9284,
      "为什么": 9285,
      "不会": 9286,
      "▁much": 9287,
      "▁pre": 9288,
      "▁ra": 9289,
      "irl": 9290,
      "▁there's": 9291,
      "ys": 9292,
      "▁a:": 9293,
      "▁won": 9294,
      "tijd": 9295,
      "▁bef": 9296,
      "ix": 9297,
      "orgen": 9298,
      "▁uh": 9299,
      "▁gek": 9300,
      "▁ant": 9301,
      "▁onze": 9302,
      "还有": 9303,
      "▁pers": 9304,
      "▁beh": 9305,
      "▁mon": 9306,
      "问题": 9307,
      "▁gra": 9308,
      "▁here.": 9309,
      "}$$": 9310,
      "▁这个": 9311,
      "一起": 9312,
      "ving": 9313,
      "▁ind": 9314,
      "a,": 9315,
      "ated": 9316,
      "beur": 9317,
      "emand": 9318,
      "告诉": 9319,
      "▁right.": 9320,
      "▁than": 9321,
      "ce.": 9322,
      ").": 9323,
      "▁bro": 9324,
      "▁'n": 9325,
      "erd": 9326,
      "▁iemand": 9327,
      "▁under": 9328,
      "ië": 9329,
      "▁zit": 9330,
      "▁所以": 9331,
      "▁wild": 9332,
      "▁\"i": 9333,
      "▁pres": 9334,
      "▁made": 9335,
      "▁大": 9336,
      "▁vrouw": 9337,
      "▁mil": 9338,
      "▁yeah": 9339,
      "▁nodig": 9340,
      "-1": 9341,
      "▁neder": 9342,
      "▁kind": 9343,
      "▁sor": 9344,
      "▁看": 9345,
      "▁me.": 9346,
      "▁ru": 9347,
      "▁b:": 9348,
      "▁oh.": 9349,
      "ats": 9350,
      "▁eigen": 9351,
      "the": 9352,
      "chien": 9353,
      "woord": 9354,
      "中国": 9355,
      "▁gem": 9356,
      "▁pap": 9357,
      "▁wacht": 9358,
      "▁okay": 9359,
      "ance": 9360,
      "▁你们": 9361,
      "ase": 9362,
      "eds": 9363,
      "oth": 9364,
      "▁gebeur": 9365,
      "▁achter": 9366,
      "▁zij": 9367,
      "▁huis": 9368,
      "以后": 9369,
      "▁last": 9370,
      "are": 9371,
      "▁old": 9372,
      "hu": 9373,
      "▁ke": 9374,
      "▁verk": 9375,
      "▁misschien": 9376,
      "▁verl": 9377,
      "rijk": 9378,
      "▁girl": 9379,
      "▁nederland": 9380,
      "▁200": 9381,
      "▁you?": 9382,
      "form": 9383,
      "ugh": 9384,
      "▁altijd": 9385,
      "self": 9386,
      "appen": 9387,
      "▁moo": 9388,
      "ward": 9389,
      "co": 9390,
      "▁went": 9391,
      "▁kunt": 9392,
      "▁mean": 9393,
      "▁talk": 9394,
      "▁fam": 9395,
      "跟你": 9396,
      "$$\\": 9397,
      "air": 9398,
      "ise": 9399,
      "▁hoor": 9400,
      "{{": 9401,
      "▁fin": 9402,
      "▁了": 9403,
      "iver": 9404,
      "beeld": 9405,
      "▁aut": 9406,
      "一样": 9407,
      "▁é": 9408,
      "oel": 9409,
      "谢谢": 9410,
      "▁rem": 9411,
      "▁toe": 9412,
      "给你": 9413,
      "ussen": 9414,
      "自己的": 9415,
      "ember": 9416,
      "▁哎": 9417,
      "很多": 9418,
      "idd": 9419,
      "▁omdat": 9420,
      "▁niets": 9421,
      "的,": 9422,
      "▁kinder": 9423,
      "▁怎么": 9424,
      "▁gewoon": 9425,
      "▁(1": 9426,
      "▁amer": 9427,
      "▁bre": 9428,
      "vel": 9429,
      "▁也": 9430,
      "▁read": 9431,
      "▁turn": 9432,
      "开始": 9433,
      "▁*tea": 9434,
      "ting": 9435,
      "两个": 9436,
      "特别": 9437,
      "van": 9438,
      "▁those": 9439,
      "▁wa": 9440,
      "这些": 9441,
      "▁something": 9442,
      "bij": 9443,
      "▁geh": 9444,
      "up": 9445,
      "itten": 9446,
      "▁geef": 9447,
      "▁keer": 9448,
      "▁start": 9449,
      "▁zeggen": 9450,
      "▁zoals": 9451,
      "vol": 9452,
      "人的": 9453,
      "一点": 9454,
      "eep": 9455,
      "▁never": 9456,
      "▁house": 9457,
      "amer": 9458,
      "▁één": 9459,
      "▁ph": 9460,
      "lo": 9461,
      "▁dad": 9462,
      "▁dood": 9463,
      "▁that.": 9464,
      "roe": 9465,
      "▁oh,": 9466,
      "▁什么": 9467,
      "我就": 9468,
      "非常": 9469,
      "▁samen": 9470,
      "▁thank": 9471,
      "er,": 9472,
      "ont": 9473,
      "好的": 9474,
      "▁而": 9475,
      "wij": 9476,
      "ins": 9477,
      "▁她": 9478,
      "▁grote": 9479,
      "uwe": 9480,
      "▁oké": 9481,
      "▁head": 9482,
      "▁har": 9483,
      "▁如果": 9484,
      "▁great": 9485,
      "▁fil": 9486,
      "▁说": 9487,
      "▁6": 9488,
      "▁many": 9489,
      "▁red": 9490,
      "▁ask": 9491,
      "▁eerste": 9492,
      "▁show": 9493,
      "▁before": 9494,
      "▁elkaar": 9495,
      "of": 9496,
      "ue": 9497,
      "no": 9498,
      "open": 9499,
      "edere": 9500,
      "▁wanna": 9501,
      "▁book": 9502,
      "▁waren": 9503,
      "▁没": 9504,
      "▁binnen": 9505,
      "▁give": 9506,
      "kken": 9507,
      "▁vraag": 9508,
      "stand": 9509,
      "oofd": 9510,
      "inden": 9511,
      "▁wereld": 9512,
      "mer": 9513,
      "▁ber": 9514,
      "▁allemaal": 9515,
      "▁thought": 9516,
      "}}": 9517,
      "ijden": 9518,
      "▁zegt": 9519,
      "aakt": 9520,
      "▁iedere": 9521,
      "▁another": 9522,
      "ie.": 9523,
      "的一": 9524,
      "▁what?": 9525,
      "▁um": 9526,
      "▁\\": 9527,
      "▁ger": 9528,
      "▁ide": 9529,
      "▁still": 9530,
      "为了": 9531,
      "▁famil": 9532,
      "这是": 9533,
      "▁ear": 9534,
      "igh": 9535,
      "ign": 9536,
      "▁count": 9537,
      "bb": 9538,
      "▁erg": 9539,
      "跟我": 9540,
      "ons": 9541,
      "▁lot": 9542,
      "▁came": 9543,
      "▁drie": 9544,
      "ing?": 9545,
      "▁*par": 9546,
      "▁bar": 9547,
      "▁groot": 9548,
      "▁vader": 9549,
      "有一": 9550,
      "ullen": 9551,
      "ces": 9552,
      "▁lie": 9553,
      "unt": 9554,
      "▁must": 9555,
      "▁pu": 9556,
      "▁well,": 9557,
      "不知道": 9558,
      "▁doet": 9559,
      "回来": 9560,
      "▁child": 9561,
      "iden": 9562,
      "说:\"": 9563,
      "老师": 9564,
      "ved": 9565,
      "▁mat": 9566,
      "oss": 9567,
      "在这": 9568,
      "▁sla": 9569,
      "emen": 9570,
      "elijke": 9571,
      "▁bit": 9572,
      "▁find": 9573,
      "▁one.": 9574,
      "▁vast": 9575,
      "▁leg": 9576,
      "发现": 9577,
      "eerd": 9578,
      "oeg": 9579,
      "▁three": 9580,
      "意思": 9581,
      "▁个": 9582,
      "▁weten": 9583,
      "▁uw": 9584,
      "▁来": 9585,
      "o.": 9586,
      "▁des": 9587,
      "org": 9588,
      "y?": 9589,
      "on.": 9590,
      "unn": 9591,
      "工作": 9592,
      "▁schrij": 9593,
      "不要": 9594,
      "▁18": 9595,
      "▁ve": 9596,
      "▁plan": 9597,
      "veel": 9598,
      "▁'s": 9599,
      "▁i've": 9600,
      "▁col": 9601,
      "▁prob": 9602,
      "▁因为": 9603,
      "▁sy": 9604,
      "ave": 9605,
      "▁bla": 9606,
      "▁volgen": 9607,
      "▁its": 9608,
      "生活": 9609,
      "ers.": 9610,
      "▁through": 9611,
      "▁的": 9612,
      "▁hard": 9613,
      "oen": 9614,
      "right": 9615,
      "▁char": 9616,
      "不好": 9617,
      "et.": 9618,
      "etje": 9619,
      "▁that?": 9620,
      "▁let's": 9621,
      "▁no,": 9622,
      "▁mam": 9623,
      "▁ou": 9624,
      "爸爸": 9625,
      "ake": 9626,
      "uiten": 9627,
      "▁ele": 9628,
      "▁pa": 9629,
      "▁minut": 9630,
      "aken": 9631,
      "需要": 9632,
      "ren": 9633,
      "▁eat": 9634,
      "▁meest": 9635,
      "之后": 9636,
      "ident": 9637,
      "▁proble": 9638,
      "这种": 9639,
      "▁只": 9640,
      "▁现在": 9641,
      "▁他们": 9642,
      "▁sw": 9643,
      "▁dra": 9644,
      "▁sit": 9645,
      "一直": 9646,
      "▁geld": 9647,
      "▁night": 9648,
      "▁ten": 9649,
      "▁nam": 9650,
      "大的": 9651,
      "▁rep": 9652,
      "rouw": 9653,
      "kst": 9654,
      "▁当": 9655,
      "▁most": 9656,
      "啊,": 9657,
      "▁hele": 9658,
      "thing": 9659,
      "alen": 9660,
      "▁ja.": 9661,
      "ock": 9662,
      "omen": 9663,
      "allen": 9664,
      "les": 9665,
      "▁pak": 9666,
      "▁found": 9667,
      "xt": 9668,
      "ieren": 9669,
      "▁is.": 9670,
      "▁anders": 9671,
      "▁ster": 9672,
      "▁reg": 9673,
      "▁erm": 9674,
      "▁they're": 9675,
      "▁we're": 9676,
      "day": 9677,
      "ijf": 9678,
      "dracht": 9679,
      "ange": 9680,
      "▁joh": 9681,
      "ede": 9682,
      "下来": 9683,
      "20": 9684,
      "▁kinderen": 9685,
      "好了": 9686,
      "▁ed": 9687,
      "▁polit": 9688,
      "▁bus": 9689,
      "▁snel": 9690,
      "▁sorry": 9691,
      "▁bez": 9692,
      "▁away": 9693,
      "geven": 9694,
      "i.": 9695,
      "▁cap": 9696,
      "看看": 9697,
      "去了": 9698,
      "aren": 9699,
      "关系": 9700,
      "▁7": 9701,
      "my": 9702,
      "▁thing": 9703,
      "ced": 9704,
      "▁gedaan": 9705,
      "ub": 9706,
      "▁try": 9707,
      "ried": 9708,
      "▁might": 9709,
      "eter": 9710,
      "▁tussen": 9711,
      "是不是": 9712,
      "▁da": 9713,
      "▁welke": 9714,
      "里面": 9715,
      "▁cent": 9716,
      "▁it,": 9717,
      "▁mother": 9718,
      "▁lee": 9719,
      "ib": 9720,
      "▁chr": 9721,
      "一次": 9722,
      "ex": 9723,
      "▁moment": 9724,
      "▁called": 9725,
      "ift": 9726,
      "▁pop": 9727,
      "▁ging": 9728,
      "▁eng": 9729,
      "▁isn't": 9730,
      "ijt": 9731,
      "▁fo": 9732,
      "答案": 9733,
      "▁lig": 9734,
      "aam": 9735,
      "▁neem": 9736,
      "▁natuur": 9737,
      "▁iedereen": 9738,
      "▁vriend": 9739,
      "▁moeder": 9740,
      "地方": 9741,
      "▁later": 9742,
      "▁att": 9743,
      "▁friend": 9744,
      "eng": 9745,
      "ann": 9746,
      "▁jouw": 9747,
      "▁nieuwe": 9748,
      "ition": 9749,
      "▁x": 9750,
      "iel": 9751,
      "▁staan": 9752,
      "ical": 9753,
      "000": 9754,
      "▁paar": 9755,
      "▁vinden": 9756,
      "ious": 9757,
      "oeken": 9758,
      "ah": 9759,
      "mand": 9760,
      "▁[la": 9761,
      "▁hoofd": 9762,
      "▁diff": 9763,
      "让我": 9764,
      "att": 9765,
      "),": 9766,
      "sl": 9767,
      "▁ker": 9768,
      "▁tekst": 9769,
      "uck": 9770,
      "▁但": 9771,
      "▁willen": 9772,
      "看到": 9773,
      "rect": 9774,
      "▁rest": 9775,
      "cher:": 9776,
      "▁*teacher:": 9777,
      "了我": 9778,
      "▁steeds": 9779,
      "▁mh": 9780,
      "▁four": 9781,
      "▁tru": 9782,
      "▁leuk": 9783,
      "希望": 9784,
      "▁hor": 9785,
      "▁on.": 9786,
      "pro": 9787,
      "gelijk": 9788,
      "ually": 9789,
      "▁week": 9790,
      "▁8": 9791,
      "oos": 9792,
      "▁around": 9793,
      "感觉": 9794,
      "▁eur": 9795,
      "▁exc": 9796,
      "▁far": 9797,
      "▁zitten": 9798,
      "▁wilde": 9799,
      "ss": 9800,
      "▁imp": 9801,
      "▁tele": 9802,
      "▁verschi": 9803,
      "吗?": 9804,
      "▁*ad": 9805,
      "▁own": 9806,
      "过来": 9807,
      "▁ey": 9808,
      "s].": 9809,
      "▁val": 9810,
      "▁you,": 9811,
      "▁tom": 9812,
      "▁rel": 9813,
      "▁zet": 9814,
      "ful": 9815,
      "▁hall": 9816,
      "dr": 9817,
      "▁while": 9818,
      "ory": 9819,
      "▁rec": 9820,
      "▁oo": 9821,
      "ark": 9822,
      "▁bas": 9823,
      "▁lif": 9824,
      "▁baby": 9825,
      "▁ac": 9826,
      "ina": 9827,
      "▁she's": 9828,
      "▁您": 9829,
      "vent": 9830,
      "▁pass": 9831,
      "▁home": 9832,
      "▁him.": 9833,
      "▁mumm": 9834,
      "▁这是": 9835,
      "ught": 9836,
      "rac": 9837,
      "aart": 9838,
      "▁wait": 9839,
      "▁cour": 9840,
      "要是": 9841,
      "▁dank": 9842,
      "▁stad": 9843,
      "▁feel": 9844,
      "▁cle": 9845,
      "▁know.": 9846,
      "▁such": 9847,
      "▁ball": 9848,
      "▁mot": 9849,
      "▁volgende": 9850,
      "▁老": 9851,
      "的。": 9852,
      "pe": 9853,
      "▁vrij": 9854,
      "▁belang": 9855,
      "▁10": 9856,
      "▁now.": 9857,
      "▁yeah,": 9858,
      "▁vand": 9859,
      ",你": 9860,
      "▁better": 9861,
      "▁em": 9862,
      "▁stand": 9863,
      "gest": 9864,
      "iteit": 9865,
      "off": 9866,
      "▁sure": 9867,
      "▁dacht": 9868,
      "ms": 9869,
      "▁stat": 9870,
      "▁nik": 9871,
      "▁...en": 9872,
      "ott": 9873,
      "ster": 9874,
      "over": 9875,
      "oed": 9876,
      "▁zeker": 9877,
      "▁world": 9878,
      "▁sur": 9879,
      "▁dec": 9880,
      "哈哈": 9881,
      "ly.": 9882,
      "好好": 9883,
      "▁都": 9884,
      "▁sk": 9885,
      "▁things": 9886,
      "▁klaar": 9887,
      "▁keep": 9888,
      "'d": 9889,
      "▁med": 9890,
      "▁把": 9891,
      "所有": 9892,
      "▁beter": 9893,
      "▁verh": 9894,
      "kend": 9895,
      "uss": 9896,
      "▁zullen": 9897,
      "in.": 9898,
      "▁wind": 9899,
      "▁vragen": 9900,
      "▁uur": 9901,
      "▁[laugh": 9902,
      "▁inform": 9903,
      "▁being": 9904,
      "▁你说": 9905,
      "▁eind": 9906,
      "ipp": 9907,
      "▁naam": 9908,
      "▁used": 9909,
      "▁ziet": 9910,
      "val": 9911,
      "▁lad": 9912,
      "▁oor": 9913,
      "人家": 9914,
      "▁art": 9915,
      "▁shall": 9916,
      "ii": 9917,
      "▁moest": 9918,
      "ion.": 9919,
      "肯定": 9920,
      "▁watch": 9921,
      "上的": 9922,
      "room": 9923,
      "▁stra": 9924,
      "vis": 9925,
      "▁[s": 9926,
      "▁looks": 9927,
      "▁opdracht": 9928,
      "▁hen": 9929,
      "komen": 9930,
      "oort": 9931,
      "uren": 9932,
      ",他": 9933,
      "blie": 9934,
      "▁acc": 9935,
      "outh": 9936,
      "med": 9937,
      "▁[chi": 9938,
      "▁cre": 9939,
      "on,": 9940,
      "▁eerst": 9941,
      "了你": 9942,
      "二十": 9943,
      "{2": 9944,
      "最后": 9945,
      "ac": 9946,
      "▁aw": 9947,
      "▁supp": 9948,
      "▁love": 9949,
      "▁wilt": 9950,
      "▁room": 9951,
      "▁goede": 9952,
      "了吗": 9953,
      "uis": 9954,
      "ty": 9955,
      "我是": 9956,
      "s?": 9957,
      "ai": 9958,
      "row": 9959,
      "▁helemaal": 9960,
      "exp": 9961,
      "▁exp": 9962,
      "chten": 9963,
      "el.": 9964,
      "ited": 9965,
      "▁可是": 9966,
      "le.": 9967,
      "▁maakt": 9968,
      "line": 9969,
      "▁father": 9970,
      "read": 9971,
      "▁schi": 9972,
      "▁doesn't": 9973,
      "▁kwam": 9974,
      "body": 9975,
      "▁john": 9976,
      "\".": 9977,
      "▁hold": 9978,
      "ash": 9979,
      "▁end": 9980,
      "oten": 9981,
      "▁next": 9982,
      "▁know,": 9983,
      "▁yes": 9984,
      "blieft": 9985,
      "ges": 9986,
      "▁name": 9987,
      "▁别": 9988,
      "有什么": 9989,
      "ever": 9990,
      "▁happen": 9991,
      "▁ob": 9992,
      "▁boy": 9993,
      ",'": 9994,
      "▁up.": 9995,
      "▁nor": 9996,
      "▁belangrijk": 9997,
      "▁nieuw": 9998,
      "▁jack": 9999,
      "▁再": 10000,
      "oem": 10001,
      "▁else": 10002,
      "▁dog": 10003,
      "ican": 10004,
      "isten": 10005,
      "哪儿": 10006,
      "▁che": 10007,
      "▁我是": 10008,
      "我们的": 10009,
      "▁spr": 10010,
      "会儿": 10011,
      "▁meis": 10012,
      "世界": 10013,
      "▁zonder": 10014,
      "一个人": 10015,
      "之前": 10016,
      "nis": 10017,
      "先生": 10018,
      "▁lijk": 10019,
      "▁int": 10020,
      "▁9": 10021,
      "▁krijgen": 10022,
      "\",": 10023,
      "▁niemand": 10024,
      "▁verb": 10025,
      "▁kr": 10026,
      "ways": 10027,
      "▁其实": 10028,
      "▁half": 10029,
      "▁you've": 10030,
      "▁liv": 10031,
      "的小": 10032,
      "▁produ": 10033,
      "▁bang": 10034,
      "▁没有": 10035,
      "▁mr.": 10036,
      "都不": 10037,
      "比较": 10038,
      "ders": 10039,
      "▁*exp": 10040,
      "k.": 10041,
      "ince": 10042,
      "▁*exp:": 10043,
      "log": 10044,
      "in'": 10045,
      "▁num": 10046,
      "▁geven": 10047,
      "▁pleas": 10048,
      "▁bad": 10049,
      "ject": 10050,
      "ush": 10051,
      "▁saw": 10052,
      "ps": 10053,
      "▁jan": 10054,
      "uid": 10055,
      "重要": 10056,
      "▁im": 10057,
      "▁bir": 10058,
      "▁cons": 10059,
      "▁它": 10060,
      "▁buiten": 10061,
      "▁*g": 10062,
      "ken.": 10063,
      "▁可": 10064,
      "走了": 10065,
      "▁mis": 10066,
      "▁不是": 10067,
      "▁rust": 10068,
      "aag": 10069,
      "一些": 10070,
      "▁•": 10071,
      "▁sir": 10072,
      "ves": 10073,
      "▁\"y": 10074,
      "ement": 10075,
      "ions": 10076,
      "▁hop": 10077,
      "ged": 10078,
      "▁*s": 10079,
      "▁genoeg": 10080,
      "▁direct": 10081,
      "ww": 10082,
      "baar": 10083,
      "公司": 10084,
      "elde": 10085,
      "▁lief": 10086,
      "▁我就": 10087,
      "▁vroe": 10088,
      "▁left": 10089,
      "▁real": 10090,
      "▁told": 10091,
      "door": 10092,
      "出去": 10093,
      "ks": 10094,
      "心里": 10095,
      "▁199": 10096,
      "▁gest": 10097,
      "▁*m": 10098,
      "ese": 10099,
      "▁doing": 10100,
      "明白": 10101,
      "▁pat": 10102,
      "anden": 10103,
      "▁到": 10104,
      "▁cat": 10105,
      "urt": 10106,
      "▁dur": 10107,
      "真是": 10108,
      "geb": 10109,
      "能够": 10110,
      "▁ah": 10111,
      "▁them.": 10112,
      "uld": 10113,
      "▁lar": 10114,
      "来的": 10115,
      "▁niks": 10116,
      "▁go.": 10117,
      "eling": 10118,
      "▁ret": 10119,
      "▁west": 10120,
      "▁gezien": 10121,
      "▁doll": 10122,
      "frac": 10123,
      "▁dist": 10124,
      "▁sim": 10125,
      "▁stud": 10126,
      "这一": 10127,
      "ouden": 10128,
      "▁natuurlijk": 10129,
      "▁use": 10130,
      "▁了.": 10131,
      "▁always": 10132,
      "▁verschill": 10133,
      "▁near": 10134,
      "▁boven": 10135,
      "▁slecht": 10136,
      "▁meneer": 10137,
      "▁verm": 10138,
      "▁same": 10139,
      "说的": 10140,
      "办法": 10141,
      "▁a.": 10142,
      "al.": 10143,
      "▁mooi": 10144,
      "▁sing": 10145,
      "fl": 10146,
      "▁dingen": 10147,
      "情况": 10148,
      "▁verder": 10149,
      "▁christ": 10150,
      "ankt": 10151,
      "准备": 10152,
      "▁point": 10153,
      "▁auto": 10154,
      "▁took": 10155,
      "gaan": 10156,
      "▁place": 10157,
      "是我": 10158,
      "but": 10159,
      "gd": 10160,
      "▁*father:": 10161,
      "▁eten": 10162,
      "▁five": 10163,
      "▁ta": 10164,
      "▁kant": 10165,
      "▁vier": 10166,
      "▁inst": 10167,
      "▁person": 10168,
      "▁mor": 10169,
      "ta": 10170,
      "▁houd": 10171,
      "▁won't": 10172,
      "故事": 10173,
      "▁happ": 10174,
      "▁hé": 10175,
      "▁还有": 10176,
      "▁从": 10177,
      "▁mhm.": 10178,
      "▁blijven": 10179,
      "ield": 10180,
      "ots": 10181,
      "晚上": 10182,
      "ult:": 10183,
      "▁mus": 10184,
      "waar": 10185,
      "▁gener": 10186,
      "▁tri": 10187,
      "▁houden": 10188,
      "ron": 10189,
      "我觉得": 10190,
      "▁*adult:": 10191,
      "▁we'll": 10192,
      "▁youn": 10193,
      "▁bere": 10194,
      "说你": 10195,
      "▁geluk": 10196,
      "▁vis": 10197,
      "▁in.": 10198,
      "ar.": 10199,
      "▁team": 10200,
      "不了": 10201,
      "▁verand": 10202,
      "▁15": 10203,
      "电话": 10204,
      "刚才": 10205,
      "▁stap": 10206,
      "▁mer": 10207,
      "olog": 10208,
      "▁ext": 10209,
      "▁jongen": 10210,
      "▁recht": 10211,
      "▁beetje": 10212,
      "▁题": 10213,
      "▁bur": 10214,
      "ruk": 10215,
      "▁walk": 10216,
      "▁unt": 10217,
      "▁_": 10218,
      "ies.": 10219,
      "▁hell": 10220,
      "▁done": 10221,
      "▁kijken": 10222,
      "▁今天": 10223,
      "▁top": 10224,
      "▁那你": 10225,
      "▁geweld": 10226,
      "erent": 10227,
      "▁[p": 10228,
      "▁fran": 10229,
      "▁light": 10230,
      "oman": 10231,
      "▁air": 10232,
      "▁remember": 10233,
      "▁wist": 10234,
      "▁box": 10235,
      "▁答案": 10236,
      "o,": 10237,
      "▁让": 10238,
      "▁six": 10239,
      "▁pas": 10240,
      "▁hot": 10241,
      "▁fun": 10242,
      "是一": 10243,
      "▁uh,": 10244,
      "▁bedankt": 10245,
      "ds": 10246,
      "oup": 10247,
      "▁mone": 10248,
      "▁laatste": 10249,
      "▁[mot": 10250,
      "▁spijt": 10251,
      "▁答案:": 10252,
      "▁vlie": 10253,
      "▁europ": 10254,
      "ctor": 10255,
      "je.": 10256,
      "▁this.": 10257,
      "▁ton": 10258,
      "▁plaats": 10259,
      "回去": 10260,
      "fect": 10261,
      "过去": 10262,
      "▁vaak": 10263,
      "▁gewe": 10264,
      "▁moe": 10265,
      "ieve": 10266,
      "▁ass": 10267,
      "neer": 10268,
      "eth": 10269,
      "▁inv": 10270,
      "▁bedoel": 10271,
      "儿子": 10272,
      "了吧": 10273,
      "▁juist": 10274,
      "▁elke": 10275,
      "as.": 10276,
      "▁morn": 10277,
      "▁gar": 10278,
      "▁\"th": 10279,
      "zelfde": 10280,
      "▁wanneer": 10281,
      "ius": 10282,
      "正确": 10283,
      "eek": 10284,
      "▁sam": 10285,
      "▁去": 10286,
      "▁hear": 10287,
      "▁high": 10288,
      "▁$$": 10289,
      ",不": 10290,
      "▁kill": 10291,
      "ational": 10292,
      "▁coll": 10293,
      "这样的": 10294,
      "▁graag": 10295,
      "▁probeer": 10296,
      "▁bev": 10297,
      "▁kop": 10298,
      "y's": 10299,
      "▁frank": 10300,
      "ames": 10301,
      "king": 10302,
      "▁ba": 10303,
      "▁this?": 10304,
      "▁deel": 10305,
      "ow.": 10306,
      "▁black": 10307,
      "▁kleine": 10308,
      "aut": 10309,
      "▁pick": 10310,
      "kijk": 10311,
      "▁out.": 10312,
      "▁until": 10313,
      "▁pie": 10314,
      "▁beste": 10315,
      "h?": 10316,
      "ern": 10317,
      "发生": 10318,
      "s]": 10319,
      "cept": 10320,
      "part": 10321,
      "说了": 10322,
      "led": 10323,
      "▁tijden": 10324,
      "▁rond": 10325,
      "▁small": 10326,
      "▁hadden": 10327,
      "有点": 10328,
      "▁gemaakt": 10329,
      "▁second": 10330,
      "▁foot": 10331,
      "cies": 10332,
      "▁stuk": 10333,
      "ikk": 10334,
      "不起": 10335,
      "gether": 10336,
      "iding": 10337,
      "▁aant": 10338,
      "cial": 10339,
      "ly,": 10340,
      "ry.": 10341,
      "ial": 10342,
      "angen": 10343,
      "▁nice": 10344,
      "od": 10345,
      "▁offic": 10346,
      "▁geweest": 10347,
      "ad.": 10348,
      "ew": 10349,
      "ork": 10350,
      "▁zelfs": 10351,
      "▁praten": 10352,
      "ument": 10353,
      "ars": 10354,
      "▁grand": 10355,
      "▁题干": 10356,
      "ract": 10357,
      "ers,": 10358,
      "ling": 10359,
      "▁题干:": 10360,
      "▁上": 10361,
      "▁yes,": 10362,
      "▁me,": 10363,
      "第一": 10364,
      "ween": 10365,
      "虽然": 10366,
      "▁helpen": 10367,
      "ummer": 10368,
      "ium": 10369,
      "▁del": 10370,
      "▁where's": 10371,
      "con": 10372,
      "se.": 10373,
      "有一个": 10374,
      "▁woorden": 10375,
      "▁想": 10376,
      "▁drink": 10377,
      "这儿": 10378,
      "了一个": 10379,
      "▁anything": 10380,
      "▁bra": 10381,
      "说我": 10382,
      "当时": 10383,
      "个人": 10384,
      "▁fire": 10385,
      "那些": 10386,
      "side": 10387,
      "▁each": 10388,
      "llow": 10389,
      "▁wonder": 10390,
      "▁sound": 10391,
      "cr": 10392,
      "ustr": 10393,
      "相信": 10394,
      "▁\"wh": 10395,
      "▁$": 10396,
      "▁quite": 10397,
      "▁round": 10398,
      "▁form": 10399,
      "▁different": 10400,
      "▁midd": 10401,
      "▁\"the": 10402,
      "zz": 10403,
      "▁dri": 10404,
      "▁run": 10405,
      "▁verz": 10406,
      "▁hallo": 10407,
      "▁begrij": 10408,
      "▁)": 10409,
      "▁bijn": 10410,
      "imes": 10411,
      "▁informatie": 10412,
      "▁解": 10413,
      "▁hoeveel": 10414,
      "怎么样": 10415,
      "▁我觉得": 10416,
      "▁look.": 10417,
      "家里": 10418,
      "▁maybe": 10419,
      "1.": 10420,
      "frac{": 10421,
      "▁twe": 10422,
      "清楚": 10423,
      "后来": 10424,
      "nie": 10425,
      "▁stay": 10426,
      "▁present": 10427,
      "▁young": 10428,
      "▁ty": 10429,
      "▁sleep": 10430,
      "▁win": 10431,
      "多少": 10432,
      "▁antwoord": 10433,
      "urs": 10434,
      "ider": 10435,
      "▁verw": 10436,
      "▁cal": 10437,
      "▁fell": 10438,
      "?'": 10439,
      "▁haven": 10440,
      "▁ooit": 10441,
      "▁president": 10442,
      "选项": 10443,
      "▁years": 10444,
      "▁film": 10445,
      "只是": 10446,
      "avond": 10447,
      "▁number": 10448,
      "erde": 10449,
      "▁mind": 10450,
      "ible": 10451,
      "▁cor": 10452,
      "▁=": 10453,
      "▁both": 10454,
      "▁goes": 10455,
      "ocht": 10456,
      "▁verschillende": 10457,
      "vie": 10458,
      "回家": 10459,
      "▁谁": 10460,
      "ower": 10461,
      "第二": 10462,
      ",就": 10463,
      "▁los": 10464,
      "▁b.": 10465,
      "▁leave": 10466,
      "▁12": 10467,
      "tje": 10468,
      "at.": 10469,
      "oto": 10470,
      "ball": 10471,
      "dag": 10472,
      "its": 10473,
      "别人": 10474,
      "▁vandaag": 10475,
      "▁schrijf": 10476,
      "▁together": 10477,
      "▁sun": 10478,
      "▁ie": 10479,
      "▁geeft": 10480,
      "▁hart": 10481,
      "▁looking": 10482,
      "▁[laughs].": 10483,
      "▁known": 10484,
      "你就": 10485,
      "▁klein": 10486,
      "这里": 10487,
      "▁mm.": 10488,
      "▁nothing": 10489,
      "gan": 10490,
      "▁volgens": 10491,
      "▁zorgen": 10492,
      "▁luister": 10493,
      "▁thuis": 10494,
      "▁boek": 10495,
      "bur": 10496,
      "▁av": 10497,
      "▁谢谢": 10498,
      "▁prett": 10499,
      "ream": 10500,
      "▁between": 10501,
      "ient": 10502,
      "▁bijna": 10503,
      "最近": 10504,
      "到底": 10505,
      "姑娘": 10506,
      "▁sat": 10507,
      "▁你好": 10508,
      "▁once": 10509,
      "▁koning": 10510,
      "▁hom": 10511,
      "▁hoog": 10512,
      "▁soms": 10513,
      "▁anim": 10514,
      "或者": 10515,
      "▁follow": 10516,
      "▁bew": 10517,
      "▁few": 10518,
      "▁c.": 10519,
      "▁idee": 10520,
      ",一": 10521,
      "ice.": 10522,
      "▁jun": 10523,
      "▁pict": 10524,
      "▁lijkt": 10525,
      "sel": 10526,
      "▁werden": 10527,
      "ids": 10528,
      "cy": 10529,
      "▁though": 10530,
      "▁*par:": 10531,
      "▁ca": 10532,
      "ulp": 10533,
      "▁stu": 10534,
      "$$,": 10535,
      "apen": 10536,
      "▁without": 10537,
      "rm": 10538,
      "▁now,": 10539,
      "jeblieft": 10540,
      "▁bron": 10541,
      "▁198": 10542,
      "-b": 10543,
      "▁onderz": 10544,
      "ch:": 10545,
      "▁zag": 10546,
      "结果": 10547,
      "▁that,": 10548,
      "▁deed": 10549,
      "马上": 10550,
      "▁gi": 10551,
      "▁vijf": 10552,
      "▁cut": 10553,
      "omme": 10554,
      "vers": 10555,
      "reken": 10556,
      "▁blijf": 10557,
      "▁咱们": 10558,
      "不到": 10559,
      "国家": 10560,
      "以前": 10561,
      "▁lek": 10562,
      "cause": 10563,
      "▁bill": 10564,
      "ric": 10565,
      "▁amerik": 10566,
      "中的": 10567,
      "ation.": 10568,
      "bs": 10569,
      "我不": 10570,
      "▁下": 10571,
      "好像": 10572,
      "ross": 10573,
      "让你": 10574,
      "▁pri": 10575,
      "想到": 10576,
      "以为": 10577,
      "▁vide": 10578,
      "▁upon": 10579,
      "时,": 10580,
      "▁es": 10581,
      "▁getting": 10582,
      "▁king": 10583,
      "elling": 10584,
      "▁快": 10585,
      "cle": 10586,
      "是什么": 10587,
      "▁alsjeblieft": 10588,
      "ular": 10589,
      "的事情": 10590,
      "▁fig": 10591,
      "▁enough": 10592,
      "▁lat": 10593,
      "▁tijdens": 10594,
      "▁arm": 10595,
      "▁morgen": 10596,
      "▁train": 10597,
      "▁himself": 10598,
      "必须": 10599,
      "▁heet": 10600,
      "wel": 10601,
      "▁d.": 10602,
      "tain": 10603,
      "我也": 10604,
      "突然": 10605,
      "▁jongens": 10606,
      "▁time.": 10607,
      "▁heard": 10608,
      "an.": 10609,
      "▁daarna": 10610,
      "ouch": 10611,
      "ess.": 10612,
      "▁plant": 10613,
      "bro": 10614,
      "▁lik": 10615,
      "▁mem": 10616,
      "net": 10617,
      "aanse": 10618,
      "▁seen": 10619,
      "▁again.": 10620,
      "▁and,": 10621,
      "itch": 10622,
      "▁zoek": 10623,
      "▁哦": 10624,
      "▁good.": 10625,
      "▁city": 10626,
      "▁daarom": 10627,
      "▁$$\\": 10628,
      "▁pen": 10629,
      "▁prof": 10630,
      "放心": 10631,
      "▁17": 10632,
      "▁coming": 10633,
      "0.": 10634,
      "那种": 10635,
      "cal": 10636,
      "在一起": 10637,
      "赶紧": 10638,
      "▁break": 10639,
      "▁而且": 10640,
      "通过": 10641,
      "▁cra": 10642,
      "的大": 10643,
      "▁dro": 10644,
      "erg": 10645,
      "说话": 10646,
      "▁sign": 10647,
      "enen": 10648,
      "aad": 10649,
      "ished": 10650,
      "com": 10651,
      "▁past": 10652,
      "▁sal": 10653,
      "▁人": 10654,
      "兄弟": 10655,
      "▁move": 10656,
      "akes": 10657,
      "ivers": 10658,
      "1:": 10659,
      "▁duit": 10660,
      "▁wet": 10661,
      "电影": 10662,
      "▁mm": 10663,
      "▁eg": 10664,
      "aald": 10665,
      "▁ligt": 10666,
      "▁aard": 10667,
      "▁having": 10668,
      "▁daddy": 10669,
      "▁speel": 10670,
      "▁woord": 10671,
      "▁ref": 10672,
      "ilig": 10673,
      "▁meisje": 10674,
      "}_": 10675,
      "werp": 10676,
      "-s": 10677,
      "▁commun": 10678,
      "▁says": 10679,
      "ness": 10680,
      "ily": 10681,
      "leg": 10682,
      "▁there?": 10683,
      "是一个": 10684,
      ",小": 10685,
      "}{": 10686,
      "▁dar": 10687,
      "en't": 10688,
      "▁color": 10689,
      "愿意": 10690,
      "ton": 10691,
      "▁manier": 10692,
      "▁down.": 10693,
      "weg": 10694,
      "▁sil": 10695,
      "▁fall": 10696,
      "ld:": 10697,
      "ction": 10698,
      "就不": 10699,
      "'n": 10700,
      "▁ans": 10701,
      "进行": 10702,
      "▁*child:": 10703,
      "看见": 10704,
      "oopt": 10705,
      "woorden": 10706,
      "▁lees": 10707,
      "▁def": 10708,
      "的一个": 10709,
      "▁asked": 10710,
      "izen": 10711,
      "▁lucht": 10712,
      "ime": 10713,
      "ations": 10714,
      "▁haft": 10715,
      "析:": 10716,
      "▁eigenlijk": 10717,
      "aden": 10718,
      "az": 10719,
      "ho": 10720,
      "▁thom": 10721,
      "▁besch": 10722,
      "▁解析:": 10723,
      "rek": 10724,
      "呢?": 10725,
      "ows": 10726,
      "▁heen": 10727,
      "▁face": 10728,
      "▁looked": 10729,
      "▁mannen": 10730,
      "▁kap": 10731,
      "▁bren": 10732,
      "▁vertellen": 10733,
      "inc": 10734,
      "▁american": 10735,
      "几个": 10736,
      "比赛": 10737,
      "认识": 10738,
      "4.": 10739,
      "▁life": 10740,
      "gen.": 10741,
      "ence": 10742,
      "▁给": 10743,
      "▁politie": 10744,
      "▁live": 10745,
      "▁rock": 10746,
      "▁verhaal": 10747,
      "干什么": 10748,
      "▁16": 10749,
      "▁tweede": 10750,
      "▁noem": 10751,
      "▁那个": 10752,
      "▁set": 10753,
      "出了": 10754,
      "▁united": 10755,
      "▁krijg": 10756,
      "ma:": 10757,
      "▁我不": 10758,
      "▁krijgt": 10759,
      "▁since": 10760,
      "▁gelijk": 10761,
      "每天": 10762,
      "▁hafta": 10763,
      "▁:": 10764,
      "▁id": 10765,
      "▁mama": 10766,
      "▁...m": 10767,
      "▁soon": 10768,
      "▁197": 10769,
      "▁resp": 10770,
      "▁\"s": 10771,
      "▁her.": 10772,
      "一天": 10773,
      "▁cup": 10774,
      "告诉你": 10775,
      "高兴": 10776,
      "▁incl": 10777,
      "子的": 10778,
      "▁这样": 10779,
      "▁teken": 10780,
      "▁hum": 10781,
      "▁gave": 10782,
      "▁along": 10783,
      "▁grond": 10784,
      "ined": 10785,
      "ha": 10786,
      "▁mogelijk": 10787,
      "gez": 10788,
      "▁super": 10789,
      "▁course": 10790,
      "▁is,": 10791,
      "▁geze": 10792,
      "▁*c": 10793,
      "▁besl": 10794,
      "▁heart": 10795,
      "▁we've": 10796,
      "aps": 10797,
      "啊。": 10798,
      "▁werken": 10799,
      "机会": 10800,
      "▁mark": 10801,
      "▁haven't": 10802,
      "▁contro": 10803,
      "▁vindt": 10804,
      "ia.": 10805,
      "▁publ": 10806,
      "▁'cause": 10807,
      "▁mad": 10808,
      "▁haal": 10809,
      "▁202": 10810,
      "子,": 10811,
      "ating": 10812,
      "vern": 10813,
      "▁swe": 10814,
      "▁stem": 10815,
      "▁我想": 10816,
      "▁gone": 10817,
      "▁leer": 10818,
      "▁oude": 10819,
      "unch": 10820,
      "most": 10821,
      "选择": 10822,
      "▁during": 10823,
      "▁prov": 10824,
      "▁oorlog": 10825,
      "不过": 10826,
      "reek": 10827,
      "▁post": 10828,
      "▁huh?": 10829,
      "2.": 10830,
      "▁eff": 10831,
      "▁trouw": 10832,
      "▁*gma:": 10833,
      "离开": 10834,
      "▁knew": 10835,
      "ably": 10836,
      "es].": 10837,
      "lie": 10838,
      "▁hoop": 10839,
      "确实": 10840,
      "use": 10841,
      "跟他": 10842,
      "▁pot": 10843,
      "▁等": 10844,
      "▁sub": 10845,
      "▁geloof": 10846,
      "找到": 10847,
      "▁nemen": 10848,
      "▁enige": 10849,
      "原来": 10850,
      "▁呃": 10851,
      "▁alright": 10852,
      "不行": 10853,
      "▁soort": 10854,
      "▁sort": 10855,
      "▁\"h": 10856,
      "▁vorm": 10857,
      "gram": 10858,
      "▁吃": 10859,
      "uurt": 10860,
      "enden": 10861,
      "ming": 10862,
      "▁行": 10863,
      "▁squ": 10864,
      "kelijk": 10865,
      "voorbeeld": 10866,
      "▁norm": 10867,
      "容易": 10868,
      "▁against": 10869,
      "▁kennis": 10870,
      "▁bal": 10871,
      "▁bor": 10872,
      "lex": 10873,
      "▁*sis": 10874,
      "▁town": 10875,
      "▁hm": 10876,
      "继续": 10877,
      "▁beeld": 10878,
      "ide.": 10879,
      "▁les": 10880,
      "▁cir": 10881,
      "▁him,": 10882,
      "▁me?": 10883,
      "▁dor": 10884,
      "mon": 10885,
      "▁wanted": 10886,
      "ven.": 10887,
      "▁onge": 10888,
      "▁pos": 10889,
      "i,": 10890,
      "▁你看": 10891,
      "女人": 10892,
      "只有": 10893,
      "▁said,": 10894,
      "▁zouden": 10895,
      "raat": 10896,
      "▁afbeeld": 10897,
      "zicht": 10898,
      "▁wik": 10899,
      "里的": 10900,
      "▁song": 10901,
      "▁op.": 10902,
      "▁organ": 10903,
      "▁licht": 10904,
      "ual": 10905,
      "姐姐": 10906,
      "成了": 10907,
      "▁不过": 10908,
      "发展": 10909,
      "记得": 10910,
      "▁brand": 10911,
      "你是": 10912,
      "▁bring": 10913,
      "▁ij": 10914,
      "▁thir": 10915,
      "▁band": 10916,
      "▁oud": 10917,
      "by": 10918,
      "年的": 10919,
      "▁bep": 10920,
      "▁zijn.": 10921,
      "opt": 10922,
      "▁hour": 10923,
      "▁jaren": 10924,
      "▁succ": 10925,
      "▁你是": 10926,
      "▁geweldig": 10927,
      "▁conf": 10928,
      "▁you'll": 10929,
      "日本": 10930,
      "▁kamer": 10931,
      "▁begin": 10932,
      "▁schat": 10933,
      "3.": 10934,
      "▁又": 10935,
      "了啊": 10936,
      "▁为什么": 10937,
      "而且": 10938,
      "▁ev": 10939,
      "▁white": 10940,
      "ude": 10941,
      "▁mid": 10942,
      "给他": 10943,
      "▁familie": 10944,
      "▁zon": 10945,
      "▁compan": 10946,
      "结婚": 10947,
      "在这儿": 10948,
      "die": 10949,
      "▁actually": 10950,
      "就会": 10951,
      "▁aantal": 10952,
      "▁gesch": 10953,
      "▁*sis:": 10954,
      "▁blue": 10955,
      "oc": 10956,
      "inds": 10957,
      "▁chair": 10958,
      "-f": 10959,
      "under": 10960,
      "pla": 10961,
      "0,": 10962,
      "ason": 10963,
      "▁nacht": 10964,
      "▁ogen": 10965,
      "po": 10966,
      "▁enk": 10967,
      "▁cur": 10968,
      "▁reach": 10969,
      "▁horen": 10970,
      "ither": 10971,
      "▁sold": 10972,
      "▁brother": 10973,
      "}^": 10974,
      "女儿": 10975,
      "▁too.": 10976,
      "▁food": 10977,
      "▁var": 10978,
      "▁born": 10979,
      "▁stor": 10980,
      "▁he?": 10981,
      "▁speak": 10982,
      "▁dicht": 10983,
      "▁full": 10984,
      "▁fact": 10985,
      "▁vroeg": 10986,
      "▁li": 10987,
      "ific": 10988,
      "▁meet": 10989,
      "▁bijvoorbeeld": 10990,
      "▁bloed": 10991,
      "bert": 10992,
      "----": 10993,
      "▁table": 10994,
      "她的": 10995,
      "▁我也": 10996,
      "▁tro": 10997,
      "▁hers": 10998,
      "gem": 10999,
      "ga": 11000,
      "-t": 11001,
      "▁link": 11002,
      "▁making": 11003,
      "▁vond": 11004,
      ".'": 11005,
      "▁会": 11006,
      "▁north": 11007,
      "▁right,": 11008,
      "任何": 11009,
      "有人": 11010,
      "ors": 11011,
      "▁wed": 11012,
      "明天": 11013,
      "▁rad": 11014,
      "▁return": 11015,
      "▁hist": 11016,
      "ering": 11017,
      "▁please": 11018,
      "▁vri": 11019,
      "▁[c": 11020,
      "你看": 11021,
      "▁wal": 11022,
      "▁denken": 11023,
      "▁ee": 11024,
      "之间": 11025,
      "ion,": 11026,
      "▁gebruikt": 11027,
      "sten": 11028,
      "▁side": 11029,
      "▁zoon": 11030,
      "▁ir": 11031,
      "▁hey": 11032,
      "▁minder": 11033,
      "▁pur": 11034,
      "出现": 11035,
      "▁ander": 11036,
      "不同": 11037,
      "arn": 11038,
      "决定": 11039,
      "▁wasn't": 11040,
      "▁univers": 11041,
      "▁i'd": 11042,
      "跟你说": 11043,
      "▁那么": 11044,
      "▁groep": 11045,
      "▁on,": 11046,
      "!'": 11047,
      "▁build": 11048,
      "mee": 11049,
      "身体": 11050,
      "eur": 11051,
      "三十": 11052,
      "衣服": 11053,
      "ine.": 11054,
      "都没有": 11055,
      "▁houdt": 11056,
      "aard": 11057,
      "ley": 11058,
      "ucht": 11059,
      "▁你怎么": 11060,
      "▁spelen": 11061,
      "▁196": 11062,
      "下去": 11063,
      "社会": 11064,
      "▁talking": 11065,
      "ham": 11066,
      "▁quest": 11067,
      "jo": 11068,
      "不对": 11069,
      "▁dagen": 11070,
      "▁\"w": 11071,
      "||": 11072,
      "影响": 11073,
      "▁bekijk": 11074,
      "ar:": 11075,
      "▁do.": 11076,
      "line{": 11077,
      "▁vak": 11078,
      "▁lekker": 11079,
      "句话": 11080,
      "▁zorg": 11081,
      "ensch": 11082,
      "osed": 11083,
      "▁denkt": 11084,
      "min": 11085,
      "▁很": 11086,
      "▁believe": 11087,
      "▁verg": 11088,
      "选项:": 11089,
      "rijd": 11090,
      "ple": 11091,
      "▁who's": 11092,
      "▁听": 11093,
      "▁contin": 11094,
      "ace": 11095,
      "ziek": 11096,
      "ekent": 11097,
      "怎么办": 11098,
[...]
