[UNK]	0
[CLS]	0
[SEP]	0
[PAD]	0
▁the	0
▁mot	0
▁and	0
▁you	0
▁chi	0
▁that	0
▁was	0
▁what	0
▁for	0
▁this	0
▁with	0
▁they	0
▁there	0
▁have	0
▁not	0
▁are	0
▁she	0
▁but	0
▁one	0
▁his	0
▁can	0
▁all	0
▁her	0
▁yeah	0
▁your	0
▁don	0
▁had	0
▁know	0
▁like	0
▁inv	0
▁from	0
▁out	0
▁here	0
▁him	0
▁were	0
▁get	0
▁now	0
▁just	0
▁well	0
▁then	0
▁when	0
▁right	0
▁fat	0
▁them	0
▁about	0
▁see	0
▁said	0
▁who	0
▁got	0
▁yes	0
▁did	0
▁think	0
▁some	0
▁where	0
▁would	0
▁come	0
▁will	0
▁look	0
▁good	0
▁how	0
▁little	0
▁xxx	0
▁want	0
▁okay	0
▁down	0
▁more	0
▁which	0
▁going	0
▁time	0
▁two	0
▁put	0
▁very	0
▁their	0
▁back	0
▁has	0
▁could	0
▁over	0
▁let	0
▁why	0
▁other	0
▁say	0
▁people	0
▁take	0
▁make	0
▁off	0
▁because	0
▁first	0
▁too	0
▁way	0
▁after	0
▁these	0
▁only	0
▁man	0
▁any	0
▁tell	0
▁our	0
▁really	0
▁again	0
▁something	0
▁made	0
▁much	0
▁before	0
▁day	0
▁big	0
▁away	0
▁three	0
▁should	0
▁also	0
▁went	0
▁does	0
▁those	0
▁never	0
▁new	0
▁many	0
▁old	0
▁give	0
▁came	0
▁house	0
▁long	0
▁need	0
▁par	0
▁home	0
▁mean	0
▁still	0
▁things	0
▁work	0
▁thing	0
▁may	0
▁play	0
▁through	0
▁great	0
▁thought	0
▁its	0
▁called	0
▁even	0
▁mother	0
▁must	0
▁boy	0
▁baby	0
▁last	0
▁won	0
▁done	0
▁find	0
▁night	0
▁looks	0
▁car	0
▁name	0
▁head	0
▁huh	0
▁most	0
▁please	0
▁around	0
▁while	0
▁laughs	0
▁thank	0
▁help	0
▁girl	0
▁such	0
▁hey	0
▁sure	0
▁book	0
▁found	0
▁better	0
▁used	0
▁place	0
▁water	0
▁years	0
▁life	0
▁erm	0
▁nice	0
▁bit	0
▁eat	0
▁hand	0
▁next	0
▁father	0
▁same	0
▁four	0
▁mummy	0
▁world	0
▁love	0
▁room	0
▁exp	0
▁school	0
▁own	0
▁left	0
▁saw	0
▁nothing	0
▁always	0
▁told	0
▁five	0
▁keep	0
▁lot	0
▁every	0
▁daddy	0
▁men	0
▁part	0
▁under	0
▁though	0
▁born	0
▁took	0
▁gone	0
▁cause	0
▁ever	0
▁sorry	0
▁looking	0
▁coming	0
▁maybe	0
▁dad	0
▁show	0
▁enough	0
▁kind	0
▁goes	0
▁door	0
▁money	0
▁use	0
▁until	0
▁year	0
▁once	0
▁box	0
▁talk	0
▁says	0
▁city	0
▁both	0
▁end	0
▁eyes	0
▁morning	0
▁best	0
▁open	0
▁face	0
▁side	0
▁known	0
▁each	0
▁asked	0
▁read	0
▁stop	0
▁tea	0
▁friend	0
▁wait	0
▁course	0
▁remember	0
▁red	0
▁seen	0
▁call	0
▁try	0
▁yet	0
▁round	0
▁today	0
▁leave	0
▁turn	0
▁god	0
▁children	0
▁together	0
▁child	0
▁between	0
▁sit	0
▁feel	0
▁different	0
▁few	0
▁without	0
▁makes	0
▁young	0
▁hear	0
▁number	0
▁getting	0
▁dear	0
▁later	0
▁sir	0
▁mommy	0
▁noise	0
▁heard	0
▁soon	0
▁blue	0
▁ready	0
▁mrs	0
▁hands	0
▁himself	0
▁sis	0
▁second	0
▁since	0
▁everything	0
▁half	0
▁white	0
▁ball	0
▁looked	0
▁making	0
▁story	0
▁american	0
▁small	0
▁haven	0
▁dog	0
▁actually	0
▁mind	0
▁hard	0
▁united	0
▁wanted	0
▁happened	0
▁miss	0
▁bed	0
▁talking	0
▁pretty	0
▁boys	0
▁during	0
▁hold	0
▁gma	0
▁fire	0
▁far	0
▁knew	0
▁bad	0
▁against	0
▁top	0
▁watch	0
▁six	0
▁family	0
▁hello	0
▁set	0
▁days	0
▁high	0
▁states	0
▁gave	0
▁stay	0
▁party	0
▁live	0
▁along	0
▁black	0
▁king	0
▁died	0
▁table	0
▁run	0
▁believe	0
▁brother	0
▁ask	0
▁started	0
▁saying	0
▁almost	0
▁bro	0
▁playing	0
▁war	0
▁whole	0
▁trying	0
▁green	0
▁light	0
▁move	0
▁food	0
▁matter	0
▁game	0
▁became	0
▁sort	0
▁real	0
▁happy	0
▁cat	0
▁probably	0
▁mom	0
▁son	0
▁fine	0
▁bring	0
▁country	0
▁comes	0
▁began	0
▁times	0
▁feet	0
▁word	0
▁moment	0
▁state	0
▁woman	0
▁town	0
▁floor	0
▁start	0
▁near	0
▁sometimes	0
▁already	0
▁girls	0
▁john	0
▁care	0
▁close	0
▁friends	0
▁lost	0
▁thomas	0
▁heart	0
▁picture	0
▁person	0
▁wrong	0
▁jack	0
▁sleep	0
▁played	0
▁minute	0
▁point	0
▁hair	0
▁poor	0
▁north	0
▁behind	0
▁voice	0
▁full	0
▁paper	0
▁team	0
▁train	0
▁idea	0
▁however	0
▁music	0
▁cup	0
▁means	0
▁air	0
▁ten	0
▁often	0
▁brought	0
▁bear	0
▁turned	0
▁front	0
▁outside	0
▁cut	0
▁death	0
▁chair	0
▁captain	0
▁points	0
▁lady	0
▁guess	0
▁understand	0
▁mine	0
▁seemed	0
▁hope	0
▁early	0
▁sound	0
▁dead	0
▁drink	0
▁movie	0
▁job	0
▁national	0
▁nan	0
▁taking	0
▁line	0
▁wants	0
▁tree	0
▁sec	0
▁taken	0
▁perhaps	0
▁piece	0
▁someone	0
▁pat	0
▁hundred	0
▁south	0
▁hot	0
▁mch	0
▁toys	0
▁twenty	0
▁words	0
▁week	0
▁rest	0
▁ones	0
▁takes	0
▁county	0
▁large	0
▁listen	0
▁inside	0
▁yourself	0
▁mouth	0
▁stand	0
▁seven	0
▁women	0
▁color	0
▁guy	0
▁page	0
▁song	0
▁rather	0
▁age	0
▁doctor	0
▁wife	0
▁horse	0
▁yellow	0
▁stuff	0
▁sea	0
▁till	0
▁sister	0
▁beautiful	0
▁myself	0
▁felt	0
▁true	0
▁minutes	0
▁fall	0
▁others	0
▁either	0
▁several	0
▁given	0
▁group	0
▁case	0
▁late	0
▁river	0
▁bye	0
▁cold	0
▁road	0
▁company	0
▁funny	0
▁body	0
▁boat	0
▁eight	0
▁change	0
▁order	0
▁fell	0
▁thanks	0
▁english	0
▁alone	0
▁walk	0
▁gets	0
▁ago	0
▁area	0
▁tom	0
▁important	0
▁hurt	0
▁animals	0
▁somebody	0
▁france	0
▁business	0
▁fish	0
▁sent	0
▁short	0
▁working	0
▁mum	0
▁free	0
▁least	0
▁land	0
▁pay	0
▁brown	0
▁march	0
▁guys	0
▁wish	0
▁general	0
▁milk	0
▁cried	0
▁hat	0
▁bob	0
▁fact	0
▁toy	0
▁history	0
▁fun	0
▁june	0
▁singing	0
▁mar	0
▁government	0
▁ground	0
▁usually	0
▁peter	0
▁pick	0
▁french	0
▁buy	0
▁tried	0
▁books	0
▁meet	0
▁finished	0
▁wow	0
▁dinner	0
▁president	0
▁hour	0
▁ran	0
▁everybody	0
▁herself	0
▁thinking	0
▁kill	0
▁write	0
▁killed	0
▁power	0
▁living	0
▁phone	0
▁held	0
▁running	0
▁nine	0
▁series	0
▁lived	0
▁become	0
▁sun	0
▁hit	0
▁football	0
▁dark	0
▁sitting	0
▁speak	0
▁january	0
▁west	0
▁kept	0
▁break	0
▁york	0
▁laugh	0
▁darling	0
▁nose	0
▁uncle	0
▁present	0
▁trouble	0
▁window	0
▁eating	0
▁bag	0
▁fast	0
▁bird	0
▁sounds	0
▁past	0
▁less	0
▁university	0
▁stood	0
▁chance	0
▁anyway	0
▁letter	0
▁ooh	0
▁glad	0
▁named	0
▁cds	0
▁tomorrow	0
▁street	0
▁foot	0
▁question	0
▁replied	0
▁within	0
▁strong	0
▁loi	0
▁afraid	0
▁birthday	0
▁fight	0
▁easy	0
▁seems	0
▁suppose	0
▁club	0
▁hours	0
▁summer	0
▁british	0
▁police	0
▁daughter	0
▁problem	0
▁released	0
▁answered	0
▁april	0
▁wonder	0
▁member	0
▁throw	0
▁earth	0
▁married	0
▁ship	0
▁joe	0
▁clothes	0
▁ice	0
▁tired	0
▁kids	0
▁although	0
▁adu	0
▁lovely	0
▁lives	0
▁yours	0
▁church	0
▁turns	0
▁deal	0
▁pull	0
▁sat	0
▁laughing	0
▁main	0
▁reason	0
▁department	0
▁east	0
▁indeed	0
▁clock	0
▁places	0
▁special	0
▁answer	0
▁office	0
▁noises	0
▁system	0
▁october	0
▁third	0
▁rock	0
▁shoes	0
▁above	0
▁island	0
▁months	0
▁catch	0
▁lay	0
▁july	0
▁careful	0
▁met	0
▁arms	0
▁clear	0
▁knows	0
▁passed	0
▁single	0
▁career	0
▁possible	0
▁moved	0
▁november	0
▁truck	0
▁worked	0
▁september	0
▁august	0
▁waiting	0
▁christmas	0
▁die	0
▁form	0
▁whose	0
▁region	0
▁december	0
▁park	0
▁quickly	0
▁middle	0
▁orange	0
▁ain	0
▁building	0
▁silence	0
▁eye	0
▁master	0
▁forward	0
▁exactly	0
▁television	0
▁touch	0
▁ring	0
▁news	0
▁nearly	0
▁reached	0
▁wind	0
▁stick	0
▁everyone	0
▁england	0
▁forget	0
▁shot	0
▁draw	0
▁broken	0
▁lord	0
▁fit	0
▁february	0
▁send	0
▁trees	0
▁juice	0
▁excuse	0
▁certain	0
▁army	0
▁tonight	0
▁law	0
▁thousand	0
▁couple	0
▁husband	0
▁drive	0
▁silly	0
▁longer	0
▁clean	0
▁low	0
▁standing	0
▁evening	0
▁human	0
▁village	0
▁mama	0
▁caught	0
▁million	0
▁return	0
▁board	0
▁returned	0
▁language	0
▁class	0
▁built	0
▁feeling	0
▁service	0
▁needs	0
▁straight	0
▁arm	0
▁written	0
▁frog	0
▁save	0
▁chapter	0
▁player	0
▁aunt	0
▁seat	0
▁certainly	0
▁station	0
▁nobody	0
▁blood	0
▁games	0
▁hungry	0
▁major	0
▁using	0
▁sing	0
▁tape	0
▁gra	0
▁frank	0
▁album	0
▁mark	0
▁anyone	0
▁miles	0
▁quick	0
▁changed	0
▁works	0
▁holding	0
▁london	0
▁century	0
▁opened	0
▁cow	0
▁quiet	0
▁cake	0
▁including	0
▁wear	0
▁ride	0
▁stopped	0
▁wall	0
▁yep	0
▁broke	0
▁hell	0
▁german	0
▁followed	0
▁bus	0
▁suddenly	0
▁honey	0
▁season	0
▁breakfast	0
▁pardon	0
▁district	0
▁band	0
▁carry	0
▁moving	0
▁heavy	0
▁former	0
▁strange	0
▁garden	0
▁mary	0
▁yesterday	0
▁rose	0
▁crying	0
▁george	0
▁field	0
▁push	0
▁gold	0
▁cry	0
▁david	0
▁example	0
▁common	0
▁chief	0
▁camp	0
▁fellow	0
▁kitchen	0
▁legs	0
▁pieces	0
▁fraser	0
▁wee	0
▁added	0
▁sweet	0
▁ben	0
▁cross	0
▁giving	0
▁sight	0
▁afternoon	0
▁bunny	0
▁wrote	0
▁based	0
▁hole	0
▁led	0
▁cool	0
▁space	0
▁supposed	0
▁thirty	0
▁weeks	0
▁star	0
▁gun	0
▁public	0
▁bottom	0
▁bread	0
▁decided	0
▁plan	0
▁animal	0
▁pictures	0
▁position	0
▁population	0
▁nor	0
▁dress	0
▁apple	0
▁sick	0
▁watching	0
▁sings	0
▁teacher	0
▁stuck	0
▁safe	0
▁helen	0
▁duck	0
▁members	0
▁fifty	0
▁bought	0
▁learn	0
▁indian	0
▁bill	0
▁film	0
▁silver	0
▁check	0
▁happens	0
▁somewhere	0
▁snow	0
▁hall	0
▁shop	0
▁nin	0
▁deep	0
▁figure	0
▁pass	0
▁flowers	0
▁america	0
▁finish	0
▁exclaimed	0
▁none	0
▁international	0
▁except	0
▁parents	0
▁leaving	0
▁finally	0
▁fair	0
▁meant	0
▁queen	0
▁warm	0
▁truth	0
▁force	0
▁received	0
▁win	0
▁coffee	0
▁dat	0
▁chicken	0
▁jump	0
▁list	0
▁league	0
▁act	0
▁cover	0
▁further	0
▁control	0
▁busy	0
▁college	0
▁bottle	0
▁hospital	0
▁cars	0
▁kiss	0
▁pink	0
▁follow	0
▁plays	0
▁teeth	0
▁lake	0
▁walking	0
▁fucking	0
▁cheese	0
▁reach	0
▁bet	0
▁continued	0
▁wild	0
▁beginning	0
▁billy	0
▁harry	0
▁kid	0
▁commune	0
▁especially	0
▁appeared	0
▁doll	0
▁engine	0
▁moon	0
▁visit	0
▁fear	0
▁gives	0
▁james	0
▁stone	0
▁type	0
▁spoke	0
▁shit	0
▁art	0
▁attack	0
▁illustration	0
▁race	0
▁capital	0
▁farm	0
▁wood	0
▁dance	0
▁officer	0
▁bridge	0
▁dis	0
▁created	0
▁allowed	0
▁sense	0
▁lunch	0
▁lie	0
▁minister	0
▁birds	0
▁information	0
▁build	0
▁fuck	0
▁fly	0
▁walked	0
▁letters	0
▁sky	0
▁court	0
▁tail	0
▁writing	0
▁famous	0
▁pig	0
▁view	0
▁attention	0
▁step	0
▁soft	0
▁reading	0
▁blow	0
▁welcome	0
▁wash	0
▁stars	0
▁corner	0
▁council	0
▁likes	0
▁dropped	0
▁distance	0
▁parts	0
▁pop	0
▁month	0
▁bath	0
▁level	0
▁starts	0
▁battle	0
▁paul	0
▁leaves	0
▁due	0
▁hill	0
▁horses	0
▁pretend	0
▁record	0
▁grandma	0
▁interest	0
▁meeting	0
▁bank	0
▁pounds	0
▁germany	0
▁difficult	0
▁local	0
▁winter	0
▁wonderful	0
▁lead	0
▁ate	0
▁plate	0
▁lose	0
▁monkey	0
▁drop	0
▁dry	0
▁elephant	0
▁shape	0
▁count	0
▁eggs	0
▁japan	0
▁shows	0
▁popular	0
▁teddy	0
▁store	0
▁countries	0
▁object	0
▁bright	0
▁laughed	0
▁sign	0
▁spot	0
▁wet	0
▁species	0
▁ears	0
▁mad	0
▁hang	0
▁video	0
▁rabbit	0
▁michael	0
▁crayon	0
▁fix	0
▁grew	0
▁union	0
▁crazy	0
▁names	0
▁report	0
▁character	0
▁amy	0
▁cream	0
▁jim	0
▁interesting	0
▁central	0
▁twelve	0
▁liked	0
▁trust	0
▁favorite	0
▁future	0
▁kitty	0
▁lying	0
▁slowly	0
▁bobby	0
▁finger	0
▁charge	0
▁cook	0
▁term	0
▁glass	0
▁sheep	0
▁rain	0
▁below	0
▁egg	0
▁whoa	0
▁post	0
▁worth	0
▁kingdom	0
▁doubt	0
▁needed	0
▁unless	0
▁track	0
▁showed	0
▁secret	0
▁include	0
▁alive	0
▁betty	0
▁paid	0
▁grow	0
▁fingers	0
▁surprise	0
▁camera	0
▁largest	0
▁questions	0
▁grass	0
▁period	0
▁wide	0
▁closed	0
▁stories	0
▁india	0
▁cries	0
▁square	0
▁dogs	0
▁western	0
▁mountain	0
▁interested	0
▁sad	0
▁loved	0
▁problems	0
▁forgot	0
▁speaking	0
▁beat	0
▁self	0
▁grand	0
▁sam	0
▁smile	0
▁action	0
▁bigger	0
▁covered	0
▁forty	0
▁serious	0
▁sleeping	0
▁terrible	0
▁hate	0
▁scared	0
▁match	0
▁neck	0
▁hide	0
▁moves	0
▁leg	0
▁health	0
▁circle	0
▁dirty	0
▁robert	0
▁center	0
▁roll	0
▁roman	0
▁support	0
▁chocolate	0
▁clever	0
▁lion	0
▁key	0
▁dream	0
▁stage	0
▁base	0
▁hardly	0
▁loud	0
▁machine	0
▁promise	0
▁henry	0
▁asleep	0
▁leader	0
▁aft	0
▁therefore	0
▁study	0
▁various	0
▁conversation	0
▁province	0
▁served	0
▁mess	0
▁direction	0
▁japanese	0
▁prince	0
▁drawing	0
▁share	0
▁europe	0
▁aye	0
▁tall	0
▁counter	0
▁helped	0
▁perfect	0
▁carl	0
▁mouse	0
▁tiny	0
▁natural	0
▁size	0
▁modern	0
▁press	0
▁ways	0
▁joined	0
▁older	0
▁picked	0
▁california	0
▁tiger	0
▁likely	0
▁caused	0
▁total	0
▁sue	0
▁bite	0
▁spent	0
▁final	0
▁considered	0
▁sarah	0
▁nature	0
▁similar	0
▁beyond	0
▁card	0
▁bell	0
▁shoot	0
▁flying	0
▁entered	0
▁calling	0
▁military	0
▁coat	0
▁political	0
▁spoon	0
▁learned	0
▁directed	0
▁politician	0
▁tower	0
▁fighting	0
▁forest	0
▁peace	0
▁lines	0
▁choo	0
▁radio	0
▁driving	0
▁shirt	0
▁role	0
▁wake	0
▁spring	0
▁declared	0
▁spanish	0
▁numbers	0
▁worse	0
▁meat	0
▁att	0
▁northern	0
▁agreed	0
▁award	0
▁van	0
▁computer	0
▁lower	0
▁whispered	0
▁rich	0
▁san	0
▁situation	0
▁social	0
▁movies	0
▁upstairs	0
▁enemy	0
▁danger	0
▁soldiers	0
▁beach	0
▁shore	0
▁oops	0
▁eleanor	0
▁angry	0
▁drew	0
▁produced	0
▁expect	0
▁simple	0
▁education	0
▁director	0
▁sunday	0
▁energy	0
▁laid	0
▁join	0
▁dressed	0
▁starting	0
▁fresh	0
▁colors	0
▁stupid	0
▁sharp	0
▁knock	0
▁ancient	0
▁original	0
▁australia	0
▁european	0
▁missing	0
▁william	0
▁discovered	0
▁jesus	0
▁hiding	0
▁placed	0
▁songs	0
▁houses	0
▁anne	0
▁dick	0
▁babies	0
▁naughty	0
▁beside	0
▁windows	0
▁pain	0
▁besides	0
▁meaning	0
▁pointing	0
▁driver	0
▁cookie	0
▁neither	0
▁steps	0
▁ladies	0
▁absolutely	0
▁professional	0
▁personal	0
▁formed	0
▁luck	0
▁lucky	0
▁tries	0
▁length	0
▁speed	0
▁forth	0
▁dollars	0
▁royal	0
▁ear	0
▁snake	0
▁arrived	0
▁blocks	0
▁date	0
▁census	0
▁pocket	0
▁note	0
▁puppet	0
▁pen	0
▁skin	0
▁plane	0
▁threw	0
▁escape	0
▁filled	0
▁gate	0
▁charles	0
▁society	0
▁continues	0
▁lee	0
▁urs	0
▁sold	0
▁dolly	0
▁hmm	0
▁raised	0
▁actor	0
▁higher	0
▁sell	0
▁falling	0
▁mostly	0
▁block	0
▁easily	0
▁spend	0
▁woods	0
▁adult	0
▁butter	0
▁damn	0
▁coast	0
▁hotel	0
▁watched	0
▁wheel	0
▁weather	0
▁pleasure	0
▁wearing	0
▁china	0
▁shoe	0
▁phil	0
▁difference	0
▁goodness	0
▁private	0
▁trip	0
▁immediately	0
▁puzzle	0
▁completely	0
▁cost	0
▁background	0
▁pulled	0
▁storm	0
▁nina	0
▁ended	0
▁gas	0
▁dangerous	0
▁tony	0
▁richard	0
▁southern	0
▁missed	0
▁price	0
▁thinks	0
▁anywhere	0
▁bang	0
▁smell	0
▁current	0
▁twice	0
▁breath	0
▁magic	0
▁article	0
▁jane	0
▁huge	0
▁handle	0
▁scene	0
▁municipality	0
▁surprised	0
▁deck	0
▁feed	0
▁purple	0
▁sugar	0
▁amount	0
▁tur	0
▁taste	0
▁saturday	0
▁fox	0
▁account	0
▁empty	0
▁cousin	0
▁monster	0
▁announced	0
▁believed	0
▁professor	0
▁lid	0
▁brush	0
▁spread	0
▁governor	0
▁fruit	0
▁smoke	0
▁experience	0
▁centre	0
▁effect	0
▁singer	0
▁sib	0
▁market	0
▁paris	0
▁lad	0
▁lights	0
▁joy	0
▁duty	0
▁community	0
▁subject	0
▁bar	0
▁paint	0
▁begin	0
▁runs	0
▁maggie	0
▁result	0
▁explain	0
▁iron	0
▁edge	0
▁per	0
▁enjoy	0
▁pleased	0
▁expected	0
▁spirit	0
▁double	0
▁charlie	0
▁walks	0
▁imagine	0
▁mountains	0
▁science	0
▁notice	0
▁published	0
▁fallen	0
▁groups	0
▁lieutenant	0
▁opening	0
▁russian	0
▁swimming	0
▁election	0
▁pause	0
▁ill	0
▁begins	0
▁bowl	0
▁castle	0
▁heads	0
▁slow	0
▁necessary	0
▁officers	0
▁soul	0
▁earlier	0
▁growing	0
▁guns	0
▁founded	0
▁spoken	0
▁terms	0
▁movement	0
▁italian	0
▁areas	0
▁sex	0
▁choice	0
▁evidence	0
▁val	0
▁mike	0
▁trade	0
▁eastern	0
▁test	0
▁supper	0
▁plants	0
▁tears	0
▁rule	0
▁stairs	0
▁event	0
▁flat	0
▁golden	0
▁princess	0
▁female	0
▁knife	0
▁flower	0
▁purpose	0
▁faith	0
▁fourth	0
▁awful	0
▁crew	0
▁christian	0
▁plant	0
▁bloody	0
▁accident	0
▁tone	0
▁usual	0
▁brothers	0
▁grown	0
▁sand	0
▁fifteen	0
▁prime	0
▁ocean	0
▁located	0
▁canada	0
▁laura	0
▁medicine	0
▁button	0
▁basket	0
▁italy	0
▁journey	0
▁nurse	0
▁africa	0
▁path	0
▁bow	0
▁keeping	0
▁carefully	0
▁shake	0
▁eleven	0
▁promised	0
▁anna	0
▁search	0
▁empire	0
▁proud	0
▁saved	0
▁otherwise	0
▁dancing	0
▁agree	0
▁whoops	0
▁range	0
▁fri	0
▁rights	0
▁telephone	0
▁extra	0
▁quarter	0
▁watches	0
▁ordered	0
▁nods	0
▁version	0
▁soa	0
▁strength	0
▁oil	0
▁success	0
▁listening	0
▁washington	0
▁development	0
▁jen	0
▁native	0
▁chinese	0
▁roof	0
▁slide	0
▁involved	0
▁falls	0
▁title	0
▁tells	0
▁obviously	0
▁choose	0
▁noticed	0
▁generally	0
▁shoulder	0
▁alice	0
▁ross	0
▁offer	0
▁martin	0
▁smaller	0
▁rate	0
▁pot	0
▁changes	0
▁research	0
▁message	0
▁training	0
▁friday	0
▁calls	0
▁aged	0
▁taught	0
▁super	0
▁fellows	0
▁guard	0
▁orders	0
▁lips	0
▁fault	0
▁command	0
▁prison	0
▁republic	0
▁mistake	0
▁regular	0
▁finding	0
▁prize	0
▁pair	0
▁flight	0
▁youth	0
▁bonnet	0
▁row	0
▁adam	0
▁islands	0
▁pound	0
▁meal	0
▁rough	0
▁sudden	0
▁style	0
▁events	0
▁sides	0
▁ann	0
▁pleasant	0
▁rocks	0
▁showing	0
▁impossible	0
▁boo	0
▁rya	0
▁program	0
▁ned	0
▁allow	0
▁everywhere	0
▁climb	0
▁brain	0
▁closer	0
▁normal	0
▁beauty	0
▁surface	0
▁murder	0
▁spain	0
▁shown	0
▁gentleman	0
▁drinking	0
▁cases	0
▁downstairs	0
▁greater	0
▁official	0
▁santa	0
▁teach	0
▁brave	0
▁stands	0
▁bay	0
▁judge	0
▁civil	0
▁possibly	0
▁colonel	0
▁related	0
▁yum	0
▁wheels	0
▁tongue	0
▁forces	0
▁honor	0
▁texas	0
▁entire	0
▁ninety	0
▁division	0
▁sixty	0
▁pie	0
▁prepared	0
▁remained	0
▁calm	0
▁rules	0
▁commander	0
▁managed	0
▁jumped	0
▁leading	0
▁seconds	0
▁cards	0
▁championship	0
▁students	0
▁complete	0
▁cities	0
▁worried	0
▁studio	0
▁services	0
▁riding	0
▁farmer	0
▁pants	0
▁papa	0
▁sits	0
▁carrying	0
▁evil	0
▁gray	0
▁lift	0
▁boss	0
▁crash	0
▁pizza	0
▁doors	0
▁actress	0
▁excited	0
▁developed	0
▁marriage	0
▁suggested	0
▁valley	0
▁suit	0
▁languages	0
▁greek	0
▁gentlemen	0
▁fixed	0
▁practice	0
▁bits	0
▁academy	0
▁ships	0
▁sung	0
▁plans	0
▁forgotten	0
▁awards	0
▁heat	0
▁appearance	0
▁faces	0
▁definitely	0
▁committee	0
▁process	0
▁male	0
▁shouted	0
▁pulls	0
▁sandwich	0
▁players	0
▁schools	0
▁opens	0
▁crime	0
▁channel	0
▁weight	0
▁protect	0
▁greatest	0
▁mister	0
▁kay	0
▁quietly	0
▁security	0
▁records	0
▁dare	0
▁saint	0
▁bessie	0
▁softly	0
▁opportunity	0
▁included	0
▁loves	0
▁mamma	0
▁kick	0
▁opposite	0
▁metal	0
▁gordon	0
▁bike	0
▁continue	0
▁stayed	0
▁steven	0
▁holiday	0
▁mass	0
▁helping	0
▁nope	0
▁bedroom	0
▁model	0
▁sports	0
▁dutch	0
▁rope	0
▁heaven	0
▁museum	0
▁bound	0
▁nineteen	0
▁morrow	0
▁cast	0
▁throat	0
▁afterwards	0
▁manager	0
▁knee	0
▁speech	0
▁spider	0
▁tie	0
▁wan	0
▁walls	0
▁formula	0
▁safety	0
▁towel	0
▁younger	0
▁directly	0
▁crowd	0
▁project	0
▁offered	0
▁wolf	0
▁media	0
▁apparently	0
▁highest	0
▁thick	0
▁ideas	0
▁successful	0
▁papers	0
▁cloth	0
▁wine	0
▁remain	0
▁knowledge	0
▁fred	0
▁biggest	0
▁holy	0
▁balls	0
▁yyy	0
▁decision	0
▁marry	0
▁salt	0
▁eaten	0
▁secretary	0
▁clown	0
▁easier	0
▁coach	0
▁balloon	0
▁cabin	0
▁smiled	0
▁teams	0
▁toast	0
▁site	0
▁sake	0
▁travel	0
▁boats	0
▁bout	0
▁accept	0
▁smart	0
▁ourselves	0
▁glasses	0
▁retired	0
▁plain	0
▁respect	0
▁frightened	0
▁sighs	0
▁memory	0
▁swim	0
▁yup	0
▁smith	0
▁forced	0
▁microphone	0
▁painting	0
▁whispers	0
▁roz	0
▁ass	0
▁risk	0
▁yard	0
▁larger	0
▁knowing	0
▁pages	0
▁writer	0
▁shopping	0
▁goodbye	0
▁mentioned	0
▁boots	0
▁somewhat	0
▁elected	0
▁add	0
▁flew	0
▁giant	0
▁corn	0
▁picking	0
▁max	0
▁eighty	0
▁monday	0
▁dinosaur	0
▁wings	0
▁loss	0
▁shook	0
▁settled	0
▁filler	0
▁mate	0
▁silent	0
▁cats	0
▁lawyer	0
▁theory	0
▁olympics	0
▁wedding	0
▁drops	0
▁types	0
▁powerful	0
▁palace	0
▁fancy	0
▁studied	0
▁excellent	0
▁pet	0
▁pool	0
▁honest	0
▁airport	0
▁nursery	0
▁zoo	0
▁rings	0
▁explained	0
▁fairy	0
▁upper	0
▁anxious	0
▁medical	0
▁perfectly	0
▁chairman	0
▁washing	0
▁keys	0
▁disease	0
▁production	0
▁signed	0
▁hanging	0
▁string	0
▁buddy	0
▁comfortable	0
▁grace	0
▁port	0
▁mission	0
▁release	0
▁waited	0
▁hearing	0
▁desk	0
▁acting	0
▁available	0
▁talks	0
▁grandmother	0
▁cell	0
▁cancer	0
▁feels	0
▁indians	0
▁wise	0
▁passing	0
▁hills	0
▁activity	0
▁prove	0
▁fort	0
▁russia	0
▁gay	0
▁vote	0
▁louis	0
▁flag	0
▁soldier	0
▁decide	0
▁association	0
▁bin	0
▁response	0
▁attempt	0
▁enter	0
▁episode	0
▁appear	0
▁fishing	0
▁fence	0
▁brilliant	0
▁hero	0
▁faster	0
▁blanket	0
▁upset	0
▁roger	0
▁chris	0
▁pressure	0
▁shouts	0
▁thoughts	0
▁fought	0
▁reply	0
▁cute	0
▁culture	0
▁crown	0
▁value	0
▁soviet	0
▁willing	0
▁christ	0
▁average	0
▁serve	0
▁fad	0
▁clearly	0
▁staff	0
▁yay	0
▁fill	0
▁troops	0
▁magazine	0
▁lap	0
▁motion	0
▁mile	0
▁african	0
▁tight	0
▁drawn	0
▁library	0
▁throwing	0
▁footnote	0
▁effort	0
▁iii	0
▁forever	0
▁smiling	0
▁andy	0
▁stones	0
▁bathroom	0
▁pushed	0
▁cooking	0
▁property	0
▁shakes	0
▁condition	0
▁policy	0
▁fashion	0
▁justice	0
▁objects	0
▁baseball	0
▁characters	0
▁dozen	0
▁bert	0
▁swing	0
▁stream	0
▁rid	0
▁artist	0
▁hung	0
▁relationship	0
▁tractor	0
▁stan	0
▁ireland	0
▁worst	0
▁disappeared	0
▁dan	0
▁waves	0
▁author	0
▁birth	0
▁parliament	0
▁thin	0
▁rise	0
▁remembered	0
▁forms	0
▁soup	0
▁knocked	0
▁fired	0
▁emperor	0
▁knees	0
▁concerned	0
▁barn	0
▁chicago	0
▁weird	0
▁presence	0
▁foreign	0
▁includes	0
▁thrown	0
▁ruth	0
▁failed	0
▁throws	0
▁described	0
▁established	0
▁friendly	0
▁fully	0
▁bee	0
▁sail	0
▁jones	0
▁manage	0
▁waste	0
▁amazing	0
▁rush	0
▁lara	0
▁ends	0
▁treat	0
▁families	0
▁doggie	0
▁australian	0
▁percent	0
▁shh	0
▁mexico	0
▁feelings	0
▁gently	0
▁fool	0
▁vessel	0
▁drama	0
▁thumb	0
▁joseph	0
▁understood	0
▁tied	0
▁crayons	0
▁grandpa	0
▁address	0
▁realize	0
▁seriously	0
▁grandfather	0
▁belong	0
▁previous	0
▁florida	0
▁material	0
▁helps	0
▁independent	0
▁wished	0
▁los	0
▁opinion	0
▁expand	0
▁currently	0
▁notes	0
▁wave	0
▁data	0
▁agent	0
▁jimmy	0
▁becoming	0
▁tale	0
▁darkness	0
▁rome	0
▁patient	0
▁section	0
▁scott	0
▁mirror	0
▁dying	0
▁haha	0
▁correct	0
▁elizabeth	0
▁statistics	0
▁cap	0
▁shoulders	0
▁degree	0
▁cups	0
▁buried	0
▁shooting	0
▁peas	0
▁consider	0
▁figures	0
▁socks	0
▁planet	0
▁ellie	0
▁gentle	0
▁tip	0
▁contact	0
▁mixed	0
▁fifth	0
▁boxes	0
▁dada	0
▁lies	0
▁pushes	0
▁totally	0
▁drove	0
▁bunch	0
▁airplane	0
▁garage	0
▁spell	0
▁originally	0
▁design	0
▁effects	0
▁rolling	0
▁jumping	0
▁canadian	0
▁voices	0
▁gift	0
▁merry	0
▁mail	0
▁penny	0
▁latin	0
▁sword	0
▁performance	0
▁joke	0
▁edward	0
▁damage	0
▁freedom	0
▁mainly	0
▁hidden	0
▁wipe	0
▁butterfly	0
▁repeated	0
▁tummy	0
▁plus	0
▁folks	0
▁julia	0
▁reported	0
▁recording	0
▁killing	0
▁determined	0
▁sets	0
▁goat	0
▁industry	0
▁tommy	0
▁trains	0
▁plastic	0
▁puppy	0
▁bull	0
▁network	0
▁eventually	0
▁reasons	0
▁cutting	0
▁fortune	0
▁fields	0
▁features	0
▁observed	0
▁gosh	0
▁owned	0
▁toes	0
▁breaking	0
▁hop	0
▁touched	0
▁alexander	0
▁realized	0
▁arthur	0
▁forgive	0
▁religion	0
▁americans	0
▁lock	0
▁boom	0
▁blind	0
▁scotland	0
▁recently	0
▁medal	0
▁active	0
▁strike	0
▁pooh	0
▁religious	0
▁hockey	0
▁bush	0
▁stops	0
▁narrow	0
▁buildings	0
▁stranger	0
▁pan	0
▁individual	0
▁expression	0
▁ted	0
▁trail	0
▁ladder	0
▁pack	0
▁staying	0
▁direct	0
▁yummy	0
▁turkey	0
▁burning	0
▁influence	0
▁divided	0
▁bears	0
▁rice	0
▁chest	0
▁recorded	0
▁trick	0
▁deer	0
▁victory	0
▁mention	0
▁horrible	0
▁learning	0
▁branch	0
▁brian	0
▁whenever	0
▁sisters	0
▁normally	0
▁motor	0
▁signal	0
▁matches	0
▁burn	0
▁separate	0
▁task	0
▁sees	0
▁scientists	0
▁bitch	0
▁paying	0
▁cookies	0
▁beep	0
▁gathered	0
▁winning	0
▁boston	0
▁ray	0
▁slightly	0
▁madam	0
▁standard	0
▁locked	0
▁traffic	0
▁steve	0
▁grave	0
▁newspaper	0
▁carriage	0
▁trunk	0
▁bones	0
▁advice	0
▁sweetheart	0
▁companies	0
▁britain	0
▁clouds	0
▁desire	0
▁holes	0
▁issue	0
▁wore	0
▁dreams	0
▁instant	0
▁owner	0
▁destroyed	0
▁climate	0
▁caterpillar	0
▁authority	0
▁owl	0
▁loose	0
▁seventy	0
▁companion	0
▁tough	0
▁receive	0
▁hunting	0
▁curious	0
▁pour	0
▁border	0
▁performed	0
▁student	0
▁electric	0
▁frogs	0
▁musical	0
▁partner	0
▁grant	0
▁pencil	0
▁weapons	0
▁slept	0
▁nick	0
▁streets	0
▁wooden	0
▁positive	0
▁delight	0
▁postman	0
▁doggy	0
▁excitement	0
▁create	0
▁cloud	0
▁quack	0
▁mud	0
▁yards	0
▁brings	0
▁tent	0
▁broad	0
▁prisoners	0
▁treasure	0
▁referring	0
▁systems	0
▁hug	0
▁copy	0
▁zzz	0
▁grey	0
▁cash	0
▁duh	0
▁chase	0
▁auntie	0
▁bodies	0
▁jerry	0
▁candy	0
▁shout	0
▁icecream	0
▁results	0
▁bags	0
▁source	0
▁democratic	0
▁banana	0
▁planning	0
▁becomes	0
▁patsy	0
▁aware	0
▁weekend	0
▁stub	0
▁polly	0
▁railway	0
▁removed	0
▁proved	0
▁harm	0
▁tickle	0
▁dorothy	0
▁weak	0
▁dust	0
▁sticks	0
▁operation	0
▁nana	0
▁trial	0
▁chairs	0
▁category	0
▁creature	0
▁adventure	0
▁odd	0
▁aid	0
▁tim	0
▁oth	0
▁thousands	0
▁stubs	0
▁familiar	0
▁comedy	0
▁racing	0
▁bless	0
▁handed	0
▁angeles	0
▁federal	0
▁sport	0
▁laws	0
▁neat	0
▁mayor	0
▁lifted	0
▁shame	0
▁ours	0
▁tank	0
▁rising	0
▁touches	0
▁temple	0
▁jean	0
▁asia	0
▁stepped	0
▁rooms	0
▁listened	0
▁congress	0
▁bone	0
▁jobs	0
▁allah	0
▁awake	0
▁queer	0
▁dragon	0
▁wounded	0
▁sang	0
▁pilot	0
▁toilet	0
▁truly	0
▁raise	0
▁branches	0
▁hearts	0
▁useful	0
▁poo	0
▁irish	0
▁alarm	0
▁enjoyed	0
▁switzerland	0
▁tour	0
▁daily	0
▁code	0
▁introduced	0
▁sorts	0
▁bricks	0
▁equal	0
▁folk	0
▁humans	0
▁sons	0
▁signs	0
▁underneath	0
▁courage	0
▁mighty	0
▁kim	0
▁moo	0
▁detective	0
▁beer	0
▁technology	0
▁hunt	0
▁quality	0
▁goal	0
▁nearer	0
▁festival	0
▁hurried	0
▁shower	0
▁competition	0
▁peggy	0
▁fireman	0
▁recorder	0
▁chips	0
▁organization	0
▁structure	0
▁mat	0
▁lucy	0
▁blows	0
▁difficulty	0
▁kat	0
▁landed	0
▁responsible	0
▁nation	0
▁studies	0
▁invited	0
▁losing	0
▁chain	0
▁steady	0
▁giggles	0
▁changing	0
▁armed	0
▁blame	0
▁turtle	0
▁dolls	0
▁angel	0
▁treated	0
▁novel	0
▁washed	0
▁cows	0
▁split	0
▁aah	0
▁required	0
▁lonely	0
▁replaced	0
▁territory	0
▁captured	0
▁nervous	0
▁campaign	0
▁ordinary	0
▁grab	0
▁host	0
▁remains	0
▁purse	0
▁eve	0
▁becky	0
▁woof	0
▁nest	0
▁exciting	0
▁temperature	0
▁spare	0
▁marks	0
▁firm	0
▁provided	0
▁pony	0
▁handsome	0
▁burst	0
▁pipe	0
▁accepted	0
▁engaged	0
▁jacket	0
▁selling	0
▁catholic	0
▁credit	0
▁couch	0
▁speaks	0
▁unit	0
▁guilty	0
▁score	0
▁ugly	0
▁jigsaw	0
▁glance	0
▁oliver	0
▁presents	0
▁slave	0
▁leaf	0
▁shouting	0
▁designed	0
▁lisa	0
▁shell	0
▁ghost	0
▁hammer	0
▁eric	0
▁cave	0
▁prisoner	0
▁apartment	0
▁recognized	0
▁col	0
▁trousers	0
▁conditions	0
▁delicious	0
▁guide	0
▁parties	0
▁advantage	0
▁piano	0
▁pity	0
▁robin	0
▁tuesday	0
▁relief	0
▁florence	0
▁chosen	0
▁ages	0
▁pushing	0
▁rushed	0
▁contract	0
▁pile	0
▁appointed	0
▁sixteen	0
▁colour	0
▁lorry	0
▁doo	0
▁setting	0
▁rescue	0
▁finds	0
▁waters	0
▁labour	0
▁comfort	0
▁nicole	0
▁conference	0
▁etc	0
▁refused	0
▁tropical	0
▁attacked	0
▁powers	0
▁economic	0
▁legal	0
▁laughter	0
▁eighteen	0
▁appears	0
▁walter	0
▁produce	0
▁arts	0
▁slipped	0
▁sore	0
▁egypt	0
▁physical	0
▁planned	0
▁pale	0
▁potato	0
▁screams	0
▁affairs	0
▁hoping	0
▁wing	0
▁lamb	0
▁increased	0
▁donald	0
▁volume	0
▁provide	0
▁nations	0
▁shadow	0
▁drunk	0
▁soap	0
▁towns	0
▁belt	0
▁chemical	0
▁treatment	0
▁admit	0
▁alex	0
▁supply	0
▁circumstances	0
▁policeman	0
▁mistress	0
▁oldest	0
▁dishes	0
▁pray	0
▁thursday	0
▁kar	0
▁favor	0
▁stock	0
▁caroline	0
▁duke	0
▁ela	0
▁collection	0
▁increase	0
▁jail	0
▁fourteen	0
▁crossed	0
▁load	0
▁intended	0
▁warning	0
▁picnic	0
▁revolution	0
▁climbing	0
▁wagon	0
▁universe	0
▁stomach	0
▁beans	0
▁guest	0
▁recent	0
▁zealand	0
▁mmm	0
▁expensive	0
▁drug	0
▁lane	0
▁kidding	0
▁gained	0
▁content	0
▁satisfied	0
▁reaching	0
▁brazil	0
▁screen	0
▁destroy	0
▁honour	0
▁dig	0
▁approach	0
▁hook	0
▁nancy	0
▁rolled	0
▁majesty	0
▁map	0
▁sergeant	0
▁drugs	0
▁desert	0
▁sally	0
▁pigs	0
▁connected	0
▁demanded	0
▁lessons	0
▁addition	0
▁pride	0
▁smiles	0
▁brick	0
▁refers	0
▁avoid	0
▁express	0
▁jenny	0
▁wha	0
▁escaped	0
▁fate	0
▁extremely	0
▁circus	0
▁giraffe	0
▁fur	0
▁unknown	0
▁claim	0
▁selected	0
▁scary	0
▁lesson	0
▁prevent	0
▁wednesday	0
▁climbed	0
▁basically	0
▁quit	0
▁tunnel	0
▁daniel	0
▁actual	0
▁text	0
▁breathing	0
▁adventures	0
▁hoped	0
▁shock	0
▁despite	0
▁colored	0
▁ducks	0
▁senior	0
▁pakistan	0
▁jimmie	0
▁scale	0
▁blowing	0
▁seek	0
▁hasta	0
▁contents	0
▁occasion	0
▁teaching	0
▁route	0
▁pole	0
▁eagerly	0
▁gods	0
▁traditional	0
▁shining	0
▁navy	0
▁mel	0
▁nights	0
▁coal	0
▁leans	0
▁bucket	0
▁rolls	0
▁workers	0
▁seated	0
▁moments	0
▁dawn	0
▁progress	0
▁sentence	0
▁den	0
▁maid	0
▁mix	0
▁champion	0
▁wrestling	0
▁tracks	0
▁vice	0
▁pond	0
▁file	0
▁marie	0
▁mount	0
▁arrest	0
▁slight	0
▁weapon	0
▁entrance	0
▁abe	0
▁belongs	0
▁distant	0
▁susan	0
▁molly	0
▁ken	0
▁fleet	0
▁witch	0
▁enemies	0
▁advance	0
▁whispering	0
▁buttons	0
▁daisy	0
▁harder	0
▁sandy	0
▁cells	0
▁austria	0
▁sweden	0
▁bent	0
▁assembly	0
▁kissed	0
▁worn	0
▁marked	0
▁pitcher	0
▁gain	0
▁lois	0
▁sunshine	0
▁rear	0
▁annie	0
▁painted	0
▁splash	0
▁netherlands	0
▁mid	0
▁shops	0
▁hundreds	0
▁plates	0
▁maria	0
▁bubbles	0
▁thirteen	0
▁innocent	0
▁roles	0
▁jason	0
▁snap	0
▁victim	0
▁access	0
▁advanced	0
▁dude	0
▁construction	0
▁slaves	0
▁driven	0
▁tin	0
▁ugh	0
▁teachers	0
▁wound	0
▁beast	0
▁virginia	0
▁passengers	0
▁rivers	0
▁debut	0
▁bump	0
▁involuntary	0
▁tax	0
▁suffered	0
▁swear	0
▁eager	0
▁details	0
▁fed	0
▁horn	0
▁rare	0
▁producer	0
▁goods	0
▁nuts	0
▁sending	0
▁passage	0
▁independence	0
▁statement	0
▁doctors	0
▁shed	0
▁basketball	0
▁entertainment	0
▁spirits	0
▁kings	0
▁burned	0
▁atlantic	0
▁seats	0
▁philip	0
▁protection	0
▁nonsense	0
▁ouch	0
▁steal	0
▁beg	0
▁rachel	0
▁emergency	0
▁bomb	0
▁refer	0
▁proposed	0
▁bart	0
▁dish	0
▁apples	0
▁noble	0
▁distributed	0
▁inhabitants	0
▁slip	0
▁affair	0
▁economy	0
▁presented	0
▁priest	0
▁wales	0
▁issues	0
▁recognize	0
▁arrested	0
▁bible	0
▁causes	0
▁cage	0
▁homes	0
▁oven	0
▁stole	0
▁sink	0
▁mabel	0
▁spots	0
▁limited	0
▁junior	0
▁voc	0
▁shaking	0
▁dollar	0
▁pee	0
▁killer	0
▁glo	0
▁pirate	0
▁pillow	0
▁drinks	0
▁kisses	0
▁completed	0
▁woo	0
▁exist	0
▁location	0
▁arranged	0
▁dem	0
▁opera	0
▁peanut	0
▁splendid	0
▁covers	0
▁mickey	0
▁draws	0
▁tools	0
▁guests	0
▁margaret	0
▁craft	0
▁grapes	0
▁films	0
▁mystery	0
▁jelly	0
▁happiness	0
▁landing	0
▁els	0
▁whisper	0
▁succeeded	0
▁buying	0
▁creek	0
▁chose	0
▁log	0
▁jackson	0
▁creatures	0
▁bishop	0
▁principal	0
▁measure	0
▁confidence	0
▁settle	0
▁sylvia	0
▁management	0
▁precious	0
▁returning	0
▁ability	0
▁naturally	0
▁suggest	0
▁potatoes	0
▁aha	0
▁audience	0
▁madame	0
▁israel	0
▁louise	0
▁nap	0
▁clap	0
▁trucks	0
▁johnny	0
▁ellen	0
▁switch	0
▁appreciate	0
▁occupied	0
▁kissing	0
▁hut	0
▁companions	0
▁barbara	0
▁punch	0
▁screaming	0
▁sounded	0
▁noisy	0
▁majority	0
▁disney	0
▁hits	0
▁transport	0
▁internet	0
▁contains	0
▁platform	0
▁andrew	0
▁matthew	0
▁failure	0
▁roads	0
▁height	0
▁bushes	0
▁lincoln	0
▁steel	0
▁institute	0
▁equipment	0
▁ambulance	0
▁hay	0
▁flash	0
▁attempts	0
▁follows	0
▁unusual	0
▁aircraft	0
▁smooth	0
▁backwards	0
▁brief	0
▁christopher	0
▁kate	0
▁wire	0
▁jewish	0
▁settlement	0
▁units	0
▁politics	0
▁glory	0
▁exercise	0
▁exchange	0
▁faced	0
▁sailor	0
▁johnson	0
▁primary	0
▁steam	0
▁arab	0
▁stronger	0
▁servant	0
▁suffering	0
▁meanwhile	0
▁ryan	0
▁description	0
▁gina	0
▁cheeks	0
▁struggle	0
▁sigh	0
▁jam	0
▁surrounded	0
▁pussy	0
▁compared	0
▁net	0
▁sleepy	0
▁matt	0
▁brand	0
▁poet	0
▁solid	0
▁crocodile	0
▁powder	0
▁theatre	0
▁balance	0
▁seized	0
▁sexual	0
▁beds	0
▁bees	0
▁eddie	0
▁danny	0
▁efforts	0
▁raining	0
▁persons	0
▁pure	0
▁fork	0
▁fan	0
▁proof	0
▁korea	0
▁basic	0
▁delighted	0
▁discovery	0
▁shapes	0
▁de	0
▁je	0
▁het	0
▁een	0
▁en	0
▁niet	0
▁zijn	0
▁wat	0
▁ze	0
▁voor	0
▁er	0
▁maar	0
▁aan	0
▁heb	0
▁dit	0
▁ook	0
▁nog	0
▁uit	0
▁kan	0
▁hier	0
▁moet	0
▁heeft	0
▁wel	0
▁jij	0
▁geen	0
▁ja	0
▁hebben	0
▁deze	0
▁goed	0
▁wil	0
▁nu	0
▁weet	0
▁hoe	0
▁hem	0
▁waar	0
▁haar	0
▁meer	0
▁gaan	0
▁al	0
▁gaat	0
▁daar	0
▁zou	0
▁wordt	0
▁kom	0
▁worden	0
▁kunnen	0
▁veel	0
▁ons	0
▁zal	0
▁iets	0
▁waarom	0
▁tot	0
▁alleen	0
▁laat	0
▁mensen	0
▁moeten	0
▁twee	0
▁zien	0
▁eens	0
▁toch	0
▁nou	0
▁weer	0
▁alles	0
▁wie	0
▁maken	0
▁komt	0
▁weg	0
▁doe	0
▁echt	0
▁werd	0
▁jou	0
▁tijd	0
▁jaar	0
▁nooit	0
▁komen	0
▁hun	0
▁denk	0
▁andere	0
▁terug	0
▁tegen	0
▁laten	0
▁kijk	0
▁leven	0
▁zei	0
▁mag	0
▁onze	0
▁na	0
▁staat	0
▁af	0
▁zie	0
▁zit	0
▁nodig	0
▁iemand	0
▁misschien	0
▁omdat	0
▁altijd	0
▁kunt	0
▁zoals	0
▁niets	0
▁dag	0
▁zij	0
▁waren	0
▁grote	0
▁zeggen	0
▁alle	0
▁één	0
▁geef	0
▁oké	0
▁gewoon	0
▁eerste	0
▁hou	0
▁maak	0
▁zegt	0
▁onder	0
▁allemaal	0
▁vind	0
▁zeg	0
▁vader	0
▁weten	0
▁huis	0
▁doet	0
▁uw	0
▁kinderen	0
▁drie	0
▁zitten	0
▁kun	0
▁anders	0
▁gedaan	0
▁welke	0
▁iedereen	0
▁dood	0
▁hele	0
▁vragen	0
▁jouw	0
▁vinden	0
▁moeder	0
▁willen	0
▁nieuwe	0
▁tussen	0
▁ging	0
▁wacht	0
▁wilde	0
▁geld	0
▁vrouw	0
▁beter	0
▁binnen	0
▁volgende	0
▁kon	0
▁werk	0
▁zullen	0
▁zelf	0
▁lang	0
▁zeker	0
▁leuk	0
▁ziet	0
▁samen	0
▁maakt	0
▁uur	0
▁kijken	0
▁vraag	0
▁wilt	0
▁eerst	0
▁wereld	0
▁klaar	0
▁zonder	0
▁dacht	0
▁snel	0
▁kwam	0
▁niemand	0
▁krijgen	0
▁nederland	0
▁eten	0
▁gezien	0
▁geven	0
▁naam	0
▁niks	0
▁eigen	0
▁gemaakt	0
▁tekst	0
▁mooi	0
▁genoeg	0
▁dank	0
▁dingen	0
▁neem	0
▁achter	0
▁opdracht	0
▁auto	0
▁meneer	0
▁beetje	0
▁houden	0
▁natuurlijk	0
▁blijven	0
▁hé	0
▁stad	0
▁laatste	0
▁bedankt	0
▁helpen	0
▁vaak	0
▁hoor	0
▁wist	0
▁praten	0
▁jongen	0
▁wanneer	0
▁elke	0
▁kleine	0
▁spijt	0
▁groot	0
▁verder	0
▁graag	0
▁zelfs	0
▁hallo	0
▁hadden	0
▁beste	0
▁paar	0
▁bijna	0
▁gebruik	0
▁ooit	0
▁soms	0
▁plaats	0
▁verschillende	0
▁vandaag	0
▁lijkt	0
▁geeft	0
▁gek	0
▁werden	0
▁zet	0
▁blijf	0
▁jongens	0
▁zag	0
▁werken	0
▁meisje	0
▁tijdens	0
▁daarom	0
▁stap	0
▁deed	0
▁schrijf	0
▁nemen	0
▁alsjeblieft	0
▁vriend	0
▁krijgt	0
▁woorden	0
▁vindt	0
▁vier	0
▁informatie	0
▁he	0
▁gebruikt	0
▁buiten	0
▁idee	0
▁manier	0
▁luister	0
▁spelen	0
▁horen	0
▁eigenlijk	0
▁mannen	0
▁tweede	0
▁thuis	0
▁deel	0
▁hoofd	0
▁hen	0
▁heet	0
▁pas	0
▁oude	0
▁antwoord	0
▁zoek	0
▁vijf	0
▁denken	0
▁halen	0
▁morgen	0
▁gebruiken	0
▁geweldig	0
▁soort	0
▁kant	0
▁lees	0
▁aantal	0
▁zoon	0
▁boek	0
▁lekker	0
▁oud	0
▁verhaal	0
▁familie	0
▁dagen	0
▁ogen	0
▁houdt	0
▁jaren	0
▁gebeurt	0
▁krijg	0
▁boven	0
▁geleden	0
▁woord	0
▁daarna	0
▁gelijk	0
▁precies	0
▁oorlog	0
▁denkt	0
▁zin	0
▁foto	0
▁koning	0
▁vroeg	0
▁betekent	0
▁gezegd	0
▁hoop	0
▁kamer	0
▁vrienden	0
▁pak	0
▁zat	0
▁landen	0
▁minder	0
▁klein	0
▁gevonden	0
▁vertel	0
▁juist	0
▁geloof	0
▁ander	0
▁vooral	0
▁werkt	0
▁rustig	0
▁bestaat	0
▁elk	0
▁blijft	0
▁leren	0
▁kans	0
▁mogelijk	0
▁blij	0
▁hoort	0
▁lopen	0
▁probleem	0
▁minuten	0
▁wachten	0
▁mooie	0
▁rond	0
▁vanaf	0
▁zoeken	0
▁sinds	0
▁terwijl	0
▁vrouwen	0
▁belangrijk	0
▁kreeg	0
▁gehad	0
▁brengen	0
▁eruit	0
▁verdomme	0
▁bron	0
▁ongeveer	0
▁hond	0
▁deur	0
▁vanavond	0
▁voel	0
▁echte	0
▁handen	0
▁slecht	0
▁vrij	0
▁probeer	0
▁ding	0
▁beginnen	0
▁jezelf	0
▁onderwerp	0
▁ouders	0
▁lezen	0
▁dieren	0
▁duidelijk	0
▁tien	0
▁mogen	0
▁vol	0
▁hart	0
▁nummer	0
▁stond	0
▁hetzelfde	0
▁stuk	0
▁nieuw	0
▁groep	0
▁pijn	0
▁gelukkig	0
▁aarde	0
▁ergens	0
▁grond	0
▁orde	0
▁lucht	0
▁mevrouw	0
▁begrijp	0
▁nederlandse	0
▁voordat	0
▁problemen	0
▁sommige	0
▁licht	0
▁zorg	0
▁druk	0
▁grootste	0
▁bekend	0
▁eerder	0
▁politie	0
▁liefde	0
▁vallen	0
▁moeilijk	0
▁hulp	0
▁zes	0
▁via	0
▁slapen	0
▁valt	0
▁einde	0
▁proberen	0
▁ver	0
▁broer	0
▁bekijk	0
▁kent	0
▁begint	0
▁geloven	0
▁gehoord	0
▁mens	0
▁pakken	0
▁schat	0
▁meeste	0
▁spreken	0
▁gaf	0
▁wees	0
▁les	0
▁vergeten	0
▁loopt	0
▁beeld	0
▁beneden	0
▁gezicht	0
▁afbeelding	0
▁onderzoek	0
▁stoppen	0
▁genoemd	0
▁schiet	0
▁schrijven	0
▁muziek	0
▁enkele	0
▁vooruit	0
▁nieuws	0
▁kennis	0
▁geluid	0
▁gebied	0
▁bezig	0
▁vraagt	0
▁breng	0
▁weinig	0
▁miljoen	0
▁naast	0
▁lichaam	0
▁drinken	0
▁zee	0
▁bel	0
▁anderen	0
▁gegeven	0
▁meester	0
▁praat	0
▁dochter	0
▁voorbij	0
▁bloed	0
▁amerikaanse	0
▁mis	0
▁nacht	0
▁wakker	0
▁kwamen	0
▁begon	0
▁zeer	0
▁lange	0
▁staten	0
▁neemt	0
▁verteld	0
▁vroeger	0
▁betalen	0
▁kopen	0
▁maanden	0
▁doden	0
▁reden	0
▁duitsland	0
▁overal	0
▁meter	0
▁punten	0
▁eeuw	0
▁recht	0
▁meestal	0
▁prima	0
▁dokter	0
▁welkom	0
▁fijn	0
▁rijden	0
▁waarschijnlijk	0
▁mond	0
▁figuur	0
▁kaart	0
▁geval	0
▁straks	0
▁kop	0
▁leger	0
▁voelt	0
▁klopt	0
▁alstublieft	0
▁beide	0
▁veilig	0
▁ter	0
▁redden	0
▁amerika	0
▁vorm	0
▁stil	0
▁eén	0
▁buurt	0
▁antwoorden	0
▁rijk	0
▁fout	0
▁uiteindelijk	0
▁vermoord	0
▁zon	0
▁meest	0
▁der	0
▁inhoud	0
▁klas	0
▁meisjes	0
▁vergeet	0
▁weken	0
▁baas	0
▁eet	0
▁avond	0
▁opnieuw	0
▁heer	0
▁eind	0
▁klinkt	0
▁voorbeeld	0
▁delen	0
▁schip	0
▁hoorde	0
▁regering	0
▁hieronder	0
▁geboren	0
▁veranderen	0
▁baan	0
▁geluk	0
▁afbeeldingen	0
▁frankrijk	0
▁ieder	0
▁macht	0
▁partij	0
▁heren	0
▁spel	0
▁oma	0
▁gevraagd	0
▁sterven	0
▁onderdeel	0
▁bal	0
▁vechten	0
▁kracht	0
▁bellen	0
▁mam	0
▁links	0
▁kapitein	0
▁zichzelf	0
▁succes	0
▁persoon	0
▁verenigde	0
▁kies	0
▁regels	0
▁hoog	0
▁rol	0
▁rust	0
▁hield	0
▁boos	0
▁punt	0
▁eerlijk	0
▁belangrijke	0
▁geschiedenis	0
▁midden	0
▁doel	0
▁erin	0
▁telefoon	0
▁ruimte	0
▁zeven	0
▁liever	0
▁houd	0
▁zinnen	0
▁sterk	0
▁prachtig	0
▁leerlingen	0
▁speelt	0
▁verloren	0
▁slag	0
▁eindelijk	0
▁winnen	0
▁acht	0
▁langer	0
▁kerk	0
▁schuld	0
▁zwarte	0
▁waarheid	0
▁toekomst	0
▁stemmen	0
▁keek	0
▁voorzichtig	0
▁pap	0
▁begrepen	0
▁boeken	0
▁vriendin	0
▁ziek	0
▁rode	0
▁iedere	0
▁trouwen	0
▁soorten	0
▁mezelf	0
▁opa	0
▁groter	0
▁normaal	0
▁prijs	0
▁gevoel	0
▁google	0
▁witte	0
▁kleur	0
▁stellen	0
▁slechts	0
▁nam	0
▁bestaan	0
▁duitse	0
▁jonge	0
▁euro	0
▁examen	0
▁paard	0
▁wedstrijd	0
▁trein	0
▁wilden	0
▁steden	0
▁energie	0
▁belangrijkste	0
▁derde	0
▁koffie	0
▁reis	0
▁dames	0
▁maand	0
▁europese	0
▁kiezen	0
▁kwijt	0
▁allebei	0
▁vuur	0
▁geschreven	0
▁bedrijf	0
▁verschil	0
▁gisteren	0
▁straat	0
▁viel	0
▁vliegen	0
▁echter	0
▁zaak	0
▁feest	0
▁eiland	0
▁koningin	0
▁jezus	0
▁tafel	0
▁stem	0
▁bepaalde	0
▁begonnen	0
▁geleerd	0
▁trots	0
▁boot	0
▁uitleggen	0
▁haat	0
▁vliegtuig	0
▁rivier	0
▁oom	0
▁namen	0
▁voelen	0
▁zus	0
▁trek	0
▁youtube	0
▁kwaad	0
▁verwacht	0
▁zuid	0
▁hoge	0
▁docent	0
▁pa	0
▁kort	0
▁grappig	0
▁programma	0
▁slechte	0
▁dansen	0
▁begrijpen	0
▁loop	0
▁gang	0
▁trekken	0
▁makkelijk	0
▁inderdaad	0
▁lachen	0
▁stukje	0
▁planten	0
▁plezier	0
▁spullen	0
▁volgen	0
▁lief	0
▁ontmoet	0
▁woont	0
▁vervolgens	0
▁vertrouwen	0
▁nergens	0
▁veranderd	0
▁verliefd	0
▁nederlands	0
▁noord	0
▁ontmoeten	0
▁vertelt	0
▁leeft	0
▁vertelde	0
▁klootzak	0
▁situatie	0
▁wikipedia	0
▁leiden	0
▁redenen	0
▁taal	0
▁enkel	0
▁politieke	0
▁liep	0
▁voorbeelden	0
▁thema	0
▁totaal	0
▁toets	0
▁jong	0
▁npo	0
▁teken	0
▁koud	0
▁hemel	0
▁vorige	0
▁behalve	0
▁gesproken	0
▁bleef	0
▁bereken	0
▁luisteren	0
▁lieve	0
▁dorp	0
▁brengt	0
▁probeert	0
▁sneller	0
▁alinea	0
▁franse	0
▁generaal	0
▁dragen	0
▁beschermen	0
▁voedsel	0
▁vreemd	0
▁stuur	0
▁vormen	0
▁lijn	0
▁gebracht	0
▁droom	0
▁slaap	0
▁gebeurde	0
▁tegenwoordig	0
▁rij	0
▁plaatsen	0
▁bouwen	0
▁inwoners	0
▁rood	0
▁wapen	0
▁verkopen	0
▁overheid	0
▁gevaarlijk	0
▁lijst	0
▁verlaten	0
▁schieten	0
▁duurt	0
▁oog	0
▁engeland	0
▁gekozen	0
▁getrouwd	0
▁kleren	0
▁gehouden	0
▁stof	0
▁rug	0
▁commons	0
▁sturen	0
▁gewonnen	0
▁amsterdam	0
▁keuze	0
▁voorkomen	0
▁leggen	0
▁waard	0
▁zingen	0
▁mening	0
▁parijs	0
▁lag	0
▁wikimedia	0
▁kapot	0
▁ziekenhuis	0
▁dier	0
▁pagina	0
▁voelde	0
▁korte	0
▁neus	0
▁slaan	0
▁vakantie	0
▁genomen	0
▁periode	0
▁zwaar	0
▁rennen	0
▁wapens	0
▁gevallen	0
▁probeerde	0
▁speciale	0
▁muur	0
▁filmpje	0
▁ongeluk	0
▁vele	0
▁verliezen	0
▁natuur	0
▁hoewel	0
▁helpt	0
▁gegevens	0
▁invloed	0
▁seconden	0
▁engels	0
▁vertrekken	0
▁uitleg	0
▁slim	0
▁bos	0
▁fantastisch	0
▁prins	0
▁beantwoord	0
▁leek	0
▁gevaar	0
▁lijken	0
▁hoef	0
▁kilometer	0
▁regel	0
▁krant	0
▁geheim	0
▁gesloten	0
▁aandacht	0
▁bevolking	0
▁gebouwd	0
▁tabel	0
▁bronnen	0
▁rechts	0
▁goud	0
▁helft	0
▁verkeerd	0
▁vreselijk	0
▁moe	0
▁jan	0
▁klasgenoot	0
▁honger	0
▁rusland	0
▁klik	0
▁gered	0
▁raar	0
▁papier	0
▁producten	0
▁unie	0
▁oplossing	0
▁spanje	0
▁diep	0
▁serieus	0
▁winkel	0
▁schatje	0
▁negen	0
▁toon	0
▁kerel	0
▁raad	0
▁johannes	0
▁afrika	0
▁vogel	0
▁verleden	0
▁leer	0
▁arme	0
▁prinses	0
▁politiek	0
▁bepaald	0
▁bekijken	0
▁opdrachten	0
▁begrijpt	0
▁goedemorgen	0
▁ijs	0
▁ineens	0
▁maan	0
▁kosten	0
▁zak	0
▁artikel	0
▁gezin	0
▁basis	0
▁vrede	0
▁meid	0
▁idioot	0
▁zomer	0
▁willem	0
▁afstand	0
▁huilen	0
▁passen	0
▁voorstellen	0
▁belgië	0
▁vrijheid	0
▁spreek	0
▁bedoeld	0
▁geest	0
▁schoenen	0
▁oefening	0
▁gesprek	0
▁volg	0
▁sluit	0
▁gebieden	0
▁sla	0
▁dienst	0
▁bereiken	0
▁bewegen	0
▁stappen	0
▁tekening	0
▁tante	0
▁hoger	0
▁hangt	0
▁richting	0
▁verklaring	0
▁stoel	0
▁wit	0
▁langzaam	0
▁stom	0
▁jammer	0
▁betaald	0
▁meerdere	0
▁onzin	0
▁beloof	0
▁soldaten	0
▁dikke	0
▁koninkrijk	0
▁hierbij	0
▁vlees	0
▁leeftijd	0
▁controle	0
▁fiets	0
▁verkocht	0
▁londen	0
▁broek	0
▁verhalen	0
▁publiek	0
▁tuin	0
▁gedacht	0
▁noorden	0
▁gaten	0
▁titel	0
▁relatie	0
▁strijd	0
▁vlucht	0
▁kantoor	0
▁manieren	0
▁bomen	0
▁raam	0
▁enorme	0
▁zwart	0
▁verdienen	0
▁gevangenis	0
▁januari	0
▁hoogte	0
▁vul	0
▁gouden	0
▁actie	0
▁blauwe	0
▁voeten	0
▁reactie	0
▁plannen	0
▁angst	0
▁dromen	0
▁bloemen	0
▁schrijft	0
▁benen	0
▁missen	0
▁riep	0
▁spreekt	0
▁mei	0
▁donker	0
▁huwelijk	0
▁gestolen	0
▁tekenen	0
▁waarde	0
▁gelukt	0
▁systeem	0
▁volgt	0
▁gewone	0
▁verschillen	0
▁erger	0
▁keizer	0
▁dom	0
▁draaien	0
▁laag	0
▁verkeerde	0
▁lastig	0
▁activiteit	0
▁gelezen	0
▁beweging	0
▁armen	0
▁werkte	0
▁positie	0
▁volledig	0
▁dame	0
▁gedood	0
▁leider	0
▁zuiden	0
▁hee	0
▁bijzonder	0
▁omgeving	0
▁gevolg	0
▁bedrijven	0
▁gedachten	0
▁speciaal	0
▁eer	0
▁schrijver	0
▁draait	0
▁frans	0
▁bekende	0
▁bezoek	0
▁ruzie	0
▁glas	0
▁oke	0
▁kunst	0
▁dak	0
▁schreef	0
▁thee	0
▁voet	0
▁gevolgen	0
▁leeg	0
▁stelt	0
▁republiek	0
▁meiden	0
▁beantwoorden	0
▁groene	0
▁terecht	0
▁huizen	0
▁steen	0
▁vissen	0
▁teksten	0
▁beurt	0
▁bracht	0
▁allen	0
▁prachtige	0
▁ontdekt	0
▁keuken	0
▁gebeld	0
▁kasteel	0
▁melk	0
▁groeien	0
▁afspraak	0
▁heerlijk	0
▁heilige	0
▁sluiten	0
▁oosten	0
▁onderdelen	0
▁absoluut	0
▁helaas	0
▁bewijs	0
▁universiteit	0
▁huid	0
▁bevat	0
▁been	0
▁planeet	0
▁beoordeling	0
▁sleutel	0
▁verboden	0
▁gedrag	0
▁vijand	0
▁honden	0
▁trekt	0
▁geraakt	0
▁seks	0
▁gestuurd	0
▁besloten	0
▁brug	0
▁aanval	0
▁rekening	0
▁boeren	0
▁gast	0
▁vogels	0
▁speel	0
▁stelling	0
▁adem	0
▁zwemmen	0
▁stierf	0
▁enorm	0
▁zware	0
▁gooi	0
▁ziekte	0
▁hangen	0
▁sociale	0
▁trap	0
▁haast	0
▁alweer	0
▁steek	0
▁blauw	0
▁ma	0
▁cultuur	0
▁slaat	0
▁snelheid	0
▁oefenen	0
▁activiteiten	0
▁gefeliciteerd	0
▁zagen	0
▁berg	0
▁westen	0
▁britse	0
▁bericht	0
▁hoofdstad	0
▁gewerkt	0
▁pakt	0
▁temperatuur	0
▁koop	0
▁hoek	0
▁tas	0
▁regen	0
▁taak	0
▁gekocht	0
▁economie	0
▁juni	0
▁burgers	0
▁verslag	0
▁slot	0
▁functie	0
▁onmogelijk	0
▁website	0
▁gratis	0
▁leo	0
▁maat	0
▁oost	0
▁stoffen	0
▁hoeven	0
▁grens	0
▁wens	0
▁missie	0
▁jongeren	0
▁gat	0
▁italië	0
▁groen	0
▁noemt	0
▁oktober	0
▁gespeeld	0
▁formule	0
▁geprobeerd	0
▁gooien	0
▁gebruikte	0
▁verband	0
▁verdwenen	0
▁groepen	0
▁bergen	0
▁juli	0
▁vreemde	0
▁draagt	0
▁ach	0
▁raakt	0
▁ster	0
▁schoon	0
▁paarden	0
▁wijn	0
▁herinneren	0
▁opeens	0
▁romeinse	0
▁tijden	0
▁speelde	0
▁gebroken	0
▁leert	0
▁schema	0
▁dik	0
▁ziel	0
▁vervangen	0
▁kleuren	0
▁partijen	0
▁gelooft	0
▁leden	0
▁berekening	0
▁voldoende	0
▁gemist	0
▁maximaal	0
▁oranje	0
▁rechter	0
▁ruim	0
▁tanden	0
▁economische	0
▁ware	0
▁risico	0
▁gevecht	0
▁ouder	0
▁ideeën	0
▁as	0
▁hoeveelheid	0
▁amerikanen	0
▁christus	0
▁wint	0
▁provincie	0
▁bespreek	0
▁reizen	0
▁weergegeven	0
▁rijdt	0
▁theorie	0
▁grapje	0
▁revolutie	0
▁liefje	0
▁leidt	0
▁draai	0
▁oren	0
▁hout	0
▁verjaardag	0
▁ontvangen	0
▁verkiezingen	0
▁brood	0
▁kust	0
▁sterke	0
▁overleven	0
▁interessant	0
▁gevangen	0
▁twaalf	0
▁nummers	0
▁gewond	0
▁hersenen	0
▁liedje	0
▁personen	0
▁maart	0
▁proces	0
▁betekenis	0
▁stroom	0
▁burgemeester	0
▁knap	0
▁duizenden	0
▁cel	0
▁dronken	0
▁onderwijs	0
▁beest	0
▁stenen	0
▁vieren	0
▁jurk	0
▁gedeelte	0
▁indruk	0
▁augustus	0
▁ontwikkeling	0
▁onderzoeken	0
▁huidige	0
▁dichtbij	0
▁russische	0
▁kleding	0
▁mijne	0
▁beloofd	0
▁graden	0
▁zand	0
▁bewijzen	0
▁kolonel	0
▁vertrouw	0
▁tevreden	0
▁benedictus	0
▁springen	0
▁kaarten	0
▁leest	0
▁wisten	0
▁veiligheid	0
▁zuurstof	0
▁gemakkelijk	0
▁klimaat	0
▁plekken	0
▁kont	0
▁vlag	0
▁boodschap	0
▁rot	0
▁sneeuw	0
▁achteruit	0
▁gegeten	0
▁gemiddelde	0
▁serie	0
▁feit	0
▁kip	0
▁aanwezig	0
▁tenzij	0
▁poes	0
▁ouwe	0
▁hel	0
▁jas	0
▁stukken	0
▁wagen	0
▁scholen	0
▁honderd	0
▁directeur	0
▁ongelooflijk	0
▁hoogste	0
▁herkennen	0
▁middel	0
▁slaapt	0
▁juffrouw	0
▁handel	0
▁veld	0
▁advocaat	0
▁televisie	0
▁cellen	0
▁vangen	0
▁ochtend	0
▁duur	0
▁bepalen	0
▁schepen	0
▁kenmerken	0
▁moord	0
▁presentatie	0
▁verdient	0
▁centrum	0
▁sterren	0
▁schade	0
▁cijfers	0
▁schuldig	0
▁markt	0
▁pad	0
▁lul	0
▁geheel	0
▁volgorde	0
▁gasten	0
▁mooiste	0
▁volwassen	0
▁verrassing	0
▁minuut	0
▁belang	0
▁kikker	0
▁persoonlijk	0
▁vaste	0
▁doos	0
▁bereid	0
▁vlug	0
▁ronde	0
▁product	0
▁dachten	0
▁bevel	0
▁zuster	0
▁meegenomen	0
▁kleiner	0
▁koude	0
▁nationale	0
▁trok	0
▁toren	0
▁stelen	0
▁nederlanders	0
▁das	0
▁lach	0
▁dans	0
▁wegen	0
▁stopt	0
▁besluit	0
▁lied	0
▁oceaan	0
▁kus	0
▁grafiek	0
▁twintig	0
▁beelden	0
▁feestje	0
▁leerling	0
▁zweer	0
▁populair	0
▁eieren	0
▁duizend	0
▁fles	0
▁moderne	0
▁trouw	0
▁soldaat	0
▁vernietigen	0
▁blijkbaar	0
▁zwaard	0
▁kwalijk	0
▁sommigen	0
▁paleis	0
▁nek	0
▁organisatie	0
▁levend	0
▁verlies	0
▁buik	0
▁doorgaan	0
▁materiaal	0
▁veroorzaakt	0
▁link	0
▁toestemming	0
▁aanvallen	0
▁begrippen	0
▁bom	0
▁bouw	0
▁uitspraak	0
▁overleden	0
▁bereikt	0
▁ondanks	0
▁bedoeling	0
▁nauwelijks	0
▁ontsnappen	0
▁geweld	0
▁boer	0
▁opgenomen	0
▁bleek	0
▁sprak	0
▁vannacht	0
▁binnenkort	0
▁grotere	0
▁rekenen	0
▁sovjet	0
▁goden	0
▁zakken	0
▁nadenken	0
▁regio	0
▁onmiddellijk	0
▁duits	0
▁algemeen	0
▁romeinen	0
▁staart	0
▁breken	0
▁optreden	0
▁gezond	0
▁hopelijk	0
▁olie	0
▁vorig	0
▁besloot	0
▁karel	0
▁bezit	0
▁berlijn	0
▁belachelijk	0
▁officieel	0
▁sloeg	0
▁koe	0
▁rijke	0
▁weggaan	0
▁bureau	0
▁blik	0
▁harde	0
▁kaas	0
▁welterusten	0
▁joden	0
▁vingers	0
▁vecht	0
▁miljoenen	0
▁betaal	0
▁bord	0
▁oorzaak	0
▁seizoen	0
▁inkomen	0
▁bodem	0
▁verdeeld	0
▁vrolijk	0
▁min	0
▁geregeld	0
▁gestopt	0
▁betaalt	0
▁rechten	0
▁samenleving	0
▁beiden	0
▁grap	0
▁tegelijk	0
▁pistool	0
▁werkelijk	0
▁stijl	0
▁clemens	0
▁parlement	0
▁hitler	0
▁betrokken	0
▁ervaring	0
▁niveau	0
▁februari	0
▁verantwoordelijk	0
▁oostenrijk	0
▁hoed	0
▁goos	0
▁vierde	0
▁begraven	0
▁verandering	0
▁taart	0
▁vertrek	0
▁wijze	0
▁favoriete	0
▁online	0
▁straf	0
▁persoonlijke	0
▁geschikt	0
▁duitsers	0
▁verdwijnen	0
▁fouten	0
▁zacht	0
▁tegenover	0
▁des	0
▁dol	0
▁gemiddeld	0
▁mist	0
▁rotterdam	0
▁getekend	0
▁suiker	0
▁tonen	0
▁eilanden	0
▁polen	0
▁ontslagen	0
▁hoofdstuk	0
▁zwanger	0
▁kast	0
▁utrecht	0
▁kalm	0
▁uren	0
▁steken	0
▁resultaat	0
▁kussen	0
▁zaterdag	0
▁gebleven	0
▁finale	0
▁vinger	0
▁krachten	0
▁paus	0
▁simpel	0
▁kamp	0
▁gebouwen	0
▁gedragen	0
▁lacht	0
▁kopje	0
▁rook	0
▁steun	0
▁leraar	0
▁vergelijking	0
▁reed	0
▁bestand	0
▁reacties	0
▁advies	0
▁zondag	0
▁beschrijven	0
▁gevoelens	0
▁gemeen	0
▁koken	0
▁au	0
▁sterker	0
▁majesteit	0
▁moed	0
▁conclusie	0
▁schilderij	0
▁netjes	0
▁versie	0
▁gras	0
▁bestond	0
▁volle	0
▁sint	0
▁wezen	0
▁nat	0
▁droog	0
▁ontstond	0
▁aap	0
▁roos	0
▁verslaan	0
▁excuses	0
▁spoor	0
▁handig	0
▁belde	0
▁spaanse	0
▁warme	0
▁luitenant	0
▁verenigd	0
▁ei	0
▁openen	0
▁vluchten	0
▁normale	0
▁boerderij	0
▁holland	0
▁productie	0
▁hopen	0
▁komende	0
▁broers	0
▁gebeurtenissen	0
▁vriendje	0
▁kruis	0
▁gebaseerd	0
▁voetbal	0
▁jeugd	0
▁vrijdag	0
▁simon	0
▁vermogen	0
▁mes	0
▁wetenschap	0
▁bier	0
▁bekeken	0
▁geholpen	0
▁reageren	0
▁controleren	0
▁woestijn	0
▁groei	0
▁opnemen	0
▁ontbijt	0
▁verschrikkelijk	0
▁lengte	0
▁draag	0
▁luistert	0
▁lijk	0
▁plotseling	0
▁keus	0
▁viii	0
▁bezorgd	0
▁oefeningen	0
▁menselijke	0
▁module	0
▁taxi	0
▁eng	0
▁roken	0
▁joost	0
▁bedrag	0
▁durf	0
▁beroemde	0
▁tong	0
▁verbonden	0
▁vergeef	0
▁winnaar	0
▁pakte	0
▁klok	0
▁bedoelde	0
▁talent	0
▁begrip	0
▁bieden	0
▁muis	0
▁lenen	0
▁medicijnen	0
▁schijnt	0
▁document	0
▁operatie	0
▁gezondheid	0
▁elf	0
▁tips	0
▁dichterbij	0
▁telt	0
▁mogelijke	0
▁perfecte	0
▁spannend	0
▁vliegt	0
▁ruikt	0
▁bespreken	0
▁bestuur	0
▁beslissing	0
▁meedoen	0
▁victor	0
▁verkoop	0
▁stilte	0
▁eenheid	0
▁militaire	0
▁milieu	0
▁ondertussen	0
▁volledige	0
▁at	0
▁afgesproken	0
▁werkwoorden	0
▁ballen	0
▁eigenaar	0
▁rivieren	0
▁vak	0
▁geslagen	0
▁vuile	0
▁massa	0
▁afhankelijk	0
▁studenten	0
▁pius	0
▁fabriek	0
▁kiest	0
▁lever	0
▁plaatjes	0
▁beroep	0
▁bacteriën	0
▁genaamd	0
▁adres	0
▁kerst	0
▁aangegeven	0
▁lol	0
▁rand	0
▁dorpen	0
▁eenvoudig	0
▁konijn	0
▁touw	0
▁voornamelijk	0
▁toevallig	0
▁vertrokken	0
▁wc	0
▁olympische	0
▁kilo	0
▁gestorven	0
▁provincies	0
▁vii	0
▁klanten	0
▁geniet	0
▁lessen	0
▁verslagen	0
▁argumenten	0
▁eikel	0
▁liegen	0
▁mogelijkheden	0
▁kampioen	0
▁inleiding	0
▁kerstmis	0
▁troepen	0
▁schoonheid	0
▁oudste	0
▁veranderde	0
▁kritiek	0
▁las	0
▁opgericht	0
▁miljard	0
▁homo	0
▁minimaal	0
▁smaak	0
▁maandag	0
▁winst	0
▁buitenland	0
▁verlaat	0
▁jagen	0
▁bloem	0
▁leef	0
▁bruiloft	0
▁elektrische	0
▁aangeven	0
▁griekse	0
▁gemeenten	0
▁gele	0
▁heks	0
▁groeit	0
▁vies	0
▁jake	0
▁verwachten	0
▁kaartje	0
▁poster	0
▁gepakt	0
▁stukjes	0
▁makkelijker	0
▁regelmatig	0
▁resultaten	0
▁cent	0
▁wraak	0
▁premier	0
▁klap	0
▁vóór	0
▁vet	0
▁lager	0
▁donkere	0
▁gewicht	0
▁gedicht	0
▁onderzoekers	0
▁bond	0
▁vriendelijk	0
▁duurde	0
▁wetten	0
▁opstand	0
▁oppervlakte	0
▁gezocht	0
▁wassen	0
▁dna	0
▁akkoord	0
▁fietsen	0
▁vijanden	0
▁geopend	0
▁landbouw	0
▁zocht	0
▁omstandigheden	0
▁democratie	0
▁oor	0
▁compleet	0
▁egypte	0
▁natuurlijke	0
▁jaloers	0
▁commandant	0
▁collega	0
▁honderden	0
▁voordeel	0
▁neef	0
▁zout	0
▁vaders	0
▁sheriff	0
▁leefde	0
▁leerde	0
▁verzamelen	0
▁azië	0
▁verdorie	0
▁dichter	0
▁papieren	0
▁eeuwig	0
▁voorwerp	0
▁reclame	0
▁bril	0
▁lage	0
▁argument	0
▁prijzen	0
▁afscheid	0
▁merken	0
▁oplossen	0
▁ernstig	0
▁spul	0
▁sterft	0
▁genieten	0
▁poort	0
▁geboorte	0
▁agenten	0
▁varken	0
▁gedurende	0
▁carrière	0
▁ich	0
▁geel	0
▁opleiding	0
▁paniek	0
▁bezoeken	0
▁aangenaam	0
▁vergelijken	0
▁cadeau	0
▁botten	0
▁intro	0
▁woonde	0
▁gedoe	0
▁spanning	0
▁knop	0
▁geplaatst	0
▁wetenschappers	0
▁gevolgd	0
▁moeders	0
▁haag	0
▁koopt	0
▁slaven	0
▁afval	0
▁levens	0
▁muren	0
▁beschreven	0
▁australië	0
▁napoleon	0
▁tellen	0
▁speler	0
▁stuurt	0
▁signaal	0
▁grondwet	0
▁stadion	0
▁saai	0
▁gaaf	0
▁tekeningen	0
▁interview	0
▁moordenaar	0
▁albert	0
▁vertrekt	0
▁bak	0
▁toegang	0
▁actief	0
▁alcohol	0
▁deuren	0
▁zwak	0
▁ontwerp	0
▁vloer	0
▁verzet	0
▁sprong	0
▁verhuizen	0
▁samenvatting	0
▁studeren	0
▁wensen	0
▁voorzitter	0
▁mogelijkheid	0
▁dertig	0
▁zelfmoord	0
▁blok	0
▁geweer	0
▁verstopt	0
▁rusten	0
▁duivel	0
▁vaarwel	0
▁verbaasd	0
▁zwembad	0
▁eisen	0
▁drankje	0
▁ontdekken	0
▁slang	0
▁voorstel	0
▁twijfel	0
▁gescheiden	0
▁moeilijke	0
▁vliegtuigen	0
▁stroomt	0
▁ramp	0
▁vasthouden	0
▁onderwerpen	0
▁levert	0
▁broeder	0
▁pauze	0
▁houten	0
▁grenzen	0
▁ontsnapt	0
▁sleutels	0
▁liefste	0
▁soep	0
▁gekeken	0
▁blanke	0
▁katholieke	0
▁overwinning	0
▁beroemd	0
▁neuken	0
▁schaal	0
▁vergadering	0
▁uwe	0
▁oudere	0
▁toeristen	0
▁wauw	0
▁mars	0
▁theater	0
▁ergste	0
▁griekenland	0
▁zelfstandig	0
▁spelers	0
▁varen	0
▁behoort	0
▁dierentuin	0
▁geur	0
▁verpest	0
▁ren	0
▁noch	0
▁liter	0
▁talen	0
▁brak	0
▁lamp	0
▁vergeven	0
▁getallen	0
▁ophalen	0
▁verborgen	0
▁dienen	0
▁vergelijk	0
▁uitvoeren	0
▁graven	0
▁geweten	0
▁geloofde	0
▁gezellig	0
▁apparaat	0
▁uitgevoerd	0
▁aanbod	0
▁feiten	0
▁sporen	0
▁turkije	0
▁lijden	0
▁fragment	0
▁wijs	0
▁werkelijkheid	0
▁robot	0
▁verkeer	0
▁fase	0
▁lodewijk	0
▁rollen	0
▁appel	0
▁sexy	0
▁vlieg	0
▁machines	0
▁kindje	0
▁geïnteresseerd	0
▁officiële	0
▁plaat	0
▁vleugels	0
▁spiegel	0
▁afmaken	0
▁graaf	0
▁aangevallen	0
▁verdedigen	0
▁industrie	0
▁piloot	0
▁samenwerking	0
▁menselijk	0
▁maatregelen	0
▁spieren	0
▁gram	0
▁vervelend	0
▁vreselijke	0
▁kevin	0
▁liedjes	0
▁bladeren	0
▁leeuw	0
▁mannetje	0
▁kaartjes	0
▁nogmaals	0
▁dubbele	0
▁verliest	0
▁warmte	0
▁wedstrijden	0
▁afdeling	0
▁vernietigd	0
▁eindigt	0
▁leveren	0
▁geheugen	0
▁herinneringen	0
▁vliegveld	0
▁troep	0
▁nationaal	0
▁spelletje	0
▁boekje	0
▁israël	0
▁slachtoffers	0
▁koninklijke	0
▁zaal	0
▁brazilië	0
▁behaald	0
▁stopte	0
▁bidden	0
▁beslissen	0
▁eigenschappen	0
▁uitgenodigd	0
▁vijftig	0
▁genezen	0
▁gewend	0
▁bescherming	0
▁roze	0
▁brieven	0
▁geslapen	0
▁hogere	0
▁magie	0
▁branden	0
▁golf	0
▁zweden	0
▁maarten	0
▁techniek	0
▁patiënt	0
▁samenwerken	0
▁bewoners	0
▁droeg	0
▁beschrijf	0
▁gestoord	0
▁kerstman	0
▁graf	0
▁winkels	0
▁koos	0
▁maatschappij	0
▁privé	0
▁opzoeken	0
▁cirkel	0
▁podium	0
▁behandeld	0
▁discussie	0
▁controleer	0
▁amerikaans	0
▁russen	0
▁aankomen	0
▁proef	0
▁verdiend	0
▁lege	0
▁tel	0
▁kist	0
▁crisis	0
▁omlaag	0
▁drank	0
▁veranderingen	0
▁tranen	0
▁beslist	0
▁hondje	0
▁daan	0
▁nerveus	0
▁gericht	0
▁schattig	0
▁werkwoord	0
▁klant	0
▁klasse	0
▁draak	0
▁nazi	0
▁kranten	0
▁snelle	0
▁arbeiders	0
▁zicht	0
▁lossen	0
▁kanten	0
▁beweegt	0
▁bladzijde	0
▁openbaar	0
▁californië	0
▁stevig	0
▁hal	0
▁locatie	0
▁getal	0
▁dankbaar	0
▁lagen	0
▁buren	0
▁von	0
▁testen	0
▁ierland	0
▁schaduw	0
▁insecten	0
▁zijde	0
▁caesar	0
▁gezelschap	0
▁schreeuwen	0
▁koeien	0
▁filmpjes	0
▁logisch	0
▁maag	0
▁jarig	0
▁virus	0
▁verdrietig	0
▁hendrik	0
▁kanker	0
▁uitspraken	0
▁voorzien	0
▁dagelijks	0
▁dave	0
▁dief	0
▁neerslag	0
▁bevatten	0
▁paulus	0
▁voorlopig	0
▁onderzocht	0
▁roy	0
▁koers	0
▁steekt	0
▁elektriciteit	0
▁ontwikkeld	0
▁chef	0
▁verbinding	0
▁bewaren	0
▁indianen	0
▁genoegen	0
▁groningen	0
▁symbool	0
▁ruiken	0
▁terrein	0
▁mensheid	0
▁verdriet	0
▁uitstekend	0
▁verbeteren	0
▁durft	0
▁japanse	0
▁wandelen	0
▁levende	0
▁koffer	0
▁volgend	0
▁broertje	0
▁majoor	0
▁gehele	0
▁kwestie	0
▁reet	0
▁gouverneur	0
▁blad	0
▁verplicht	0
▁ministerie	0
▁rapport	0
▁lui	0
▁biedt	0
▁beschikbaar	0
▁middag	0
▁hek	0
▁toegevoegd	0
▁olifant	0
▁gevormd	0
▁hoogheid	0
▁hans	0
▁behandeling	0
▁overzicht	0
▁belgische	0
▁lelijk	0
▁kamers	0
▁verraden	0
▁vocht	0
▁kogel	0
▁verbergen	0
▁gevaarlijke	0
▁haren	0
▁fans	0
▁zeeland	0
▁ontmoette	0
▁merk	0
▁belasting	0
▁stephanus	0
▁klasgenoten	0
▁geleid	0
▁volwassenen	0
▁italiaanse	0
▁wiskunde	0
▁scherm	0
▁straten	0
▁verkoopt	0
▁goederen	0
▁gooit	0
▁personeel	0
▁fransen	0
▁gevangenen	0
▁schouders	0
▁opgelost	0
▁huiswerk	0
▁klimmen	0
▁hielp	0
▁poten	0
▁eenzaam	0
▁lijnen	0
▁brandstof	0
▁overtuigen	0
▁biologie	0
▁verantwoordelijkheid	0
▁gebeurtenis	0
▁oekraïne	0
▁beleid	0
▁experiment	0
▁nicht	0
▁klonk	0
▁streep	0
▁centimeter	0
▁kleinere	0
▁oorspronkelijk	0
▁paragraaf	0
▁richten	0
▁sinterklaas	0
▁ijzer	0
▁sukkel	0
▁glazen	0
▁wezens	0
▁verklaren	0
▁lippen	0
▁eeuwen	0
▁verdieping	0
▁verbrand	0
▁emma	0
▁genade	0
▁boem	0
▁borst	0
▁opgesloten	0
▁vriendschap	0
▁woede	0
▁hoopte	0
▁geduld	0
▁trainen	0
▁uitzending	0
▁ontworpen	0
▁draaide	0
▁verklaar	0
▁omgaan	0
▁afronding	0
▁kanaal	0
▁maatje	0
▁acteur	0
▁wiens	0
▁opgeven	0
▁kern	0
▁werknemers	0
▁hoer	0
▁sociaal	0
▁speelgoed	0
▁getuige	0
▁hof	0
▁breekt	0
▁stam	0
▁afgesloten	0
▁katten	0
▁volgde	0
▁stok	0
▁jacht	0
▁ontbreekt	0
▁methode	0
▁dinsdag	0
▁herken	0
▁helder	0
▁knappe	0
▁gewacht	0
▁zielig	0
▁ist	0
▁organismen	0
▁letterlijk	0
▁gemeenschap	0
▁britten	0
▁redelijk	0
▁karakter	0
▁klaas	0
▁scheiden	0
▁benzine	0
▁ridder	0
▁potter	0
▁vullen	0
▁knieën	0
▁opgewonden	0
▁achtergrond	0
▁verzoek	0
▁functies	0
▁aangenomen	0
▁pers	0
▁landschap	0
▁zingt	0
▁bruce	0
▁technologie	0
▁verstoppen	0
▁middelen	0
▁combinatie	0
▁fabrieken	0
▁stijgt	0
▁gedronken	0
▁keel	0
▁diverse	0
▁zing	0
▁grot	0
▁ontwikkelen	0
▁zusje	0
▁regent	0
▁echtgenoot	0
▁leefden	0
▁geliefde	0
▁kees	0
▁mol	0
▁hierboven	0
▁schrikken	0
▁vijfde	0
▁klassieke	0
▁starten	0
▁vervoer	0
▁ruil	0
▁ruik	0
▁lente	0
▁hartelijk	0
▁aspecten	0
▁ron	0
▁reageert	0
▁kerels	0
▁slimme	0
▁gevochten	0
▁afspraken	0
▁proeven	0
▁wolken	0
▁kloppen	0
▁vieze	0
▁groeten	0
▁begrafenis	0
▁behandelen	0
▁lokale	0
▁armoede	0
▁rijn	0
▁bende	0
▁bibliotheek	0
▁streng	0
▁zonde	0
▁schouder	0
▁teleurgesteld	0
▁onafhankelijk	0
▁dwars	0
▁groeide	0
▁kabinet	0
▁download	0
▁positief	0
▁ton	0
▁literatuur	0
▁ijsje	0
▁rondje	0
▁houding	0
▁berichten	0
▁bezoekers	0
▁bijbel	0
▁historische	0
▁ballon	0
▁voltooid	0
▁taylor	0
▁vloog	0
▁chauffeur	0
▁vijftien	0
▁rat	0
▁opgepakt	0
▁bestuderen	0
▁zwitserland	0
▁zachtjes	0
▁voorwerpen	0
▁rende	0
▁oorzaken	0
▁vrouwelijke	0
▁banden	0
▁donderdag	0
▁overige	0
▁herinnert	0
▁senator	0
▁briefje	0
▁uiterlijk	0
▁helikopter	0
▁gearresteerd	0
▁apart	0
▁gelegd	0
▁ademen	0
▁officier	0
▁medelijden	0
▁voorkomt	0
▁boodschappen	0
▁studie	0
▁ingang	0
▁vrees	0
▁gereed	0
▁marcus	0
▁algemene	0
▁stal	0
▁magische	0
▁chr	0
▁kandidaat	0
▁springt	0
▁plat	0
▁badkamer	0
▁cijfer	0
▁uitgaven	0
▁rondom	0
▁slavernij	0
▁waarden	0
▁kwaliteit	0
▁produceren	0
▁vos	0
▁kopie	0
▁medische	0
▁onschuldig	0
▁raden	0
▁bas	0
▁benodigdheden	0
▁verf	0
▁rechtbank	0
▁slachtoffer	0
▁poging	0
▁vriendinnen	0
▁jury	0
▁ongelofelijk	0
▁longen	0
▁kou	0
▁grootte	0
▁vietnam	0
▁meten	0
▁avontuur	0
▁aanbieden	0
▁joodse	0
▁schilderijen	0
▁overleg	0
▁generatie	0
▁troon	0
▁waarschuwen	0
▁verdwijnt	0
▁supermarkt	0
▁huisje	0
▁duwen	0
▁achtergelaten	0
▁slaapkamer	0
▁bewust	0
▁veroorzaken	0
▁kolonie	0
▁elementen	0
▁scherp	0
▁verwijderd	0
▁doelwit	0
▁plein	0
▁drukken	0
▁aanraken	0
▁platteland	0
▁raket	0
▁nul	0
▁nicolaas	0
▁materialen	0
▁velen	0
▁organen	0
▁marine	0
▁droge	0
▁tempel	0
▁zone	0
▁mede	0
▁kunstenaar	0
▁app	0
▁gelogen	0
▁burger	0
▁vals	0
▁concert	0
▁bruin	0
▁eva	0
▁tijger	0
▁spelletjes	0
▁herstellen	0
▁toeval	0
▁verhouding	0
▁betekende	0
▁trappen	0
▁veilige	0
▁engel	0
▁indonesië	0
▁chinees	0
▁tijdelijk	0
▁externe	0
▁www	0
▁filips	0
▁benoemen	0
▁interesse	0
▁bot	0
▁champagne	0
▁aanwezigheid	0
▁beschermd	0
▁plassen	0
▁redt	0
▁tegelijkertijd	0
▁aangekomen	0
▁gekend	0
▁moskou	0
▁schot	0
▁sterf	0
▁politici	0
▁cia	0
▁donder	0
▁bijen	0
▁kelly	0
▁woensdag	0
▁doei	0
▁vergeleken	0
▁plicht	0
▁moge	0
▁kocht	0
▁waarschuwing	0
▁personages	0
▁momenteel	0
▁voetballen	0
▁xii	0
▁kroon	0
▁lichten	0
▁tegenstelling	0
▁iris	0
▁bijlage	0
▁grijze	0
▁piet	0
▁herinnering	0
▁monsters	0
▁factoren	0
▁voorbereid	0
▁vuil	0
▁bram	0
▁bruine	0
▁negatief	0
▁nieuwsgierig	0
▁fbi	0
▁metaal	0
▁ezel	0
▁stiekem	0
▁leugenaar	0
▁tegenstander	0
▁positieve	0
▁democratische	0
▁toernooi	0
▁bestaande	0
▁dapper	0
▁bossen	0
▁jaap	0
▁opruimen	0
▁afsluiting	0
▁gedwongen	0
▁handelen	0
▁verwijzen	0
▁loon	0
▁patiënten	0
▁moeilijker	0
▁schuur	0
▁dek	0
▁ontdekte	0
▁sara	0
▁inclusief	0
▁rob	0
▁puzzel	0
▁tovenaar	0
▁verspreid	0
▁zetels	0
▁denemarken	0
▁charlotte	0
▁apen	0
▁scène	0
▁ontwerpen	0
▁kok	0
▁bemanning	0
▁grijp	0
▁koekjes	0
▁datum	0
▁bravo	0
▁pensioen	0
▁identiteit	0
▁toestand	0
▁jesse	0
▁bepaal	0
▁vermeld	0
▁zichtbaar	0
▁voordelen	0
▁beschrijving	0
▁onbekende	0
▁accepteren	0
▁emmer	0
▁onszelf	0
▁vrachtwagen	0
▁verdrag	0
▁ajax	0
▁constant	0
▁snijden	0
▁beker	0
▁minste	0
▁ontslag	0
▁verdween	0
▁geheimen	0
▁kelder	0
▁kansen	0
▁benieuwd	0
▁café	0
▁gitaar	0
▁zekerheid	0
▁percentage	0
▁bewaard	0
▁negatieve	0
▁gooide	0
▁dergelijke	0
▁naakt	0
▁lening	0
▁computers	0
▁europees	0
▁onthoud	0
▁applaus	0
▁commissie	0
▁voormalige	0
▁passagiers	0
▁afrikaanse	0
▁ramen	0
▁diner	0
▁aandelen	0
▁universum	0
▁verplaatsen	0
▁leuker	0
▁schitterend	0
▁bepaalt	0
▁beveiliging	0
▁doelen	0
▁gepland	0
▁vergissing	0
▁stijgen	0
▁noorwegen	0
▁verwoest	0
▁eend	0
▁portugal	0
▁verscheen	0
▁belofte	0
▁momenten	0
▁verspreiden	0
▁johan	0
▁snelweg	0
▁rente	0
▁presenteren	0
▁gen	0
▁tekort	0
▁berekenen	0
▁bol	0
▁douche	0
▁leiders	0
▁traditie	0
▁verdachte	0
▁figuren	0
▁legende	0
▁straling	0
▁misdaad	0
▁gegooid	0
▁brandt	0
▁koekje	0
▁platen	0
▁hongarije	0
▁koningen	0
▁situaties	0
▁overeenkomst	0
▁gelopen	0
▁lawaai	0
▁uitgebreid	0
▁thijs	0
▁mooier	0
▁vulkaan	0
▁verstandig	0
▁bewaar	0
▁smaakt	0
▁bevelen	0
▁onbekend	0
▁zelfde	0
▁vuren	0
▁zwakke	0
▁getrokken	0
▁helden	0
▁patrick	0
▁brein	0
▁uitgelegd	0
▁enthousiast	0
▁gevuld	0
▁diepe	0
▁vloot	0
▁koen	0
▁lucas	0
▁hol	0
▁achterkant	0
▁schrijvers	0
▁ervaren	0
▁verlegen	0
▁doc	0
▁opgegeten	0
▁oorlogen	0
▁dochters	0
▁treinen	0
▁stelletje	0
▁gepubliceerd	0
▁sophie	0
▁verwerkt	0
▁schoen	0
▁neergeschoten	0
▁jeetje	0
▁ein	0
▁stinkt	0
▁omgezet	0
▁luke	0
▁lading	0
▁vat	0
▁geesten	0
▁greep	0
▁slagen	0
▁strak	0
▁zenuwachtig	0
▁vrouwtje	0
▁grootvader	0
▁dunne	0
▁voortaan	0
▁vloeistof	0
▁verwijderen	0
▁diensten	0
▁gezonde	0
▁ellende	0
▁trut	0
▁robbie	0
▁draad	0
▁wereldwijd	0
▁amper	0
▁aardbeving	0
▁stichting	0
▁tak	0
▁heuvel	0
▁duisternis	0
▁bezet	0
▁kooi	0
▁bakken	0
▁nep	0
▁chaos	0
▁pik	0
▁werkloosheid	0
▁verwerken	0
▁metalen	0
▁uitgezonden	0
▁overtuigd	0
▁ophangen	0
你	0
一	0
这	0
人	0
说	0
那	0
大	0
也	0
小	0
还	0
后	0
家	0
一个	0
这个	0
多	0
生	0
道	0
和	0
心	0
点	0
老	0
她	0
回	0
年	0
面	0
开	0
话	0
当	0
长	0
发	0
成	0
让	0
只	0
经	0
自己	0
实	0
十	0
前	0
现在	0
他们	0
但	0
方	0
打	0
三	0
学	0
太	0
吃	0
两	0
动	0
见	0
手	0
二	0
明	0
果	0
问	0
听	0
从	0
干	0
那个	0
比	0
女	0
头	0
本	0
主	0
关	0
然后	0
法	0
高	0
感	0
因为	0
气	0
水	0
电	0
像	0
西	0
解	0
你的	0
重	0
无	0
东	0
白	0
直	0
体	0
但是	0
日	0
机	0
哥	0
欢	0
钱	0
爱	0
外	0
王	0
新	0
活	0
已经	0
谁	0
还有	0
死	0
信	0
带	0
个人	0
花	0
姐	0
少	0
军	0
马	0
美	0
车	0
可能	0
孩子	0
结	0
今天	0
五	0
变	0
四	0
百	0
山	0
更	0
月	0
难	0
那么	0
加	0
选	0
亲	0
错	0
平	0
请	0
门	0
路	0
喜欢	0
口	0
眼	0
帮	0
将	0
朋友	0
答	0
原	0
度	0
大家	0
张	0
他的	0
表	0
时间	0
球	0
万	0
文	0
量	0
男	0
任	0
海	0
数	0
其实	0
事情	0
性	0
光	0
一起	0
清	0
应该	0
管	0
这些	0
玩	0
晚	0
报	0
金	0
八	0
为什么	0
怕	0
战	0
房	0
色	0
问题	0
内	0
风	0
条	0
中国	0
影	0
以后	0
近	0
买	0
跑	0
父	0
教	0
九	0
两个	0
特别	0
强	0
飞	0
乐	0
书	0
底	0
六	0
神	0
远	0
非常	0
红	0
准	0
空	0
饭	0
根	0
城	0
这里	0
笑	0
一些	0
千	0
喝	0
字	0
七	0
紧	0
不过	0
火	0
xxx	0
一次	0
病	0
包	0
林	0
北	0
节	0
你好	0
市	0
单	0
工作	0
发现	0
流	0
第一	0
老师	0
树	0
伤	0
留	0
生活	0
睡	0
需要	0
线	0
南	0
李	0
失	0
之后	0
程	0
象	0
青	0
满	0
杀	0
周	0
轻	0
亮	0
而且	0
慢	0
星	0
建	0
兴	0
关系	0
拉	0
奶	0
肯	0
半	0
零	0
音	0
写	0
里面	0
台	0
拜	0
转	0
地方	0
答案	0
怪	0
一天	0
段	0
游	0
调	0
希望	0
步	0
感觉	0
酒	0
忙	0
黑	0
有人	0
急	0
敢	0
站	0
义	0
团	0
热	0
黄	0
区	0
哈哈	0
深	0
官	0
展	0
班	0
石	0
鱼	0
所有	0
苦	0
排	0
二十	0
只是	0
画	0
久	0
基	0
龙	0
网	0
最后	0
xxxx	0
世界	0
设	0
领	0
先生	0
志	0
聊	0
之前	0
歌	0
比较	0
元	0
过去	0
断	0
楚	0
重要	0
公司	0
狗	0
论	0
脸	0
毛	0
切	0
夜	0
跳	0
只有	0
兵	0
香	0
晚上	0
类	0
fra	0
河	0
食	0
药	0
板	0
布	0
办法	0
情况	0
卖	0
米	0
那些	0
草	0
故事	0
华	0
德	0
鼠	0
猫	0
刻	0
刘	0
福	0
穿	0
微	0
电话	0
xxxxx	0
牛	0
只要	0
江	0
值	0
熊	0
皮	0
价	0
历	0
脑	0
费	0
陈	0
角	0
菜	0
儿子	0
云	0
静	0
lin	0
英	0
找到	0
ine	0
负	0
line	0
极	0
假	0
推	0
礼	0
速	0
后来	0
erl	0
梦	0
拍	0
克	0
坏	0
党	0
嘴	0
脚	0
雨	0
鸡	0
语	0
虽然	0
兔	0
幸	0
第二	0
叶	0
背	0
味	0
村	0
简	0
武	0
选项	0
土	0
木	0
属	0
剧	0
集	0
追	0
唱	0
曾	0
油	0
姑娘	0
国家	0
蛋	0
闻	0
雪	0
最近	0
广	0
xxxxxx	0
哭	0
存	0
鬼	0
春	0
投	0
超	0
以前	0
怀	0
双	0
环	0
压	0
严	0
必须	0
她的	0
兄弟	0
结果	0
在一起	0
血	0
钟	0
洗	0
通过	0
店	0
温	0
女人	0
铁	0
乱	0
汉	0
列	0
派	0
松	0
解析	0
贵	0
围	0
偷	0
权	0
电影	0
麻	0
创	0
玉	0
不同	0
比赛	0
小姐	0
顺	0
肉	0
每天	0
高兴	0
读	0
其他	0
守	0
低	0
图	0
宫	0
选择	0
营	0
机会	0
课	0
igh	0
三个	0
发展	0
容易	0
枪	0
园	0
惊	0
猪	0
坚	0
罪	0
离开	0
日本	0
杨	0
休	0
群	0
呼	0
冷	0
州	0
苏	0
修	0
永	0
想要	0
股	0
狼	0
累	0
抱	0
男人	0
任何	0
虎	0
房子	0
鸟	0
漂	0
三十	0
明天	0
女孩	0
舞	0
史	0
衣服	0
一切	0
屋	0
个月	0
女儿	0
划	0
船	0
身体	0
姐姐	0
结婚	0
决定	0
成为	0
主要	0
痛	0
银	0
源	0
罗	0
影响	0
社会	0
小时	0
毒	0
眼睛	0
野	0
孙	0
运动	0
手机	0
错误	0
田	0
直接	0
农	0
退	0
它们	0
借	0
有些	0
彩	0
哎呀	0
父亲	0
得到	0
同志	0
很好	0
夏	0
奶奶	0
弹	0
沙	0
卡	0
美国	0
老板	0
互	0
羊	0
率	0
哥哥	0
姓	0
开心	0
翻	0
床	0
省	0
同学	0
吸	0
富	0
圆	0
医院	0
绿	0
声音	0
赵	0
漂亮	0
安全	0
顶	0
动物	0
胜	0
日子	0
就像	0
康	0
完全	0
乡	0
狐	0
反正	0
唐	0
年轻	0
刀	0
秀	0
波	0
终于	0
担心	0
洞	0
公主	0
eft	0
烧	0
兰	0
父母	0
lef	0
猴	0
短	0
人们	0
层	0
学习	0
圈	0
学生	0
丝	0
左	0
方式	0
纸	0
敌	0
冰	0
封	0
拜拜	0
杯	0
笔	0
医生	0
刺	0
袋	0
降	0
学校	0
票	0
耳	0
如何	0
要求	0
货	0
挑	0
恋	0
昨天	0
名字	0
努力	0
豆	0
湖	0
秋	0
旅	0
蓝	0
欢迎	0
一般	0
爷爷	0
辛	0
大学	0
迷	0
洋	0
粉	0
十五	0
颜	0
茶	0
健	0
新的	0
减	0
能力	0
最好	0
新闻	0
词	0
十二	0
补	0
幸福	0
败	0
部分	0
恐	0
阿姨	0
保护	0
仙	0
人生	0
感情	0
诗	0
忍	0
喊	0
理解	0
注意	0
丢	0
骨	0
除了	0
牌	0
太阳	0
织	0
镜	0
冬	0
经济	0
每个	0
成功	0
灯	0
经常	0
勇	0
晓	0
馆	0
腿	0
折	0
游戏	0
困	0
甚至	0
森	0
完成	0
范	0
狐狸	0
研究	0
浪	0
家人	0
蛙	0
射	0
傻	0
简单	0
十年	0
输	0
天天	0
右	0
北京	0
自然	0
舒	0
丁	0
脱	0
更多	0
牙	0
帅	0
施	0
睡觉	0
人民	0
休息	0
总是	0
餐	0
解决	0
生气	0
老鼠	0
十一	0
文化	0
暗	0
恶	0
快乐	0
包括	0
宁	0
胖	0
爬	0
植	0
县	0
条件	0
参加	0
宋	0
吹	0
季	0
环境	0
母亲	0
考虑	0
原因	0
永远	0
雷	0
最大	0
稳	0
妖	0
任务	0
厂	0
外面	0
平时	0
轮	0
青蛙	0
属于	0
哇	0
th	0
烟	0
麻烦	0
帮助	0
吃了	0
der	0
改变	0
回答	0
nde	0
酸	0
技术	0
好吃	0
设计	0
祖	0
灰	0
留下	0
码	0
摇	0
戴	0
作用	0
甜	0
尾	0
街	0
妹妹	0
说明	0
暖	0
后面	0
梅	0
秦	0
关于	0
鞋	0
基本	0
束	0
瓜	0
生命	0
庆	0
杰	0
限	0
糖	0
市场	0
接受	0
未来	0
电视	0
宗	0
液	0
分钟	0
她们	0
净	0
上海	0
摸	0
苹果	0
全部	0
奖	0
篮	0
绝对	0
核	0
镇	0
变化	0
棒	0
小孩	0
城市	0
嫁	0
精神	0
同意	0
赢	0
猜	0
珠	0
鹿	0
目的	0
宣	0
亿	0
雄	0
拼	0
行动	0
五十	0
盖	0
方向	0
国王	0
老公	0
麦	0
房间	0
巨	0
害怕	0
速度	0
韩	0
聪	0
家庭	0
四十	0
ime	0
历史	0
鼓	0
计划	0
磨	0
队长	0
美丽	0
窗	0
徐	0
饿	0
泡	0
针	0
沈	0
十八	0
很快	0
打电话	0
思考	0
男孩	0
烈	0
代表	0
荣	0
存在	0
冠	0
珍	0
现场	0
第三	0
硬	0
偏	0
位置	0
反应	0
炸	0
方法	0
键	0
弟弟	0
庄	0
各种	0
也许	0
诚	0
状态	0
桥	0
安排	0
处理	0
介绍	0
汤	0
软	0
负责	0
合作	0
弱	0
染	0
瓶	0
面对	0
人类	0
夫人	0
报告	0
音乐	0
危险	0
活动	0
腾	0
产生	0
正常	0
组织	0
签	0
兔子	0
港	0
登	0
警察	0
丹	0
政府	0
许多	0
厅	0
恨	0
责任	0
实际	0
解释	0
太太	0
老人	0
物体	0
盛	0
朱	0
tim	0
times	0
劝	0
离婚	0
鬼子	0
飞机	0
符	0
主人	0
肚子	0
使用	0
谷	0
主任	0
吉	0
辛苦	0
植物	0
箱	0
峰	0
教育	0
泪	0
人员	0
丈	0
奇怪	0
爆	0
森林	0
董	0
企业	0
闪	0
鸭	0
梁	0
蒙	0
叔叔	0
首先	0
十四	0
域	0
科学	0
调查	0
洲	0
材料	0
照片	0
利用	0
领导	0
小熊	0
前面	0
身份	0
小小	0
笨	0
桃	0
mat	0
十六	0
旧	0
结束	0
想法	0
墙	0
滑	0
目前	0
爱情	0
四个	0
刷	0
锅	0
有时候	0
日本人	0
岛	0
共产党	0
关键	0
师父	0
赏	0
佛	0
怀疑	0
氧	0
挣	0
早上	0
证明	0
保证	0
粮	0
伟	0
鼻	0
控制	0
部队	0
扬	0
聪明	0
合适	0
扔	0
实现	0
碗	0
感受	0
形成	0
剑	0
妻子	0
池	0
时代	0
郎	0
郑	0
颜色	0
宝宝	0
大小	0
丰	0
骑	0
实验	0
忠	0
拖	0
赚	0
观察	0
获得	0
踢	0
舒服	0
女朋友	0
分享	0
唉	0
行为	0
严重	0
ath	0
健康	0
厚	0
司令	0
分析	0
生物	0
心情	0
屁	0
奔	0
情绪	0
琴	0
服务	0
穷	0
大象	0
可爱	0
启	0
凤	0
来自	0
空间	0
礼物	0
迟	0
疯	0
咬	0
圣	0
肥	0
习惯	0
放弃	0
系统	0
项目	0
知识	0
租	0
力量	0
阴	0
压力	0
序	0
内容	0
全国	0
记住	0
猎	0
足球	0
更好	0
空气	0
王子	0
慧	0
提供	0
孔	0
判断	0
十九	0
扫	0
自由	0
质量	0
磁	0
演员	0
宇	0
不明	0
食物	0
库	0
敌人	0
门口	0
乔	0
禁	0
十七	0
淡	0
纯	0
瞎	0
滴	0
细胞	0
抬	0
赞	0
sqrt	0
六十	0
宽	0
泥	0
脏	0
地球	0
恋爱	0
心理	0
专业	0
嘿	0
婚姻	0
岸	0
nee	0
物质	0
ndf	0
fla	0
欠	0
最终	0
生产	0
师傅	0
适合	0
男朋友	0
尖	0
燕	0
中央	0
钻	0
敏	0
宝贝	0
紧张	0
观众	0
证据	0
钢	0
每个人	0
卷	0
国际	0
伤害	0
秘密	0
命令	0
投资	0
老虎	0
罚	0
价值	0
堆	0
管理	0
怜	0
猴子	0
隆	0
方便	0
距离	0
羽	0
小狗	0
吐	0
地区	0
建议	0
锁	0
曹	0
态度	0
壁	0
直到	0
脾	0
梦想	0
沟	0
蛇	0
表达	0
月亮	0
石头	0
蜂	0
训练	0
腰	0
生日	0
上次	0
相关	0
怒	0
篮球	0
普通	0
中间	0
汽车	0
亲自	0
泽	0
增加	0
阳光	0
关心	0
银行	0
共同	0
喝酒	0
意见	0
内心	0
窝	0
丈夫	0
必要	0
每一个	0
欣	0
认真	0
洪	0
尤其	0
飘	0
龟	0
估计	0
困难	0
尸	0
炮	0
值得	0
豪	0
柳	0
民族	0
狮	0
兴趣	0
小猪	0
革命	0
小猫	0
帮忙	0
直播	0
思想	0
产品	0
皇帝	0
政治	0
梯	0
想象	0
竹	0
聊天	0
挖	0
帽	0
下午	0
艺术	0
妖怪	0
可惜	0
垃圾	0
甘	0
紫	0
有机	0
烂	0
饱	0
ian	0
英雄	0
汇	0
目标	0
魏	0
蚁	0
成绩	0
现象	0
通知	0
寻找	0
检查	0
老大	0
塔	0
情感	0
表演	0
埋	0
八十	0
郭	0
真实	0
七十	0
分手	0
敲	0
脑袋	0
战争	0
耳朵	0
孝	0
具体	0
岩	0
中心	0
味道	0
尾巴	0
成长	0
湾	0
喷	0
女生	0
丑	0
种子	0
现实	0
将来	0
底下	0
人物	0
辣	0
基础	0
哭了	0
国民	0
夫妻	0
实际上	0
脾气	0
科技	0
同样	0
扑	0
以上	0
一旦	0
湿	0
箭	0
教授	0
仁	0
受伤	0
提醒	0
接触	0
一生	0
实力	0
经验	0
水平	0
弯	0
缝	0
建设	0
懒	0
办公	0
毕业	0
记者	0
侯	0
结构	0
手术	0
附近	0
超过	0
挑战	0
伏	0
自我	0
盐	0
干净	0
邻	0
拥有	0
秒	0
鹰	0
难过	0
链	0
芬	0
意识	0
题目	0
伦	0
分子	0
作品	0
仪	0
赖	0
头发	0
繁	0
恢复	0
工程	0
赌	0
焦	0
依然	0
痛苦	0
事实	0
单位	0
地下	0
苗	0
凌	0
蒋	0
贼	0
勤	0
提高	0
承认	0
年龄	0
脑子	0
氏	0
一半	0
年纪	0
稳定	0
浮	0
导演	0
曼	0
沿	0
蚂蚁	0
警方	0
误会	0
几乎	0
欺负	0
版	0
标准	0
狮子	0
传统	0
醉	0
最高	0
执行	0
盒	0
胸	0
建立	0
唱歌	0
伤心	0
鼻子	0
汗	0
相同	0
星星	0
奏	0
九十	0
红色	0
泉	0
朗	0
添	0
背后	0
当地	0
人才	0
旗	0
粗	0
扣	0
一切都	0
姜	0
失败	0
玲	0
行业	0
上学	0
瘦	0
再次	0
试试	0
指挥	0
仿	0
天气	0
动作	0
好玩	0
加入	0
然而	0
恒	0
少年	0
后悔	0
潮	0
裂	0
松鼠	0
忘记	0
矛	0
斤	0
洁	0
眉	0
队伍	0
网上	0
创造	0
有用	0
坡	0
鹅	0
多多	0
法律	0
能量	0
贤	0
冠军	0
兽	0
满意	0
温度	0
晶	0
大声	0
嘟	0
好奇	0
记录	0
教练	0
cd	0
交流	0
信任	0
首歌	0
显示	0
国内	0
加上	0
读书	0
等于	0
时刻	0
电脑	0
申	0
消费	0
功能	0
桶	0
拒绝	0
一面	0
文章	0
天空	0
cdo	0
cdot	0
理由	0
胎	0
伙伴	0
主席	0
同事	0
锦	0
霸	0
肖	0
随时	0
凯	0
情报	0
星期	0
莲	0
政策	0
劫	0
肺	0
泰	0
俊	0
柱	0
尤其是	0
铜	0
轻轻	0
盆	0
基本上	0
程度	0
资源	0
涛	0
参与	0
径	0
周围	0
阶段	0
建筑	0
价格	0
贪	0
壳	0
孟	0
床上	0
结合	0
坑	0
病人	0
墨	0
大海	0
薄	0
剪	0
感动	0
ver	0
可怕	0
讨厌	0
记忆	0
假的	0
绳	0
正式	0
浑	0
邓	0
看起来	0
机器	0
砸	0
南方	0
性格	0
资料	0
烤	0
尊重	0
溶液	0
专家	0
煮	0
意外	0
五个	0
舞台	0
贾	0
制度	0
脆	0
客人	0
明星	0
巨大	0
事件	0
东北	0
累了	0
独立	0
委屈	0
矛盾	0
熟悉	0
咖啡	0
冬天	0
改革	0
氧化	0
从来没有	0
经理	0
全球	0
办公室	0
炒	0
偷偷	0
丛	0
生长	0
治疗	0
火车	0
侧	0
相对	0
嘴巴	0
平台	0
消失	0
强大	0
牺牲	0
晋	0
职业	0
复杂	0
太子	0
彻底	0
减少	0
扭	0
激动	0
遥	0
考试	0
椅	0
英国	0
冯	0
男生	0
咕	0
桑	0
叶子	0
今日	0
蝴蝶	0
空中	0
暂时	0
吸引	0
夹	0
颈	0
提前	0
角色	0
作者	0
方案	0
百万	0
书记	0
否则	0
允	0
制造	0
对手	0
翅膀	0
工资	0
温暖	0
尽管	0
挤	0
享受	0
交通	0
渡	0
体育	0
胜利	0
侵	0
增长	0
土地	0
师兄	0
不久	0
追求	0
会议	0
裤	0
萝卜	0
角度	0
绿色	0
腐	0
柴	0
婷	0
制作	0
做饭	0
芳	0
线索	0
体现	0
传播	0
拳	0
相互	0
纵	0
国外	0
工具	0
岳	0
昌	0
犯罪	0
春天	0
战斗	0
范围	0
特点	0
测量	0
卫生	0
顺利	0
悬	0
陶	0
出生	0
董事	0
晕	0
今晚	0
印象	0
部门	0
少了	0
排除	0
肩	0
堡	0
表面	0
开车	0
效果	0
昆	0
十个	0
肠	0
平安	0
羞	0
逆	0
利益	0
家长	0
期间	0
成熟	0
掌握	0
失望	0
辉	0
死亡	0
为何	0
作业	0
女子	0
陵	0
理想	0
祥	0
棋	0
球队	0
姐妹	0
资金	0
津	0
玻璃	0
或许	0
眼泪	0
白天	0
开放	0
便宜	0
善良	0
翼	0
漏	0
乌龟	0
南京	0
电子	0
渴	0
粮食	0
邀请	0
饶	0
需求	0
帽子	0
碳	0
胃	0
通常	0
旅游	0
仍然	0
解放	0
生态	0
广州	0
积极	0
跃	0
誓	0
鸡蛋	0
晒	0
尿	0
常常	0
铃	0
计算	0
二月	0
破坏	0
最多	0
吞	0
驴	0
一月	0
袁	0
iao	0
案件	0
等待	0
阁	0
匙	0
电视剧	0
娃娃	0
重点	0
蔡	0
大师	0
溪	0
恭喜	0
讨论	0
笼	0
水果	0
军队	0
台湾	0
完美	0
面包	0
厨房	0
培养	0
推荐	0
中华	0
中午	0
现代	0
羡慕	0
瞬间	0
调整	0
勇敢	0
沟通	0
虾	0
白色	0
不足	0
姚	0
创新	0
语言	0
旅行	0
进步	0
伞	0
律师	0
惠	0
任何人	0
规模	0
小说	0
允许	0
邻居	0
墓	0
收入	0
寿	0
国民党	0
动员	0
粉丝	0
真相	0
彭	0
钥匙	0
数字	0
遇见	0
女性	0
伪	0
青年	0
命运	0
寺	0
基因	0
酷	0
军事	0
蒸	0
公众	0
豹	0
自信	0
风险	0
鹏	0
大多	0
世纪	0
热闹	0
玩具	0
蟹	0
统一	0
形式	0
地面	0
夏天	0
状况	0
男子	0
游泳	0
eng	0
司机	0
及时	0
准确	0
文明	0
婚礼	0
心灵	0
生病	0
联合	0
丰富	0
始终	0
农民	0
罐	0
公里	0
拨	0
百年	0
回忆	0
员工	0
尘	0
工业	0
球员	0
团队	0
大部分	0
蜜蜂	0
虹	0
帝国	0
琳	0
伟大	0
耶	0
学院	0
平衡	0
斜	0
内部	0
厕	0
留下来	0
庙	0
劳动	0
木头	0
赢了	0
每年	0
西方	0
兴奋	0
刺猬	0
体验	0
战场	0
信心	0
割	0
冻	0
萧	0
无聊	0
科长	0
合同	0
浪费	0
舌	0
有趣	0
有效	0
武器	0
刺激	0
逐渐	0
反对	0
持续	0
安慰	0
霍	0
原子	0
轻松	0
棉	0
酒店	0
月份	0
原则	0
洗澡	0
水中	0
面积	0
广告	0
跳舞	0
第四	0
券	0
高度	0
黎	0
税	0
公平	0
工人	0
生存	0
交易	0
屁股	0
化学	0
心疼	0
时光	0
智慧	0
邦	0
青春	0
产业	0
黄色	0
进一步	0
西瓜	0
蛋糕	0
卢	0
寸	0
树林	0
成就	0
和平	0
媒体	0
一代	0
六个	0
浅	0
裙	0
阅读	0
形状	0
厕所	0
机构	0
方程	0
稍微	0
大地	0
损失	0
羽毛	0
多数	0
特征	0
原本	0
作战	0
子弹	0
晴	0
合理	0
竞争	0
欧洲	0
对待	0
人大	0
跨	0
蓝色	0
观点	0
超级	0
笑话	0
岭	0
脖子	0
气体	0
创业	0
描述	0
接近	0
模式	0
元素	0
资本	0
数量	0
公鸡	0
烫	0
欣赏	0
道路	0
提升	0
业务	0
点头	0
以下	0
孙子	0
销售	0
传说	0
尸体	0
地点	0
ing	0
锻炼	0
潘	0
文学	0
客户	0
院子	0
群众	0
力气	0
保险	0
愿望	0
古代	0
炉	0
战士	0
适应	0
下雨	0
细节	0
运动员	0
鸭子	0
葬	0
资格	0
有利	0
话题	0
采访	0
神奇	0
法院	0
花园	0
雾	0
无数	0
感兴趣	0
辜	0
到达	0
死者	0
电台	0
反映	0
新鲜	0
洒	0
病毒	0
孤独	0
威胁	0
撕	0
神秘	0
山羊	0
雕	0
胡子	0
多个	0
慢慢地	0
文字	0
芽	0
两次	0
著名	0
迈	0
转移	0
三月	0
输了	0
美元	0
绣	0
勇气	0
镜子	0
患者	0
葡萄	0
博士	0
乌鸦	0
加强	0
班长	0
玄	0
留言	0
捐	0
军人	0
营养	0
湘	0
怀孕	0
矮	0
平均	0
动力	0
不适	0
更大	0
俄	0
半夜	0
鼓励	0
下降	0
碧	0
长颈鹿	0
汁	0
掌柜	0
不满	0
陌生	0
黄金	0
数学	0
神经	0
操作	0
臂	0
早晨	0
蘑菇	0
飞行	0
疯了	0
树叶	0
区域	0
主题	0
柏	0
骄傲	0
楠	0
核心	0
电流	0
避免	0
函数	0
外国	0
已知	0
赫	0
对面	0
腹	0
校长	0
七月	0
筋	0
规则	0
连续	0
花儿	0
法国	0
崔	0
页	0
权利	0
煤	0
美女	0
刮	0
个案	0
五月	0
事故	0
热情	0
金融	0
措施	0
决心	0
民主	0
蹲	0
广东	0
惊喜	0
温柔	0
工厂	0
四月	0
报仇	0
公开	0
区别	0
八月	0
薛	0
要么	0
农村	0
三角	0
心态	0
窗户	0
进攻	0
亲戚	0
概念	0
人口	0
商业	0
练习	0
表情	0
理论	0
酱	0
充分	0
土壤	0
膜	0
翔	0
指导	0
六月	0
教训	0
家乡	0
灿	0
玫瑰	0
猎人	0
有限	0
向前	0
宣传	0
尝试	0
科学家	0
上午	0
晚安	0
士兵	0
藤	0
珍惜	0
快递	0
千年	0
金属	0
成年	0
北方	0
重庆	0
攻击	0
类型	0
微笑	0
手指	0
皇后	0
突破	0
茂	0
完整	0
幼儿园	0
吻	0
div	0
较大	0
影子	0
一致	0
氢	0
停止	0
走路	0
评价	0
强调	0
胶	0
请求	0
老了	0
circ	0
qsl	0
王后	0
往下	0
昂	0
椅子	0
爪	0
泛	0
优势	0
坤	0
eta	0
草地	0
有名	0
污染	0
卵	0
深圳	0
物理	0
大门	0
都市	0
砖	0
含有	0
放大	0
娱乐	0
黑色	0
移动	0
加速	0
风格	0
眼神	0
蠢	0
出口	0
人工	0
暴露	0
系列	0
儿童	0
基金	0
维持	0
弥	0
蜘蛛	0
创作	0
魔法	0
坛	0
医疗	0
玉米	0
武汉	0
降低	0
翁	0
叮	0
犹豫	0
尴尬	0
骨头	0
崖	0
han	0
眼镜	0
姑姑	0
最爱	0
评论	0
槽	0
醋	0
战略	0
难得	0
严格	0
公园	0
保障	0
收获	0
海洋	0
投入	0
快速	0
杀死	0
宏	0
保密	0
彪	0
申请	0
渣	0
祖国	0
最小	0
早餐	0
珊	0
网友	0
爱好	0
辽	0
壶	0
测试	0
村民	0
爆炸	0
整体	0
感染	0
先进	0
掌声	0
推动	0
周末	0
吸收	0
后果	0
光明	0
外人	0
文件	0
印度	0
咸	0
促进	0
东方	0
八个	0
密码	0
社会主义	0
韩国	0
单身	0
树枝	0
身后	0
精灵	0
抓到	0
丸	0
山东	0
霞	0
草原	0
相亲	0
乳	0
寂寞	0
确认	0
大臣	0
偶尔	0
幸运	0
九月	0
蛋白	0
冲动	0
燕子	0
报纸	0
天才	0
逸	0
监狱	0
痒	0
大多数	0
自杀	0
传递	0
蜗牛	0
肝	0
大脑	0
做梦	0
生成	0
浇	0
鞋子	0
舞蹈	0
肌	0
十月	0
政委	0
天真	0
类似	0
瑶	0
批评	0
固定	0
位于	0
轴	0
气球	0
护士	0
机场	0
岩石	0
干部	0
鹊	0
扩大	0
餐厅	0
今后	0
危机	0
背景	0
讲话	0
kan	0
权力	0
继承	0
氧气	0
改造	0
猫咪	0
互动	0
浴	0
浪漫	0
囊	0
多种	0
商人	0
德国	0
鹤	0
口袋	0
减肥	0
夜晚	0
贸易	0
斌	0
心脏	0
比例	0
释放	0
靠近	0
驾驶	0
成本	0
蚕	0
运气	0
家属	0
绳子	0
资产	0
感冒	0
欧阳	0
宿舍	0
农业	0
被子	0
gle	0
股份	0
盒子	0
上市	0
苏联	0
设计师	0
无奈	0
能源	0
更重	0
小美	0
腔	0
双手	0
贷款	0
栏	0
综合	0
跑步	0
自动	0
庞	0
居民	0
郡	0
买卖	0
钉	0
来源	0
体积	0
良心	0
维护	0
瓶子	0
摇头	0
失踪	0
惊讶	0
规划	0
资讯	0
梳	0
芒	0
教室	0
错过	0
亭	0
定义	0
铁路	0
承诺	0
打架	0
垫	0
个体	0
上级	0
中共	0
机械	0
缸	0
口水	0
强烈	0
自行车	0
性质	0
果实	0
牙齿	0
形容	0
村子	0
周期	0
沙发	0
紧急	0
财产	0
呈现	0
经典	0
爆发	0
艰难	0
支付	0
祝福	0
舰	0
舅舅	0
最新	0
惩罚	0
发明	0
辞职	0
犬	0
樱	0
检测	0
总统	0
勉	0
杭州	0
韦	0
成员	0
品牌	0
集合	0
悄悄地	0
培训	0
牛奶	0
母鸡	0
眨	0
癌	0
秘书	0
枕	0
纪念	0
螃蟹	0
饭店	0
水分	0
专辑	0
上升	0
化妆	0
煎	0
恐怖	0
可能性	0
展示	0
坚决	0
年级	0
相当于	0
拓	0
肿	0
运输	0
瓷	0
疾病	0
淑	0
哎哟	0
解答	0
反复	0
第五	0
网球	0
池塘	0
弟子	0
恐惧	0
土匪	0
鸟儿	0
卫星	0
出国	0
麻雀	0
部长	0
嘟嘟	0
节奏	0
思维	0
成分	0
纱	0
饺子	0
楼下	0
小组	0
秋天	0
风景	0
确保	0
巫婆	0
大笑	0
仙女	0
pha	0
角落	0
点心	0
食品	0
剥	0
大气	0
协议	0
抱怨	0
流行	0
写作	0
怡	0
转化	0
神仙	0
乡亲	0
除非	0
演技	0
商品	0
七个	0
枫	0
lph	0
主持人	0
城堡	0
盲	0
财富	0
爱人	0
塑料	0
情人	0
天生	0
广播	0
高大	0
限制	0
月球	0
alpha	0
购买	0
彩虹	0
动机	0
碑	0
呱	0
熊猫	0
胳膊	0
十一月	0
个性	0
指示	0
株	0
平静	0
迟到	0
咽	0
黑暗	0
豆腐	0
画画	0
流动	0
作家	0
粥	0
河马	0
萍	0
统治	0
耐心	0
电动	0
奋斗	0
名单	0
难度	0
烦恼	0
珍珠	0
试验	0
火箭	0
小米	0
更新	0
加班	0
对话	0
镖	0
偶像	0
怪物	0
弦	0
蜡	0
遗传	0
重力	0
太平	0
畏	0
总理	0
诗人	0
拍摄	0
人群	0
地产	0
坚强	0
下落	0
日常	0
不利	0
现有	0
梨	0
发表	0
蚊	0
曲线	0
拥抱	0
叉	0
冒险	0
免费	0
特色	0
联络	0
卓	0
伤口	0
徒弟	0
豆豆	0
斗争	0
翻译	0
香味	0
最早	0
跟踪	0
组合	0
前辈	0
ots	0
烛	0
美食	0
鸽	0
天然	0
钢琴	0
旭	0
礼貌	0
男友	0
裤子	0
西北	0
有意义	0
分布	0
蕉	0
咒	0
美人	0
服装	0
长江	0
庆祝	0
推进	0
十二月	0
侦查	0
季节	0
推出	0
对外	0
奥运	0
例子	0
基地	0
鳄	0
叠	0
分数	0
频率	0
电路	0
从不	0
钩	0
喜鹊	0
可见	0
鞭	0
官方	0
洗衣	0
裙子	0
巢	0
打扫	0
灵魂	0
流浪	0
楼上	0
漆	0
从未	0
礼拜	0
大陆	0
渴望	0
发光	0
蔬菜	0
哑	0
不当	0
anr	0
探索	0
燃烧	0
喵	0
清晰	0
金子	0
效率	0
晚饭	0
云南	0
沙漠	0
假装	0
车站	0
防止	0
电荷	0
王朝	0
耿	0
包子	0
法官	0
尹	0
宇宙	0
朴	0
僧	0
物资	0
居住	0
保留	0
泡泡	0
天津	0
柿	0
成果	0
虫子	0
长度	0
支撑	0
医学	0
大胆	0
四川	0
明知	0
原理	0
素质	0
道德	0
游击	0
仓库	0
海上	0
场景	0
脚步	0
取消	0
仪式	0
消灭	0
集体	0
引发	0
助理	0
痕迹	0
团结	0
依靠	0
守护	0
路边	0
蜀	0
愤怒	0
身高	0
弓	0
前提	0
疯狂	0
花朵	0
返回	0
官员	0
认可	0
坚定	0
牡丹	0
可可	0
补充	0
车辆	0
雁	0
定性	0
常见	0
对比	0
熙	0
橡	0
鳄鱼	0
粘	0
蕾	0
奴才	0
决赛	0
未知	0
大街	0
校园	0
喜剧	0
歌手	0
缺乏	0
星球	0
通道	0
和尚	0
焦虑	0
三角形	0
猫头鹰	0
戒指	0
恐龙	0
演戏	0
最强	0
岁月	0
受害	0
杏	0
液体	0
秃	0
女神	0
装备	0
句子	0
实践	0
透明	0
帆	0
交换	0
锤	0
歌声	0
分类	0
最佳	0
mol	0
异常	0
阶级	0
广场	0
亲密	0
爵	0
重复	0
老年	0
天鹅	0
告别	0
自私	0
传奇	0
相似	0
胡萝卜	0
依据	0
更高	0
女友	0
非洲	0
硫	0
录音	0
标志	0
司马	0
瘾	0
舔	0
平方	0
激烈	0
欢乐	0
新娘	0
电池	0
外界	0
歌曲	0
吨	0
文物	0
费用	0
同情	0
电阻	0
夫妇	0
收集	0
魔鬼	0
逻辑	0
王国	0
号码	0
重量	0
egi	0
气质	0
陕西	0
混合	0
口罩	0
模型	0
江南	0
孔雀	0
路线	0
隐藏	0
总之	0
肺炎	0
健身	0
楼梯	0
数列	0
轨道	0
皱	0
卸	0
靖	0
磁铁	0
利润	0
酒吧	0
舌头	0
股票	0
疑问	0
积累	0
郝	0
结局	0
应对	0
莓	0
土豆	0
新疆	0
第十	0
借口	0
改善	0
回复	0
好友	0
成年人	0
散步	0
发射	0
棚	0
勺	0
顺序	0
独特	0
不公	0
差异	0
农夫	0
冲突	0
浸	0
剧本	0
住院	0
详细	0
诸葛	0
季度	0
手艺	0
远方	0
证券	0
欺骗	0
辣椒	0
杯子	0
支队	0
图书	0
魅力	0
黏	0
说服	0
叙述	0
绑架	0
袜	0
詹	0
投票	0
热点	0
警告	0
博物馆	0
每当	0
自主	0
剧情	0
小偷	0
民间	0
sha	0
正面	0
货币	0
巨人	0
分配	0
公路	0
连线	0
气候	0
鱼儿	0
美味	0
增强	0
珍贵	0
义务	0
绒	0
亚洲	0
潭	0
对应	0
摩擦	0
妇女	0
成都	0
播出	0
葫芦	0
搞笑	0
传承	0
报名	0
镜头	0
蓬	0
卧室	0
框	0
和谐	0
肾	0
奇迹	0
地图	0
治理	0
消费者	0
包围	0
市长	0
扁	0
指数	0
南瓜	0
橘	0
悲伤	0
回应	0
jiu	0
赔偿	0
消耗	0
花瓣	0
人性	0
解放军	0
保卫	0
坟	0
分离	0
报复	0
花生	0
主张	0
暴力	0
湖南	0
开花	0
依赖	0
饿死	0
聚会	0
桃子	0
登记	0
出租	0
香蕉	0
钠	0
教师	0
严肃	0
菲菲	0
杀害	0
无辜	0
出院	0
打破	0
缺点	0
振动	0
孤单	0
无限	0
鲜花	0
平等	0
河南	0
浙江	0
俄罗斯	0
炸弹	0
投降	0
马车	0
火锅	0
巴巴	0
韵	0
莺	0
成人	0
发行	0
理念	0
霜	0
地铁	0
天亮	0
勋	0
樊	0
梅花	0
加工	0
发起	0
笑容	0
勉强	0
阿拉	0
[MASK]	0
<0x00>	0
<0x01>	0
<0x02>	0
<0x03>	0
<0x04>	0
<0x05>	0
<0x06>	0
<0x07>	0
<0x08>	0
<0x09>	0
<0x0A>	0
<0x0B>	0
<0x0C>	0
<0x0D>	0
<0x0E>	0
<0x0F>	0
<0x10>	0
<0x11>	0
<0x12>	0
<0x13>	0
<0x14>	0
<0x15>	0
<0x16>	0
<0x17>	0
<0x18>	0
<0x19>	0
<0x1A>	0
<0x1B>	0
<0x1C>	0
<0x1D>	0
<0x1E>	0
<0x1F>	0
<0x20>	0
<0x21>	0
<0x22>	0
<0x23>	0
<0x24>	0
<0x25>	0
<0x26>	0
<0x27>	0
<0x28>	0
<0x29>	0
<0x2A>	0
<0x2B>	0
<0x2C>	0
<0x2D>	0
<0x2E>	0
<0x2F>	0
<0x30>	0
<0x31>	0
<0x32>	0
<0x33>	0
<0x34>	0
<0x35>	0
<0x36>	0
<0x37>	0
<0x38>	0
<0x39>	0
<0x3A>	0
<0x3B>	0
<0x3C>	0
<0x3D>	0
<0x3E>	0
<0x3F>	0
<0x40>	0
<0x41>	0
<0x42>	0
<0x43>	0
<0x44>	0
<0x45>	0
<0x46>	0
<0x47>	0
<0x48>	0
<0x49>	0
<0x4A>	0
<0x4B>	0
<0x4C>	0
<0x4D>	0
<0x4E>	0
<0x4F>	0
<0x50>	0
<0x51>	0
<0x52>	0
<0x53>	0
<0x54>	0
<0x55>	0
<0x56>	0
<0x57>	0
<0x58>	0
<0x59>	0
<0x5A>	0
<0x5B>	0
<0x5C>	0
<0x5D>	0
<0x5E>	0
<0x5F>	0
<0x60>	0
<0x61>	0
<0x62>	0
<0x63>	0
<0x64>	0
<0x65>	0
<0x66>	0
<0x67>	0
<0x68>	0
<0x69>	0
<0x6A>	0
<0x6B>	0
<0x6C>	0
<0x6D>	0
<0x6E>	0
<0x6F>	0
<0x70>	0
<0x71>	0
<0x72>	0
<0x73>	0
<0x74>	0
<0x75>	0
<0x76>	0
<0x77>	0
<0x78>	0
<0x79>	0
<0x7A>	0
<0x7B>	0
<0x7C>	0
<0x7D>	0
<0x7E>	0
<0x7F>	0
<0x80>	0
<0x81>	0
<0x82>	0
<0x83>	0
<0x84>	0
<0x85>	0
<0x86>	0
<0x87>	0
<0x88>	0
<0x89>	0
<0x8A>	0
<0x8B>	0
<0x8C>	0
<0x8D>	0
<0x8E>	0
<0x8F>	0
<0x90>	0
<0x91>	0
<0x92>	0
<0x93>	0
<0x94>	0
<0x95>	0
<0x96>	0
<0x97>	0
<0x98>	0
<0x99>	0
<0x9A>	0
<0x9B>	0
<0x9C>	0
<0x9D>	0
<0x9E>	0
<0x9F>	0
<0xA0>	0
<0xA1>	0
<0xA2>	0
<0xA3>	0
<0xA4>	0
<0xA5>	0
<0xA6>	0
<0xA7>	0
<0xA8>	0
<0xA9>	0
<0xAA>	0
<0xAB>	0
<0xAC>	0
<0xAD>	0
<0xAE>	0
<0xAF>	0
<0xB0>	0
<0xB1>	0
<0xB2>	0
<0xB3>	0
<0xB4>	0
<0xB5>	0
<0xB6>	0
<0xB7>	0
<0xB8>	0
<0xB9>	0
<0xBA>	0
<0xBB>	0
<0xBC>	0
<0xBD>	0
<0xBE>	0
<0xBF>	0
<0xC0>	0
<0xC1>	0
<0xC2>	0
<0xC3>	0
<0xC4>	0
<0xC5>	0
<0xC6>	0
<0xC7>	0
<0xC8>	0
<0xC9>	0
<0xCA>	0
<0xCB>	0
<0xCC>	0
<0xCD>	0
<0xCE>	0
<0xCF>	0
<0xD0>	0
<0xD1>	0
<0xD2>	0
<0xD3>	0
<0xD4>	0
<0xD5>	0
<0xD6>	0
<0xD7>	0
<0xD8>	0
<0xD9>	0
<0xDA>	0
<0xDB>	0
<0xDC>	0
<0xDD>	0
<0xDE>	0
<0xDF>	0
<0xE0>	0
<0xE1>	0
<0xE2>	0
<0xE3>	0
<0xE4>	0
<0xE5>	0
<0xE6>	0
<0xE7>	0
<0xE8>	0
<0xE9>	0
<0xEA>	0
<0xEB>	0
<0xEC>	0
<0xED>	0
<0xEE>	0
<0xEF>	0
<0xF0>	0
<0xF1>	0
<0xF2>	0
<0xF3>	0
<0xF4>	0
<0xF5>	0
<0xF6>	0
<0xF7>	0
<0xF8>	0
<0xF9>	0
<0xFA>	0
<0xFB>	0
<0xFC>	0
<0xFD>	0
<0xFE>	0
<0xFF>	0
▁i	-0
▁.	-1
▁*	-2
en	-3
▁o	-4
er	-5
▁I	-6
▁t	-7
an	-8
▁in	-9
ar	-10
at	-11
OT	-12
MOT	-13
CH	-14
ij	-15
▁is	-16
CHI	-17
▁,	-18
st	-19
▁H	-20
▁a	-21
▁D	-22
▁to	-23
el	-24
▁W	-25
on	-26
▁m	-27
▁of	-28
es	-29
▁A	-30
or	-31
▁?	-32
ch	-33
▁M	-34
et	-35
▁T	-36
ed	-37
▁S	-38
..	-39
▁b	-40
▁B	-41
al	-42
ou	-43
it	-44
re	-45
▁J	-46
▁it	-47
ie	-48
▁E	-49
▁Ik	-50
is	-51
we	-52
om	-53
▁N	-54
in	-55
▁s	-56
▁ik	-57
▁g	-58
▁'	-59
▁G	-60
he	-61
▁op	-62
▁C	-63
▁me	-64
ll	-65
▁"	-66
▁O	-67
aar	-68
▁u	-69
▁we	-70
▁on	-71
▁d	-72
▁L	-73
▁te	-74
le	-75
ra	-76
▁P	-77
▁-	-78
▁...	-79
ro	-80
ic	-81
▁K	-82
AR	-83
▁1	-84
▁h	-85
ig	-86
▁Z	-87
▁V	-88
us	-89
oo	-90
LD	-91
▁De	-92
▁be	-93
▁z	-94
CHILD	-95
▁R	-96
ET	-97
ur	-98
and	-99
am	-100
no	-101
TAR	-102
GET	-103
TARGET	-104
▁c	-105
id	-106
la	-107
IN	-108
ve	-109
AT	-110
ER	-111
▁F	-112
▁Y	-113
INV	-114
▁Het	-115
de	-116
hat	-117
▁[	-118
▁(	-119
il	-120
ent	-121
▁p	-122
▁The	-123
$$	-124
ge	-125
▁We	-126
oe	-127
▁2	-128
▁do	-129
as	-130
ijn	-131
▁Je	-132
ion	-133
ea	-134
ee	-135
ut	-136
▁om	-137
ol	-138
▁!	-139
ke	-140
HER	-141
...	-142
oor	-143
ri	-144
te	-145
▁He	-146
ere	-147
ly	-148
cht	-149
um	-150
▁In	-151
▁zo	-152
▁En	-153
MOTHER	-154
▁hij	-155
▁Wat	-156
un	-157
ad	-158
ay	-159
lo	-160
se	-161
▁up	-162
ak	-163
ap	-164
▁st	-165
ijk	-166
je	-167
ct	-168
▁Dat	-169
gen	-170
em	-171
▁an	-172
oh	-173
eah	-174
▁n	-175
ul	-176
▁bij	-177
op	-178
na	-179
ers	-180
00	-181
▁k	-182
▁my	-183
▁Ze	-184
▁Al	-185
ken	-186
▁It	-187
▁ge	-188
ag	-189
ot	-190
▁Th	-191
be	-192
▁Hij	-193
▁go	-194
den	-195
ist	-196
▁v	-197
▁An	-198
▁You	-199
▁mijn	-200
ell	-201
ce	-202
ck	-203
▁U	-204
FAT	-205
▁St	-206
ow	-207
▁so	-208
you	-209
ik	-210
ST	-211
ru	-212
OR	-213
aan	-214
ter	-215
▁by	-216
▁19	-217
▁w	-218
what	-219
▁or	-220
ir	-221
IG	-222
."	-223
ull	-224
▁f	-225
EST	-226
ATOR	-227
ESTIG	-228
INVESTIG	-229
INVESTIGATOR	-230
li	-231
▁no	-232
to	-233
ab	-234
os	-235
ill	-236
ard	-237
▁re	-238
▁Ja	-239
ant	-240
sch	-241
ok	-242
,"	-243
yeah	-244
ia	-245
].	-246
▁Waar	-247
ma	-248
▁Als	-249
▁Maar	-250
▁Een	-251
ation	-252
od	-253
wh	-254
▁Ch	-255
ess	-256
ten	-257
ven	-258
▁j	-259
ier	-260
▁if	-261
ank	-262
ullie	-263
iet	-264
▁20	-265
ry	-266
eld	-267
ust	-268
ta	-269
ip	-270
ich	-271
ast	-272
ber	-273
est	-274
▁No	-275
ies	-276
ze	-277
--	-278
▁mij	-279
▁l	-280
ug	-281
▁And	-282
im	-283
▁·	-284
een	-285
▁Er	-286
▁Ne	-287
ne	-288
pen	-289
ien	-290
land	-291
▁con	-292
▁Hoe	-293
▁3	-294
ome	-295
▁Wh	-296
▁Nee	-297
qu	-298
mer	-299
ff	-300
▁Dit	-301
do	-302
▁jullie	-303
che	-304
▁What	-305
▁Mar	-306
▁Be	-307
▁e	-308
▁Is	-309
av	-310
▁Mr	-311
end	-312
aat	-313
▁Oh	-314
omm	-315
▁Fr	-316
▁ga	-317
if	-318
ook	-319
eren	-320
?"	-321
pe	-322
uit	-323
▁Ma	-324
!"	-325
▁r	-326
▁mee	-327
uh	-328
gel	-329
ep	-330
erd	-331
▁Kom	-332
▁我	-333
ige	-334
jes	-335
man	-336
▁sch	-337
▁into	-338
ang	-339
rij	-340
per	-341
aal	-342
all	-343
oed	-344
▁All	-345
ish	-346
ond	-347
▁But	-348
ub	-349
sen	-350
ood	-351
onna	-352
eg	-353
dat	-354
art	-355
af	-356
sp	-357
▁4	-358
me	-359
ja	-360
▁Daar	-361
▁She	-362
ste	-363
ah	-364
▁Op	-365
▁gonna	-366
ert	-367
ind	-368
ite	-369
are	-370
ob	-371
hm	-372
ca	-373
og	-374
yes	-375
my	-376
ick	-377
▁So	-378
▁5	-379
iss	-380
pt	-381
▁They	-382
sh	-383
▁Yeah	-384
use	-385
▁201	-386
什么	-387
▁am	-388
▁sp	-389
elen	-390
ort	-391
ate	-392
▁Waarom	-393
▁Sch	-394
▁Ge	-395
▁Ok	-396
▁us	-397
▁zich	-398
uur	-399
okay	-400
▁That	-401
▁Ga	-402
ord	-403
ive	-404
ity	-405
iv	-406
就是	-407
。"	-408
▁Zo	-409
acht	-410
voor	-411
ous	-412
kt	-413
▁Le	-414
oun	-415
:"	-416
iz	-417
▁Voor	-418
EA	-419
▁是	-420
▁pro	-421
▁Br	-422
ud	-423
▁Die	-424
uw	-425
}$$	-426
▁ke	-427
lijk	-428
pr	-429
▁On	-430
one	-431
ost	-432
ouw	-433
ment	-434
nen	-435
ong	-436
AD	-437
).	-438
▁Dan	-439
▁This	-440
▁To	-441
-1	-442
bo	-443
ss	-444
oc	-445
ische	-446
▁Jij	-447
没有	-448
aten	-449
▁Heb	-450
我们	-451
▁200	-452
ans	-453
$$\	-454
ugh	-455
{{	-456
our	-457
ker	-458
▁ch	-459
ary	-460
kom	-461
▁Sp	-462
ts	-463
▁了	-464
TEA	-465
▁(1	-466
▁Me	-467
AN	-468
ty	-469
omp	-470
▁Ver	-471
▁Ben	-472
▁Un	-473
tje	-474
▁Sh	-475
mp	-476
▁Amer	-477
up	-478
▁Niet	-479
atie	-480
▁Well	-481
ië	-482
ure	-483
▁Hier	-484
ele	-485
let	-486
lu	-487
ore	-488
ble	-489
els	-490
▁Goed	-491
▁God	-492
eden	-493
ster	-494
▁Ar	-495
▁keer	-496
EN	-497
look	-498
可以	-499
elijk	-500
▁There	-501
men	-502
▁6	-503
▁toen	-504
where	-505
}}	-506
▁un	-507
▁\	-508
ld	-509
ek	-510
PAR	-511
▁Mijn	-512
les	-513
▁sc	-514
ac	-515
▁dus	-516
▁Wel	-517
wer	-518
▁ra	-519
ide	-520
icht	-521
▁的	-522
but	-523
esch	-524
io	-525
cause	-526
ally	-527
▁Laat	-528
oll	-529
ey	-530
▁18	-531
van	-532
ton	-533
ai	-534
▁个	-535
▁Af	-536
lij	-537
dy	-538
can	-539
uk	-540
▁toe	-541
well	-542
▁Wil	-543
oel	-544
▁ont	-545
ren	-546
so	-547
ice	-548
.'	-549
cent	-550
zen	-551
▁Yes	-552
▁Wie	-553
rie	-554
mm	-555
▁ano	-556
eds	-557
len	-558
ger	-559
▁Kijk	-560
,'	-561
▁Lu	-562
▁ste	-563
veel	-564
ks	-565
du	-566
不是	-567
20	-568
▁ex	-569
妈妈	-570
by	-571
row	-572
▁Om	-573
ated	-574
heid	-575
▁vast	-576
ron	-577
ese	-578
▁7	-579
ance	-580
laugh	-581
isch	-582
orm	-583
int	-584
▁Deze	-585
ise	-586
ale	-587
▁Ro	-588
here	-589
hou	-590
als	-591
000	-592
▁Re	-593
eef	-594
CHER	-595
orry	-596
▁y	-597
of	-598
▁staan	-599
TEACHER	-600
oek	-601
ool	-602
ave	-603
▁Do	-604
ons	-605
),	-606
▁Met	-607
ps	-608
ward	-609
oord	-610
▁lig	-611
ib	-612
maal	-613
▁8	-614
ins	-615
▁Van	-616
ADU	-617
rs	-618
▁le	-619
▁steeds	-620
ina	-621
ink	-622
▁Pr	-623
act	-624
ire	-625
▁Mo	-626
▁Weet	-627
ister	-628
orn	-629
gh	-630
.]	-631
red	-632
▁Oké	-633
▁ac	-634
▁Nu	-635
▁Hou	-636
▁10	-637
ged	-638
ach	-639
▁uh	-640
▁Dus	-641
mo	-642
ont	-643
mhm	-644
怎么	-645
zo	-646
enn	-647
able	-648
▁isn	-649
ww	-650
ue	-651
▁If	-652
rop	-653
ult	-654
huh	-655
rist	-656
▁wij	-657
wat	-658
ens	-659
age	-660
▁Geef	-661
{2	-662
▁Don	-663
aw	-664
ohn	-665
ict	-666
时候	-667
▁ar	-668
EX	-669
▁How	-670
issch	-671
unt	-672
org	-673
wo	-674
vol	-675
co	-676
ummy	-677
".	-678
ft	-679
ass	-680
ph	-681
out	-682
beeld	-683
racht	-684
▁Pro	-685
au	-686
▁sh	-687
IS	-688
▁对	-689
▁As	-690
II	-691
▁Hal	-692
▁Car	-693
EXP	-694
vo	-695
ial	-696
app	-697
isschien	-698
▁New	-699
▁Bij	-700
eter	-701
▁9	-702
igen	-703
▁好	-704
waar	-705
now	-706
ely	-707
ief	-708
ican	-709
oot	-710
▁John	-711
▁在	-712
laughs	-713
▁Maak	-714
▁•	-715
ets	-716
▁他	-717
▁Of	-718
▁Eu	-719
pla	-720
ame	-721
",	-722
FATHER	-723
ds	-724
fe	-725
bij	-726
ark	-727
uck	-728
LT	-729
beur	-730
▁199	-731
▁comp	-732
▁Misschien	-733
▁嗯	-734
go	-735
ors	-736
▁不	-737
br	-738
ates	-739
▁Let	-740
▁Te	-741
zet	-742
▁la	-743
bru	-744
led	-745
ase	-746
▁pr	-747
nd	-748
cy	-749
ner	-750
oop	-751
she	-752
pro	-753
▁Will	-754
die	-755
uss	-756
▁啊	-757
▁Har	-758
▁有	-759
ny	-760
ADULT	-761
The	-762
▁ad	-763
mak	-764
RO	-765
ijd	-766
ork	-767
▁Doe	-768
ran	-769
put	-770
▁When	-771
elf	-772
ijke	-773
▁_	-774
▁15	-775
itt	-776
▁At	-777
sten	-778
▁ro	-779
ied	-780
▁Then	-781
ions	-782
▁Sorry	-783
▁gebeur	-784
▁gewe	-785
ius	-786
▁Na	-787
lie	-788
omen	-789
▁inst	-790
kken	-791
po	-792
▁Man	-793
not	-794
ree	-795
old	-796
enk	-797
▁Q	-798
▁Now	-799
▁Geen	-800
ile	-801
wa	-802
wel	-803
▁Why	-804
▁Hel	-805
▁$$	-806
▁Miss	-807
▁Jan	-808
▁Can	-809
▁Ind	-810
amp	-811
who	-812
觉得	-813
的是	-814
nie	-815
wij	-816
oren	-817
▁Jack	-818
ited	-819
▁TH	-820
▁Se	-821
▁X	-822
▁Nou	-823
ba	-824
▁就	-825
▁res	-826
▁题	-827
come	-828
▁Ook	-829
emen	-830
▁Jo	-831
▁Dank	-832
ful	-833
ys	-834
rm	-835
how	-836
▁Bed	-837
▁geweest	-838
ough	-839
▁Vol	-840
▁Mrs	-841
▁Christ	-842
?'	-843
gens	-844
▁pre	-845
sk	-846
▁$	-847
ha	-848
da	-849
▁Gre	-850
▁Ex	-851
▁看	-852
▁Ste	-853
▁Hallo	-854
▁Bel	-855
▁For	-856
▁)	-857
rat	-858
bs	-859
ama	-860
za	-861
kijk	-862
ves	-863
▁My	-864
1.	-865
MA	-866
ram	-867
▁em	-868
▁Wacht	-869
▁Hey	-870
▁Sam	-871
ef	-872
▁tr	-873
did	-874
▁Sc	-875
▁Par	-876
▁Her	-877
elijke	-878
son	-879
▁Frank	-880
▁ie	-881
bur	-882
ium	-883
▁Jullie	-884
get	-885
rijf	-886
▁Mag	-887
ical	-888
正确	-889
oof	-890
ness	-891
ica	-892
▁12	-893
▁Zijn	-894
ily	-895
door	-896
起来	-897
geb	-898
oog	-899
bel	-900
ory	-901
$$,	-902
▁=	-903
hu	-904
ations	-905
ces	-906
▁um	-907
gr	-908
mee	-909
ould	-910
addy	-911
▁198	-912
ns	-913
day	-914
lag	-915
▁Eng	-916
▁什么	-917
raag	-918
▁May	-919
why	-920
▁Ho	-921
ett	-922
▁Toen	-923
▁Come	-924
val	-925
iteit	-926
eid	-927
erde	-928
sc	-929
pp	-930
don	-931
baar	-932
ley	-933
▁ple	-934
所以	-935
到了	-936
▁kn	-937
▁oh	-938
gaan	-939
▁Am	-940
rit	-941
▁ligt	-942
appen	-943
▁$$\	-944
sel	-945
oos	-946
ction	-947
nt	-948
ler	-949
ga	-950
▁Bo	-951
▁Ger	-952
iel	-953
0.	-954
▁El	-955
▁Was	-956
tain	-957
▁17	-958
▁upon	-959
▁hav	-960
ara	-961
1:	-962
tre	-963
}_	-964
▁Go	-965
lan	-966
aanse	-967
idd	-968
▁Okay	-969
}{	-970
▁Aan	-971
ild	-972
EL	-973
aard	-974
ident	-975
ral	-976
ris	-977
▁Hé	-978
▁Nor	-979
rum	-980
eten	-981
afta	-982
ankt	-983
less	-984
min	-985
▁comm	-986
air	-987
▁Nat	-988
way	-989
▁beh	-990
▁Char	-991
▁ne	-992
omas	-993
4.	-994
▁Just	-995
uff	-996
▁16	-997
▁Ph	-998
▁Wij	-999
▁Duit	-1000
elt	-1001
▁197	-1002
rouw	-1003
SIS	-1004
▁Ad	-1005
▁United	-1006
rijk	-1007
的时候	-1008
▁hafta	-1009
▁Bedankt	-1010
ious	-1011
▁Kan	-1012
ix	-1013
▁American	-1014
kk	-1015
komen	-1016
▁Zeg	-1017
▁ve	-1018
▁202	-1019
low	-1020
▁Or	-1021
GMA	-1022
You	-1023
▁Ed	-1024
▁Some	-1025
lex	-1026
▁Pa	-1027
gro	-1028
▁Gr	-1029
iek	-1030
▁ru	-1031
▁Bob	-1032
olog	-1033
bod	-1034
我的	-1035
▁:	-1036
uid	-1037
▁li	-1038
▁Con	-1039
▁Lo	-1040
eel	-1041
2.	-1042
aren	-1043
akt	-1044
its	-1045
OU	-1046
oss	-1047
▁Bar	-1048
erv	-1049
uren	-1050
出来	-1051
▁要	-1052
ush	-1053
爸爸	-1054
voorbeeld	-1055
for	-1056
▁Kun	-1057
▁Fran	-1058
▁Amerik	-1059
ommy	-1060
{1	-1061
▁Zij	-1062
ames	-1063
chten	-1064
▁Twe	-1065
3.	-1066
ON	-1067
▁Wik	-1068
bb	-1069
oud	-1070
wor	-1071
0,	-1072
}^	-1073
ats	-1074
▁Bra	-1075
ics	-1076
▁Laten	-1077
ple	-1078
ern	-1079
▁Nie	-1080
▁Tom	-1081
cle	-1082
lish	-1083
▁Alles	-1084
ude	-1085
▁Brit	-1086
▁His	-1087
▁Door	-1088
log	-1089
都是	-1090
▁Mm	-1091
▁Tot	-1092
mber	-1093
alen	-1094
▁Who	-1095
----	-1096
Oh	-1097
!'	-1098
ars	-1099
||	-1100
werk	-1101
▁inter	-1102
ike	-1103
▁196	-1104
▁Per	-1105
▁Gro	-1106
▁Gel	-1107
mon	-1108
▁imp	-1109
va	-1110
▁tra	-1111
ellen	-1112
inc	-1113
open	-1114
▁qu	-1115
res	-1116
maar	-1117
▁Qu	-1118
▁Ra	-1119
ator	-1120
woord	-1121
▁aard	-1122
▁gebeurd	-1123
▁Mummy	-1124
aa	-1125
ids	-1126
ING	-1127
It	-1128
vel	-1129
▁..	-1130
hi	-1131
▁York	-1132
ound	-1133
▁THE	-1134
▁Not	-1135
▁Welke	-1136
read	-1137
▁One	-1138
ho	-1139
真的	-1140
www	-1141
▁Schrijf	-1142
ung	-1143
bert	-1144
zz	-1145
net	-1146
▁La	-1147
une	-1148
ald	-1149
▁Ju	-1150
▁lo	-1151
可是	-1152
GR	-1153
▁11	-1154
▁Ha	-1155
ted	-1156
staan	-1157
▁Nog	-1158
We	-1159
▁sk	-1160
▁Where	-1161
gy	-1162
amer	-1163
iam	-1164
Ik	-1165
▁Su	-1166
bruik	-1167
▁com	-1168
▁Gra	-1169
▁Denk	-1170
▁Stop	-1171
ific	-1172
lijf	-1173
lad	-1174
ES	-1175
rik	-1176
cc	-1177
igd	-1178
las	-1179
tin	-1180
esp	-1181
vis	-1182
▁States	-1183
▁Dr	-1184
lor	-1185
orgen	-1186
uurlijk	-1187
ead	-1188
▁Gen	-1189
ition	-1190
bed	-1191
▁Bill	-1192
▁194	-1193
▁Ter	-1194
▁CHI	-1195
sy	-1196
see	-1197
��	-1198
off	-1199
▁Are	-1200
oem	-1201
▁Omdat	-1202
▁呢	-1203
stel	-1204
con	-1205
▁Luister	-1206
att	-1207
body	-1208
inn	-1209
▁Good	-1210
▁Neem	-1211
▁opge	-1212
▁Thomas	-1213
▁ha	-1214
▁Ie	-1215
▁Jap	-1216
bab	-1217
tjes	-1218
▁sub	-1219
ross	-1220
BRO	-1221
▁II	-1222
'.	-1223
ped	-1224
ye	-1225
ade	-1226
▁Europ	-1227
▁Engel	-1228
ney	-1229
ries	-1230
hel	-1231
und	-1232
▁Joe	-1233
▁toward	-1234
▁conf	-1235
cl	-1236
own	-1237
ede	-1238
▁plek	-1239
▁rel	-1240
bro	-1241
arm	-1242
▁Lees	-1243
▁str	-1244
▁Wer	-1245
ain	-1246
▁14	-1247
▁mo	-1248
▁Jim	-1249
isten	-1250
▁Kenn	-1251
gan	-1252
her	-1253
▁Jon	-1254
oon	-1255
ities	-1256
ras	-1257
▁hè	-1258
And	-1259
▁Echt	-1260
lic	-1261
ec	-1262
bank	-1263
No	-1264
▁Coun	-1265
pect	-1266
▁25	-1267
▁Comm	-1268
▁13	-1269
▁sn	-1270
▁co	-1271
▁Look	-1272
▁Fe	-1273
heen	-1274
ui	-1275
ooi	-1276
▁el	-1277
tra	-1278
▁bijvoorbeeld	-1279
bouw	-1280
ence	-1281
ico	-1282
▁Aust	-1283
10	-1284
不能	-1285
▁Wal	-1286
oms	-1287
ille	-1288
▁sur	-1289
▁195	-1290
▁Japan	-1291
hy	-1292
dra	-1293
like	-1294
urs	-1295
▁Zie	-1296
▁Cap	-1297
▁x	-1298
▁acc	-1299
erst	-1300
good	-1301
▁After	-1302
▁Wi	-1303
LO	-1304
▁Leg	-1305
▁Uit	-1306
ony	-1307
▁Bla	-1308
▁besch	-1309
more	-1310
rd	-1311
bor	-1312
was	-1313
ieren	-1314
ham	-1315
▁sy	-1316
▁Co	-1317
Yes	-1318
ack	-1319
just	-1320
▁vis	-1321
▁im	-1322
pec	-1323
▁German	-1324
allen	-1325
riend	-1326
stand	-1327
▁Cal	-1328
ges	-1329
▁Stap	-1330
▁Did	-1331
ls	-1332
orge	-1333
ember	-1334
▁到	-1335
▁Dav	-1336
ake	-1337
itie	-1338
igde	-1339
来了	-1340
▁Ital	-1341
▁Mich	-1342
▁Alleen	-1343
▁ri	-1344
▁Men	-1345
because	-1346
▁Duits	-1347
▁bev	-1348
ED	-1349
gra	-1350
▁Wan	-1351
head	-1352
lf	-1353
▁able	-1354
▁Blijf	-1355
bre	-1356
mi	-1357
duct	-1358
landse	-1359
mand	-1360
▁Daddy	-1361
ced	-1362
ational	-1363
-2	-1364
▁#	-1365
▁Kl	-1366
met	-1367
▁ged	-1368
▁Wor	-1369
▁Bro	-1370
ement	-1371
str	-1372
UR	-1373
▁dicht	-1374
▁War	-1375
▁Gu	-1376
{2}}	-1377
MCH	-1378
ign	-1379
ater	-1380
▁liggen	-1381
houden	-1382
What	-1383
▁Peter	-1384
▁Sa	-1385
2:	-1386
▁30	-1387
Th	-1388
Well	-1389
.$$	-1390
oen	-1391
▁我们	-1392
▁ger	-1393
ism	-1394
▁cons	-1395
▁Ab	-1396
▁Sou	-1397
▁100	-1398
▁Rome	-1399
schap	-1400
▁Cl	-1401
▁Sy	-1402
▁rec	-1403
regen	-1404
上的	-1405
▁Veel	-1406
hey	-1407
▁haal	-1408
▁Verd	-1409
▁下	-1410
▁Pol	-1411
ose	-1412
▁1.	-1413
én	-1414
因此	-1415
lip	-1416
▁嗯嗯	-1417
nel	-1418
ient	-1419
isme	-1420
30	-1421
不知	-1422
ov	-1423
que	-1424
ship	-1425
▁Natuurlijk	-1426
ei	-1427
NAN	-1428
1,	-1429
gre	-1430
ular	-1431
▁Ah	-1432
▁fl	-1433
▁zoveel	-1434
sl	-1435
▁ab	-1436
dom	-1437
burg	-1438
▁Em	-1439
▁Euro	-1440
▁happen	-1441
nes	-1442
▁Vert	-1443
▁di	-1444
pers	-1445
IT	-1446
mie	-1447
nam	-1448
▁English	-1449
▁Daarom	-1450
olly	-1451
不会	-1452
▁Alex	-1453
avond	-1454
▁2020	-1455
ump	-1456
▁ges	-1457
▁Russ	-1458
▁Volgens	-1459
AL	-1460
lak	-1461
▁Col	-1462
aart	-1463
But	-1464
tern	-1465
lant	-1466
▁Min	-1467
ctor	-1468
▁Pres	-1469
zij	-1470
geven	-1471
▁West	-1472
bare	-1473
▁Meer	-1474
看到	-1475
CD	-1476
haal	-1477
▁&	-1478
room	-1479
▁ind	-1480
▁Kennis	-1481
{{{	-1482
▁ins	-1483
▁Tur	-1484
dracht	-1485
▁MOT	-1486
zien	-1487
omme	-1488
▁(19	-1489
▁Zet	-1490
Mummy	-1491
▁去	-1492
{2}	-1493
2)	-1494
gs	-1495
ogra	-1496
▁Pap	-1497
▁int	-1498
▁来	-1499
▁che	-1500
=\	-1501
bal	-1502
anda	-1503
▁Mc	-1504
rab	-1505
iden	-1506
ky	-1507
iger	-1508
中的	-1509
5.	-1510
▁du	-1511
▁wou	-1512
▁Your	-1513
lim	-1514
midd	-1515
press	-1516
4)	-1517
oten	-1518
▁Rep	-1519
走了	-1520
los	-1521
oeg	-1522
▁Here	-1523
▁Get	-1524
▁Paul	-1525
born	-1526
}$$,	-1527
▁George	-1528
▁Pak	-1529
reek	-1530
AP	-1531
▁wh	-1532
weg	-1533
▁noemen	-1534
ract	-1535
▁Span	-1536
2,	-1537
▁/	-1538
▁Gebruik	-1539
▁上	-1540
ijs	-1541
het	-1542
▁它	-1543
uil	-1544
atter	-1545
ada	-1546
▁故	-1547
样的	-1548
houd	-1549
▁pl	-1550
▁mon	-1551
▁Mon	-1552
▁da	-1553
tie	-1554
▁zodat	-1555
Uh	-1556
DAD	-1557
50	-1558
iets	-1559
▁inc	-1560
rown	-1561
▁Beeld	-1562
▁across	-1563
▁School	-1564
▁Bet	-1565
▁cre	-1566
rt	-1567
huis	-1568
irst	-1569
{}$$	-1570
UN	-1571
▁Heel	-1572
▁1,	-1573
▁By	-1574
▁rem	-1575
ussen	-1576
ijden	-1577
ax	-1578
ince	-1579
▁France	-1580
▁+	-1581
▁Want	-1582
gie	-1583
iff	-1584
▁呀	-1585
▁Pe	-1586
▁Niemand	-1587
ana	-1588
cept	-1589
rel	-1590
ruct	-1591
gu	-1592
gest	-1593
form	-1594
lam	-1595
ford	-1596
lue	-1597
mas	-1598
boek	-1599
key	-1600
worden	-1601
Yeah	-1602
zicht	-1603
▁vo	-1604
voc	-1605
ench	-1606
▁Moet	-1607
lay	-1608
bli	-1609
lot	-1610
uld	-1611
ardon	-1612
▁Best	-1613
gev	-1614
▁Kon	-1615
bye	-1616
1)	-1617
innen	-1618
▁trans	-1619
▁World	-1620
ben	-1621
some	-1622
lfde	-1623
does	-1624
aur	-1625
▁就是	-1626
▁Jul	-1627
▁24	-1628
▁Phil	-1629
ete	-1630
pos	-1631
▁Wa	-1632
That	-1633
▁193	-1634
zak	-1635
hal	-1636
▁cra	-1637
ijf	-1638
▁Ken	-1639
AND	-1640
▁Rob	-1641
▁0	-1642
ew	-1643
▁Act	-1644
tr	-1645
▁bl	-1646
ched	-1647
ute	-1648
ible	-1649
▁Uni	-1650
MAR	-1651
ield	-1652
▁Gaat	-1653
▁Pat	-1654
rew	-1655
9.	-1656
▁hy	-1657
ieve	-1658
5)	-1659
oman	-1660
▁是啊	-1661
▁geworden	-1662
RI	-1663
▁Mary	-1664
▁sche	-1665
ng	-1666
▁gest	-1667
ution	-1668
▁Harry	-1669
▁Lou	-1670
不好	-1671
anc	-1672
entie	-1673
▁Europe	-1674
dien	-1675
▁Even	-1676
ann	-1677
▁Veren	-1678
6.	-1679
have	-1680
▁Net	-1681
▁David	-1682
ott	-1683
jebli	-1684
uhhuh	-1685
com	-1686
rag	-1687
▁Hoeveel	-1688
uis	-1689
12	-1690
▁gesch	-1691
8.	-1692
erm	-1693
ugust	-1694
uary	-1695
▁French	-1696
bra	-1697
ved	-1698
▁tri	-1699
dr	-1700
gt	-1701
▁sl	-1702
▁sw	-1703
test	-1704
▁50	-1705
7.	-1706
gar	-1707
zer	-1708
▁These	-1709
He	-1710
ative	-1711
▁Grand	-1712
▁Zoals	-1713
▁Twee	-1714
▁Bekijk	-1715
19	-1716
umb	-1717
▁Ke	-1718
▁Dag	-1719
lect	-1720
rek	-1721
nou	-1722
▁Ser	-1723
when	-1724
fect	-1725
▁Bur	-1726
ipp	-1727
▁ph	-1728
▁among	-1729
etje	-1730
3,	-1731
PAT	-1732
]?	-1733
ID	-1734
uf	-1735
ban	-1736
water	-1737
3)	-1738
ullen	-1739
eek	-1740
ope	-1741
▁squ	-1742
ray	-1743
▁Exc	-1744
De	-1745
▁Sw	-1746
komt	-1747
hoog	-1748
▁给	-1749
ael	-1750
▁zult	-1751
▁pol	-1752
zie	-1753
▁IN	-1754
▁Ple	-1755
18	-1756
▁id	-1757
▁James	-1758
amen	-1759
ën	-1760
dru	-1761
ya	-1762
7)	-1763
ball	-1764
▁August	-1765
sla	-1766
▁2.	-1767
tur	-1768
ino	-1769
▁Sim	-1770
wi	-1771
ube	-1772
ery	-1773
want	-1774
uiten	-1775
two	-1776
eest	-1777
elde	-1778
isc	-1779
▁Val	-1780
fer	-1781
▁Because	-1782
aars	-1783
raat	-1784
gas	-1785
▁Naar	-1786
lock	-1787
▁ele	-1788
lands	-1789
▁ya	-1790
▁Pas	-1791
▁gel	-1792
▁Alsjebli	-1793
mb	-1794
▁Pre	-1795
▁gebeuren	-1796
▁Mad	-1797
▁March	-1798
▁Alle	-1799
▁Daarna	-1800
pres	-1801
pril	-1802
▁Ber	-1803
▁bes	-1804
看看	-1805
heden	-1806
▁cur	-1807
▁Part	-1808
▁Amerikaanse	-1809
▁whe	-1810
alk	-1811
ully	-1812
dag	-1813
▁Austral	-1814
▁Sir	-1815
ists	-1816
▁把	-1817
ummer	-1818
▁June	-1819
par	-1820
▁San	-1821
下来	-1822
wan	-1823
▁sal	-1824
ents	-1825
rift	-1826
eep	-1827
▁Kar	-1828
ittle	-1829
15	-1830
ikk	-1831
oorden	-1832
dan	-1833
chter	-1834
aut	-1835
▁Lea	-1836
gang	-1837
rip	-1838
friend	-1839
bl	-1840
▁Help	-1841
▁III	-1842
▁January	-1843
▁Vertel	-1844
▁Goo	-1845
inds	-1846
rim	-1847
▁Tra	-1848
aam	-1849
aden	-1850
kend	-1851
▁bo	-1852
ried	-1853
lei	-1854
▁commun	-1855
tor	-1856
▁没	-1857
alr	-1858
▁Rust	-1859
maken	-1860
▁vent	-1861
16	-1862
▁mer	-1863
ual	-1864
9,	-1865
SI	-1866
uc	-1867
▁Cent	-1868
aps	-1869
▁Che	-1870
lijke	-1871
▁Den	-1872
epte	-1873
▁Captain	-1874
deel	-1875
里的	-1876
▁Va	-1877
LOI	-1878
ured	-1879
CDS	-1880
}_{	-1881
TER	-1882
board	-1883
▁Dec	-1884
▁Jer	-1885
mar	-1886
▁DE	-1887
itch	-1888
ni	-1889
好的	-1890
▁eh	-1891
daan	-1892
▁British	-1893
ants	-1894
ration	-1895
▁(2	-1896
▁Hi	-1897
出了	-1898
▁Ear	-1899
▁AN	-1900
▁kost	-1901
tar	-1902
▁Eén	-1903
▁stra	-1904
rom	-1905
rn	-1906
▁Sar	-1907
war	-1908
▁Mer	-1909
▁organ	-1910
cel	-1911
ils	-1912
any	-1913
zelf	-1914
fin	-1915
abel	-1916
vi	-1917
▁cor	-1918
▁Rich	-1919
▁kl	-1920
izen	-1921
maakt	-1922
▁YOU	-1923
▁Bon	-1924
▁Toch	-1925
▁Vraag	-1926
ives	-1927
gelopen	-1928
3:	-1929
▁ref	-1930
▁President	-1931
.000	-1932
▁City	-1933
▁Hen	-1934
ex	-1935
pa	-1936
ijnen	-1937
sity	-1938
yy	-1939
edia	-1940
7,	-1941
ka	-1942
selves	-1943
ded	-1944
pak	-1945
cto	-1946
▁CH	-1947
▁China	-1948
▁sta	-1949
▁Oost	-1950
▁Da	-1951
OM	-1952
为了	-1953
leed	-1954
▁ant	-1955
▁sm	-1956
分之	-1957
▁ed	-1958
▁gem	-1959
▁Sun	-1960
ept	-1961
berg	-1962
ala	-1963
makes	-1964
▁April	-1965
进行	-1966
olle	-1967
▁Staten	-1968
▁Red	-1969
AS	-1970
oofd	-1971
stuk	-1972
▁Max	-1973
▁Noord	-1974
我就	-1975
tijd	-1976
▁Zelf	-1977
naam	-1978
▁ba	-1979
enten	-1980
40	-1981
$${	-1982
▁Duitsland	-1983
FCH	-1984
8,	-1985
▁Europa	-1986
IJ	-1987
▁Mama	-1988
vember	-1989
▁Please	-1990
▁Mil	-1991
▁Repub	-1992
▁William	-1993
fen	-1994
slag	-1995
ctober	-1996
eptember	-1997
ches	-1998
▁Erm	-1999
ko	-2000
ric	-2001
▁Uh	-2002
blad	-2003
name	-2004
gaat	-2005
ikt	-2006
▁192	-2007
vin	-2008
ison	-2009
kw	-2010
ograph	-2011
▁aardig	-2012
part	-2013
▁noem	-2014
▁County	-2015
▁se	-2016
▁妈妈	-2017
bar	-2018
▁Mal	-2019
oorlog	-2020
reet	-2021
ragen	-2022
▁bu	-2023
▁kw	-2024
▁Zou	-2025
6,	-2026
▁Pri	-2027
▁Have	-2028
may	-2029
gave	-2030
uz	-2031
ulp	-2032
▁Had	-2033
gelijk	-2034
}\	-2035
▁England	-2036
▁都	-2037
LL	-2038
goed	-2039
▁Black	-2040
看了	-2041
▁Cla	-2042
leg	-2043
于是	-2044
▁Tim	-2045
▁Verenigde	-2046
ieten	-2047
}^{2}}	-2048
▁Mark	-2049
14	-2050
port	-2051
▁Haar	-2052
dam	-2053
▁Onze	-2054
ift	-2055
▁Lord	-2056
llen	-2057
oeken	-2058
beer	-2059
illa	-2060
▁Li	-2061
▁Zuid	-2062
bu	-2063
irt	-2064
▁怎么	-2065
▁会	-2066
▁哦	-2067
▁cos	-2068
rijven	-2069
6)	-2070
5,	-2071
60	-2072
▁bre	-2073
ints	-2074
play	-2075
cri	-2076
ned	-2077
▁fe	-2078
▁吗	-2079
ule	-2080
hol	-2081
ari	-2082
ekst	-2083
{\	-2084
akes	-2085
▁Rustig	-2086
▁November	-2087
▁See	-2088
hello	-2089
▁October	-2090
uin	-2091
8)	-2092
ondon	-2093
▁讲	-2094
ira	-2095
▁December	-2096
▁September	-2097
oort	-2098
▁East	-2099
▁July	-2100
nis	-2101
ash	-2102
▁对啊	-2103
▁TO	-2104
▁bla	-2105
▁Mom	-2106
▁Michael	-2107
bla	-2108
plo	-2109
厉害	-2110
▁Belg	-2111
▁Any	-2112
▁Soms	-2113
emand	-2114
-19	-2115
stit	-2116
▁Frankrijk	-2117
olf	-2118
rot	-2119
uwen	-2120
nor	-2121
IE	-2122
▁Cor	-2123
pel	-2124
我觉得	-2125
fore	-2126
bruary	-2127
leid	-2128
▁Tr	-2129
ooh	-2130
lymp	-2131
▁br	-2132
9)	-2133
oy	-2134
▁Vooruit	-2135
▁conc	-2136
ox	-2137
which	-2138
ments	-2139
eh	-2140
zetten	-2141
eer	-2142
ilm	-2143
PO	-2144
oops	-2145
del	-2146
mel	-2147
lopen	-2148
▁很	-2149
ane	-2150
vent	-2151
▁Hoi	-2152
▁Billy	-2153
▁Ri	-2154
ually	-2155
gesch	-2156
▁hor	-2157
ene	-2158
ida	-2159
去了	-2160
▁Wees	-2161
▁sol	-2162
▁Tweede	-2163
▁再	-2164
ffen	-2165
▁Sal	-2166
▁Hello	-2167
doen	-2168
ula	-2169
▁tw	-2170
▁Somm	-2171
▁shut	-2172
▁Mex	-2173
▁London	-2174
▁Tekst	-2175
moet	-2176
▁Mor	-2177
告诉	-2178
zel	-2179
lang	-2180
ror	-2181
▁Ru	-2182
$${{	-2183
zus	-2184
wezen	-2185
kker	-2186
yn	-2187
ility	-2188
▁Du	-2189
不要	-2190
▁towards	-2191
▁Mensen	-2192
epen	-2193
wood	-2194
ano	-2195
',	-2196
▁Dor	-2197
▁Iemand	-2198
▁OK	-2199
▁med	-2200
vest	-2201
inner	-2202
staat	-2203
cher	-2204
会儿	-2205
llust	-2206
▁Vind	-2207
▁Gar	-2208
▁Tijd	-2209
schijn	-2210
vrouw	-2211
ize	-2212
ret	-2213
box	-2214
sit	-2215
▁3.	-2216
will	-2217
▁40	-2218
▁Christmas	-2219
niet	-2220
gene	-2221
▁Zoek	-2222
▁吧	-2223
onen	-2224
aken	-2225
▁Dra	-2226
▁Charlie	-2227
▁February	-2228
ams	-2229
ized	-2230
▁prom	-2231
4,	-2232
ston	-2233
tv	-2234
rick	-2235
▁Mooi	-2236
▁Gener	-2237
▁Olymp	-2238
kl	-2239
side	-2240
orrow	-2241
wege	-2242
med	-2243
rust	-2244
▁Afr	-2245
▁bi	-2246
ently	-2247
▁From	-2248
▁prof	-2249
icular	-2250
▁lu	-2251
▁21	-2252
punt	-2253
▁India	-2254
GRA	-2255
vorm	-2256
komst	-2257
ior	-2258
zorg	-2259
▁Mommy	-2260
▁Fre	-2261
sterd	-2262
vie	-2263
▁cont	-2264
ically	-2265
En	-2266
..."	-2267
▁Lee	-2268
▁ahead	-2269
▁instead	-2270
▁Wereld	-2271
▁Zorg	-2272
ages	-2273
ople	-2274
▁Ca	-2275
▁ontstaan	-2276
▁Maybe	-2277
lies	-2278
▁Noem	-2279
▁worry	-2280
emaal	-2281
▁Dad	-2282
--------	-2283
▁Port	-2284
LA	-2285
RE	-2286
▁Richard	-2287
vocal	-2288
▁Excuse	-2289
ws	-2290
ila	-2291
Ch	-2292
▁omhoog	-2293
kte	-2294
hoor	-2295
过来	-2296
▁tre	-2297
ished	-2298
▁Ten	-2299
car	-2300
eak	-2301
spel	-2302
意思	-2303
▁pri	-2304
▁Ros	-2305
▁Com	-2306
haald	-2307
▁Verdomme	-2308
gels	-2309
▁22	-2310
▁所以	-2311
▁National	-2312
cer	-2313
▁zom	-2314
ita	-2315
fully	-2316
ffe	-2317
▁cl	-2318
atur	-2319
ace	-2320
tel	-2321
ught	-2322
NA	-2323
▁没有	-2324
-9	-2325
▁tv	-2326
▁zoiets	-2327
vang	-2328
▁Stel	-2329
▁Air	-2330
▁Cle	-2331
▁YouT	-2332
rap	-2333
arch	-2334
11	-2335
$$.	-2336
kracht	-2337
▁zul	-2338
▁Anna	-2339
▁Jezus	-2340
▁Robert	-2341
ail	-2342
{3	-2343
▁Haal	-2344
▁es	-2345
urry	-2346
itten	-2347
nem	-2348
loos	-2349
突然	-2350
▁reg	-2351
▁Mat	-2352
aties	-2353
▁Uw	-2354
rif	-2355
uig	-2356
▁Win	-2357
▁拿	-2358
zaam	-2359
iforn	-2360
▁Grie	-2361
▁Mam	-2362
kel	-2363
stof	-2364
▁Helen	-2365
zijn	-2366
▁Ham	-2367
rid	-2368
▁2,	-2369
wijk	-2370
▁Egy	-2371
udd	-2372
enen	-2373
cade	-2374
cis	-2375
▁Howe	-2376
▁OF	-2377
leur	-2378
▁Zw	-2379
▁Bere	-2380
▁gep	-2381
Dat	-2382
70	-2383
your	-2384
ipedia	-2385
Wat	-2386
reven	-2387
product	-2388
▁Great	-2389
好了	-2390
icks	-2391
▁23	-2392
staa	-2393
nemen	-2394
▁YouTube	-2395
gue	-2396
▁("	-2397
uwe	-2398
uel	-2399
hrm	-2400
raser	-2401
▁Niets	-2402
kop	-2403
▁bew	-2404
出现	-2405
say	-2406
▁km	-2407
maybe	-2408
xt	-2409
▁Californ	-2410
ject	-2411
ijdens	-2412
sta	-2413
▁Wikipedia	-2414
▁Ag	-2415
▁stel	-2416
zon	-2417
▁Amerika	-2418
raal	-2419
▁har	-2420
hij	-2421
▁里	-2422
▁Papa	-2423
来的	-2424
▁Wash	-2425
▁Mel	-2426
13	-2427
bles	-2428
样子	-2429
sterdam	-2430
ird	-2431
zy	-2432
oeie	-2433
oorde	-2434
▁Zelfs	-2435
ette	-2436
▁想	-2437
cks	-2438
omin	-2439
rijd	-2440
LE	-2441
XX	-2442
▁Mot	-2443
looks	-2444
amb	-2445
ired	-2446
▁gezet	-2447
▁Europese	-2448
OO	-2449
▁onge	-2450
▁Welkom	-2451
▁meen	-2452
ENT	-2453
▁Drie	-2454
▁Mus	-2455
▁Henry	-2456
真是	-2457
apt	-2458
▁可以	-2459
IC	-2460
iller	-2461
voer	-2462
▁hum	-2463
erve	-2464
}{{{	-2465
▁America	-2466
yp	-2467
▁Ren	-2468
ago	-2469
reken	-2470
▁First	-2471
rill	-2472
▁Dur	-2473
▁Fred	-2474
di	-2475
ower	-2476
opdracht	-2477
▁Angel	-2478
Het	-2479
itz	-2480
▁Like	-2481
▁Schiet	-2482
▁Dis	-2483
▁Pl	-2484
▁mm	-2485
ips	-2486
licht	-2487
GRAND	-2488
▁Bru	-2489
▁Sarah	-2490
▁imm	-2491
delen	-2492
weld	-2493
bit	-2494
hoe	-2495
moe	-2496
▁Ted	-2497
ente	-2498
sych	-2499
▁Roman	-2500
ester	-2501
weer	-2502
iviteit	-2503
▁leid	-2504
pl	-2505
plaats	-2506
▁ah	-2507
▁Sla	-2508
▁Sn	-2509
arts	-2510
▁roept	-2511
▁Duitse	-2512
就会	-2513
dia	-2514
▁Klaar	-2515
▁Jes	-2516
▁€	-2517
▁ST	-2518
woon	-2519
house	-2520
哪里	-2521
▁Big	-2522
▁sus	-2523
▁Ki	-2524
▁Hun	-2525
▁Han	-2526
▁Luc	-2527
▁Comp	-2528
▁Tw	-2529
▁Tijdens	-2530
▁dr	-2531
▁Two	-2532
enty	-2533
▁Probeer	-2534
III	-2535
▁gr	-2536
▁Verge	-2537
▁着	-2538
oph	-2539
▁Fl	-2540
aster	-2541
▁stru	-2542
▁Charles	-2543
▁Amsterdam	-2544
▁Sov	-2545
dit	-2546
▁Bobby	-2547
gemaakt	-2548
▁Chi	-2549
organ	-2550
▁gegaan	-2551
▁Brown	-2552
55	-2553
▁pla	-2554
unk	-2555
▁Lie	-2556
▁zomaar	-2557
▁Kies	-2558
urch	-2559
▁NPO	-2560
▁occ	-2561
halen	-2562
▁Martin	-2563
would	-2564
teken	-2565
RA	-2566
loop	-2567
▁Sen	-2568
lem	-2569
child	-2570
▁Fin	-2571
▁Del	-2572
sn	-2573
▁TV	-2574
▁Take	-2575
▁Welk	-2576
▁cal	-2577
cor	-2578
artoe	-2579
▁IV	-2580
mond	-2581
▁Ray	-2582
ues	-2583
stop	-2584
uch	-2585
coun	-2586
even	-2587
▁Zal	-2588
▁ut	-2589
▁Sta	-2590
ows	-2591
ters	-2592
它的	-2593
CAR	-2594
▁Vict	-2595
recht	-2596
zil	-2597
oep	-2598
essie	-2599
▁spec	-2600
▁US	-2601
stra	-2602
tle	-2603
isa	-2604
ury	-2605
▁Po	-2606
▁fre	-2607
▁Wiki	-2608
咱们	-2609
dig	-2610
cky	-2611
▁Weg	-2612
gram	-2613
▁gere	-2614
bak	-2615
我是	-2616
▁Roy	-2617
上了	-2618
kie	-2619
rol	-2620
▁Gal	-2621
▁gev	-2622
▁Park	-2623
bie	-2624
IV	-2625
Why	-2626
eem	-2627
sty	-2628
谢谢	-2629
▁pe	-2630
▁Afbeeld	-2631
try	-2632
▁arch	-2633
gor	-2634
▁cli	-2635
cies	-2636
▁知	-2637
andy	-2638
kijken	-2639
▁rep	-2640
▁Grote	-2641
▁Betty	-2642
▁Lad	-2643
aura	-2644
ified	-2645
bes	-2646
ones	-2647
back	-2648
sm	-2649
dot	-2650
tal	-2651
APTER	-2652
woorden	-2653
▁Lang	-2654
rok	-2655
wow	-2656
▁Eli	-2657
▁Jam	-2658
erste	-2659
▁Bab	-2660
▁Sec	-2661
▁Nick	-2662
▁Geluid	-2663
▁→	-2664
maat	-2665
▁gew	-2666
"。	-2667
urr	-2668
weet	-2669
oto	-2670
otter	-2671
achter	-2672
$$2	-2673
iol	-2674
aus	-2675
,--	-2676
sey	-2677
ately	-2678
▁Bereken	-2679
17	-2680
mit	-2681
▁Word	-2682
gin	-2683
AM	-2684
▁prop	-2685
▁喔	-2686
dad	-2687
▁nood	-2688
▁Clip	-2689
ession	-2690
▁Commons	-2691
能够	-2692
got	-2693
▁Wait	-2694
▁Hebben	-2695
▁Elke	-2696
ci	-2697
▁Ka	-2698
ards	-2699
zoek	-2700
▁Hist	-2701
▁Terug	-2702
▁CHAPTER	-2703
urt	-2704
▁sim	-2705
hier	-2706
oelt	-2707
rijs	-2708
ieden	-2709
gebied	-2710
In	-2711
▁ret	-2712
给我	-2713
hold	-2714
▁AND	-2715
▁Toe	-2716
illen	-2717
▁vlak	-2718
kla	-2719
▁Sinds	-2720
▁Victor	-2721
▁Dar	-2722
▁Open	-2723
▁lk	-2724
▁Sommige	-2725
Illust	-2726
▁Bea	-2727
▁Tex	-2728
▁repres	-2729
St	-2730
▁Bal	-2731
Kids	-2732
aans	-2733
▁(9	-2734
ures	-2735
There	-2736
jo	-2737
▁Mike	-2738
lok	-2739
▁Ell	-2740
都不	-2741
▁Rus	-2742
▁Anne	-2743
baby	-2744
daar	-2745
aire	-2746
▁|	-2747
rant	-2748
▁$\	-2749
Don	-2750
ason	-2751
▁Bas	-2752
Daddy	-2753
▁Pers	-2754
ital	-2755
ream	-2756
oes	-2757
▁Hol	-2758
▁WikiKids	-2759
▁Franse	-2760
orie	-2761
▁dra	-2762
▁Pardon	-2763
unny	-2764
▁Maria	-2765
ress	-2766
col	-2767
}}_	-2768
▁Arab	-2769
▁inf	-2770
▁Aunt	-2771
oom	-2772
boy	-2773
▁爸爸	-2774
uist	-2775
ville	-2776
▁Tony	-2777
Illustration	-2778
▁26	-2779
rest	-2780
points	-2781
fel	-2782
▁Kennisbank	-2783
")	-2784
正在	-2785
▁0,	-2786
▁Stan	-2787
▁Award	-2788
▁Ant	-2789
-8	-2790
ola	-2791
▁4.	-2792
field	-2793
▁Lat	-2794
▁27	-2795
cont	-2796
icip	-2797
Je	-2798
▁mocht	-2799
aad	-2800
roeg	-2801
▁ə	-2802
▁Dick	-2803
orst	-2804
jaar	-2805
▁fin	-2806
▁Schooltv	-2807
ole	-2808
▁Ap	-2809
▁Louis	-2810
jar	-2811
kig	-2812
gers	-2813
▁Blue	-2814
zi	-2815
ratie	-2816
▁如	-2817
▁28	-2818
▁[1	-2819
ides	-2820
-4	-2821
kamer	-2822
▁Bl	-2823
istan	-2824
zin	-2825
istische	-2826
ïn	-2827
tell	-2828
▁Inhoud	-2829
icro	-2830
raad	-2831
▁Uncle	-2832
▁House	-2833
ered	-2834
raak	-2835
moc	-2836
▁Geweld	-2837
keur	-2838
▁IS	-2839
hee	-2840
▁gebouw	-2841
▁好的	-2842
Ja	-2843
range	-2844
▁ob	-2845
▁ought	-2846
▁Beeldbank	-2847
▁ber	-2848
rijden	-2849
▁People	-2850
tered	-2851
▁stat	-2852
▁Brazil	-2853
roll	-2854
▁Super	-2855
看着	-2856
haps	-2857
▁ON	-2858
rupt	-2859
▁psych	-2860
If	-2861
▁©	-2862
▁obs	-2863
▁Jane	-2864
▁Champ	-2865
▁crit	-2866
▁Clipjes	-2867
ket	-2868
meer	-2869
▁Mac	-2870
▁Carl	-2871
▁Kat	-2872
▁gro	-2873
gasps	-2874
ival	-2875
loed	-2876
▁behulp	-2877
{1}	-2878
BC	-2879
▁Jouw	-2880
▁Mos	-2881
leven	-2882
cla	-2883
.)	-2884
▁amb	-2885
▁rap	-2886
是不是	-2887
▁Minister	-2888
+\	-2889
▁Sant	-2890
▁Engeland	-2891
illy	-2892
▁Alexa	-2893
grepen	-2894
▁Eerst	-2895
used	-2896
▁Pal	-2897
-6	-2898
不到	-2899
之间	-2900
▁Eind	-2901
����	-2902
▁Tell	-2903
aien	-2904
▁Ron	-2905
▁Germany	-2906
▁Parijs	-2907
是在	-2908
''	-2909
ije	-2910
▁ban	-2911
ands	-2912
▁Jean	-2913
▁Canada	-2914
So	-2915
出去	-2916
unch	-2917
whis	-2918
uts	-2919
$$,$$	-2920
▁Later	-2921
elle	-2922
▁Goedem	-2923
90	-2924
rika	-2925
wed	-2926
▁Med	-2927
▁Intern	-2928
igt	-2929
por	-2930
-3	-2931
▁190	-2932
ission	-2933
▁Iets	-2934
▁Little	-2935
book	-2936
▁Cat	-2937
▁bez	-2938
clock	-2939
▁啦	-2940
uze	-2941
{1}{	-2942
vat	-2943
▁Ba	-2944
How	-2945
Amer	-2946
noise	-2947
They	-2948
▁Cont	-2949
我们的	-2950
take	-2951
▁Flor	-2952
▁Wereldoorlog	-2953
真的是	-2954
▁Werk	-2955
▁(20	-2956
▁Samen	-2957
_,	-2958
▁Inter	-2959
▁Nin	-2960
▁tech	-2961
ijl	-2962
▁bek	-2963
▁neg	-2964
fort	-2965
ology	-2966
我要	-2967
sin	-2968
▁comb	-2969
BA	-2970
kin	-2971
,000	-2972
wait	-2973
erie	-2974
▁60	-2975
aft	-2976
An	-2977
naar	-2978
▁Jos	-2979
▁Stra	-2980
有的	-2981
bet	-2982
▁Kunnen	-2983
vallen	-2984
▁Tegen	-2985
▁non	-2986
dro	-2987
ura	-2988
▁League	-2989
▁Moe	-2990
▁gar	-2991
eken	-2992
80	-2993
EE	-2994
▁insp	-2995
iers	-2996
SO	-2997
▁cop	-2998
▁Queen	-2999
▁Tre	-3000
▁$${	-3001
ieke	-3002
▁Jac	-3003
▁po	-3004
ural	-3005
kn	-3006
outs	-3007
▁Nik	-3008
▁2000	-3009
▁Lin	-3010
▁Isra	-3011
▁cru	-3012
▁Morgen	-3013
--"	-3014
▁Rog	-3015
25	-3016
iën	-3017
越来	-3018
appy	-3019
▁Jenn	-3020
▁Scott	-3021
▁Engels	-3022
stad	-3023
ribut	-3024
来到	-3025
vocaliz	-3026
▁{	-3027
▁zw	-3028
▁Geluk	-3029
-10	-3030
bour	-3031
cos	-3032
▁Pet	-3033
▁poss	-3034
▁Vo	-3035
▁hi	-3036
nog	-3037
pie	-3038
▁Bu	-3039
ms	-3040
eur	-3041
▁requ	-3042
越来越	-3043
▁Oli	-3044
ively	-3045
nest	-3046
▁Achter	-3047
down	-3048
▁tick	-3049
▁kru	-3050
▁Star	-3051
▁kregen	-3052
wijs	-3053
▁Many	-3054
IF	-3055
heb	-3056
stern	-3057
▁Hierdoor	-3058
AK	-3059
▁�	-3060
▁Mexico	-3061
egd	-3062
}=	-3063
1$$	-3064
▁Pan	-3065
▁Zeker	-3066
▁bra	-3067
ament	-3068
yep	-3069
anger	-3070
unn	-3071
olon	-3072
oney	-3073
AAR	-3074
sse	-3075
▁Amy	-3076
▁Willem	-3077
▁protest	-3078
▁Kap	-3079
▁Pla	-3080
ife	-3081
clus	-3082
och	-3083
dle	-3084
▁29	-3085
▁Snel	-3086
▁scar	-3087
▁Rem	-3088
▁swe	-3089
pardon	-3090
vor	-3091
ucht	-3092
▁ur	-3093
ffic	-3094
或者	-3095
CO	-3096
▁abs	-3097
wacht	-3098
▁可	-3099
才能	-3100
▁放	-3101
zam	-3102
minste	-3103
ocht	-3104
▁mob	-3105
▁Most	-3106
iaal	-3107
▁Mum	-3108
please	-3109
▁represent	-3110
des	-3111
mpt	-3112
ised	-3113
▁Party	-3114
▁Prof	-3115
aint	-3116
idge	-3117
▁Cong	-3118
▁cy	-3119
起了	-3120
ply	-3121
itter	-3122
band	-3123
▁Leuk	-3124
ased	-3125
cuss	-3126
▁Mee	-3127
▁Geweldig	-3128
iter	-3129
▁Dam	-3130
▁Nan	-3131
unten	-3132
ANK	-3133
具有	-3134
▁pra	-3135
▁flu	-3136
bon	-3137
grij	-3138
UT	-3139
继续	-3140
bron	-3141
▁Jose	-3142
▁remark	-3143
▁ho	-3144
▁Ont	-3145
▁cr	-3146
inse	-3147
lijn	-3148
pi	-3149
其中	-3150
agd	-3151
rey	-3152
▁Jeff	-3153
loe	-3154
work	-3155
win	-3156
}$$.	-3157
zeker	-3158
▁Fijn	-3159
struct	-3160
▁procent	-3161
▁Sm	-3162
ience	-3163
vragen	-3164
schuw	-3165
aurant	-3166
▁Des	-3167
▁California	-3168
ock	-3169
ji	-3170
udeer	-3171
是个	-3172
▁(10	-3173
▁zwe	-3174
ceed	-3175
cess	-3176
past	-3177
▁Les	-3178
▁voed	-3179
non	-3180
All	-3181
▁CO	-3182
▁Bert	-3183
cellen	-3184
75	-3185
stal	-3186
▁又	-3187
mis	-3188
hood	-3189
plaat	-3190
▁Jimmy	-3191
▁Bor	-3192
'?	-3193
._	-3194
wanna	-3195
▁Fraser	-3196
▁IT	-3197
chte	-3198
volg	-3199
▁Street	-3200
▁Opdracht	-3201
▁Ele	-3202
▁Kle	-3203
▁Mid	-3204
lagen	-3205
▁3,	-3206
▁wa	-3207
▁Pop	-3208
▁Vergeet	-3209
iled	-3210
.,	-3211
ATT	-3212
hah	-3213
▁Laura	-3214
tarrow	-3215
▁Texas	-3216
认为	-3217
pot	-3218
etch	-3219
bi	-3220
▁Bart	-3221
▁Opgave	-3222
cu	-3223
ki	-3224
想到	-3225
ona	-3226
upp	-3227
mach	-3228
Mommy	-3229
▁Kor	-3230
▁blo	-3231
▁var	-3232
▁Spanje	-3233
OW	-3234
▁Dou	-3235
▁Hall	-3236
RY	-3237
▁raken	-3238
cast	-3239
uhoh	-3240
▁Heer	-3241
▁WE	-3242
▁emot	-3243
▁Really	-3244
lied	-3245
lacht	-3246
kes	-3247
aris	-3248
ikke	-3249
▁Adam	-3250
45	-3251
anks	-3252
▁500	-3253
▁Sus	-3254
pas	-3255
GRANDMOTHER	-3256
▁Kim	-3257
▁Georg	-3258
cul	-3259
oma	-3260
iety	-3261
tic	-3262
groep	-3263
▁Rusland	-3264
gekomen	-3265
BL	-3266
ays	-3267
elden	-3268
▁State	-3269
▁schil	-3270
▁HE	-3271
rlei	-3272
ature	-3273
▁Paris	-3274
了吗	-3275
tens	-3276
mt	-3277
▁App	-3278
andaag	-3279
▁Land	-3280
-5	-3281
Mum	-3282
pte	-3283
▁Wilt	-3284
zame	-3285
▁White	-3286
ills	-3287
teen	-3288
毕竟	-3289
olen	-3290
▁cere	-3291
teur	-3292
osten	-3293
▁Its	-3294
stein	-3295
stem	-3296
iti	-3297
heer	-3298
ugd	-3299
▁Turk	-3300
▁kr	-3301
▁Soc	-3302
jam	-3303
ume	-3304
Is	-3305
▁是的	-3306
过了	-3307
naal	-3308
▁Leo	-3309
school	-3310
同时	-3311
▁Goedemorgen	-3312
mag	-3313
ably	-3314
▁Our	-3315
▁Houd	-3316
▁ham	-3317
etjes	-3318
▁bru	-3319
▁Alice	-3320
▁Los	-3321
▁Sil	-3322
▁Begrepen	-3323
▁Hit	-3324
schapp	-3325
▁Nieuw	-3326
▁ident	-3327
ika	-3328
elsel	-3329
▁Marc	-3330
mes	-3331
anor	-3332
▁tru	-3333
loo	-3334
▁Hon	-3335
▁Sue	-3336
iction	-3337
▁跟	-3338
Now	-3339
▁Kn	-3340
不了	-3341
▁Lady	-3342
▁batter	-3343
tig	-3344
▁Cam	-3345
▁concent	-3346
oint	-3347
▁bur	-3348
▁Green	-3349
先走了	-3350
▁Kamer	-3351
ini	-3352
▁History	-3353
-\	-3354
▁lukt	-3355
▁Vanaf	-3356
▁做	-3357
utch	-3358
▁Chic	-3359
▁Francis	-3360
Do	-3361
▁VI	-3362
▁General	-3363
24	-3364
▁Cup	-3365
▁zowel	-3366
▁financ	-3367
rr	-3368
}$	-3369
oci	-3370
▁Sunday	-3371
schieten	-3372
▁Holl	-3373
▁Hoor	-3374
▁Eigen	-3375
enken	-3376
▁strip	-3377
yl	-3378
都有	-3379
▁gez	-3380
top	-3381
ooit	-3382
▁rit	-3383
▁Union	-3384
▁Eerste	-3385
▁suff	-3386
▁WH	-3387
won	-3388
vinc	-3389
watch	-3390
gezien	-3391
▁Satur	-3392
▁Activiteit	-3393
itor	-3394
aly	-3395
▁Smi	-3396
jet	-3397
▁gal	-3398
▁België	-3399
sters	-3400
▁Democ	-3401
▁Bron	-3402
▁Vers	-3403
oke	-3404
▁Sur	-3405
▁Zullen	-3406
▁communic	-3407
▁(8	-3408
AV	-3409
ners	-3410
▁kap	-3411
▁tro	-3412
richt	-3413
ument	-3414
lee	-3415
gele	-3416
ums	-3417
pped	-3418
▁Give	-3419
kay	-3420
ouse	-3421
是不	-3422
olang	-3423
ify	-3424
▁Rijk	-3425
▁Eliza	-3426
。""	-3427
lotte	-3428
27	-3429
▁Ta	-3430
▁mut	-3431
east	-3432
▁crack	-3433
big	-3434
gend	-3435
elly	-3436
ueel	-3437
iously	-3438
记得	-3439
ante	-3440
west	-3441
▁Ei	-3442
▁Ass	-3443
▁sens	-3444
▁5.	-3445
kens	-3446
laten	-3447
▁"'	-3448
gent	-3449
▁(18	-3450
Peter	-3451
▁掉	-3452
nit	-3453
ria	-3454
ctie	-3455
▁toege	-3456
hen	-3457
rook	-3458
▁fil	-3459
ened	-3460
▁2018	-3461
▁Ty	-3462
merk	-3463
ked	-3464
ape	-3465
via	-3466
hop	-3467
▁European	-3468
eme	-3469
▁Cra	-3470
▁Tod	-3471
offen	-3472
▁Frans	-3473
▁Australia	-3474
▁Vandaag	-3475
aker	-3476
▁而	-3477
▁Jones	-3478
ikken	-3479
▁Fort	-3480
▁Midd	-3481
oup	-3482
▁Nico	-3483
yyy	-3484
feest	-3485
wis	-3486
▁Up	-3487
lijst	-3488
是什么	-3489
tegen	-3490
lop	-3491
|$$\	-3492
▁Haw	-3493
▁Would	-3494
OOR	-3495
wee	-3496
由于	-3497
都会	-3498
▁compet	-3499
▁Cas	-3500
▁cit	-3501
has	-3502
▁Rose	-3503
werken	-3504
▁Their	-3505
umm	-3506
▁cust	-3507
sa	-3508
▁Hiero	-3509
▁Vir	-3510
▁Moun	-3511
My	-3512
▁hm	-3513
ises	-3514
▁Hop	-3515
▁Gewoon	-3516
▁ta	-3517
▁Egypt	-3518
▁International	-3519
rak	-3520
rog	-3521
作为	-3522
▁mus	-3523
moed	-3524
inkel	-3525
▁arri	-3526
igar	-3527
▁Lar	-3528
omer	-3529
▁vac	-3530
plant	-3531
▁Only	-3532
▁Water	-3533
以为	-3534
是我	-3535
isted	-3536
▁Ach	-3537
▁2010	-3538
▁Japanese	-3539
DE	-3540
不得	-3541
steem	-3542
▁Disney	-3543
genaam	-3544
pap	-3545
asc	-3546
▁Rad	-3547
ination	-3548
▁EN	-3549
ploy	-3550
▁Listen	-3551
AC	-3552
▁Zod	-3553
ulf	-3554
▁Ev	-3555
maak	-3556
▁Ned	-3557
ym	-3558
▁--	-3559
velop	-3560
▁Spe	-3561
▁Caro	-3562
toen	-3563
lucht	-3564
48	-3565
gesteld	-3566
▁Gelukkig	-3567
blij	-3568
▁geb	-3569
▁sav	-3570
▁Which	-3571
gebracht	-3572
▁spr	-3573
▁BE	-3574
▁Shit	-3575
▁Before	-3576
ev	-3577
▁instrum	-3578
She	-3579
▁strand	-3580
▁Maj	-3581
▁Bent	-3582
35	-3583
▁react	-3584
▁Does	-3585
是很	-3586
TUR	-3587
正确的是	-3588
ote	-3589
有什么	-3590
看的	-3591
ato	-3592
▁Mont	-3593
AY	-3594
▁Maggie	-3595
68	-3596
ua	-3597
有个	-3598
hed	-3599
▁Old	-3600
▁kra	-3601
vey	-3602
mens	-3603
▁viol	-3604
▁Jesus	-3605
▁Since	-3606
sw	-3607
不对	-3608
ena	-3609
edenk	-3610
==	-3611
▁%	-3612
▁用	-3613
▁Jud	-3614
achel	-3615
kun	-3616
▁Ala	-3617
▁wal	-3618
wegen	-3619
▁Chris	-3620
hod	-3621
▁Hong	-3622
▁Rea	-3623
▁haalt	-3624
]!	-3625
cil	-3626
jour	-3627
wil	-3628
rnal	-3629
▁Jongens	-3630
▁Ly	-3631
▁orig	-3632
antwoord	-3633
▁voeren	-3634
▁Kerst	-3635
umber	-3636
erk	-3637
ios	-3638
的事	-3639
▁Sol	-3640
▁est	-3641
acy	-3642
▁Vul	-3643
ellow	-3644
keren	-3645
▁Hy	-3646
▁Ir	-3647
baan	-3648
▁Bre	-3649
▁Bang	-3650
▁und	-3651
geld	-3652
▁mult	-3653
22	-3654
▁pres	-3655
▁Sle	-3656
▁diam	-3657
erij	-3658
▁Club	-3659
tas	-3660
▁While	-3661
▁Ve	-3662
▁Nad	-3663
▁Play	-3664
pop	-3665
▁Nap	-3666
four	-3667
IL	-3668
omb	-3669
▁Edward	-3670
cra	-3671
▁Far	-3672
▁Juist	-3673
liek	-3674
▁Boy	-3675
▁vle	-3676
US	-3677
▁Rock	-3678
ias	-3679
apen	-3680
wijl	-3681
toe	-3682
身边	-3683
veld	-3684
▁pract	-3685
oken	-3686
99	-3687
oul	-3688
▁Dal	-3689
▁Spr	-3690
reden	-3691
▁Anton	-3692
▁嗨	-3693
导致	-3694
itect	-3695
▁Mi	-3696
▁Tor	-3697
vens	-3698
▁element	-3699
inter	-3700
ography	-3701
36	-3702
-15	-3703
▁{{	-3704
essor	-3705
...?	-3706
▁elekt	-3707
URS	-3708
▁Komt	-3709
hei	-3710
onk	-3711
point	-3712
▁dip	-3713
▁wed	-3714
counter	-3715
▁;	-3716
▁omsch	-3717
▁ontstaat	-3718
],	-3719
▁Ry	-3720
▁gl	-3721
▁31	-3722
druk	-3723
▁Bos	-3724
▁Hoezo	-3725
kle	-3726
role	-3727
▁shi	-3728
dem	-3729
▁2017	-3730
▁spe	-3731
▁tar	-3732
▁35	-3733
most	-3734
▁Oosten	-3735
考查	-3736
▁Steve	-3737
▁Mevrouw	-3738
▁完	-3739
||0	-3740
▁impro	-3741
▁Doctor	-3742
ouch	-3743
▁opv	-3744
▁choc	-3745
我不	-3746
▁hurry	-3747
▁2011	-3748
ois	-3749
▁gauw	-3750
AG	-3751
3$$	-3752
auto	-3753
voerd	-3754
tru	-3755
mper	-3756
iot	-3757
▁sna	-3758
achtig	-3759
bus	-3760
vaard	-3761
▁phot	-3762
▁(15	-3763
了吧	-3764
uele	-3765
▁compos	-3766
▁Spanish	-3767
ilt	-3768
inda	-3769
IR	-3770
eat	-3771
▁Wood	-3772
▁GE	-3773
▁ni	-3774
}_{1	-3775
▁Three	-3776
IM	-3777
▁Scot	-3778
Maar	-3779
▁Very	-3780
我看	-3781
ript	-3782
▁gehaald	-3783
oost	-3784
▁Island	-3785
az	-3786
▁Son	-3787
atuur	-3788
▁Atlant	-3789
▁得	-3790
▁Acc	-3791
erden	-3792
pol	-3793
▁Bay	-3794
▁Klik	-3795
ads	-3796
Nee	-3797
▁Day	-3798
pret	-3799
▁sno	-3800
认识	-3801
▁cm	-3802
nummer	-3803
pakken	-3804
ado	-3805
▁grie	-3806
scheid	-3807
laas	-3808
▁80	-3809
▁onto	-3810
esh	-3811
▁2012	-3812
rië	-3813
▁Law	-3814
▁Elizabe	-3815
▁dre	-3816
incip	-3817
ubli	-3818
film	-3819
▁Fil	-3820
nu	-3821
nal	-3822
ways	-3823
进了	-3824
▁IJ	-3825
▁About	-3826
▁Art	-3827
edict	-3828
har	-3829
ties	-3830
几个	-3831
0.000	-3832
▁Wit	-3833
▁Es	-3834
▁Dum	-3835
uo	-3836
itein	-3837
▁accomp	-3838
Ne	-3839
100	-3840
住了	-3841
▁Andy	-3842
出的	-3843
teren	-3844
▁kool	-3845
▁goeie	-3846
在看	-3847
64	-3848
=2	-3849
▁Ann	-3850
▁Hot	-3851
▁Oor	-3852
olk	-3853
▁Britse	-3854
IA	-3855
five	-3856
▁Bedenk	-3857
▁Eigenlijk	-3858
rict	-3859
ideo	-3860
indt	-3861
▁Prima	-3862
▁Precies	-3863
iev	-3864
conom	-3865
picks	-3866
是有	-3867
身上	-3868
▁Bunny	-3869
genomen	-3870
▁能	-3871
ove	-3872
berry	-3873
▁ap	-3874
ommel	-3875
jon	-3876
▁2019	-3877
72	-3878
give	-3879
itted	-3880
▁Bear	-3881
以及	-3882
▁cheer	-3883
▁Meester	-3884
▁Wind	-3885
▁Got	-3886
ously	-3887
ku	-3888
kast	-3889
iteerd	-3890
▁2016	-3891
▁Fuck	-3892
▁Santa	-3893
▁à	-3894
▁过	-3895
onds	-3896
▁resp	-3897
进入	-3898
una	-3899
vir	-3900
reed	-3901
Thomas	-3902
▁dun	-3903
vy	-3904
ata	-3905
▁4,	-3906
uten	-3907
▁Foot	-3908
▁exam	-3909
▁surv	-3910
▁straw	-3911
▁Saturday	-3912
wijz	-3913
▁Stil	-3914
▁arbe	-3915
rokken	-3916
waarde	-3917
jij	-3918
▁Az	-3919
rucht	-3920
▁symb	-3921
uigen	-3922
▁Nooit	-3923
ili	-3924
▁Mur	-3925
▁simply	-3926
STER	-3927
gere	-3928
vocalizes	-3929
uut	-3930
▁Pur	-3931
shire	-3932
iseren	-3933
题意	-3934
▁Ts	-3935
itude	-3936
AB	-3937
▁Portug	-3938
  	-3939
ero	-3940
▁2014	-3941
▁Champion	-3942
▁Sl	-3943
teerd	-3944
▁Brad	-3945
▁Binnen	-3946
cord	-3947
kwam	-3948
emd	-3949
duce	-3950
▁mor	-3951
ouwen	-3952
▁Wow	-3953
▁Church	-3954
▁Barb	-3955
schrift	-3956
▁fac	-3957
vraag	-3958
teer	-3959
ially	-3960
reeuw	-3961
▁Vijf	-3962
▁Jun	-3963
▁Jerry	-3964
▁2021	-3965
▁Dood	-3966
▁Geloof	-3967
▁Konink	-3968
▁Cos	-3969
anten	-3970
bec	-3971
▁veg	-3972
aas	-3973
cou	-3974
chen	-3975
ique	-3976
laat	-3977
▁Ross	-3978
▁Klo	-3979
▁ka	-3980
▁300	-3981
Then	-3982
spr	-3983
▁Chicago	-3984
BO	-3985
地上	-3986
sil	-3987
iform	-3988
▁hab	-3989
wet	-3990
oven	-3991
78	-3992
可知	-3993
sluit	-3994
▁gesp	-3995
▁stro	-3996
xi	-3997
bell	-3998
boom	-3999
inst	-4000
▁regard	-4001
▁Ot	-4002
tend	-4003
▁cri	-4004
▁对呀	-4005
▁Begrij	-4006
▁Benedict	-4007
stic	-4008
uurd	-4009
▁189	-4010
fa	-4011
▁elect	-4012
vaart	-4013
▁是不是	-4014
VER	-4015
make	-4016
▁Mhm	-4017
▁Daarnaast	-4018
▁Wo	-4019
ella	-4020
erson	-4021
morgen	-4022
HE	-4023
就在	-4024
uits	-4025
▁intell	-4026
eks	-4027
▁Fer	-4028
isatie	-4029
▁Joseph	-4030
我想	-4031
.$$\	-4032
round	-4033
▁remo	-4034
gramma	-4035
gegeven	-4036
ense	-4037
stubli	-4038
▁proper	-4039
TV	-4040
dog	-4041
nah	-4042
essed	-4043
▁Hoewel	-4044
▁accord	-4045
▁bor	-4046
gezet	-4047
ordon	-4048
minist	-4049
hoek	-4050
▁conne	-4051
▁Kapitein	-4052
arl	-4053
▁VAN	-4054
BLANK	-4055
▁schelen	-4056
kins	-4057
28	-4058
▁2013	-4059
▁Dist	-4060
iest	-4061
jarige	-4062
zed	-4063
▁Cy	-4064
▁pun	-4065
▁Hitler	-4066
▁Serv	-4067
▁Roger	-4068
▁micro	-4069
▁188	-4070
This	-4071
▁drum	-4072
▁goin	-4073
▁plu	-4074
▁chem	-4075
koop	-4076
▁Saint	-4077
下了	-4078
▁Bestudeer	-4079
dge	-4080
annen	-4081
分别	-4082
▁Si	-4083
▁Tel	-4084
ounds	-4085
▁Bern	-4086
▁Ky	-4087
▁Schat	-4088
cat	-4089
▁Mond	-4090
▁Simon	-4091
下的	-4092
iday	-4093
▁Boven	-4094
eller	-4095
▁Holly	-4096
▁Engelse	-4097
trekken	-4098
ody	-4099
▁comment	-4100
}^{	-4101
▁Jwww	-4102
ruis	-4103
定要	-4104
SIB	-4105
▁45	-4106
▁Albert	-4107
-18	-4108
ware	-4109
}_{1}}	-4110
zee	-4111
▁frequ	-4112
▁Walter	-4113
23	-4114
oli	-4115
rem	-4116
▁Ram	-4117
▁边	-4118
ager	-4119
kers	-4120
puts	-4121
▁por	-4122
comp	-4123
wen	-4124
▁186	-4125
ought	-4126
▁Tommy	-4127
stelsel	-4128
▁Italië	-4129
▁Pep	-4130
▁Maje	-4131
▁Africa	-4132
plan	-4133
ready	-4134
▁Six	-4135
place	-4136
▁Jake	-4137
▁diag	-4138
ao	-4139
▁Kal	-4140
▁Ooh	-4141
ommen	-4142
▁Vier	-4143
▁Alstubli	-4144
▁ev	-4145
bben	-4146
▁Top	-4147
isteravond	-4148
▁impress	-4149
oegen	-4150
cho	-4151
▁Cast	-4152
▁Krij	-4153
dieren	-4154
▁(5	-4155
loten	-4156
▁5,	-4157
itan	-4158
sequ	-4159
▁Prins	-4160
▁Jackson	-4161
ators	-4162
▁Julia	-4163
就不	-4164
").	-4165
▁ME	-4166
▁DNA	-4167
▁Stud	-4168
消息	-4169
tes	-4170
▁EEN	-4171
ibility	-4172
▁exec	-4173
▁instruct	-4174
▁Sure	-4175
clo	-4176
stre	-4177
▁Put	-4178
▁Gaan	-4179
上去	-4180
▁Dutch	-4181
rand	-4182
▁rad	-4183
useum	-4184
oer	-4185
▁ye	-4186
▁Cour	-4187
▁Down	-4188
4$$	-4189
kno	-4190
▁More	-4191
▁Hum	-4192
▁zulke	-4193
utie	-4194
▁Out	-4195
lar	-4196
daad	-4197
▁Colle	-4198
▁Italy	-4199
都在	-4200
FRI	-4201
▁Rod	-4202
▁IK	-4203
▁Res	-4204
▁Helemaal	-4205
dienst	-4206
▁~	-4207
▁Goeden	-4208
cha	-4209
▁mod	-4210
ser	-4211
坐在	-4212
amil	-4213
zuur	-4214
▁Democrat	-4215
ppen	-4216
irk	-4217
hem	-4218
▁OP	-4219
▁gu	-4220
turn	-4221
子的	-4222
ologie	-4223
▁Oostenrijk	-4224
ived	-4225
zinn	-4226
ipper	-4227
▁Dave	-4228
不起	-4229
▁ox	-4230
▁Long	-4231
zichtig	-4232
OS	-4233
▁et	-4234
▁mos	-4235
ories	-4236
▁cla	-4237
▁Leon	-4238
▁Niks	-4239
我国	-4240
▁6.	-4241
sb	-4242
▁wor	-4243
▁Mass	-4244
▁Lucy	-4245
▁pred	-4246
的好	-4247
▁typ	-4248
mommy	-4249
▁Jacob	-4250
▁Karel	-4251
▁Professor	-4252
ora	-4253
▁2015	-4254
▁Corn	-4255
doelen	-4256
▁Christus	-4257
LY	-4258
edi	-4259
halve	-4260
正确的	-4261
76	-4262
atief	-4263
iële	-4264
▁pin	-4265
takes	-4266
▁Post	-4267
▁Viet	-4268
▁走	-4269
pend	-4270
▁Lief	-4271
▁inj	-4272
issen	-4273
inated	-4274
▁Ye	-4275
▁sac	-4276
iseerd	-4277
▁Vroeg	-4278
▁Johnny	-4279
▁Florida	-4280
zal	-4281
▁fro	-4282
▁Dames	-4283
▁plenty	-4284
osp	-4285
▁Vooral	-4286
▁...'	-4287
▁Acade	-4288
▁Daniel	-4289
▁architect	-4290
gek	-4291
▁Hor	-4292
▁Hart	-4293
gegaan	-4294
stoffen	-4295
▁Romeinse	-4296
放在	-4297
tien	-4298
olven	-4299
ases	-4300
cted	-4301
keer	-4302
▁Pen	-4303
ances	-4304
▁Four	-4305
▁Sher	-4306
▁Trek	-4307
看过	-4308
▁sum	-4309
osta	-4310
grond	-4311
dition	-4312
▁Excuseer	-4313
▁我是	-4314
▁VER	-4315
ruit	-4316
▁Hill	-4317
whoops	-4318
▁Virgin	-4319
▁Council	-4320
pic	-4321
▁indic	-4322
SOA	-4323
▁Um	-4324
cries	-4325
▁wijk	-4326
做的	-4327
taal	-4328
▁struck	-4329
iciteerd	-4330
lyn	-4331
▁Donald	-4332
▁Sk	-4333
▁Gregor	-4334
pet	-4335
▁AB	-4336
mama	-4337
▁rub	-4338
stellen	-4339
IGH	-4340
gedaan	-4341
lict	-4342
ional	-4343
▁luk	-4344
Al	-4345
进去	-4346
▁flow	-4347
doe	-4348
duc	-4349
▁dy	-4350
ël	-4351
STE	-4352
rows	-4353
etten	-4354
wit	-4355
▁2008	-4356
gelegd	-4357
▁Could	-4358
$,	-4359
▁huur	-4360
cip	-4361
▁()	-4362
kamp	-4363
know	-4364
▁web	-4365
rouwen	-4366
▁HET	-4367
igers	-4368
ïne	-4369
▁adm	-4370
对于	-4371
...'	-4372
ochtend	-4373
▁employ	-4374
bat	-4375
▁Fel	-4376
▁Besp	-4377
ares	-4378
loze	-4379
VAL	-4380
iles	-4381
▁Kit	-4382
▁Say	-4383
▁gef	-4384
▁liber	-4385
▁Perhaps	-4386
loor	-4387
▁Ven	-4388
要是	-4389
schuld	-4390
▁Angeles	-4391
定是	-4392
uro	-4393
▁Ur	-4394
eens	-4395
roep	-4396
+2	-4397
rijv	-4398
feren	-4399
旁边	-4400
hic	-4401
▁Bi	-4402
hr	-4403
!""	-4404
-20	-4405
ange	-4406
▁Zee	-4407
▁juf	-4408
▁myster	-4409
pat	-4410
tail	-4411
▁Afrika	-4412
▁Sea	-4413
▁inqu	-4414
his	-4415
ani	-4416
icus	-4417
▁Alsof	-4418
CAT	-4419
CT	-4420
▁我觉得	-4421
▁Eric	-4422
▁Sovjet	-4423
CK	-4424
vle	-4425
▁Ash	-4426
estig	-4427
▁Goede	-4428
定的	-4429
fie	-4430
akken	-4431
▁2009	-4432
deze	-4433
▁geh	-4434
igg	-4435
▁ig	-4436
strijd	-4437
GE	-4438
▁70	-4439
▁Aar	-4440
▁Once	-4441
好好	-4442
▁00	-4443
inal	-4444
ruim	-4445
▁Kate	-4446
had	-4447
▁CD	-4448
ecul	-4449
CE	-4450
RYA	-4451
alt	-4452
34	-4453
几天	-4454
▁Vrij	-4455
feliciteerd	-4456
IK	-4457
▁Ons	-4458
▁extre	-4459
▁Lisa	-4460
+1	-4461
▁Penn	-4462
来看	-4463
geve	-4464
itei	-4465
wicht	-4466
)$$	-4467
prijs	-4468
▁Pier	-4469
▁Benedictus	-4470
▁).	-4471
blue	-4472
iser	-4473
proken	-4474
tent	-4475
▁Toon	-4476
su	-4477
eert	-4478
kiez	-4479
▁kla	-4480
66	-4481
rich	-4482
volution	-4483
▁Gefeliciteerd	-4484
gg	-4485
▁ir	-4486
ijna	-4487
▁cot	-4488
ybody	-4489
⌉.	-4490
▁char	-4491
▁Andrew	-4492
▁Republic	-4493
▁Kent	-4494
middel	-4495
otterdam	-4496
▁Ameri	-4497
▁Harris	-4498
▁Grieken	-4499
▁32	-4500
▁Besch	-4501
▁kwart	-4502
下去	-4503
▁Tem	-4504
should	-4505
▁Tussen	-4506
journaal	-4507
▁的时候	-4508
sle	-4509
pool	-4510
▁Bat	-4511
ront	-4512
▁Bijvoorbeeld	-4513
▁occur	-4514
▁contin	-4515
▁天	-4516
fact	-4517
ioen	-4518
▁ani	-4519
▁Those	-4520
▁Bud	-4521
macht	-4522
ization	-4523
bey	-4524
writ	-4525
▁Suc	-4526
eloos	-4527
▁Jeugd	-4528
}=\	-4529
▁Cons	-4530
▁Summer	-4531
▁DO	-4532
有没有	-4533
abri	-4534
sion	-4535
vlie	-4536
steen	-4537
gebouw	-4538
▁Eddie	-4539
▁conduct	-4540
▁⌈	-4541
▁哪	-4542
?""	-4543
有了	-4544
▁Master	-4545
▁Prince	-4546
▁[?	-4547
▁Lake	-4548
▁Marie	-4549
Een	-4550
▁utter	-4551
▁XV	-4552
bled	-4553
▁Grandma	-4554
▁Championship	-4555
:$$	-4556
hip	-4557
ogen	-4558
▁2006	-4559
_2	-4560
刚才	-4561
show	-4562
----------------	-4563
UNK	-4564
agh	-4565
cut	-4566
▁Hu	-4567
bout	-4568
stant	-4569
iaanse	-4570
▁Rotterdam	-4571
5$$	-4572
▁bon	-4573
ransp	-4574
▁meenemen	-4575
tro	-4576
fish	-4577
▁smer	-4578
▁ca	-4579
▁stri	-4580
Be	-4581
fend	-4582
oenen	-4583
我都	-4584
irl	-4585
▁Rick	-4586
iem	-4587
▁Lab	-4588
▁Mart	-4589
▁Volg	-4590
.①	-4591
▁Bes	-4592
uster	-4593
kelijk	-4594
gain	-4595
ota	-4596
了起来	-4597
▁Rel	-4598
▁foc	-4599
▁Chief	-4600
▁ess	-4601
domde	-4602
▁keren	-4603
⌋.	-4604
cre	-4605
▁Noor	-4606
就要	-4607
▁Steven	-4608
29	-4609
▁哎	-4610
kon	-4611
brand	-4612
力的	-4613
▁36	-4614
breken	-4615
pan	-4616
lace	-4617
▁Susan	-4618
▁promot	-4619
▁Begrijp	-4620
是否	-4621
▁Cub	-4622
▁Gri	-4623
oi	-4624
不行	-4625
view	-4626
▁Ano	-4627
▁fav	-4628
entje	-4629
▁Allemaal	-4630
▁起来	-4631
▁Zit	-4632
▁acqu	-4633
zelfde	-4634
pose	-4635
ween	-4636
▁kle	-4637
eps	-4638
▁Matt	-4639
▁pest	-4640
▁stab	-4641
每次	-4642
bow	-4643
icul	-4644
受到	-4645
middag	-4646
▁Rom	-4647
Let	-4648
eau	-4649
▁90	-4650
loss	-4651
▁McC	-4652
▁evident	-4653
▁Emp	-4654
atives	-4655
▁Tal	-4656
▁Russische	-4657
=1	-4658
Not	-4659
▁Way	-4660
▁print	-4661
▁interrupt	-4662
ito	-4663
▁ble	-4664
▁Bost	-4665
▁Brand	-4666
用的	-4667
▁Ang	-4668
▁sele	-4669
itation	-4670
▁princip	-4671
▁找	-4672
whisper	-4673
JEN	-4674
ipt	-4675
▁7.	-4676
ieur	-4677
rdaad	-4678
▁mode	-4679
▁temp	-4680
pad	-4681
valt	-4682
edy	-4683
}_{2}}	-4684
▁Spain	-4685
▁Genoeg	-4686
reg	-4687
rou	-4688
rix	-4689
ema	-4690
zeg	-4691
▁Oke	-4692
beelden	-4693
▁叫	-4694
▁Hans	-4695
▁voren	-4696
umn	-4697
▁Kevin	-4698
FF	-4699
pje	-4700
▁bug	-4701
comm	-4702
aries	-4703
▁breed	-4704
dus	-4705
isn	-4706
▁Di	-4707
rice	-4708
elled	-4709
▁Arch	-4710
▁Emma	-4711
ebr	-4712
ilde	-4713
▁boe	-4714
▁...?	-4715
21	-4716
club	-4717
viron	-4718
▁Lieve	-4719
Come	-4720
arte	-4721
etti	-4722
inus	-4723
ires	-4724
regel	-4725
▁Jess	-4726
CHT	-4727
▁THAT	-4728
juist	-4729
waard	-4730
▁Piet	-4731
▁VIII	-4732
▁conta	-4733
tron	-4734
inson	-4735
uziek	-4736
▁Army	-4737
▁Canad	-4738
▁rapid	-4739
▁Succes	-4740
ener	-4741
ijen	-4742
▁Groot	-4743
iste	-4744
lass	-4745
last	-4746
punten	-4747
▁Central	-4748
Af	-4749
iens	-4750
riet	-4751
▁Republiek	-4752
▁Lot	-4753
py	-4754
▁哪里	-4755
rass	-4756
gment	-4757
▁Baby	-4758
49	-4759
BR	-4760
issa	-4761
park	-4762
▁Vietnam	-4763
▁Gordon	-4764
▁schrift	-4765
wagen	-4766
hh	-4767
▁Hoog	-4768
就可以	-4769
ugen	-4770
▁Squ	-4771
▁agr	-4772
▁Life	-4773
不仅	-4774
▁Tay	-4775
udden	-4776
▁techn	-4777
▁真	-4778
kra	-4779
▁Abs	-4780
▁tor	-4781
boven	-4782
▁Camp	-4783
▁Doug	-4784
▁Care	-4785
▁item	-4786
cup	-4787
nieuw	-4788
usten	-4789
38	-4790
▁nomin	-4791
_{	-4792
的啊	-4793
oughs	-4794
()	-4795
▁Tok	-4796
▁Hard	-4797
trecht	-4798
▁Links	-4799
iken	-4800
▁Dun	-4801
▁una	-4802
接着	-4803
▁Elk	-4804
▁Nav	-4805
▁Tru	-4806
▁jun	-4807
ertje	-4808
▁Friday	-4809
▁Av	-4810
mark	-4811
-0	-4812
▁6,	-4813
▁vest	-4814
▁ceremon	-4815
rib	-4816
▁1990	-4817
▁Terwijl	-4818
zes	-4819
▁VII	-4820
oorten	-4821
rad	-4822
dier	-4823
▁strat	-4824
▁Dire	-4825
▁Royal	-4826
愿意	-4827
▁pij	-4828
elaar	-4829
programma	-4830
37	-4831
▁​	-4832
ANT	-4833
Waar	-4834
▁Syl	-4835
▁(200	-4836
babbles	-4837
isteren	-4838
iele	-4839
push	-4840
▁pit	-4841
▁glim	-4842
bew	-4843
maker	-4844
▁charm	-4845
▁不是	-4846
ented	-4847
▁Gregorius	-4848
47	-4849
▁1980	-4850
actie	-4851
dt	-4852
▁resol	-4853
忽然	-4854
erse	-4855
OTHER	-4856
▁可是	-4857
▁equ	-4858
attle	-4859
▁Serge	-4860
schijnlijk	-4861
Br	-4862
▁VS	-4863
alie	-4864
▁screw	-4865
▁recept	-4866
igan	-4867
ites	-4868
▁2004	-4869
▁gisteravond	-4870
▁GO	-4871
▁Boston	-4872
oln	-4873
mail	-4874
▁Accord	-4875
arn	-4876
zan	-4877
gaven	-4878
▁Bespreek	-4879
▁flo	-4880
ubbel	-4881
▁2022	-4882
kund	-4883
▁Bye	-4884
▁Hold	-4885
▁Uitei	-4886
▁Moo	-4887
▁Show	-4888
icularly	-4889
▁Peg	-4890
tocht	-4891
▁College	-4892
刚刚	-4893
▁Annie	-4894
▁uniform	-4895
besch	-4896
▁Heil	-4897
▁Johnson	-4898
SE	-4899
tan	-4900
ices	-4901
▁Bessie	-4902
▁behoor	-4903
^{2}	-4904
zocht	-4905
ground	-4906
▁400	-4907
▁2005	-4908
▁Ni	-4909
▁Doro	-4910
▁Spec	-4911
▁buur	-4912
32	-4913
opher	-4914
▁commer	-4915
有很	-4916
▁besp	-4917
▁dread	-4918
chester	-4919
完了	-4920
Nin	-4921
heel	-4922
▁reco	-4923
▁Stuur	-4924
cts	-4925
alle	-4926
tot	-4927
▁dw	-4928
▁bud	-4929
▁Napole	-4930
▁Utrecht	-4931
▁Ob	-4932
tage	-4933
▁Still	-4934
▁duren	-4935
+{{	-4936
▁Rub	-4937
▁adop	-4938
leggen	-4939
little	-4940
~~	-4941
rukt	-4942
sche	-4943
▁sem	-4944
▁arrange	-4945
reis	-4946
▁dru	-4947
ouden	-4948
din	-4949
istic	-4950
loopt	-4951
dw	-4952
定会	-4953
iedenis	-4954
▁chocola	-4955
ait	-4956
rede	-4957
▁Wed	-4958
▁Last	-4959
▁Gesch	-4960
▁symbol	-4961
JES	-4962
题考查	-4963
▁Has	-4964
▁Huh	-4965
minal	-4966
oordelen	-4967
▁Wegwezen	-4968
$$(	-4969
note	-4970
▁Shar	-4971
▁Major	-4972
▁beper	-4973
hard	-4974
▁dode	-4975
too	-4976
▁klo	-4977
ooper	-4978
▁favour	-4979
▁Love	-4980
79	-4981
kse	-4982
▁AD	-4983
▁\\	-4984
imit	-4985
▁Doc	-4986
▁huil	-4987
保持	-4988
uto	-4989
▁Huis	-4990
▁出来	-4991
▁Bruce	-4992
)=	-4993
▁Ox	-4994
rzoek	-4995
▁1000	-4996
▁Linc	-4997
istisch	-4998
ska	-4999
都没有	-5000
▁Stand	-5001
▁suspect	-5002
qi	-5003
mal	-5004
▁su	-5005
warm	-5006
▁Bir	-5007
▁tap	-5008
▁Greek	-5009
geh	-5010
ctive	-5011
▁Indones	-5012
efd	-5013
▁7,	-5014
▁Hmm	-5015
sorry	-5016
▁AL	-5017
怎么样	-5018
▁2001	-5019
支持	-5020
ère	-5021
▁Goos	-5022
▁Nina	-5023
▁Vroeger	-5024
eech	-5025
▁mun	-5026
▁drag	-5027
ification	-5028
▁①	-5029
iend	-5030
▁Philip	-5031
▁孩	-5032
别的	-5033
reat	-5034
ekenen	-5035
alf	-5036
ega	-5037
wie	-5038
xide	-5039
tw	-5040
▁先	-5041
aka	-5042
zend	-5043
could	-5044
▁Child	-5045
vironment	-5046
▁快	-5047
aks	-5048
▁2007	-5049
▁Fire	-5050
▁Hoofd	-5051
tegenwoord	-5052
Chi	-5053
agt	-5054
▁Bonnet	-5055
▁Trum	-5056
▁Clemens	-5057
46	-5058
▁Keep	-5059
▁Wist	-5060
gelaten	-5061
整个	-5062
voud	-5063
▁Mic	-5064
▁Bull	-5065
▁Danny	-5066
▁Academy	-5067
▁Koninkrijk	-5068
500	-5069
▁craw	-5070
▁compla	-5071
etic	-5072
▁Os	-5073
▁Soph	-5074
▁complex	-5075
了个	-5076
bury	-5077
zaak	-5078
▁Alf	-5079
appoint	-5080
▁Lincoln	-5081
era	-5082
rk	-5083
▁Eh	-5084
▁Early	-5085
▁Jawel	-5086
sure	-5087
▁kno	-5088
icked	-5089
▁symp	-5090
ela	-5091
▁AT	-5092
▁是呀	-5093
▁1970	-5094
▁bevest	-5095
wal	-5096
ador	-5097
▁Gil	-5098
estival	-5099
▁noemde	-5100
▁呃	-5101
hib	-5102
▁NO	-5103
uls	-5104
esar	-5105
reland	-5106
schappen	-5107
yo	-5108
aald	-5109
stone	-5110
▁Sara	-5111
▁Napoleon	-5112
随着	-5113
uge	-5114
▁Tro	-5115
▁boun	-5116
▁Sport	-5117
▁consum	-5118
mom	-5119
ikte	-5120
kort	-5121
pass	-5122
▁mec	-5123
ti	-5124
把它	-5125
▁Sid	-5126
filler	-5127
vak	-5128
▁tand	-5129
,-	-5130
urk	-5131
igs	-5132
kee	-5133
uzz	-5134
snel	-5135
▁Cli	-5136
▁proceed	-5137
▁Praat	-5138
▁roepen	-5139
▁schoot	-5140
了好	-5141
给他	-5142
vangen	-5143
▁Il	-5144
▁Ged	-5145
▁conte	-5146
▁¶	-5147
▁②	-5148
▁ag	-5149
▁dam	-5150
Hij	-5151
aid	-5152
ture	-5153
while	-5154
▁prepar	-5155
▁Ireland	-5156
▁Pakistan	-5157
▁Charlotte	-5158
▁Voorzichtig	-5159
▁mig	-5160
groot	-5161
▁Reg	-5162
▁rubb	-5163
iny	-5164
krij	-5165
▁opt	-5166
ami	-5167
rus	-5168
▁JE	-5169
uhuh	-5170
uter	-5171
不可	-5172
▁pi	-5173
31	-5174
sal	-5175
▁Klopt	-5176
▁Empire	-5177
来是	-5178
▁Div	-5179
▁看看	-5180
green	-5181
▁schild	-5182
他是	-5183
fle	-5184
rson	-5185
▁Inno	-5186
▁Jord	-5187
OTH	-5188
▁Us	-5189
▁Video	-5190
middelen	-5191
spro	-5192
oepen	-5193
▁Fair	-5194
ELL	-5195
iat	-5196
idy	-5197
imum	-5198
Where	-5199
▁prefer	-5200
▁Virginia	-5201
▁Absol	-5202
▁hob	-5203
ques	-5204
▁reck	-5205
▁0.	-5206
airs	-5207
▁Staat	-5208
▁Young	-5209
▁Patrick	-5210
lt	-5211
ureau	-5212
了很	-5213
ifer	-5214
nods	-5215
▁whis	-5216
▁Bijna	-5217
ju	-5218
▁Daardoor	-5219
OP	-5220
Dan	-5221
▁Bol	-5222
▁Sab	-5223
ée	-5224
不用	-5225
▁Fox	-5226
▁Vla	-5227
▁好不好	-5228
ubb	-5229
icans	-5230
cry	-5231
vlak	-5232
▁(6	-5233
Unie	-5234
▁Vin	-5235
▁Terugkijken	-5236
他就	-5237
roe	-5238
cely	-5239
▁Bow	-5240
holds	-5241
▁Krijg	-5242
因素	-5243
olic	-5244
▁Rot	-5245
SISTER	-5246
▁Taylor	-5247
▁bisc	-5248
,$$	-5249
▁ok	-5250
▁inform	-5251
▁zolang	-5252
▁intellig	-5253
utter	-5254
▁doin	-5255
――	-5256
about	-5257
▁Dummie	-5258
Ste	-5259
ask	-5260
▁2002	-5261
▁incident	-5262
icy	-5263
lap	-5264
"?	-5265
遇到	-5266
luis	-5267
▁Pau	-5268
▁une	-5269
▁Gold	-5270
▁Beantwoord	-5271
▁Sup	-5272
▁mem	-5273
posed	-5274
▁Nice	-5275
▁Western	-5276
▁administ	-5277
▁Goedenavond	-5278
Ma	-5279
isy	-5280
▁Lor	-5281
▁obl	-5282
ikker	-5283
▁Plan	-5284
▁有没有	-5285
▁Ryan	-5286
yellow	-5287
bably	-5288
drukk	-5289
▁Film	-5290
▁Kunt	-5291
▁cock	-5292
centrum	-5293
▁Monday	-5294
EG	-5295
ima	-5296
▁sle	-5297
asy	-5298
goo	-5299
fall	-5300
▁gig	-5301
omers	-5302
▁Ongel	-5303
bid	-5304
cal	-5305
urd	-5306
▁FOR	-5307
trekk	-5308
▁bewo	-5309
▁priv	-5310
▁haalde	-5311
anken	-5312
wekken	-5313
▁Grace	-5314
桌子	-5315
▁teveel	-5316
给了	-5317
▁Pac	-5318
▁prett	-5319
▁Olympics	-5320
Who	-5321
的样子	-5322
ippen	-5323
▁merc	-5324
Mar	-5325
bin	-5326
nus	-5327
cons	-5328
▁stir	-5329
istent	-5330
ION	-5331
▁zil	-5332
▁lean	-5333
▁geslacht	-5334
May	-5335
▁EU	-5336
appe	-5337
▁Tan	-5338
hoofd	-5339
▁Pius	-5340
fab	-5341
▁Dy	-5342
ekra	-5343
}}$$	-5344
actually	-5345
▁Gol	-5346
▁Hend	-5347
▁saus	-5348
▁Robin	-5349
▁IX	-5350
▁Oran	-5351
stappen	-5352
▁Back	-5353
▁Beat	-5354
▁hypo	-5355
▁8.	-5356
mann	-5357
happy	-5358
▁Soviet	-5359
不想	-5360
▁anti	-5361
▁Holland	-5362
til	-5363
aled	-5364
zoeken	-5365
▁Vanavond	-5366
FAD	-5367
haven	-5368
▁Rachel	-5369
Of	-5370
hor	-5371
▁Au	-5372
▁Fro	-5373
werkt	-5374
都很	-5375
schip	-5376
▁Vaak	-5377
▁185	-5378
▁Tar	-5379
▁chap	-5380
▁remarked	-5381
ucky	-5382
wereld	-5383
ologische	-5384
▁中	-5385
在了	-5386
▁Kop	-5387
heers	-5388
▁Tien	-5389
▁Unie	-5390
▁kett	-5391
▁Stad	-5392
nacht	-5393
wassen	-5394
▁import	-5395
▁African	-5396
gez	-5397
ades	-5398
ours	-5399
▁Rol	-5400
ality	-5401
▁purs	-5402
reaten	-5403
best	-5404
itive	-5405
logen	-5406
ological	-5407
▁District	-5408
合题意	-5409
▁150	-5410
▁Commun	-5411
他在	-5412
kaar	-5413
burger	-5414
▁∴	-5415
去看	-5416
liep	-5417
▁stak	-5418
▁Caesar	-5419
▁Israel	-5420
uif	-5421
ulk	-5422
▁lab	-5423
▁Naast	-5424
▁Oorlog	-5425
ored	-5426
▁mill	-5427
▁Stone	-5428
blijven	-5429
silence	-5430
Als	-5431
nold	-5432
▁Kam	-5433
rated	-5434
fortun	-5435
▁instrument	-5436
IED	-5437
ilig	-5438
keerd	-5439
▁Book	-5440
▁Tech	-5441
▁spin	-5442
都要	-5443
vind	-5444
▁Sub	-5445
▁Shut	-5446
▁vari	-5447
39	-5448
miss	-5449
raagt	-5450
▁Fant	-5451
broek	-5452
eleid	-5453
▁Iran	-5454
▁Francisco	-5455
1]	-5456
vil	-5457
▁LA	-5458
▁Alan	-5459
▁script	-5460
▁behoorlijk	-5461
▁Kelly	-5462
▁Innocent	-5463
loy	-5464
var	-5465
DER	-5466
bei	-5467
osh	-5468
▁Britain	-5469
▁48	-5470
sens	-5471
▁Jason	-5472
▁Mun	-5473
200	-5474
▁Cass	-5475
▁schreeuw	-5476
▁Sally	-5477
▁Spaanse	-5478
不住	-5479
如此	-5480
▁Tri	-5481
▁8,	-5482
▁Mij	-5483
agne	-5484
letter	-5485
daddy	-5486
ennis	-5487
▁wr	-5488
cker	-5489
izend	-5490
▁1960	-5491
▁Trouw	-5492
▁SP	-5493
▁aw	-5494
▁ce	-5495
Good	-5496
doet	-5497
kind	-5498
▁Cro	-5499
IDENT	-5500
istance	-5501
▁Museum	-5502
▁Vor	-5503
▁sched	-5504
我在	-5505
isse	-5506
lers	-5507
vast	-5508
▁Meg	-5509
▁gym	-5510
▁Argent	-5511
ends	-5512
▁2003	-5513
▁inspir	-5514
▁mil	-5515
allow	-5516
orsie	-5517
spect	-5518
▁Eleanor	-5519
.(	-5520
aya	-5521
IGHT	-5522
reep	-5523
stan	-5524
zett	-5525
volutie	-5526
、$$	-5527
▁labor	-5528
igie	-5529
▁Alr	-5530
opper	-5531
▁Raad	-5532
▁fasc	-5533
▁wiss	-5534
▁spect	-5535
▁Instit	-5536
EM	-5537
Die	-5538
ijt	-5539
dekk	-5540
mijn	-5541
yard	-5542
alled	-5543
▁Each	-5544
▁behav	-5545
▁Awards	-5546
▁Midden	-5547
vrij	-5548
▁Aye	-5549
▁Ford	-5550
▁Oekra	-5551
▁sau	-5552
▁Russia	-5553
terusten	-5554
"]	-5555
isie	-5556
vier	-5557
onstr	-5558
▁schol	-5559
feer	-5560
dur	-5561
ops	-5562
six	-5563
wind	-5564
▁cab	-5565
▁Pete	-5566
就把	-5567
tit	-5568
rane	-5569
▁Next	-5570
▁beschouw	-5571
33	-5572
并不	-5573
▁Bad	-5574
▁Straks	-5575
不然	-5576
掉了	-5577
看来	-5578
▁Lib	-5579
▁bab	-5580
nment	-5581
osc	-5582
▁XI	-5583
olie	-5584
▁10,	-5585
▁Off	-5586
okken	-5587
yi	-5588
▁pep	-5589
▁Sint	-5590
▁Howard	-5591
dis	-5592
orp	-5593
zit	-5594
▁yi	-5595
▁Mars	-5596
▁Sand	-5597
▁wort	-5598
kennen	-5599
stelde	-5600
UG	-5601
▁为	-5602
▁哈	-5603
▁Stu	-5604
usion	-5605
▁Rand	-5606
ukt	-5607
atory	-5608
▁Team	-5609
▁toep	-5610
▁consc	-5611
▁Wilson	-5612
lly	-5613
ared	-5614
sung	-5615
uizen	-5616
morrow	-5617
▁voert	-5618
得很	-5619
lier	-5620
nast	-5621
▁Ster	-5622
▁Buiten	-5623
▁Spelen	-5624
▁Duitsers	-5625
▁Eindopdracht	-5626
疫情	-5627
agina	-5628
▁Snap	-5629
efen	-5630
▁Roos	-5631
▁Wales	-5632
Mo	-5633
们的	-5634
illes	-5635
▁fond	-5636
▁stre	-5637
▁latter	-5638
uses	-5639
跟着	-5640
▁Hav	-5641
▁inse	-5642
▁2020,	-5643
rels	-5644
▁Road	-5645
▁Brook	-5646
▁continu	-5647
Hoe	-5648
妈妈的	-5649
wart	-5650
year	-5651
▁Ban	-5652
▁Liz	-5653
igned	-5654
▁Court	-5655
▁Polly	-5656
▁Purdie	-5657
▁75	-5658
我去	-5659
ollo	-5660
ralen	-5661
steld	-5662
tains	-5663
gebruik	-5664
,$$\	-5665
each	-5666
▁10.	-5667
▁Hem	-5668
kaart	-5669
竟然	-5670
▁Ow	-5671
▁Lim	-5672
▁lux	-5673
vince	-5674
▁Start	-5675
yup	-5676
aded	-5677
erry	-5678
▁Mir	-5679
▁Innocentius	-5680
▁whist	-5681
▁Columb	-5682
▁Israël	-5683
▁Nation	-5684
▁Behalve	-5685
42	-5686
BI	-5687
bied	-5688
bird	-5689
gevo	-5690
▁Hay	-5691
▁medic	-5692
gedacht	-5693
▁Oranje	-5694
▁indust	-5695
正好	-5696
里有	-5697
law	-5698
izer	-5699
urop	-5700
▁Hand	-5701
▁onbe	-5702
▁worm	-5703
berries	-5704
▁Griekse	-5705
▁Today	-5706
▁Margar	-5707
uan	-5708
▁Fa	-5709
▁(17	-5710
ision	-5711
▁weig	-5712
▁Isabel	-5713
IET	-5714
doel	-5715
▁truc	-5716
▁qual	-5717
FT	-5718
时的	-5719
▁tab	-5720
eland	-5721
ultural	-5722
▁[$	-5723
▁Isn	-5724
▁Colon	-5725
genheid	-5726
ilities	-5727
▁initi	-5728
▁consequ	-5729
▁Welterusten	-5730
时期	-5731
Mama	-5732
rence	-5733
▁...-	-5734
▁Weer	-5735
▁Zodra	-5736
boot	-5737
▁hap	-5738
▁Recht	-5739
▁Portugal	-5740
VD	-5741
bad	-5742
▁gea	-5743
▁Eens	-5744
▁scrat	-5745
-16	-5746
vise	-5747
mans	-5748
▁hip	-5749
▁sil	-5750
omdat	-5751
mission	-5752
▁Voordat	-5753
走到	-5754
ziet	-5755
▁Whoa	-5756
▁Wolf	-5757
▁lijf	-5758
▁Nadat	-5759
middels	-5760
▁gehoor	-5761
KEN	-5762
出来的	-5763
rechten	-5764
▁request	-5765
▁Jeugdjournaal	-5766
▁UN	-5767
▁XX	-5768
▁[1.	-5769
ption	-5770
geleid	-5771
▁Louise	-5772
▁Scotland	-5773
lai	-5774
from	-5775
▁Form	-5776
▁③	-5777
▁Ali	-5778
▁Sche	-5779
ysteem	-5780
▁Korea	-5781
▁schak	-5782
achtige	-5783
DEN	-5784
oni	-5785
之间的	-5786
meren	-5787
▁ju	-5788
alys	-5789
wise	-5790
▁Make	-5791
会有	-5792
ali	-5793
chi	-5794
▁Dom	-5795
▁Syd	-5796
▁crim	-5797
boeken	-5798
orence	-5799
really	-5800
▁intent	-5801
▁aardapp	-5802
演的	-5803
zig	-5804
▁33	-5805
▁9.	-5806
▁ontvang	-5807
On	-5808
Ze	-5809
用于	-5810
ERS	-5811
▁Buck	-5812
▁neut	-5813
cement	-5814
过的	-5815
bas	-5816
▁Rab	-5817
aches	-5818
▁Haag	-5819
▁Loop	-5820
broken	-5821
▁Music	-5822
▁Jimmie	-5823
▁confir	-5824
▁sme	-5825
▁Five	-5826
volgens	-5827
96	-5828
riek	-5829
soft	-5830
▁180	-5831
▁Osc	-5832
▁Por	-5833
igger	-5834
期待	-5835
ctions	-5836
▁Liber	-5837
▁Grant	-5838
▁Irish	-5839
▁Jammer	-5840
}}^	-5841
▁NE	-5842
▁Licht	-5843
▁conflict	-5844
ux	-5845
akker	-5846
ichte	-5847
▁Joost	-5848
▁vehic	-5849
case	-5850
▁geë	-5851
acter	-5852
▁Bell	-5853
▁teen	-5854
▁Larry	-5855
▁horiz	-5856
PS	-5857
_.	-5858
▁py	-5859
isje	-5860
▁Guy	-5861
fection	-5862
anen	-5863
ores	-5864
chief	-5865
uries	-5866
zorgd	-5867
▁pump	-5868
OL	-5869
dagen	-5870
▁Hebt	-5871
▁Heren	-5872
▁Jenny	-5873
▁oblig	-5874
是要	-5875
▁sposta	-5876
▁Perfect	-5877
是啊	-5878
▁vel	-5879
▁Olympische	-5880
就能	-5881
▁BC	-5882
markt	-5883
uckles	-5884
IDENTIF	-5885
▁Altijd	-5886
▁Waarschijnlijk	-5887
schat	-5888
▁Latin	-5889
-7	-5890
awn	-5891
nos	-5892
▁Gods	-5893
▁Nancy	-5894
meester	-5895
▁lit	-5896
uldig	-5897
huizen	-5898
▁gepro	-5899
IDENTIFIED	-5900
hum	-5901
▁1:	-5902
▁sigar	-5903
▁nod	-5904
▁Williams	-5905
sem	-5906
▁Ale	-5907
▁Kans	-5908
▁liqu	-5909
UNIDENTIFIED	-5910
ski	-5911
iërs	-5912
zaal	-5913
▁Mem	-5914
werp	-5915
▁Arm	-5916
▁Hil	-5917
▁pup	-5918
▁试	-5919
▁Ko	-5920
cial	-5921
▁Mill	-5922
▁Voel	-5923
▁Maakt	-5924
▁specific	-5925
;"	-5926
mos	-5927
squ	-5928
bind	-5929
▁constit	-5930
▁。	-5931
iale	-5932
▁187	-5933
▁Gran	-5934
▁transl	-5935
cake	-5936
nik	-5937
▁Eva	-5938
▁dur	-5939
ersch	-5940
tisch	-5941
▁knul	-5942
▁onts	-5943
▁Think	-5944
边的	-5945
UST	-5946
怎么办	-5947
deur	-5948
ziek	-5949
▁Sit	-5950
blijf	-5951
▁geïn	-5952
下子	-5953
是指	-5954
cow	-5955
zers	-5956
▁HAV	-5957
▁Pot	-5958
▁Vik	-5959
▁fol	-5960
oelen	-5961
▁Teddy	-5962
sluiten	-5963
哪儿	-5964
▁Inst	-5965
▁Lewis	-5966
Amerika	-5967
gat	-5968
▁Polen	-5969
▁electron	-5970
BS	-5971
做了	-5972
▁Ak	-5973
出来了	-5974
nant	-5975
▁snoep	-5976
▁Hopelijk	-5977
▁mort	-5978
▁kolon	-5979
rnalist	-5980
▁Komaan	-5981
hof	-5982
▁Ari	-5983
nolog	-5984
stikke	-5985
真正	-5986
ijnse	-5987
▁Rond	-5988
▁Vuur	-5989
▁Watch	-5990
▁scheid	-5991
▁弄	-5992
geslagen	-5993
▁Victoria	-5994
▁Tegenwoord	-5995
Cl	-5996
▁9,	-5997
elet	-5998
only	-5999
arily	-6000
▁Goeie	-6001
▁Florence	-6002
▁等	-6003
cked	-6004
▁fee	-6005
▁raak	-6006
▁ty	-6007
rier	-6008
after	-6009
▁Hind	-6010
▁pub	-6011
iland	-6012
▁prakt	-6013
▁contribut	-6014
Did	-6015
▁Ama	-6016
▁sup	-6017
vloed	-6018
bellen	-6019
▁opeten	-6020
whispers	-6021
▁mochten	-6022
geen	-6023
Ca	-6024
▁行	-6025
▁smok	-6026
BROTHER	-6027
▁别	-6028
都没	-6029
lets	-6030
oude	-6031
whoa	-6032
achte	-6033
tentie	-6034
▁Ellen	-6035
▁Generaal	-6036
▁Americans	-6037
Ar	-6038
▁Volge	-6039
▁BO	-6040
doek	-6041
}}_2	-6042
▁由	-6043
-17	-6044
▁Bour	-6045
▁Partij	-6046
的吗	-6047
alo	-6048
imm	-6049
cuse	-6050
eman	-6051
hore	-6052
▁(16	-6053
▁gru	-6054
▁execut	-6055
▁ontplo	-6056
post	-6057
▁Clark	-6058
zettend	-6059
OH	-6060
并且	-6061
yone	-6062
▁Len	-6063
▁ser	-6064
uiven	-6065
▁出	-6066
ode	-6067
▁Dok	-6068
winkel	-6069
▁Cross	-6070
▁Teken	-6071
▁Weten	-6072
▁Women	-6073
▁faint	-6074
ishment	-6075
gehouden	-6076
▁坐	-6077
▁Fan	-6078
genoten	-6079
▁suspic	-6080
mbo	-6081
▁zwa	-6082
▁Meest	-6083
position	-6084
▁确	-6085
▁FC	-6086
rive	-6087
▁duw	-6088
▁Becky	-6089
▁Peggy	-6090
▁Witte	-6091
▁prote	-6092
ardo	-6093
choo	-6094
iful	-6095
volle	-6096
▁Beste	-6097
▁Barbara	-6098
件事	-6099
orf	-6100
▁[.	-6101
▁kg	-6102
▁Duke	-6103
▁我的	-6104
▁Slo	-6105
▁Zei	-6106
leden	-6107
oemen	-6108
werpen	-6109
▁Offic	-6110
▁Trans	-6111
duction	-6112
▁multip	-6113
的过	-6114
aboo	-6115
▁Check	-6116
▁exact	-6117
vaar	-6118
▁Bond	-6119
▁leap	-6120
▁critic	-6121
▁status	-6122
▁photograph	-6123
▁Tegenwoordig	-6124
ELS	-6125
mot	-6126
▁ALL	-6127
▁bid	-6128
▁Leer	-6129
▁被	-6130
不停	-6131
我有	-6132
rond	-6133
▁Jas	-6134
▁Lam	-6135
▁Log	-6136
cious	-6137
opter	-6138
▁Greg	-6139
▁Song	-6140
▁phys	-6141
▁Radio	-6142
▁zanger	-6143
▁34	-6144
cean	-6145
enig	-6146
▁Hea	-6147
Europ	-6148
inary	-6149
▁chall	-6150
▁Nobody	-6151
▁ul	-6152
draw	-6153
▁Sky	-6154
▁rev	-6155
buiten	-6156
wekkend	-6157
▁beoordelen	-6158
子里	-6159
▁humor	-6160
station	-6161
ROZ	-6162
▁Ol	-6163
▁Oo	-6164
liet	-6165
rial	-6166
aland	-6167
quest	-6168
roken	-6169
▁fier	-6170
▁filos	-6171
,[	-6172
EF	-6173
EV	-6174
》,	-6175
pre	-6176
没想到	-6177
▁Bank	-6178
▁Luke	-6179
▁foss	-6180
▁Mooie	-6181
▁Associ	-6182
▁Company	-6183
Fr	-6184
哪个	-6185
aurus	-6186
coura	-6187
▁boel	-6188
▁chea	-6189
▁Molly	-6190
▁2:	-6191
▁Bul	-6192
boden	-6193
▁beïn	-6194
▁Islam	-6195
▁Zwits	-6196
▁Lekker	-6197
▁Potter	-6198
看不	-6199
▁真的	-6200
bond	-6201
▁reput	-6202
rig	-6203
0,000	-6204
▁1999	-6205
▁Secr	-6206
▁suck	-6207
bedrijf	-6208
▁Congress	-6209
}}=	-6210
▁Ac	-6211
▁Chair	-6212
▁concept	-6213
去找	-6214
boel	-6215
▁Mickey	-6216
很有	-6217
dio	-6218
▁Duck	-6219
▁recog	-6220
 ·	-6221
ILL	-6222
kke	-6223
mic	-6224
igator	-6225
▁reflect	-6226
了啊	-6227
ipe	-6228
uce	-6229
▁Domin	-6230
awa	-6231
ugg	-6232
看到了	-6233
pull	-6234
eerde	-6235
zinnig	-6236
▁Nieuwe	-6237
▁koolstof	-6238
Go	-6239
uv	-6240
▁Vis	-6241
▁zaad	-6242
▁zodra	-6243
▁fa	-6244
▁1950	-6245
eeuwen	-6246
lement	-6247
▁ophouden	-6248
了呢	-6249
▁KN	-6250
word	-6251
▁Eet	-6252
▁Move	-6253
▁revol	-6254
▁schop	-6255
 ;	-6256
▁则	-6257
▁38	-6258
mage	-6259
▁bat	-6260
▁对不对	-6261
▁Call	-6262
▁gerust	-6263
:20	-6264
tek	-6265
etta	-6266
ipen	-6267
laag	-6268
nice	-6269
toon	-6270
▁Der	-6271
▁Isa	-6272
▁Egypte	-6273
▁Pracht	-6274
▁Record	-6275
▁Margaret	-6276
▁Geschiedenis	-6277
Er	-6278
zzz	-6279
▁12,	-6280
utenant	-6281
▁Jersey	-6282
heim	-6283
▁kol	-6284
pton	-6285
aaien	-6286
warte	-6287
58	-6288
好吧	-6289
我知	-6290
▁Ball	-6291
▁stor	-6292
▁Infor	-6293
uken	-6294
▁WAS	-6295
▁beschad	-6296
▁Sergeant	-6297
bby	-6298
esc	-6299
atsy	-6300
▁syn	-6301
$$2$$	-6302
▁④	-6303
哪些	-6304
iten	-6305
▁Moh	-6306
▁Graag	-6307
fit	-6308
kiss	-6309
nope	-6310
phen	-6311
▁vit	-6312
illed	-6313
▁Maur	-6314
▁⌊	-6315
Bob	-6316
▁HER	-6317
▁wre	-6318
▁Switz	-6319
▁scient	-6320
▁vrucht	-6321
remember	-6322
wedstrijd	-6323
uns	-6324
hist	-6325
load	-6326
arted	-6327
▁Sydney	-6328
▁Station	-6329
6$$	-6330
Ele	-6331
▁Yet	-6332
▁fal	-6333
dedig	-6334
▁Didn	-6335
▁torn	-6336
▁habit	-6337
▁Asia	-6338
groeid	-6339
▁Apple	-6340
▁Princ	-6341
bericht	-6342
blik	-6343
hond	-6344
weeg	-6345
▁Oude	-6346
{1}{2}	-6347
ulation	-6348
3]	-6349
项是	-6350
lash	-6351
▁dod	-6352
istry	-6353
▁Gooi	-6354
▁bere	-6355
▁Sophie	-6356
▁Banglad	-6357
▁Raymond	-6358
▁ven	-6359
passen	-6360
ulatie	-6361
▁Linda	-6362
imal	-6363
tech	-6364
▁Glo	-6365
erves	-6366
inken	-6367
▁Test	-6368
▁rail	-6369
达到	-6370
dic	-6371
▁reve	-6372
了我	-6373
were	-6374
▁aer	-6375
▁Bird	-6376
▁Joan	-6377
▁Emily	-6378
▁Hollywood	-6379
好看	-6380
yay	-6381
▁Dru	-6382
▁Moon	-6383
拿着	-6384
tis	-6385
Here	-6386
rate	-6387
▁Spi	-6388
▁Veg	-6389
▁brut	-6390
▁Madame	-6391
▁opgave	-6392
▁gezeten	-6393
NBA	-6394
oft	-6395
▁Happy	-6396
▁opper	-6397
eration	-6398
ificant	-6399
▁SH	-6400
ault	-6401
ieus	-6402
▁Mak	-6403
▁amus	-6404
IJN	-6405
▁37	-6406
hone	-6407
long	-6408
pens	-6409
tallen	-6410
▁Games	-6411
▁Marcus	-6412
▁reckon	-6413
gew	-6414
hin	-6415
urm	-6416
▁loy	-6417
fire	-6418
▁schaam	-6419
▁Vl	-6420
pick	-6421
▁Tob	-6422
stoel	-6423
▁Also	-6424
vision	-6425
vocalize	-6426
WE	-6427
▁KB	-6428
tinct	-6429
▁Hoel	-6430
regels	-6431
▁scarcely	-6432
SS	-6433
umin	-6434
▁Sav	-6435
▁Var	-6436
uitar	-6437
▁(;	-6438
vormen	-6439
▁opzij	-6440
mou	-6441
zou	-6442
▁COM	-6443
▁ras	-6444
▁tradition	-6445
hot	-6446
klaar	-6447
▁Pass	-6448
leiden	-6449
▁Anyway	-6450
ELA	-6451
Mom	-6452
strom	-6453
SC	-6454
tea	-6455
eefd	-6456
▁hao	-6457
eless	-6458
▁Thor	-6459
!!	-6460
44	-6461
▁Zes	-6462
▁Laur	-6463
▁Belle	-6464
▁hydro	-6465
▁Provinc	-6466
▁谢谢	-6467
roon	-6468
chair	-6469
sky	-6470
tog	-6471
▁UK	-6472
bers	-6473
▁Bee	-6474
▁gij	-6475
beter	-6476
▁Barry	-6477
▁ontsp	-6478
▁Jackie	-6479
▁respons	-6480
上有	-6481
mus	-6482
▁Py	-6483
ctic	-6484
▁slo	-6485
beren	-6486
▁Head	-6487
▁trop	-6488
bouwen	-6489
对对	-6490
▁bijeen	-6491
▁bok	-6492
Fraser	-6493
elstuk	-6494
居然	-6495
cea	-6496
When	-6497
vard	-6498
▁Roo	-6499
▁Tam	-6500
▁pret	-6501
▁stress	-6502
98	-6503
llie	-6504
ookt	-6505
▁Dog	-6506
▁pron	-6507
▁repe	-6508
artement	-6509
▁gerecht	-6510
kr	-6511
差不	-6512
▁fo	-6513
▁regr	-6514
▁yo	-6515
▁Zwe	-6516
▁Kerk	-6517
▁happ	-6518
▁Palest	-6519
▁evidently	-6520
26	-6521
跟我	-6522
agon	-6523
mont	-6524
▁191	-6525
venue	-6526
▁Gron	-6527
▁rece	-6528
▁Harold	-6529
▁leidde	-6530
▁Verenigd	-6531
gon	-6532
laan	-6533
▁Home	-6534
etched	-6535
▁Honor	-6536
▁contra	-6537
ANG	-6538
rein	-6539
▁Vera	-6540
▁klote	-6541
▁Center	-6542
▁omschrijven	-6543
aap	-6544
set	-6545
uesday	-6546
▁Second	-6547
baarheid	-6548
▁Hoelang	-6549
Man	-6550
▁Aud	-6551
▁Mod	-6552
▁cruel	-6553
▁Joden	-6554
▁Julie	-6555
geschreven	-6556
事儿	-6557
是由	-6558
tom	-6559
▁Fif	-6560
▁inte	-6561
▁spite	-6562
▁criminal	-6563
▁Australië	-6564
▁Lux	-6565
sprong	-6566
▁ontdekk	-6567
)\	-6568
95	-6569
VE	-6570
endy	-6571
paal	-6572
▁Cel	-6573
▁Hang	-6574
▁observ	-6575
▁meegemaakt	-6576
▁倒	-6577
们都	-6578
pare	-6579
wards	-6580
icient	-6581
""	-6582
clud	-6583
help	-6584
ronen	-6585
turns	-6586
▁gall	-6587
tische	-6588
▁kleed	-6589
▁Griekenland	-6590
care	-6591
erved	-6592
zinnen	-6593
▁pitch	-6594
▁Winter	-6595
president	-6596
的不	-6597
▁SO	-6598
limaat	-6599
▁Jordan	-6600
▁Meestal	-6601
▁bevindt	-6602
▁Tuurlijk	-6603
uim	-6604
▁dum	-6605
netje	-6606
▁Gary	-6607
▁Carol	-6608
▁Drink	-6609
▁compl	-6610
▁glimla	-6611
corn	-6612
▁dar	-6613
▁Ziet	-6614
▁immig	-6615
▁Windows	-6616
ros	-6617
▁Moor	-6618
▁quar	-6619
speech	-6620
▁ambass	-6621
0$$	-6622
urg	-6623
是怎么	-6624
gesp	-6625
▁wid	-6626
assen	-6627
Eleanor	-6628
▁Pierre	-6629
Mr	-6630
zw	-6631
仔细	-6632
omy	-6633
▁试题	-6634
挺好的	-6635
urance	-6636
▁Helaas	-6637
▁Colonel	-6638
▁concern	-6639
▁transfer	-6640
):	-6641
hoop	-6642
lief	-6643
uzen	-6644
svorm	-6645
rative	-6646
steken	-6647
▁lukken	-6648
到的	-6649
boo	-6650
chem	-6651
ided	-6652
naast	-6653
bridge	-6654
komsten	-6655
什么的	-6656
▁Erg	-6657
▁din	-6658
ewikk	-6659
▁ignor	-6660
▁veert	-6661
▁temper	-6662
UM	-6663
som	-6664
ijns	-6665
▁cas	-6666
▁beho	-6667
下次	-6668
fan	-6669
mob	-6670
loyd	-6671
lezen	-6672
▁1998	-6673
▁2023	-6674
▁Enter	-6675
▁Ocean	-6676
lig	-6677
oze	-6678
▁NIET	-6679
isfact	-6680
▁admir	-6681
iteiten	-6682
▁Paulus	-6683
▁Social	-6684
▁struct	-6685
rend	-6686
stru	-6687
▁Kong	-6688
▁����	-6689
iseerde	-6690
▁av	-6691
▁Town	-6692
ursday	-6693
Are	-6694
sbe	-6695
▁Ms	-6696
irty	-6697
loek	-6698
pijn	-6699
▁===	-6700
▁Step	-6701
▁ticket	-6702
▁Besides	-6703
▁FBI	-6704
jamin	-6705
draaien	-6706
▁Valley	-6707
▁Lieutenant	-6708
都能	-6709
stij	-6710
rough	-6711
▁relax	-6712
▁monarch	-6713
aki	-6714
mod	-6715
nuw	-6716
▁Pil	-6717
genen	-6718
▁religie	-6719
7]	-6720
{4	-6721
▁据	-6722
char	-6723
▁Noteer	-6724
▁horsie	-6725
▁gesteld	-6726
▁Kerstmis	-6727
ón	-6728
vet	-6729
amed	-6730
vand	-6731
▁Afg	-6732
▁gri	-6733
▁Remember	-6734
就有	-6735
aag	-6736
phy	-6737
▁rum	-6738
essen	-6739
pelen	-6740
▁supp	-6741
waarts	-6742
▁Miller	-6743
▁ontzettend	-6744
是吧	-6745
5-1	-6746
来到了	-6747
pron	-6748
▁Pic	-6749
▁dro	-6750
zamel	-6751
▁Davis	-6752
▁Kitty	-6753
shi	-6754
eien	-6755
toge	-6756
▁Las	-6757
ieven	-6758
▁Cool	-6759
▁VOOR	-6760
▁Dennis	-6761
▁Tour	-6762
▁Person	-6763
gevallen	-6764
▁Majeste	-6765
的呢	-6766
ITH	-6767
hao	-6768
▁65	-6769
▁Cook	-6770
▁Hugh	-6771
▁Spar	-6772
▁Andre	-6773
▁Hotel	-6774
Nou	-6775
bot	-6776
hmm	-6777
arly	-6778
▁Bus	-6779
▁hon	-6780
liament	-6781
▁MY	-6782
star	-6783
▁Adr	-6784
▁Gem	-6785
▁elim	-6786
slagen	-6787
▁Jesse	-6788
住在	-6789
mad	-6790
▁42	-6791
oted	-6792
rang	-6793
amily	-6794
klaas	-6795
outer	-6796
▁1996	-6797
untary	-6798
▁Robbie	-6799
▁schuil	-6800
▁concurr	-6801
▁opsch	-6802
▁Apollo	-6803
▁borrow	-6804
▁rapidly	-6805
án	-6806
中医	-6807
▁孩儿	-6808
ello	-6809
▁inn	-6810
ahhah	-6811
oster	-6812
▁Confe	-6813
ii	-6814
得了	-6815
zhei	-6816
▁bruid	-6817
▁stack	-6818
▁Sylvia	-6819
spe	-6820
talk	-6821
voed	-6822
▁Joy	-6823
▁Pra	-6824
▁lim	-6825
ucker	-6826
▁Lara	-6827
▁dump	-6828
▁advis	-6829
▁Claire	-6830
▁budget	-6831
}+\	-6832
▁觉得	-6833
▁smee	-6834
▁contain	-6835
▁zogenaam	-6836
{5	-6837
'''	-6838
gig	-6839
aval	-6840
▁Zag	-6841
▁Oxford	-6842
TH	-6843
$$1	-6844
tof	-6845
▁[2	-6846
▁哦哦	-6847
ache	-6848
reef	-6849
▁XII	-6850
▁ler	-6851
ivity	-6852
▁vmbo	-6853
▁competed	-6854
aga	-6855
▁sa	-6856
bbie	-6857
inct	-6858
▁Pea	-6859
▁toel	-6860
idence	-6861
▁Mount	-6862
aghetti	-6863
例如	-6864
▁Dub	-6865
akers	-6866
rdeel	-6867
▁lack	-6868
▁Zeven	-6869
▁spons	-6870
GRANDFATHER	-6871
▁诶	-6872
bos	-6873
rin	-6874
不是很	-6875
toys	-6876
▁Beck	-6877
▁Stay	-6878
▁Power	-6879
▁squee	-6880
waarden	-6881
▁Bovendien	-6882
AI	-6883
▁Fu	-6884
▁Wy	-6885
▁glu	-6886
arters	-6887
▁bemoe	-6888
▁knuff	-6889
▁occup	-6890
^2	-6891
COL	-6892
inky	-6893
oest	-6894
tact	-6895
brush	-6896
coughs	-6897
▁Kennedy	-6898
▁Parliament	-6899
iki	-6900
▁Ker	-6901
▁Sat	-6902
▁Such	-6903
▁buff	-6904
▁Sandy	-6905
▁Moeten	-6906
▁Hendrik	-6907
elijkheid	-6908
Le	-6909
▁ax	-6910
aakt	-6911
▁Jew	-6912
zoals	-6913
▁Oscar	-6914
▁bewer	-6915
MAT	-6916
▁MO	-6917
▁woke	-6918
▁Armen	-6919
▁Mario	-6920
▁Zealand	-6921
To	-6922
irls	-6923
kele	-6924
quar	-6925
amilie	-6926
▁reken	-6927
▁breast	-6928
▁Majesteit	-6929
▁Bangladesh	-6930
▁dim	-6931
sland	-6932
||0||	-6933
▁koor	-6934
▁streek	-6935
想着	-6936
iep	-6937
▁(3	-6938
▁wra	-6939
ached	-6940
koper	-6941
▁joch	-6942
▁sequ	-6943
nament	-6944
▁Honey	-6945
85	-6946
ippi	-6947
▁Hob	-6948
schappij	-6949
按照	-6950
而是	-6951
Can	-6952
hab	-6953
etts	-6954
voeg	-6955
▁Chap	-6956
▁mobiel	-6957
gebieden	-6958
aged	-6959
▁Gram	-6960
hebben	-6961
oco	-6962
▁dwa	-6963
▁Blij	-6964
oordeeld	-6965
Just	-6966
uurt	-6967
slaan	-6968
vlees	-6969
▁Hung	-6970
▁Iris	-6971
cr	-6972
fl	-6973
样啊	-6974
▁sj	-6975
...-	-6976
haha	-6977
▁Kir	-6978
▁Via	-6979
atius	-6980
snaam	-6981
▁dunno	-6982
▁schud	-6983
▁Tenzij	-6984
▁apolog	-6985
4-1	-6986
giv	-6987
tuig	-6988
▁slee	-6989
▁Kolon	-6990
▁Morris	-6991
▁gepraat	-6992
▁improve	-6993
Per	-6994
omi	-6995
bord	-6996
▁Hannah	-6997
▁dubbel	-6998
▁Tuesday	-6999
Re	-7000
1-1	-7001
真的很	-7002
napp	-7003
reig	-7004
▁vre	-7005
houdt	-7006
▁imag	-7007
▁Lucas	-7008
▁Volks	-7009
▁poison	-7010
IVE	-7011
icum	-7012
▁Oma	-7013
▁ego	-7014
▁fel	-7015
inned	-7016
ropol	-7017
▁Kr	-7018
▁wo	-7019
interklaas	-7020
KF	-7021
uy	-7022
③④	-7023
KAR	-7024
atic	-7025
clear	-7026
▁Draai	-7027
▁Group	-7028
▁gelaten	-7029
▁bescherm	-7030
▁(4	-7031
▁Cr	-7032
▁zu	-7033
eerd	-7034
▁11,	-7035
▁Cop	-7036
▁Cru	-7037
ushed	-7038
▁Damn	-7039
▁Golden	-7040
▁Zwarte	-7041
▁lood	-7042
▁virt	-7043
▁Categ	-7044
▁Leave	-7045
▁Sluit	-7046
▁Should	-7047
▁Bernard	-7048
pon	-7049
▁Gi	-7050
cock	-7051
▁20,	-7052
▁pru	-7053
nodig	-7054
▁Oper	-7055
orough	-7056
▁Class	-7057
▁Kruis	-7058
LU	-7059
ér	-7060
lav	-7061
uke	-7062
eral	-7063
▁Deel	-7064
);	-7065
以来	-7066
cases	-7067
fy	-7068
sex	-7069
icit	-7070
▁Wol	-7071
stick	-7072
▁Georgia	-7073
▁Try	-7074
▁lic	-7075
elson	-7076
▁Rijn	-7077
▁prior	-7078
▁spion	-7079
▁Heilige	-7080
Ah	-7081
zone	-7082
▁Eve	-7083
itale	-7084
wijze	-7085
▁strom	-7086
bee	-7087
hun	-7088
的就是	-7089
▁opz	-7090
▁WHAT	-7091
▁Democratic	-7092
km	-7093
von	-7094
cles	-7095
pakt	-7096
real	-7097
volk	-7098
▁cro	-7099
shirt	-7100
atieve	-7101
binnen	-7102
▁Polit	-7103
ulations	-7104
nk	-7105
▁XIII	-7106
▁crick	-7107
lat	-7108
▁Boris	-7109
▁Britt	-7110
▁arbeid	-7111
▁sprook	-7112
▁Benjamin	-7113
▁39	-7114
▁Ay	-7115
also	-7116
▁Allah	-7117
▁Rennen	-7118
ontschuld	-7119
lid	-7120
▁13,	-7121
▁16,	-7122
▁Run	-7123
▁1992	-7124
muziek	-7125
writer	-7126
▁infect	-7127
▁Fantast	-7128
John	-7129
rale	-7130
agram	-7131
first	-7132
intig	-7133
▁subs	-7134
▁Agent	-7135
▁conce	-7136
▁conserv	-7137
▁]	-7138
fly	-7139
ght	-7140
uma	-7141
▁weal	-7142
tplant	-7143
▁Trump	-7144
duizend	-7145
gesproken	-7146
▁Thursday	-7147
CA	-7148
Sh	-7149
feld	-7150
▁kor	-7151
▁zui	-7152
----"	-7153
▁stelde	-7154
▁最	-7155
sol	-7156
▁conv	-7157
▁Griff	-7158
}^\	-7159
cell	-7160
▁Pub	-7161
▁wol	-7162
issie	-7163
▁Karl	-7164
▁pijl	-7165
eltjes	-7166
▁Whate	-7167
▁Warren	-7168
▁guitar	-7169
kap	-7170
utt	-7171
▁Nam	-7172
▁rhy	-7173
▁Reken	-7174
▁Wes	-7175
icken	-7176
▁Urban	-7177
▁Atlantic	-7178
vlo	-7179
omed	-7180
▁ama	-7181
achus	-7182
▁Ooit	-7183
▁Willen	-7184
gery	-7185
keep	-7186
▁greet	-7187
▁prest	-7188
▁stout	-7189
drukken	-7190
▁Hierbij	-7191
ags	-7192
aro	-7193
ikel	-7194
soort	-7195
vogel	-7196
gehaald	-7197
▁Slecht	-7198
▁Someone	-7199
▁complic	-7200
▁Herinner	-7201
▁Trouwens	-7202
▁与	-7203
tick	-7204
▁Soon	-7205
▁gord	-7206
nesday	-7207
▁2019,	-7208
▁Kleur	-7209
到处	-7210
fig	-7211
▁Scar	-7212
▁Ellie	-7213
werkers	-7214
.[	-7215
xy	-7216
elp	-7217
出现了	-7218
actly	-7219
▁Klaas	-7220
▁Marok	-7221
▁Percy	-7222
▁Econom	-7223
fou	-7224
)$$,	-7225
indy	-7226
week	-7227
▁Jay	-7228
▁Mas	-7229
table	-7230
▁Abra	-7231
▁Zweden	-7232
▁consult	-7233
Ind	-7234
lov	-7235
cribe	-7236
hoorn	-7237
gerust	-7238
▁calcul	-7239
▁Prachtig	-7240
▁Cre	-7241
▁geï	-7242
▁hok	-7243
▁Robinson	-7244
";	-7245
ez	-7246
nda	-7247
duid	-7248
▁Lois	-7249
▁Year	-7250
▁Pacific	-7251
▁Association	-7252
paard	-7253
▁1994	-7254
▁roep	-7255
▁focus	-7256
▁Felix	-7257
spreken	-7258
▁Sommigen	-7259
吓得	-7260
怎样	-7261
erts	-7262
gren	-7263
▁Kno	-7264
▁Kra	-7265
reren	-7266
ablish	-7267
kosten	-7268
▁Allen	-7269
▁Micro	-7270
▁occurred	-7271
zu	-7272
国的	-7273
▁Aut	-7274
▁aim	-7275
$$3$$	-7276
bakken	-7277
▁Wordt	-7278
▁squir	-7279
▁Carter	-7280
▁Lawrence	-7281
把我	-7282
▁DAT	-7283
$$1$$	-7284
▁Cuba	-7285
▁Hurry	-7286
▁Nieuws	-7287
gestelde	-7288
▁Japanse	-7289
god	-7290
▁Fai	-7291
▁Holy	-7292
▁Raak	-7293
▁klus	-7294
ference	-7295
▁Brazilië	-7296
Na	-7297
\%	-7298
aria	-7299
lessly	-7300
▁kitten	-7301
我很	-7302
2$$	-7303
▁Id	-7304
▁Wr	-7305
▁orch	-7306
▁Depart	-7307
▁require	-7308
▁Actually	-7309
bol	-7310
alty	-7311
▁Cir	-7312
eters	-7313
▁Aard	-7314
▁Province	-7315
▁44	-7316
oopt	-7317
▁trem	-7318
▁sacrif	-7319
▁Stanley	-7320
▁Gl	-7321
▁nie	-7322
break	-7323
▁THIS	-7324
▁14,	-7325
▁Pict	-7326
▁dict	-7327
▁spaar	-7328
gebroken	-7329
▁Christopher	-7330
JO	-7331
pur	-7332
hart	-7333
▁CIA	-7334
oeien	-7335
▁Glor	-7336
▁Snow	-7337
▁chat	-7338
▁lich	-7339
▁spre	-7340
▁2020)	-7341
pression	-7342
▁fiction	-7343
视频	-7344
▁ly	-7345
起来了	-7346
enny	-7347
ronk	-7348
▁120	-7349
▁Bom	-7350
▁Hog	-7351
▁Oom	-7352
▁并	-7353
acon	-7354
fens	-7355
scre	-7356
▁ped	-7357
▁Vlie	-7358
▁diale	-7359
▁Spreek	-7360
▁Turkije	-7361
▁同	-7362
lims	-7363
▁..."	-7364
▁Austria	-7365
▁inmiddels	-7366
cm	-7367
送给	-7368
}{3	-7369
ells	-7370
unts	-7371
▁Vre	-7372
rijft	-7373
▁1997	-7374
▁Lode	-7375
▁Jamie	-7376
似的	-7377
叫做	-7378
stor	-7379
▁Vrouwen	-7380
▁structuur	-7381
▁Sinterklaas	-7382
4]	-7383
ae	-7384
oute	-7385
nemer	-7386
▁Half	-7387
▁vlam	-7388
▁Extra	-7389
▁Sweden	-7390
▁Football	-7391
jan	-7392
▁tub	-7393
lican	-7394
moves	-7395
▁1995	-7396
▁meda	-7397
▁Mitch	-7398
▁Speel	-7399
▁Alaska	-7400
ALL	-7401
tak	-7402
tte	-7403
blow	-7404
▁Gib	-7405
▁spo	-7406
itaal	-7407
▁doss	-7408
contin	-7409
▁repar	-7410
▁tramp	-7411
▁upside	-7412
▁Vertrouw	-7413
vr	-7414
Look	-7415
umed	-7416
▁15,	-7417
▁Juan	-7418
▁pist	-7419
appear	-7420
▁geste	-7421
onsieur	-7422
▁proced	-7423
▁scream	-7424
好啊	-7425
才是	-7426
gem	-7427
ollen	-7428
▁Fall	-7429
▁knie	-7430
▁zwer	-7431
▁Alban	-7432
▁opmerk	-7433
▁bevrijd	-7434
▁chocolade	-7435
不如	-7436
sie	-7437
▁好吧	-7438
haar	-7439
{}^\	-7440
▁Leven	-7441
▁bleven	-7442
trok	-7443
▁unf	-7444
▁yog	-7445
▁Wauw	-7446
▁slij	-7447
mannen	-7448
▁stoom	-7449
▁Junior	-7450
{3}	-7451
denk	-7452
loge	-7453
prom	-7454
▁kre	-7455
ockey	-7456
▁Meen	-7457
▁fuss	-7458
▁tidy	-7459
keurig	-7460
shouts	-7461
▁Dallas	-7462
▁Lodewijk	-7463
▁construct	-7464
▁Italiaanse	-7465
▁sufficient	-7466
ijdt	-7467
andon	-7468
▁toss	-7469
▁zhei	-7470
enomen	-7471
▁Mabel	-7472
▁Dokter	-7473
▁11.	-7474
kozen	-7475
volgd	-7476
▁Sean	-7477
▁serv	-7478
ografie	-7479
▁necess	-7480
achusetts	-7481
▁Chairman	-7482
▁此	-7483
vig	-7484
Daar	-7485
poor	-7486
apple	-7487
poort	-7488
▁acid	-7489
▁waan	-7490
eriaal	-7491
ruimte	-7492
systeem	-7493
▁arrive	-7494
▁Controle	-7495
不在	-7496
cap	-7497
opp	-7498
▁Yep	-7499
ijken	-7500
vania	-7501
blemen	-7502
▁Morgan	-7503
▁Zoiets	-7504
▁sorrow	-7505
▁Oekraïne	-7506
**	-7507
我来	-7508
team	-7509
▁Tak	-7510
▁exc	-7511
itions	-7512
orange	-7513
▁Emper	-7514
▁effic	-7515
tronaut	-7516
▁accent	-7517
▁rubber	-7518
▁即	-7519
bang	-7520
ijkt	-7521
▁(2)	-7522
▁sew	-7523
▁cord	-7524
▁Again	-7525
▁Illust	-7526
物的	-7527
foot	-7528
gust	-7529
ikki	-7530
isen	-7531
▁McG	-7532
爸爸妈妈	-7533
▁Jood	-7534
gevoel	-7535
▁Bruss	-7536
▁sprang	-7537
▁target	-7538
cs	-7539
▁ep	-7540
spre	-7541
stek	-7542
▁laf	-7543
▁slu	-7544
nietig	-7545
▁Eastern	-7546
ün	-7547
队的	-7548
pal	-7549
uum	-7550
boat	-7551
edig	-7552
amber	-7553
ollow	-7554
phone	-7555
}_{2}	-7556
▁Rode	-7557
▁flood	-7558
88	-7559
él	-7560
▁Bah	-7561
▁Mis	-7562
endom	-7563
steun	-7564
umble	-7565
▁Glen	-7566
▁Kyle	-7567
▁duik	-7568
geveer	-7569
▁Cooper	-7570
▁Mannen	-7571
▁arbeids	-7572
▁acquaint	-7573
▁surround	-7574
▁Wednesday	-7575
IST	-7576
half	-7577
▁Aha	-7578
burgh	-7579
iveau	-7580
istant	-7581
▁Niger	-7582
▁inten	-7583
▁polit	-7584
▁gigant	-7585
cia	-7586
jas	-7587
▁Mmm	-7588
▁jud	-7589
▁Poor	-7590
▁sympt	-7591
▁behalen	-7592
▁Manchester	-7593
用了	-7594
gun	-7595
▁Liv	-7596
▁buck	-7597
ential	-7598
ranten	-7599
▁comra	-7600
▁imper	-7601
getrokken	-7602
ür	-7603
相等	-7604
▁Rat	-7605
▁toer	-7606
▁Patsy	-7607
▁Mister	-7608
hs	-7609
rone	-7610
▁ABC	-7611
▁Clo	-7612
▁Sad	-7613
▁Acht	-7614
▁lust	-7615
▁Beter	-7616
▁Category	-7617
mil	-7618
▁WK	-7619
schot	-7620
▁zoet	-7621
▁Camer	-7622
▁Versch	-7623
▁Stephen	-7624
▁Department	-7625
65	-7626
As	-7627
躺在	-7628
iva	-7629
stap	-7630
uiken	-7631
▁Amanda	-7632
aah	-7633
▁hu	-7634
bage	-7635
feat	-7636
taan	-7637
▁Too	-7638
▁Vic	-7639
ffect	-7640
▁Jong	-7641
▁Lily	-7642
▁Rosa	-7643
▁zuur	-7644
▁Middle	-7645
▁Zolang	-7646
ati	-7647
him	-7648
▁ow	-7649
assa	-7650
dank	-7651
▁Ein	-7652
▁Diego	-7653
▁Gabri	-7654
▁Luxem	-7655
▁compar	-7656
quarters	-7657
▁Britten	-7658
▁Vergelijk	-7659
▁opschieten	-7660
▁Massachusetts	-7661
上来	-7662
sop	-7663
uen	-7664
▁Rud	-7665
▁Forg	-7666
▁sofa	-7667
▁tiss	-7668
▁items	-7669
▁Amerikaans	-7670
▁Californië	-7671
乒乓	-7672
KAT	-7673
▁Hug	-7674
doesn	-7675
domme	-7676
schil	-7677
▁Pooh	-7678
riften	-7679
whispered	-7680
渐渐	-7681
▁vi	-7682
away	-7683
nina	-7684
▁Turn	-7685
▁Whit	-7686
▁chew	-7687
▁sweep	-7688
▁Valent	-7689
▁Waarvoor	-7690
▁Institute	-7691
uer	-7692
alous	-7693
known	-7694
▁Must	-7695
cribed	-7696
ulture	-7697
▁Absoluut	-7698
bt	-7699
yer	-7700
lane	-7701
▁Sel	-7702
craft	-7703
invol	-7704
▁Kansas	-7705
alog	-7706
ences	-7707
aardig	-7708
▁Story	-7709
▁Constant	-7710
▁Footnote	-7711
2]	-7712
▁ko	-7713
brug	-7714
loma	-7715
tion	-7716
ugel	-7717
▁bree	-7718
▁Karen	-7719
▁scratch	-7720
face	-7721
▁INV	-7722
▁Loc	-7723
ledge	-7724
▁Budd	-7725
▁fold	-7726
▁irrit	-7727
▁Russen	-7728
▁Vincent	-7729
▁Daarvoor	-7730
tou	-7731
stro	-7732
wide	-7733
▁Abe	-7734
▁Est	-7735
▁Pit	-7736
▁Rid	-7737
heids	-7738
▁Groen	-7739
urrican	-7740
▁horror	-7741
▁AM	-7742
▁OH	-7743
ando	-7744
▁rejo	-7745
partij	-7746
kundige	-7747
▁intens	-7748
American	-7749
At	-7750
PLA	-7751
Miss	-7752
▁Pip	-7753
▁som	-7754
ditie	-7755
ielen	-7756
meisje	-7757
▁unfortun	-7758
不再	-7759
afe	-7760
isd	-7761
nat	-7762
twee	-7763
gonna	-7764
erable	-7765
nemers	-7766
ounced	-7767
vd	-7768
IND	-7769
onia	-7770
▁Tai	-7771
▁Zoe	-7772
oefen	-7773
ridge	-7774
▁Todd	-7775
issippi	-7776
▁Norman	-7777
▁unable	-7778
vant	-7779
▁18,	-7780
▁Bush	-7781
▁Wall	-7782
gebouwd	-7783
aak	-7784
cus	-7785
▁AF	-7786
alem	-7787
oemd	-7788
stok	-7789
ufact	-7790
▁Cole	-7791
▁Bonif	-7792
▁Seven	-7793
▁Arnold	-7794
▁instit	-7795
要去	-7796
oei	-7797
▁FAT	-7798
▁vloe	-7799
kleden	-7800
geraakt	-7801
Zo	-7802
▁bib	-7803
▁Lion	-7804
gesloten	-7805
▁extreme	-7806
▁Princess	-7807
了几	-7808
kou	-7809
ses	-7810
vre	-7811
cour	-7812
▁Blo	-7813
antly	-7814
▁Bram	-7815
ootzak	-7816
▁Force	-7817
involuntary	-7818
智能	-7819
算是	-7820
-{{	-7821
-200	-7822
goes	-7823
lter	-7824
▁CON	-7825
▁XIV	-7826
▁wis	-7827
Helen	-7828
icide	-7829
▁1945	-7830
▁curs	-7831
▁zwij	-7832
▁Chuck	-7833
▁quant	-7834
▁Daarmee	-7835
ici	-7836
ugs	-7837
rapt	-7838
▁Opa	-7839
▁Doet	-7840
Europa	-7841
groepen	-7842
▁Parker	-7843
Ex	-7844
了出来	-7845
atus	-7846
code	-7847
▁Ara	-7848
▁Lil	-7849
▁stier	-7850
June	-7851
ario	-7852
rain	-7853
▁DON	-7854
▁creë	-7855
▁puin	-7856
▁Battle	-7857
END	-7858
是真的	-7859
的意思	-7860
0$$,	-7861
again	-7862
▁Coll	-7863
▁WITH	-7864
▁Wendy	-7865
▁Zodat	-7866
VID	-7867
rief	-7868
{3}}	-7869
▁Ton	-7870
▁shr	-7871
▁wer	-7872
▁ontw	-7873
▁}	-7874
san	-7875
erous	-7876
▁Frances	-7877
bek	-7878
ees	-7879
▁Cer	-7880
▁sap	-7881
▁hobby	-7882
▁Leslie	-7883
▁advise	-7884
▁该	-7885
8$$	-7886
▁[3	-7887
ftig	-7888
ivil	-7889
pent	-7890
▁17,	-7891
▁22,	-7892
▁Gor	-7893
etter	-7894
▁Saar	-7895
▁Walt	-7896
▁drown	-7897
▁Vergeef	-7898
ré	-7899
天上	-7900
▁voer	-7901
gepast	-7902
.②	-7903
IJK	-7904
pig	-7905
▁Yo	-7906
▁[5	-7907
amma	-7908
beep	-7909
walk	-7910
wick	-7911
▁Hee	-7912
beurt	-7913
ieved	-7914
▁walvis	-7915
(\	-7916
引起	-7917
agg	-7918
▁嗯呢	-7919
ultuur	-7920
▁Vegas	-7921
▁stort	-7922
▁Maarten	-7923
▁Vervolgens	-7924
。(	-7925
规定	-7926
并没有	-7927
wiss	-7928
▁1940	-7929
▁Hope	-7930
▁Iron	-7931
▁rais	-7932
▁Buddy	-7933
SP	-7934
fst	-7935
▁21,	-7936
▁gei	-7937
langs	-7938
▁Fish	-7939
▁Shaw	-7940
▁poly	-7941
rassen	-7942
udeerd	-7943
▁Rober	-7944
atively	-7945
icopter	-7946
OE	-7947
很不	-7948
MEL	-7949
aaf	-7950
örd	-7951
Some	-7952
been	-7953
zoon	-7954
▁Face	-7955
▁Work	-7956
▁honk	-7957
▁munt	-7958
▁bijdra	-7959
▁tickets	-7960
▁Internet	-7961
没事	-7962
▁55	-7963
▁Dre	-7964
▁Hoo	-7965
icted	-7966
▁plot	-7967
▁preg	-7968
▁exhib	-7969
Wh	-7970
▁今	-7971
Will	-7972
▁pok	-7973
toets	-7974
ultan	-7975
▁darm	-7976
▁Broad	-7977
▁Achteruit	-7978
wr	-7979
▁ec	-7980
▁muz	-7981
seven	-7982
Steven	-7983
stance	-7984
▁purch	-7985
▁spier	-7986
▁Emperor	-7987
▁Houston	-7988
▁toepass	-7989
身子	-7990
pes	-7991
sis	-7992
▁600	-7993
▁sin	-7994
▁Asse	-7995
▁daad	-7996
▁obey	-7997
▁Justin	-7998
随便	-7999
OUT	-8000
syl	-8001
ental	-8002
▁1989	-8003
▁Pala	-8004
aanval	-8005
▁Samuel	-8006
▁repeat	-8007
▁Politie	-8008
▁horloge	-8009
▁instance	-8010
▁Belgische	-8011
sd	-8012
的呀	-8013
GER	-8014
▁bul	-8015
fense	-8016
▁geze	-8017
siteit	-8018
▁stretch	-8019
▁Activiteiten	-8020
67	-8021
称为	-8022
▁Ti	-8023
gets	-8024
▁Kas	-8025
▁Heal	-8026
▁Vast	-8027
▁absol	-8028
▁Mississippi	-8029
cro	-8030
ssel	-8031
▁Mess	-8032
▁Bravo	-8033
▁Guard	-8034
▁swift	-8035
▁Fransen	-8036
43	-8037
不及	-8038
▁Rh	-8039
suit	-8040
▁bun	-8041
▁drift	-8042
▁swallow	-8043
▁Michelle	-8044
OOD	-8045
▁其中	-8046
是为了	-8047
aalt	-8048
rekk	-8049
▁Kay	-8050
▁Mol	-8051
▁dou	-8052
▁Tele	-8053
▁roar	-8054
▁viss	-8055
▁float	-8056
▁Kolonel	-8057
iër	-8058
▁AC	-8059
avan	-8060
owel	-8061
rijke	-8062
▁Azië	-8063
国足	-8064
IER	-8065
abul	-8066
klas	-8067
uber	-8068
refer	-8069
▁Earl	-8070
▁Norm	-8071
▁keen	-8072
▁bereik	-8073
nl	-8074
Dit	-8075
pir	-8076
kent	-8077
▁Cut	-8078
▁embar	-8079
▁Austin	-8080
▁Mexican	-8081
rah	-8082
tus	-8083
▁47	-8084
▁BY	-8085
▁Jr	-8086
ouri	-8087
vice	-8088
▁spy	-8089
▁Mean	-8090
▁Storm	-8091
▁sloot	-8092
▁zucht	-8093
ivities	-8094
▁Bonifatius	-8095
UL	-8096
helm	-8097
voet	-8098
krant	-8099
}^{2}	-8100
▁poem	-8101
▁tort	-8102
▁Adams	-8103
▁Clara	-8104
▁Though	-8105
▁skelet	-8106
wn	-8107
▁才	-8108
又是	-8109
rub	-8110
hout	-8111
▁Rap	-8112
▁dut	-8113
▁Pearl	-8114
▁stiff	-8115
▁resour	-8116
▁Gisteren	-8117
▁É	-8118
▁地	-8119
▁EX	-8120
Okay	-8121
cket	-8122
elyn	-8123
foto	-8124
winn	-8125
zijd	-8126
▁pudd	-8127
▁Miles	-8128
duceerd	-8129
▁propos	-8130
▁nominated	-8131
bul	-8132
uwd	-8133
▁3:	-8134
▁Ul	-8135
XXXX	-8136
enda	-8137
ibly	-8138
▁vic	-8139
wisse	-8140
▁Bible	-8141
▁Organ	-8142
▁Klootzak	-8143
▁responsibility	-8144
它是	-8145
Jan	-8146
tial	-8147
usie	-8148
▁bio	-8149
ifice	-8150
pends	-8151
▁Rail	-8152
▁Vaar	-8153
▁gede	-8154
▁opvol	-8155
▁Firstname	-8156
忘了	-8157
ESS	-8158
cte	-8159
iere	-8160
▁12.	-8161
▁gli	-8162
erend	-8163
zamer	-8164
straat	-8165
pelijke	-8166
▁Ongeloof	-8167
▁inquired	-8168
OC	-8169
For	-8170
dri	-8171
nut	-8172
▁下来	-8173
▁Cha	-8174
▁pil	-8175
▁1920	-8176
▁Spen	-8177
icipal	-8178
▁Verdorie	-8179
▁BR	-8180
eind	-8181
ieel	-8182
ophy	-8183
▁Tit	-8184
Cause	-8185
icles	-8186
▁Daan	-8187
▁Were	-8188
▁prov	-8189
▁2020.	-8190
▁cough	-8191
▁Carlos	-8192
▁Marcel	-8193
▁Douglas	-8194
进来	-8195
kam	-8196
▁Pam	-8197
finit	-8198
▁cler	-8199
igence	-8200
olland	-8201
▁Blake	-8202
▁cliff	-8203
▁vaard	-8204
komstig	-8205
▁Beschrijf	-8206
▁spaghetti	-8207
ITT	-8208
iko	-8209
yon	-8210
zag	-8211
▁Main	-8212
elliet	-8213
Fe	-8214
▁ª	-8215
对了	-8216
kru	-8217
beid	-8218
cend	-8219
clos	-8220
hlet	-8221
▁Bil	-8222
▁Fur	-8223
ceaan	-8224
bureau	-8225
necess	-8226
▁Katie	-8227
▁Alfred	-8228
dles	-8229
gift	-8230
whee	-8231
▁(14	-8232
▁lov	-8233
▁poe	-8234
▁Boys	-8235
▁Brig	-8236
eraard	-8237
▁几	-8238
提出	-8239
eda	-8240
rast	-8241
▁murm	-8242
▁Oceaan	-8243
▁Society	-8244
Me	-8245
lah	-8246
▁Ian	-8247
▁uni	-8248
speler	-8249
▁Stuart	-8250
▁Antonio	-8251
Um	-8252
对他	-8253
3-1	-8254
▁kalk	-8255
▁Dacht	-8256
▁scare	-8257
▁Dieren	-8258
▁Vragen	-8259
▁Majesty	-8260
▁Aangenaam	-8261
婆婆	-8262
我了	-8263
Ben	-8264
agra	-8265
koek	-8266
▁shift	-8267
▁Nicole	-8268
bir	-8269
我可以	-8270
ules	-8271
wash	-8272
▁fer	-8273
appar	-8274
▁1984	-8275
▁Clar	-8276
▁kloo	-8277
▁Afrik	-8278
▁Service	-8279
AA	-8280
去吧	-8281
没看	-8282
rug	-8283
▁800	-8284
▁Cur	-8285
▁Ond	-8286
▁WAT	-8287
vious	-8288
altijd	-8289
▁incred	-8290
规律	-8291
moo	-8292
nic	-8293
sje	-8294
piece	-8295
▁toeg	-8296
niture	-8297
controle	-8298
▁Revolution	-8299
天下	-8300
term	-8301
ittee	-8302
leans	-8303
▁gebo	-8304
▁kale	-8305
Afrika	-8306
▁Aarde	-8307
▁Theod	-8308
▁"_	-8309
▁Im	-8310
icle	-8311
rans	-8312
▁Thus	-8313
▁anch	-8314
feated	-8315
▁Beach	-8316
etische	-8317
▁inches	-8318
sylvania	-8319
▁contest	-8320
▁diagram	-8321
BE	-8322
GEN	-8323
iaan	-8324
zooi	-8325
▁hyp	-8326
kunst	-8327
▁Geld	-8328
▁Hank	-8329
▁Ivan	-8330
▁suffer	-8331
chuckles	-8332
}+	-8333
ANN	-8334
nce	-8335
▁AR	-8336
▁TE	-8337
▁Pad	-8338
▁Ohio	-8339
▁Mouse	-8340
▁Willie	-8341
si	-8342
anse	-8343
ugde	-8344
▁Aja	-8345
vlies	-8346
▁Nich	-8347
▁educ	-8348
akespe	-8349
▁2018,	-8350
▁Kenne	-8351
▁°	-8352
想去	-8353
纷纷	-8354
zar	-8355
▁Imp	-8356
ilton	-8357
orial	-8358
prise	-8359
merken	-8360
unched	-8361
▁anger	-8362
bronnen	-8363
▁Graham	-8364
▁wicked	-8365
▁Harrison	-8366
▁accomplish	-8367
▁⠙	-8368
fte	-8369
hog	-8370
sur	-8371
cose	-8372
ilen	-8373
omon	-8374
agers	-8375
▁Free	-8376
rekken	-8377
▁zojuist	-8378
中有	-8379
▁Kw	-8380
▁Edu	-8381
▁Jor	-8382
▁Lyn	-8383
▁Sin	-8384
▁Vel	-8385
kkers	-8386
▁cris	-8387
mitted	-8388
ractie	-8389
▁Shall	-8390
▁drupp	-8391
▁Julius	-8392
festival	-8393
▁variety	-8394
91	-8395
似乎	-8396
brek	-8397
▁25,	-8398
ipped	-8399
laagd	-8400
oofde	-8401
▁2024	-8402
▁Vill	-8403
▁emer	-8404
▁Wayne	-8405
▁profit	-8406
▁remove	-8407
▁opstaan	-8408
确定	-8409
fil	-8410
pty	-8411
atte	-8412
iami	-8413
mist	-8414
▁Past	-8415
▁Sven	-8416
▁prompt	-8417
97	-8418
emar	-8419
stam	-8420
▁Lan	-8421
antie	-8422
braak	-8423
iculous	-8424
▁Gloria	-8425
▁impact	-8426
▁种	-8427
就被	-8428
BER	-8429
▁NS	-8430
boog	-8431
essa	-8432
▁Won	-8433
▁rac	-8434
tries	-8435
zaken	-8436
▁horm	-8437
byebye	-8438
geboren	-8439
▁ceased	-8440
▁Philipp	-8441
▁bevrijden	-8442
IP	-8443
KS	-8444
给我们	-8445
efit	-8446
neke	-8447
▁Eef	-8448
▁anx	-8449
haust	-8450
intje	-8451
▁1988	-8452
▁kook	-8453
scheiden	-8454
▁Finland	-8455
▁opgaven	-8456
▁elements	-8457
erek	-8458
uite	-8459
▁30,	-8460
irsty	-8461
leave	-8462
▁blew	-8463
▁ribb	-8464
excuse	-8465
▁Moham	-8466
▁false	-8467
▁vitam	-8468
▁recogn	-8469
▁以	-8470
▁MA	-8471
▁告诉	-8472
hole	-8473
town	-8474
▁Boo	-8475
▁Rij	-8476
▁Ruim	-8477
▁glij	-8478
▁imit	-8479
spelen	-8480
borhood	-8481
urn	-8482
enkt	-8483
ierd	-8484
inks	-8485
▁Jou	-8486
agger	-8487
dacht	-8488
orted	-8489
tribut	-8490
▁flour	-8491
▁knoop	-8492
▁Police	-8493
▁Islands	-8494
▁establish	-8495
▁intelligent	-8496
▁Ongelooflijk	-8497
处的	-8498
用来	-8499
osed	-8500
inkle	-8501
▁1993	-8502
▁elev	-8503
roffen	-8504
▁Intro	-8505
▁worship	-8506
联系	-8507
mid	-8508
ype	-8509
厉害的	-8510
egal	-8511
meel	-8512
▁fys	-8513
▁chuck	-8514
▁respo	-8515
duidelijk	-8516
▁Pennsylvania	-8517
57	-8518
GLO	-8519
ppe	-8520
bast	-8521
onie	-8522
rikt	-8523
▁Pel	-8524
▁emb	-8525
Duits	-8526
▁plas	-8527
stroom	-8528
▁Wilde	-8529
▁Winnie	-8530
▁Urbanus	-8531
▁Shakespe	-8532
ARD	-8533
vas	-8534
elia	-8535
nten	-8536
road	-8537
sker	-8538
avily	-8539
boord	-8540
drink	-8541
ishop	-8542
▁Jaap	-8543
▁News	-8544
▁ance	-8545
roepen	-8546
▁Slaap	-8547
▁trium	-8548
stukken	-8549
▁10.000	-8550
voorstel	-8551
把他	-8552
iar	-8553
sec	-8554
▁Kh	-8555
cijf	-8556
reas	-8557
▁Str	-8558
不好意思	-8559
black	-8560
imale	-8561
keert	-8562
tasie	-8563
▁snack	-8564
▁Gouden	-8565
▁Dankzij	-8566
▁convinc	-8567
▁Indonesië	-8568
LYN	-8569
接下来	-8570
wich	-8571
▁Chr	-8572
▁NAS	-8573
▁owe	-8574
ragon	-8575
uable	-8576
▁1900	-8577
▁1991	-8578
▁Keizer	-8579
▁Records	-8580
▁abandon	-8581
41	-8582
ln	-8583
着了	-8584
▁19,	-8585
▁Him	-8586
▁Inc	-8587
straf	-8588
▁edel	-8589
▁Blood	-8590
▁Afrond	-8591
▁Special	-8592
EP	-8593
olo	-8594
▁én	-8595
并不是	-8596
pten	-8597
turb	-8598
▁Sah	-8599
ables	-8600
oloog	-8601
▁Amen	-8602
▁Gent	-8603
▁lick	-8604
▁cheap	-8605
▁Vaarwel	-8606
是的	-8607
Dad	-8608
Sch	-8609
hew	-8610
iga	-8611
uki	-8612
hurt	-8613
velt	-8614
sport	-8615
▁geru	-8616
▁mere	-8617
boekje	-8618
zullen	-8619
▁Miami	-8620
▁acade	-8621
urricane	-8622
▁filosof	-8623
▁Voorbeelden	-8624
rde	-8625
{{\	-8626
▁于是	-8627
Goed	-8628
▁Eer	-8629
becca	-8630
▁Gina	-8631
▁Tokyo	-8632
▁rifle	-8633
attered	-8634
geheten	-8635
kampioen	-8636
gos	-8637
hes	-8638
sge	-8639
yum	-8640
iker	-8641
sper	-8642
▁Akk	-8643
▁Ira	-8644
alises	-8645
cluded	-8646
▁Looks	-8647
▁spook	-8648
▁tempt	-8649
▁reward	-8650
▁Command	-8651
Un	-8652
▁AS	-8653
▁哈喽	-8654
▁Ukra	-8655
brella	-8656
listen	-8657
oscoop	-8658
▁Lijkt	-8659
oonstel	-8660
soorten	-8661
▁income	-8662
▁Ondanks	-8663
appointed	-8664
MBO	-8665
hav	-8666
HERE	-8667
▁(13	-8668
igste	-8669
▁Hunt	-8670
▁soil	-8671
▁Fantastisch	-8672
▁若	-8673
的了	-8674
--_	-8675
▁ij	-8676
▁是吗	-8677
▁Daisy	-8678
▁sales	-8679
▁Senate	-8680
▁Beoorde	-8681
▁Michigan	-8682
▁GT	-8683
belt	-8684
eres	-8685
geef	-8686
wijd	-8687
izens	-8688
urity	-8689
▁klet	-8690
▁prikk	-8691
▁aboard	-8692
.①②	-8693
colm	-8694
woud	-8695
▁Pin	-8696
▁Sie	-8697
▁mop	-8698
▁Alab	-8699
▁Noah	-8700
▁diap	-8701
▁Civil	-8702
▁blank	-8703
ability	-8704
▁Career	-8705
▁zogeheten	-8706
Kom	-8707
ekt	-8708
了下来	-8709
blok	-8710
peek	-8711
▁idi	-8712
▁kin	-8713
▁mit	-8714
neden	-8715
▁1930	-8716
▁Lane	-8717
Waarom	-8718
babble	-8719
▁image	-8720
JE	-8721
Mal	-8722
cin	-8723
Your	-8724
putt	-8725
▁Fal	-8726
graaf	-8727
▁Know	-8728
▁bese	-8729
langen	-8730
tussen	-8731
▁keken	-8732
plaatst	-8733
pretend	-8734
▁integr	-8735
▁Jennifer	-8736
▁é	-8737
是对	-8738
One	-8739
fare	-8740
lage	-8741
leef	-8742
achen	-8743
olate	-8744
▁Gray	-8745
▁tril	-8746
graven	-8747
▁staal	-8748
Holland	-8749
uffrouw	-8750
▁opvatt	-8751
▁stable	-8752
我会	-8753
我把	-8754
是挺	-8755
nch	-8756
ntal	-8757
oond	-8758
▁solo	-8759
merous	-8760
perate	-8761
ulated	-8762
utions	-8763
▁Stock	-8764
▁freak	-8765
▁spark	-8766
▁Jewish	-8767
▁Natuur	-8768
▁Abraham	-8769
necessary	-8770
92	-8771
▁43	-8772
▁我看	-8773
alyse	-8774
iëren	-8775
▁Clay	-8776
▁Nord	-8777
pleegd	-8778
waarom	-8779
▁2021,	-8780
▁milit	-8781
▁importance	-8782
%.	-8783
oved	-8784
▁23,	-8785
什么时候	-8786
liber	-8787
onnen	-8788
toren	-8789
ördin	-8790
▁Josh	-8791
▁Vlug	-8792
▁reus	-8793
stenen	-8794
▁Nicolaas	-8795
▁ambassade	-8796
▁Shakespeare	-8797
rg	-8798
IES	-8799
irs	-8800
uri	-8801
▁SC	-8802
▁ls	-8803
lood	-8804
▁WOR	-8805
▁rag	-8806
iffer	-8807
lower	-8808
oemde	-8809
▁Hein	-8810
▁rein	-8811
vriend	-8812
▁Beide	-8813
▁opged	-8814
waardig	-8815
▁Family	-8816
▁compon	-8817
▁dialect	-8818
▁Division	-8819
▁opzichte	-8820
ijm	-8821
▁(7	-8822
▁kab	-8823
▁kna	-8824
nasty	-8825
whose	-8826
▁Geme	-8827
▁Spot	-8828
▁clos	-8829
▁pleeg	-8830
▁leugen	-8831
▁Ongeveer	-8832
▁Opschieten	-8833
▁zogenaamde	-8834
akk	-8835
▁对于	-8836
pleeg	-8837
▁creat	-8838
gedrukt	-8839
richten	-8840
▁Angela	-8841
▁Twenty	-8842
▁Airport	-8843
trekkelijk	-8844
)$	-8845
DR	-8846
得好	-8847
uous	-8848
▁Joey	-8849
▁lect	-8850
tainly	-8851
voegen	-8852
▁spijk	-8853
cussion	-8854
▁analys	-8855
▁cereal	-8856
▁Welcome	-8857
▁horizon	-8858
▁resident	-8859
▁concentratie	-8860
他想	-8861
$$10	-8862
white	-8863
▁Bast	-8864
▁Real	-8865
▁Austr	-8866
▁Creek	-8867
▁dynam	-8868
▁Nelson	-8869
▁liquid	-8870
Qu	-8871
▁Mu	-8872
boys	-8873
chap	-8874
▁24,	-8875
▁NOT	-8876
fence	-8877
▁Arme	-8878
▁Nell	-8879
geteld	-8880
▁conqu	-8881
uddenly	-8882
▁Castle	-8883
▁confirmed	-8884
fs	-8885
AUN	-8886
ril	-8887
▁13.	-8888
orean	-8889
ropri	-8890
▁Phila	-8891
▁opgel	-8892
reaches	-8893
▁custom	-8894
▁anxiety	-8895
▁reaction	-8896
riot	-8897
▁250	-8898
akeld	-8899
etsen	-8900
▁YOUR	-8901
places	-8902
▁beads	-8903
▁exclus	-8904
▁aardige	-8905
Del	-8906
egra	-8907
sman	-8908
▁Uwe	-8909
▁ops	-8910
XXXXX	-8911
reekt	-8912
schak	-8913
▁Ajax	-8914
▁Wild	-8915
spraak	-8916
▁inspect	-8917
MU	-8918
了他	-8919
赶快	-8920
}{4	-8921
esis	-8922
▁Dod	-8923
▁Kid	-8924
▁repet	-8925
▁tremb	-8926
▁exhaust	-8927
gi	-8928
hua	-8929
▁ku	-8930
span	-8931
riële	-8932
▁1972	-8933
▁bewe	-8934
▁eleg	-8935
▁cigar	-8936
▁islam	-8937
▁stove	-8938
▁client	-8939
▁Voorbeeld	-8940
▁represented	-8941
ulu	-8942
didn	-8943
eria	-8944
grip	-8945
teful	-8946
▁Made	-8947
▁dial	-8948
ichten	-8949
▁Plant	-8950
▁Pepijn	-8951
▁nodded	-8952
▁Alabama	-8953
dd	-8954
望着	-8955
kje	-8956
gate	-8957
oper	-8958
▁Cab	-8959
▁bil	-8960
close	-8961
illon	-8962
ubble	-8963
zucht	-8964
▁Jill	-8965
▁VMBO	-8966
uleren	-8967
▁geschoten	-8968
▁我想	-8969
.$${	-8970
▁Sem	-8971
manent	-8972
ustrie	-8973
▁Terry	-8974
▁stroke	-8975
pecially	-8976
▁dreadful	-8977
UD	-8978
正是	-8979
jun	-8980
uct	-8981
agde	-8982
gone	-8983
raft	-8984
▁mira	-8985
▁piss	-8986
▁rude	-8987
genoot	-8988
keeper	-8989
▁Lloyd	-8990
▁Bedoel	-8991
▁Committee	-8992
▁committed	-8993
▁stretched	-8994
▁connection	-8995
és	-8996
早就	-8997
ount	-8998
perk	-8999
vloe	-9000
ygen	-9001
▁Ener	-9002
▁Grij	-9003
▁impat	-9004
▁repro	-9005
▁recomm	-9006
▁whisky	-9007
▁q	-9008
等等	-9009
lit	-9010
▁Pi	-9011
eeuw	-9012
lady	-9013
▁Web	-9014
▁shy	-9015
onies	-9016
▁Minn	-9017
zitten	-9018
▁2010.	-9019
▁Filips	-9020
▁Prinses	-9021
▁scientific	-9022
La	-9023
化的	-9024
Con	-9025
▁ER	-9026
rene	-9027
▁kam	-9028
▁Mans	-9029
▁Nana	-9030
▁Orig	-9031
▁bevalt	-9032
▁Harvard	-9033
▁absolute	-9034
54	-9035
Om	-9036
bag	-9037
bil	-9038
imo	-9039
nts	-9040
▁46	-9041
Carl	-9042
Jwww	-9043
▁Fat	-9044
▁vee	-9045
allie	-9046
▁Tenn	-9047
▁Comma	-9048
▁Melissa	-9049
▁Serieus	-9050
isfaction	-9051
made	-9052
tons	-9053
meerd	-9054
selen	-9055
▁Aren	-9056
▁haak	-9057
▁Point	-9058
▁onged	-9059
▁Peters	-9060
▁Malcolm	-9061
▁Philade	-9062
▁时	-9063
的对	-9064
bao	-9065
gif	-9066
olas	-9067
▁29,	-9068
▁Kei	-9069
alais	-9070
hamed	-9071
liest	-9072
risch	-9073
vaten	-9074
licate	-9075
▁Madam	-9076
▁strik	-9077
▁wrest	-9078
▁Probably	-9079
▁interact	-9080
voorschijn	-9081
▁embarrass	-9082
▁possession	-9083
▁utterances	-9084
=3	-9085
ued	-9086
ixon	-9087
▁$$,	-9088
▁Dol	-9089
▁Kro	-9090
iegel	-9091
▁vain	-9092
▁chart	-9093
▁origin	-9094
▁select	-9095
▁monument	-9096
gom	-9097
move	-9098
lijks	-9099
▁Hugo	-9100
icycle	-9101
▁2017,	-9102
▁dwaas	-9103
▁scout	-9104
▁obliged	-9105
▁tevoorschijn	-9106
抓住	-9107
▁41	-9108
eaks	-9109
ffer	-9110
sher	-9111
▁Bou	-9112
eculen	-9113
wijken	-9114
▁idiot	-9115
▁label	-9116
▁schapen	-9117
2-	-9118
ïs	-9119
puty	-9120
▁Ana	-9121
▁Mig	-9122
▁PRO	-9123
▁Tip	-9124
estic	-9125
ooter	-9126
rogen	-9127
ulate	-9128
▁Rhod	-9129
▁tack	-9130
▁Conserv	-9131
▁Doordat	-9132
▁Revolutie	-9133
▁✿	-9134
得意	-9135
EER	-9136
dek	-9137
enne	-9138
geer	-9139
▁Idi	-9140
isjes	-9141
▁Educ	-9142
▁snor	-9143
▁stij	-9144
▁injured	-9145
▁rubbish	-9146
▁launched	-9147
▁omschrijv	-9148
lif	-9149
oons	-9150
▁Nar	-9151
▁voy	-9152
merkt	-9153
▁1986	-9154
▁plak	-9155
▁Fanny	-9156
emarken	-9157
gewezen	-9158
isation	-9159
▁cricket	-9160
▁emotion	-9161
▁Missouri	-9162
▁biscuits	-9163
▁confused	-9164
不上	-9165
我先	-9166
UGH	-9167
agu	-9168
▁28,	-9169
▁Jar	-9170
rokod	-9171
sound	-9172
▁Gand	-9173
▁Talk	-9174
▁tray	-9175
▁Media	-9176
▁wedden	-9177
_1	-9178
LAU	-9179
RIC	-9180
▁Ep	-9181
▁Band	-9182
▁omge	-9183
▁Harvey	-9184
▁regret	-9185
▁tempor	-9186
▁Finally	-9187
▁Hiermee	-9188
▁Senator	-9189
▁financial	-9190
\{	-9191
处于	-9192
card	-9193
sted	-9194
▁Vij	-9195
odigd	-9196
still	-9197
▁Dean	-9198
▁Jere	-9199
▁Lind	-9200
▁tact	-9201
blazen	-9202
▁Nobel	-9203
6]	-9204
举行	-9205
ango	-9206
iley	-9207
▁Mob	-9208
▁vor	-9209
allel	-9210
▁HAVE	-9211
▁argu	-9212
hattan	-9213
▁absor	-9214
▁Middel	-9215
▁amongst	-9216
▁commercial	-9217
▁interrupted	-9218
Pa	-9219
的吧	-9220
scha	-9221
▁BBC	-9222
▁Oud	-9223
▁Dirk	-9224
Calais	-9225
▁Aaron	-9226
▁COVID	-9227
▁Klein	-9228
▁creep	-9229
▁tribe	-9230
ologist	-9231
ificatie	-9232
▁reserve	-9233
-"	-9234
"),	-9235
ONE	-9236
unes	-9237
▁SCH	-9238
agent	-9239
▁Berg	-9240
▁dirt	-9241
▁Jessie	-9242
▁rommel	-9243
ransport	-9244
▁Russell	-9245
▁accompan	-9246
▁Eindproduct	-9247
不出	-9248
不着	-9249
lal	-9250
都可以	-9251
AKER	-9252
lamp	-9253
song	-9254
tape	-9255
▁blu	-9256
gener	-9257
train	-9258
▁Derek	-9259
▁Phill	-9260
▁vorst	-9261
aliteit	-9262
izz	-9263
▁iP	-9264
arije	-9265
▁Girl	-9266
▁Kort	-9267
▁Morn	-9268
▁Quin	-9269
▁fail	-9270
▁muff	-9271
celona	-9272
▁Space	-9273
▁Office	-9274
lication	-9275
▁ceremony	-9276
ups	-9277
etro	-9278
▁Ped	-9279
▁Ran	-9280
cript	-9281
tekst	-9282
▁Game	-9283
▁Bridge	-9284
▁Bulgar	-9285
▁extens	-9286
▁Germans	-9287
nonspeech	-9288
▁Hamilton	-9289
▁composed	-9290
▁multiple	-9291
就很	-9292
OULD	-9293
owed	-9294
▁wen	-9295
▁Nest	-9296
▁2010,	-9297
▁Prize	-9298
▁vlakbij	-9299
producten	-9300
▁NH	-9301
▁不知	-9302
▁bod	-9303
kleed	-9304
▁voeg	-9305
▁2022,	-9306
▁smeek	-9307
rtussen	-9308
▁extent	-9309
▁Woorden	-9310
▁mysterie	-9311
TA	-9312
▁每	-9313
▁Ku	-9314
▁[4	-9315
vall	-9316
▁Sax	-9317
voort	-9318
angers	-9319
makers	-9320
▁Marco	-9321
▁Rocky	-9322
▁bleed	-9323
▁revie	-9324
comfort	-9325
▁adopted	-9326
aph	-9327
▁​​	-9328
akte	-9329
▁178	-9330
▁dwer	-9331
▁zwem	-9332
▁Elect	-9333
▁sneak	-9334
vention	-9335
▁merely	-9336
▁Rebecca	-9337
▁Wilhelm	-9338
VEN	-9339
▁64	-9340
burn	-9341
roog	-9342
type	-9343
utely	-9344
▁buzz	-9345
resent	-9346
umbled	-9347
▁reage	-9348
jaarden	-9349
▁Enkele	-9350
▁Sister	-9351
▁muizen	-9352
▁repair	-9353
身的	-9354
▁ts	-9355
▁27,	-9356
▁jur	-9357
▁Pool	-9358
▁chop	-9359
▁squad	-9360
▁Labour	-9361
▁Instead	-9362
▁cottage	-9363
▁Mountain	-9364
▁Republican	-9365
doc	-9366
▁RO	-9367
▁160	-9368
▁26,	-9369
▁prim	-9370
▁Bloed	-9371
▁sought	-9372
▁Noorwegen	-9373
公交	-9374
拿出	-9375
lon	-9376
oly	-9377
sim	-9378
Have	-9379
▁Bry	-9380
▁Gas	-9381
uatie	-9382
▁chess	-9383
▁Madrid	-9384
▁桌子	-9385
aman	-9386
bere	-9387
soen	-9388
erham	-9389
▁Navy	-9390
▁brig	-9391
▁ople	-9392
▁sale	-9393
papier	-9394
▁Poland	-9395
lanation	-9396
▁vehicle	-9397
▁communicatie	-9398
使劲	-9399
分为	-9400
可真	-9401
iced	-9402
rily	-9403
▁1,5	-9404
▁Cad	-9405
Ellie	-9406
apens	-9407
bloed	-9408
letten	-9409
▁Scient	-9410
▁straal	-9411
▁impression	-9412
▁industrial	-9413
UCK	-9414
inf	-9415
sed	-9416
uda	-9417
ancy	-9418
lemn	-9419
onte	-9420
▁End	-9421
Grand	-9422
orton	-9423
▁Blan	-9424
▁clip	-9425
▁radi	-9426
▁sper	-9427
lijnen	-9428
zonnen	-9429
vandoor	-9430
▁Turner	-9431
▁gezorgd	-9432
儿的	-9433
tard	-9434
▁Fab	-9435
▁Hom	-9436
▁leu	-9437
mogen	-9438
oxide	-9439
quick	-9440
storm	-9441
}}$$,	-9442
▁fluit	-9443
fun	-9444
etty	-9445
umes	-9446
▁Cob	-9447
▁sie	-9448
kleur	-9449
wijst	-9450
zijde	-9451
▁2013.	-9452
▁gedag	-9453
udeerde	-9454
▁schaat	-9455
▁tissue	-9456
▁beheers	-9457
▁Denemarken	-9458
SH	-9459
▁Ea	-9460
emon	-9461
icky	-9462
asion	-9463
bouwd	-9464
drank	-9465
▁2011.	-9466
▁Marty	-9467
▁Garden	-9468
▁arrival	-9469
igo	-9470
orus	-9471
rium	-9472
geluk	-9473
ribly	-9474
▁Brid	-9475
▁opbr	-9476
belast	-9477
▁Blijk	-9478
▁salad	-9479
▁traged	-9480
▁recommend	-9481
)。	-9482
kg	-9483
走着	-9484
eeg	-9485
mmm	-9486
是我们	-9487
▁Viv	-9488
stell	-9489
▁limit	-9490
▁immers	-9491
▁schijn	-9492
reatened	-9493
▁conscious	-9494
gl	-9495
想了	-9496
bly	-9497
mund	-9498
▁mic	-9499
CARET	-9500
brief	-9501
iaans	-9502
praak	-9503
voice	-9504
▁opger	-9505
▁Series	-9506
CARETAKER	-9507
EC	-9508
lle	-9509
没什么	-9510
kool	-9511
mers	-9512
▁Bun	-9513
▁Gun	-9514
▁lukte	-9515
▁vracht	-9516
有时	-9517
toy	-9518
odie	-9519
estra	-9520
▁Judy	-9521
▁smas	-9522
▁Homer	-9523
▁Schot	-9524
▁Spani	-9525
▁vaart	-9526
aurants	-9527
▁launch	-9528
▁specif	-9529
▁privacy	-9530
▁sausage	-9531
▁prospect	-9532
||1	-9533
▁52	-9534
veil	-9535
}_{3	-9536
▁(1)	-9537
▁Dora	-9538
▁Mind	-9539
▁stik	-9540
▁2019.	-9541
oroughly	-9542
▁biscuit	-9543
▁diploma	-9544
zod	-9545
什么呢	-9546
▁MET	-9547
apore	-9548
▁meed	-9549
▁Ricky	-9550
▁Thijs	-9551
▁dough	-9552
umenten	-9553
western	-9554
▁Steden	-9555
▁solemn	-9556
▁Somebody	-9557
obs	-9558
oid	-9559
pri	-9560
boer	-9561
▁Blu	-9562
▁hid	-9563
▁nit	-9564
▁tum	-9565
rayed	-9566
tonen	-9567
▁peak	-9568
▁sauce	-9569
▁Grandpa	-9570
▁increas	-9571
▁citizens	-9572
▁umbrella	-9573
。[	-9574
ori	-9575
▁TW	-9576
knop	-9577
onge	-9578
vour	-9579
▁oct	-9580
▁tal	-9581
esome	-9582
jamas	-9583
losie	-9584
pagina	-9585
▁intel	-9586
▁Freddy	-9587
▁besmet	-9588
▁cheque	-9589
▁Sheriff	-9590
▁Jefferson	-9591
▁Dw	-9592
▁Gh	-9593
kenn	-9594
wend	-9595
▁Rey	-9596
▁mug	-9597
lazen	-9598
▁Gast	-9599
▁dull	-9600
▁klim	-9601
▁2016,	-9602
▁Suzan	-9603
▁Tyler	-9604
dioxide	-9605
▁Nummer	-9606
waarschuw	-9607
▁ongerust	-9608
Ge	-9609
TS	-9610
fu	-9611
7-1	-9612
emin	-9613
kaan	-9614
sert	-9615
▁Dig	-9616
▁Sis	-9617
▁Tib	-9618
▁uns	-9619
gress	-9620
rench	-9621
dreven	-9622
careful	-9623
drinken	-9624
▁remind	-9625
▁Olympic	-9626
嘻嘻	-9627
次的	-9628
}{\	-9629
▁OR	-9630
Best	-9631
KING	-9632
lich	-9633
▁Dark	-9634
▁Kees	-9635
▁Wars	-9636
▁pomp	-9637
monade	-9638
▁hired	-9639
▁Burton	-9640
▁Jasper	-9641
▁estate	-9642
▁vision	-9643
▁Vanwege	-9644
▁beïnvloed	-9645
FL	-9646
往往	-9647
是他	-9648
去看看	-9649
dess	-9650
lukt	-9651
▁Read	-9652
▁rout	-9653
fected	-9654
▁Claus	-9655
▁Moore	-9656
▁skill	-9657
▁swept	-9658
▁commit	-9659
ewikkeld	-9660
▁corrupt	-9661
▁eliminated	-9662
▁吓	-9663
在我	-9664
对着	-9665
立即	-9666
.--	-9667
mun	-9668
nod	-9669
akel	-9670
orea	-9671
race	-9672
▁gif	-9673
▁tut	-9674
▁vig	-9675
hoven	-9676
▁Find	-9677
master	-9678
▁Color	-9679
▁feast	-9680
▁pecul	-9681
▁Orleans	-9682
▁beschuld	-9683
▁Represent	-9684
间的	-9685
ijp	-9686
oef	-9687
reh	-9688
run	-9689
fles	-9690
▁Aqu	-9691
▁fir	-9692
▁kei	-9693
▁lip	-9694
ailey	-9695
▁Doen	-9696
▁Merc	-9697
utiful	-9698
▁Cliff	-9699
▁Dolly	-9700
▁agric	-9701
▁photo	-9702
▁rival	-9703
▁corres	-9704
▁struik	-9705
▁battery	-9706
▁dossier	-9707
▁possess	-9708
▁opgebouwd	-9709
▁punishment	-9710
▁organiseren	-9711
Wel	-9712
cas	-9713
iro	-9714
jer	-9715
mov	-9716
okt	-9717
▁(,	-9718
▁PR	-9719
aves	-9720
life	-9721
omet	-9722
pict	-9723
shit	-9724
▁Fra	-9725
▁Sig	-9726
▁Arte	-9727
▁Otto	-9728
▁cudd	-9729
▁Loire	-9730
▁kabel	-9731
▁Barney	-9732
▁Friend	-9733
▁Reagan	-9734
▁Sebast	-9735
NE	-9736
ales	-9737
sque	-9738
▁1948	-9739
▁Awww	-9740
▁Mong	-9741
▁Rood	-9742
▁bore	-9743
▁lung	-9744
▁Count	-9745
▁Krist	-9746
▁Wakker	-9747
▁Limburg	-9748
▁Europees	-9749
▁Suddenly	-9750
▁medicijn	-9751
▁confident	-9752
aco	-9753
jant	-9754
wond	-9755
▁Rio	-9756
▁beë	-9757
▁hoo	-9758
iseert	-9759
▁Alger	-9760
▁Eefie	-9761
▁Oefen	-9762
▁schro	-9763
▁Alexand	-9764
▁Jessica	-9765
▁survive	-9766
他把	-9767
既然	-9768
hai	-9769
ols	-9770
▁==	-9771
▁Ee	-9772
▁ink	-9773
▁lok	-9774
▁wav	-9775
bomen	-9776
stijl	-9777
▁1964	-9778
▁5000	-9779
▁Arts	-9780
▁Found	-9781
▁toler	-9782
▁Wallace	-9783
▁whistle	-9784
▁cheerful	-9785
▁proceeded	-9786
▁strawberry	-9787
上涨	-9788
Sure	-9789
bleem	-9790
stoot	-9791
taald	-9792
▁Toby	-9793
▁buis	-9794
▁rele	-9795
istics	-9796
▁Sammy	-9797
▁Thail	-9798
▁mijnheer	-9799
▁【	-9800
不定	-9801
bom	-9802
utes	-9803
▁Mul	-9804
▁Sak	-9805
$$、$$	-9806
endar	-9807
▁1975	-9808
▁Lanc	-9809
▁poll	-9810
itable	-9811
▁stront	-9812
▁Festival	-9813
▁Thailand	-9814
▁commission	-9815
个子	-9816
都被	-9817
30)	-9818
}}\	-9819
不停地	-9820
或者是	-9821
▁14.	-9822
▁sed	-9823
ettes	-9824
▁Koen	-9825
▁Maya	-9826
referr	-9827
rijzen	-9828
sturen	-9829
▁Nikki	-9830
▁Phoen	-9831
▁innit	-9832
▁onjuist	-9833
▁municipal	-9834
▁MU	-9835
rock	-9836
}$$、	-9837
▁zhe	-9838
▁Card	-9839
▁Dear	-9840
▁Slim	-9841
▁isol	-9842
pected	-9843
▁Cindy	-9844
▁Clare	-9845
▁Drake	-9846
▁caval	-9847
issance	-9848
▁Colomb	-9849
▁Scottish	-9850
▁financiële	-9851
的有	-9852
Voor	-9853
anne	-9854
iper	-9855
vals	-9856
▁clo	-9857
reece	-9858
▁Tsje	-9859
ceived	-9860
dually	-9861
▁Sweet	-9862
isschop	-9863
▁install	-9864
-,	-9865
leet	-9866
vuld	-9867
▁Fun	-9868
namen	-9869
rwijs	-9870
▁Shel	-9871
▁cert	-9872
▁cone	-9873
mensen	-9874
▁Bella	-9875
▁knikt	-9876
▁Corpor	-9877
▁Evelyn	-9878
▁Stomme	-9879
▁schrik	-9880
▁sigaretten	-9881
Ga	-9882
VV	-9883
快地	-9884
asie	-9885
uilt	-9886
dress	-9887
rische	-9888
ziekte	-9889
▁McDon	-9890
▁dorst	-9891
▁Turkey	-9892
▁Vanuit	-9893
▁Halloween	-9894
▁Š	-9895
有所	-9896
oki	-9897
amse	-9898
eton	-9899
reme	-9900
ulier	-9901
▁Evan	-9902
▁mijl	-9903
▁sack	-9904
jongen	-9905
▁Coast	-9906
▁Fries	-9907
▁Roose	-9908
▁huilt	-9909
▁drijven	-9910
odigdheden	-9911
▁insurance	-9912
住着	-9913
涉及	-9914
gaa	-9915
cium	-9916
mett	-9917
▁Whe	-9918
▁nei	-9919
cteur	-9920
▁Gere	-9921
▁None	-9922
wekker	-9923
▁Until	-9924
▁reign	-9925
▁Follow	-9926
▁intend	-9927
pit	-9928
ague	-9929
gton	-9930
    	-9931
▁aar	-9932
inate	-9933
▁1968	-9934
▁dure	-9935
▁gear	-9936
▁trad	-9937
▁crept	-9938
▁sliep	-9939
▁Daarbij	-9940
▁insisted	-9941
▁geproduceerd	-9942
^{	-9943
▁阿	-9944
做好	-9945
Van	-9946
eik	-9947
▁oo	-9948
▁16.	-9949
▁gre	-9950
▁vij	-9951
serie	-9952
▁1985	-9953
▁Disc	-9954
▁scra	-9955
▁slid	-9956
▁gorge	-9957
▁surgery	-9958
lik	-9959
是我的	-9960
grim	-9961
rect	-9962
Delta	-9963
kwart	-9964
▁Dada	-9965
▁José	-9966
▁Verm	-9967
▁Vond	-9968
▁ontv	-9969
▁2014.	-9970
ociated	-9971
▁Indust	-9972
▁corpor	-9973
▁scheme	-9974
73	-9975
=4	-9976
地的	-9977
等着	-9978
▁ID	-9979
而不是	-9980
Mijn	-9981
egro	-9982
nose	-9983
text	-9984
▁Gab	-9985
▁Ges	-9986
▁McK	-9987
erman	-9988
noemd	-9989
▁Batman	-9990
▁Burger	-9991
▁retire	-9992
▁conclus	-9993
▁glucose	-9994
▁instinct	-9995
▁Manhattan	-9996
)=\	-9997
baz	-9998
cli	-9999
osa	-10000
gsel	-10001
iënt	-10002
lord	-10003
▁Din	-10004
▁Typ	-10005
▁gor	-10006
jaars	-10007
tendo	-10008
▁vloek	-10009
▁Moskou	-10010
▁buurman	-10011
▁Geography	-10012
会的	-10013
14)	-10014
cie	-10015
我就是	-10016
真正的	-10017
avel	-10018
dest	-10019
feet	-10020
▁Jen	-10021
▁Mah	-10022
$$4$$	-10023
tened	-10024
▁ruin	-10025
▁2017.	-10026
▁Tower	-10027
▁Tracy	-10028
torical	-10029
▁Ernest	-10030
▁violent	-10031
▁repareren	-10032
▁《	-10033
了嘛	-10034
共有	-10035
就行	-10036
我得	-10037
讲的	-10038
Jij	-10039
fix	-10040
oet	-10041
▁Aw	-10042
jump	-10043
ieter	-10044
itary	-10045
reigd	-10046
▁exte	-10047
aarden	-10048
aarzen	-10049
▁Conne	-10050
▁intern	-10051
▁opsomm	-10052
▁Sneller	-10053
▁Hoogheid	-10054
56	-10055
Ha	-10056
▁>	-10057
▁分	-10058
走去	-10059
ido	-10060
jin	-10061
▁AP	-10062
对不起	-10063
ilst	-10064
izza	-10065
wall	-10066
▁15.	-10067
▁Nig	-10068
▁kie	-10069
▁tan	-10070
asant	-10071
leefd	-10072
uilen	-10073
▁Roll	-10074
▁Zeer	-10075
▁Claud	-10076
rations	-10077
▁tribes	-10078
▁Children	-10079
▁pregnant	-10080
▁regarded	-10081
▁Barcelona	-10082
maatschappij	-10083
▁1)	-10084
▁Pun	-10085
▁1976	-10086
▁Stat	-10087
▁pear	-10088
▁trot	-10089
▁Fijne	-10090
ruchten	-10091
▁editor	-10092
▁glimlach	-10093
▁全	-10094
伯伯	-10095
地位	-10096
sre	-10097
yle	-10098
▁Ast	-10099
▁Jedi	-10100
bewijs	-10101
merrie	-10102
schepen	-10103
▁Greece	-10104
▁fierce	-10105
▁Normaal	-10106
▁spectac	-10107
▁Columbia	-10108
▁Mohammed	-10109
MS	-10110
rp	-10111
乖乖	-10112
Pro	-10113
shh	-10114
▁Ou	-10115
就没有	-10116
iode	-10117
loon	-10118
pack	-10119
▁gum	-10120
▁1979	-10121
▁Buff	-10122
▁OVER	-10123
▁chas	-10124
bergen	-10125
lected	-10126
▁Girls	-10127
▁cotton	-10128
+3	-10129
不够	-10130
Niet	-10131
ashi	-10132
ikkel	-10133
▁Rico	-10134
▁ZIJN	-10135
▁geit	-10136
▁semi	-10137
▁unex	-10138
durend	-10139
▁Eruit	-10140
▁diplo	-10141
▁mercy	-10142
▁wreed	-10143
persoon	-10144
▁Spaans	-10145
▁behoren	-10146
schriften	-10147
▁Director	-10148
▁intention	-10149
ão	-10150
▁Tu	-10151
cook	-10152
fers	-10153
▁Ich	-10154
▁bie	-10155
▁lan	-10156
▁lar	-10157
orven	-10158
▁1969	-10159
▁Shin	-10160
▁fled	-10161
▁Fried	-10162
▁Geoff	-10163
▁sweat	-10164
▁intense	-10165
▁Blijkbaar	-10166
▁Championships	-10167
MO	-10168
场的	-10169
nas	-10170
ïst	-10171
会不会	-10172
在地上	-10173
nake	-10174
pris	-10175
quet	-10176
uled	-10177
ulpt	-10178
enties	-10179
wijzen	-10180
▁2013,	-10181
▁Haven	-10182
▁Janet	-10183
▁copies	-10184
tekracht	-10185
▁feature	-10186
▁Pictures	-10187
▁convinced	-10188
▁frequently	-10189
tt	-10190
ava	-10191
iac	-10192
new	-10193
我们要	-10194
'...	-10195
daag	-10196
mney	-10197
▁cub	-10198
▁1500	-10199
▁Gust	-10200
▁Kang	-10201
▁Pick	-10202
bourne	-10203
▁Duncan	-10204
▁sacred	-10205
mogelijk	-10206
▁Artemis	-10207
▁beschadigd	-10208
Sc	-10209
pin	-10210
▁)。	-10211
ccer	-10212
schema	-10213
▁2008.	-10214
▁Quick	-10215
▁Short	-10216
▁fetch	-10217
▁gezon	-10218
▁System	-10219
▁Benodigdheden	-10220
mu	-10221
INE	-10222
iah	-10223
zhe	-10224
好不好	-10225
ulse	-10226
我先走了	-10227
raken	-10228
▁Fern	-10229
▁Mack	-10230
▁Peru	-10231
▁Swed	-10232
▁crum	-10233
▁vamp	-10234
▁Steek	-10235
▁cheek	-10236
▁steer	-10237
somebody	-10238
▁connect	-10239
▁favourite	-10240
可不	-10241
天的	-10242
醒了	-10243
6-1	-10244
nar	-10245
atch	-10246
dale	-10247
onic	-10248
papa	-10249
}_{0	-10250
▁对对对	-10251
Britt	-10252
▁Pope	-10253
▁Zach	-10254
▁boze	-10255
▁meub	-10256
finite	-10257
▁Baker	-10258
▁Dream	-10259
▁Field	-10260
▁kluis	-10261
▁Michel	-10262
▁Ronald	-10263
▁solution	-10264
可得	-10265
想想	-10266
此时	-10267
400	-10268
sst	-10269
anie	-10270
weten	-10271
▁Erik	-10272
▁Tara	-10273
nelijk	-10274
▁Bomba	-10275
▁Zaken	-10276
gewerkt	-10277
pressed	-10278
▁prepare	-10279
▁Controleer	-10280
去的	-10281
aide	-10282
next	-10283
▁Pow	-10284
Korea	-10285
annië	-10286
immer	-10287
names	-10288
umper	-10289
▁Azer	-10290
▁poep	-10291
▁tube	-10292
rolijk	-10293
▁stead	-10294
iliteit	-10295
▁Bepaal	-10296
▁Brooklyn	-10297
▁Gemeenten	-10298
▁Luxemburg	-10299
OME	-10300
oda	-10301
▁qi	-10302
anta	-10303
▁Nag	-10304
▁OUT	-10305
▁Oak	-10306
▁wig	-10307
aleis	-10308
rious	-10309
sence	-10310
vliegt	-10311
▁Human	-10312
osphere	-10313
▁Marion	-10314
▁geschenk	-10315
▁gewassen	-10316
▁concluded	-10317
▁resources	-10318
▁profession	-10319
Am	-10320
公式	-10321
▁51	-10322
mack	-10323
mmet	-10324
▁HEB	-10325
▁Non	-10326
$$5$$	-10327
vindt	-10328
▁behe	-10329
ertijd	-10330
fouten	-10331
voeren	-10332
▁2011,	-10333
▁zweet	-10334
▁Palace	-10335
▁Steeds	-10336
inkeltje	-10337
▁violence	-10338
▁Roosevelt	-10339
▁inkomsten	-10340
▁arrangement	-10341
上映	-10342
REL	-10343
aye	-10344
adow	-10345
▁Osw	-10346
▁Neil	-10347
▁2018.	-10348
▁Mogen	-10349
▁Raven	-10350
agement	-10351
skracht	-10352
teacher	-10353
ankelijk	-10354
ationaal	-10355
▁Frankie	-10356
▁chamber	-10357
▁diamond	-10358
▁intellect	-10359
▁procedure	-10360
vocalization	-10361
MW	-10362
$$3	-10363
tos	-10364
iral	-10365
igend	-10366
plein	-10367
▁Kill	-10368
▁Shah	-10369
▁lanc	-10370
▁noot	-10371
▁stek	-10372
▁veer	-10373
keerde	-10374
pecial	-10375
staand	-10376
▁schok	-10377
▁surre	-10378
atische	-10379
▁Histor	-10380
▁plegen	-10381
▁Nations	-10382
▁onzicht	-10383
mum	-10384
ilds	-10385
▁Geb	-10386
▁ram	-10387
voren	-10388
▁Vrie	-10389
didate	-10390
edition	-10391
▁Auntie	-10392
▁oxygen	-10393
▁georgan	-10394
▁behouden	-10395
▁Education	-10396
▁beschouwd	-10397
▁evolution	-10398
▁commentaar	-10399
▁嘛	-10400
坐标	-10401
▁oe	-10402
好看的	-10403
就好了	-10404
hrer	-10405
▁Kel	-10406
lkast	-10407
▁Hosp	-10408
ballen	-10409
titude	-10410
▁Number	-10411
▁golven	-10412
▁techni	-10413
schrijven	-10414
.=	-10415
UW	-10416
才会	-10417
vul	-10418
pert	-10419
▁Raf	-10420
▁Woo	-10421
egaal	-10422
stijd	-10423
▁Room	-10424
etisch	-10425
▁2007.	-10426
▁2021.	-10427
▁Saman	-10428
▁Willy	-10429
▁excla	-10430
redenen	-10431
rekenen	-10432
▁schone	-10433
▁Allison	-10434
estigation	-10435
▁gewaarschuw	-10436
呵呵	-10437
eor	-10438
zoe	-10439
▁Ret	-10440
▁pod	-10441
▁hint	-10442
▁Penny	-10443
▁Assemb	-10444
▁Square	-10445
▁Taiwan	-10446
▁Science	-10447
▁emoties	-10448
▁Facebook	-10449
▁chemische	-10450
dar	-10451
wha	-10452
是没有	-10453
uela	-10454
▁Boe	-10455
▁gan	-10456
▁waa	-10457
cakes	-10458
skist	-10459
state	-10460
▁2015,	-10461
▁Mason	-10462
▁piram	-10463
atorium	-10464
ementen	-10465
tdurend	-10466
▁Walker	-10467
uitenant	-10468
▁microsc	-10469
ratulations	-10470
<{	-10471
bf	-10472
$$;	-10473
blo	-10474
ems	-10475
ité	-10476
kat	-10477
▁67	-10478
▁[8	-10479
imme	-10480
▁Live	-10481
▁Mach	-10482
▁scen	-10483
bidden	-10484
moeten	-10485
▁Craig	-10486
▁Moses	-10487
▁arrow	-10488
fabriek	-10489
krijgen	-10490
▁prettig	-10491
▁tremend	-10492
▁visible	-10493
yr	-10494
▁事	-10495
pub	-10496
▁GR	-10497
auer	-10498
▁Bav	-10499
▁Tab	-10500
sterk	-10501
▁Slow	-10502
▁fuel	-10503
▁obta	-10504
▁tune	-10505
▁advoc	-10506
▁omzet	-10507
instrum	-10508
zaamheid	-10509
Duitsland	-10510
▁Nintendo	-10511
▁gewaarschuwd	-10512
Or	-10513
拿起	-10514
eon	-10515
▁Daw	-10516
cules	-10517
grote	-10518
▁Dead	-10519
▁Deep	-10520
▁Horn	-10521
▁KNOW	-10522
▁cult	-10523
▁knip	-10524
▁Lopen	-10525
certain	-10526
▁treden	-10527
▁negative	-10528
在您	-10529
Gra	-10530
psy	-10531
Very	-10532
ijst	-10533
▁Box	-10534
▁Dak	-10535
▁GET	-10536
▁Tow	-10537
▁keur	-10538
▁rage	-10539
ughter	-10540
▁2014,	-10541
▁baard	-10542
▁Celest	-10543
▁Debbie	-10544
▁Hierin	-10545
▁Download	-10546
KT	-10547
▁抓	-10548
▁摔	-10549
用力	-10550
cod	-10551
iry	-10552
lia	-10553
oti	-10554
onne	-10555
▁arose	-10556
▁gemak	-10557
▁recon	-10558
Perhaps	-10559
schijnt	-10560
▁Avenue	-10561
▁Exactly	-10562
▁Monster	-10563
▁unhappy	-10564
▁Microsoft	-10565
fee	-10566
sts	-10567
▁85	-10568
Mark	-10569
tree	-10570
▁Rut	-10571
great	-10572
▁1981	-10573
▁bevi	-10574
▁2021)	-10575
▁Irene	-10576
▁spoed	-10577
▁stoot	-10578
geboden	-10579
uminium	-10580
▁Beloof	-10581
▁blazen	-10582
▁Spencer	-10583
▁vacation	-10584
▁Afrikaanse	-10585
By	-10586
nn	-10587
定律	-10588
着的	-10589
EEN	-10590
afde	-10591
inat	-10592
tten	-10593
uile	-10594
▁MAR	-10595
egram	-10596
dwaald	-10597
pelijk	-10598
▁2009.	-10599
▁Frodo	-10600
▁sniff	-10601
▁Examen	-10602
▁Korean	-10603
▁opvoed	-10604
▁strict	-10605
▁Marokko	-10606
▁Schatje	-10607
continues	-10608
fol	-10609
yeh	-10610
▁LO	-10611
dire	-10612
odox	-10613
ttig	-10614
▁ARE	-10615
▁Nem	-10616
是正确的	-10617
essee	-10618
tocol	-10619
urken	-10620
▁NASA	-10621
▁crap	-10622
▁sock	-10623
maakte	-10624
volgen	-10625
▁Disco	-10626
screams	-10627
▁Lauren	-10628
▁reform	-10629
▁Project	-10630
ét	-10631
会在	-10632
地叫	-10633
oeh	-10634
▁95	-10635
abet	-10636
idae	-10637
▁suc	-10638
halte	-10639
unted	-10640
▁Doel	-10641
▁puff	-10642
Christ	-10643
gewoon	-10644
termin	-10645
veland	-10646
▁2012.	-10647
▁slice	-10648
▁Better	-10649
▁meegeteld	-10650
9]	-10651
就去	-10652
▁ee	-10653
▁pp	-10654
itis	-10655
mant	-10656
vrie	-10657
▁Thu	-10658
▁Til	-10659
▁ski	-10660
class	-10661
oused	-10662
▁Hell	-10663
▁Hond	-10664
▁Prem	-10665
▁lens	-10666
▁rasp	-10667
▁tide	-10668
▁Delta	-10669
▁Niels	-10670
▁smelt	-10671
cheiden	-10672
pecteur	-10673
▁Forest	-10674
▁indign	-10675
▁peculiar	-10676
▁toegeven	-10677
▁mysterious	-10678
▁strawberries	-10679
悄悄	-10680
运用	-10681
队员	-10682
▁CAN	-10683
zodat	-10684
▁Code	-10685
leurde	-10686
▁Hemel	-10687
▁Common	-10688
▁Stilte	-10689
▁bijten	-10690
▁transp	-10691
ropriate	-10692
▁gemeten	-10693
organisatie	-10694
▁possibility	-10695
我好	-10696
的很	-10697
IFA	-10698
fac	-10699
ibi	-10700
bors	-10701
ffie	-10702
nett	-10703
}{2}	-10704
▁Cec	-10705
appel	-10706
orten	-10707
stemm	-10708
vroeg	-10709
▁Doei	-10710
strong	-10711
erefore	-10712
▁medium	-10713
uwkeurig	-10714
整天	-10715
irts	-10716
itty	-10717
rell	-10718
▁000	-10719
▁dri	-10720
brood	-10721
izoen	-10722
before	-10723
osophy	-10724
raties	-10725
zameld	-10726
▁Donna	-10727
▁Hierna	-10728
▁ancest	-10729
▁Provincies	-10730
NO	-10731
uul	-10732
roren	-10733
▁Kind	-10734
▁Pink	-10735
▁grum	-10736
called	-10737
erwise	-10738
loofde	-10739
▁kaars	-10740
ception	-10741
▁Easter	-10742
▁obtain	-10743
▁voyage	-10744
▁Brussel	-10745
▁Verklaar	-10746
▁Tennessee	-10747
始了	-10748
jab	-10749
iler	-10750
▁Aah	-10751
▁Hab	-10752
raaid	-10753
raden	-10754
▁Dete	-10755
▁Gene	-10756
ductie	-10757
▁meent	-10758
▁Geniet	-10759
▁bezorgen	-10760
▁Amerikaan	-10761
▁besproken	-10762
▁instructies	-10763
AF	-10764
▁EK	-10765
iche	-10766
oegd	-10767
▁Pos	-10768
▁Que	-10769
▁rod	-10770
▁sab	-10771
ority	-10772
▁Plus	-10773
▁Voed	-10774
stairs	-10775
▁flies	-10776
▁kwets	-10777
▁econom	-10778
▁wolven	-10779
▁Postman	-10780
▁absence	-10781
conscious	-10782
▁fluister	-10783
应用	-10784
zek	-10785
eros	-10786
ijds	-10787
onto	-10788
▁Mia	-10789
▁Okà	-10790
▁cad	-10791
risis	-10792
▁3000	-10793
▁Mist	-10794
▁Zeus	-10795
▁dumb	-10796
Malley	-10797
oplane	-10798
▁Rabbit	-10799
▁pillen	-10800
plaatsen	-10801
▁Assembly	-10802
▁complain	-10803
▁Pinkeltje	-10804
▁remarkable	-10805
▁accompanied	-10806
照顾	-10807
特殊	-10808
gus	-10809
怎么了	-10810
hoed	-10811
kome	-10812
▁smo	-10813
aarde	-10814
acity	-10815
asius	-10816
▁(198	-10817
▁1982	-10818
▁Reed	-10819
▁clay	-10820
▁inch	-10821
kwamen	-10822
▁Prisc	-10823
▁Eduard	-10824
▁Heaven	-10825
▁relations	-10826
▁ZE	-10827
▁咱们	-10828
icia	-10829
uced	-10830
veen	-10831
zona	-10832
▁Cow	-10833
▁Gill	-10834
▁Kalm	-10835
▁Nazi	-10836
▁hipp	-10837
bleven	-10838
iesten	-10839
▁Nepal	-10840
▁Venet	-10841
▁lepel	-10842
▁Turkish	-10843
▁dragged	-10844
▁wortels	-10845
rc	-10846
})	-10847
Her	-10848
aux	-10849
idi	-10850
esse	-10851
gunn	-10852
stud	-10853
在您身边	-10854
recor	-10855
▁Jews	-10856
▁sier	-10857
▁Press	-10858
▁chlor	-10859
▁Liefde	-10860
▁gewild	-10861
▁Vi	-10862
choc	-10863
ezet	-10864
reur	-10865
▁bef	-10866
print	-10867
▁Maas	-10868
▁cush	-10869
▁spar	-10870
▁2012,	-10871
▁Stark	-10872
▁blaad	-10873
viously	-10874
▁Gerard	-10875
rondisse	-10876
▁Leonard	-10877
JW	-10878
对我	-10879
iks	-10880
pil	-10881
▁ci	-10882
bear	-10883
stay	-10884
▁Fig	-10885
▁Pom	-10886
▁goo	-10887
▁tam	-10888
iddag	-10889
ienen	-10890
▁exem	-10891
▁Agnes	-10892
▁Surin	-10893
▁oefen	-10894
▁conven	-10895
▁onrust	-10896
sstoffen	-10897
▁interpr	-10898
▁publish	-10899
▁Luitenant	-10900
想起	-10901
行的	-10902
EFA	-10903
ais	-10904
▁49	-10905
▁PL	-10906
quis	-10907
umps	-10908
▁Pok	-10909
cknow	-10910
ships	-10911
▁Edna	-10912
▁Fore	-10913
egorie	-10914
▁2015.	-10915
▁Jeann	-10916
▁skirt	-10917
▁Gerald	-10918
▁Pieter	-10919
▁anchor	-10920
▁jochie	-10921
▁wissel	-10922
▁suicide	-10923
▁organized	-10924
▁Commission	-10925
Op	-10926
而已	-10927
cyc	-10928
lof	-10929
roy	-10930
kees	-10931
▁Arn	-10932
▁pel	-10933
anton	-10934
elves	-10935
▁Mayor	-10936
▁Tante	-10937
▁Proost	-10938
▁Stella	-10939
stitution	-10940
▁Columbus	-10941
▁bioscoop	-10942
▁impatient	-10943
▁inspiratie	-10944
地里	-10945
AKE	-10946
hoo	-10947
▁Low	-10948
Frank	-10949
cycle	-10950
[...]
