<unk>	0
<s>	0
</s>	0
<pad>	0
▁the	0
▁mot	0
▁and	0
▁you	0
▁chi	0
▁that	0
▁was	0
▁what	0
▁for	0
▁this	0
▁with	0
▁they	0
▁there	0
▁have	0
▁not	0
▁are	0
▁she	0
▁but	0
▁one	0
▁his	0
▁can	0
▁all	0
▁her	0
▁yeah	0
▁your	0
▁don	0
▁had	0
▁know	0
▁like	0
▁inv	0
▁from	0
▁out	0
▁here	0
▁him	0
▁were	0
▁get	0
▁now	0
▁just	0
▁well	0
▁then	0
▁when	0
▁right	0
▁fat	0
▁them	0
▁about	0
▁see	0
▁said	0
▁who	0
▁got	0
▁yes	0
▁did	0
▁think	0
▁some	0
▁where	0
▁would	0
▁come	0
▁will	0
▁look	0
▁good	0
▁how	0
▁little	0
▁xxx	0
▁want	0
▁okay	0
▁down	0
▁more	0
▁which	0
▁going	0
▁time	0
▁two	0
▁put	0
▁very	0
▁their	0
▁back	0
▁has	0
▁could	0
▁over	0
▁let	0
▁why	0
▁other	0
▁say	0
▁people	0
▁take	0
▁make	0
▁off	0
▁because	0
▁first	0
▁too	0
▁way	0
▁after	0
▁these	0
▁only	0
▁man	0
▁any	0
▁tell	0
▁our	0
▁really	0
▁again	0
▁something	0
▁made	0
▁much	0
▁before	0
▁day	0
▁big	0
▁away	0
▁three	0
▁should	0
▁also	0
▁went	0
▁does	0
▁those	0
▁never	0
▁new	0
▁many	0
▁old	0
▁give	0
▁came	0
▁house	0
▁long	0
▁need	0
▁par	0
▁home	0
▁mean	0
▁still	0
▁things	0
▁work	0
▁thing	0
▁may	0
▁play	0
▁through	0
▁great	0
▁thought	0
▁its	0
▁called	0
▁even	0
▁mother	0
▁must	0
▁boy	0
▁baby	0
▁last	0
▁won	0
▁done	0
▁find	0
▁night	0
▁looks	0
▁car	0
▁name	0
▁head	0
▁huh	0
▁most	0
▁please	0
▁around	0
▁while	0
▁laughs	0
▁thank	0
▁help	0
▁girl	0
▁such	0
▁hey	0
▁sure	0
▁book	0
▁found	0
▁better	0
▁used	0
▁place	0
▁water	0
▁years	0
▁life	0
▁erm	0
▁nice	0
▁bit	0
▁eat	0
▁hand	0
▁next	0
▁father	0
▁same	0
▁four	0
▁mummy	0
▁world	0
▁love	0
▁room	0
▁exp	0
▁school	0
▁own	0
▁left	0
▁saw	0
▁nothing	0
▁always	0
▁told	0
▁five	0
▁keep	0
▁lot	0
▁every	0
▁daddy	0
▁men	0
▁part	0
▁under	0
▁though	0
▁born	0
▁took	0
▁gone	0
▁cause	0
▁ever	0
▁sorry	0
▁looking	0
▁coming	0
▁maybe	0
▁dad	0
▁show	0
▁enough	0
▁kind	0
▁goes	0
▁door	0
▁money	0
▁use	0
▁until	0
▁year	0
▁once	0
▁box	0
▁talk	0
▁says	0
▁city	0
▁both	0
▁end	0
▁eyes	0
▁morning	0
▁best	0
▁open	0
▁face	0
▁side	0
▁known	0
▁each	0
▁asked	0
▁read	0
▁stop	0
▁tea	0
▁friend	0
▁wait	0
▁course	0
▁remember	0
▁red	0
▁seen	0
▁call	0
▁try	0
▁yet	0
▁round	0
▁today	0
▁leave	0
▁turn	0
▁god	0
▁children	0
▁together	0
▁child	0
▁between	0
▁sit	0
▁feel	0
▁different	0
▁few	0
▁without	0
▁makes	0
▁young	0
▁hear	0
▁number	0
▁getting	0
▁dear	0
▁later	0
▁sir	0
▁mommy	0
▁noise	0
▁heard	0
▁soon	0
▁blue	0
▁ready	0
▁mrs	0
▁hands	0
▁himself	0
▁sis	0
▁second	0
▁since	0
▁everything	0
▁half	0
▁white	0
▁ball	0
▁looked	0
▁making	0
▁story	0
▁american	0
▁small	0
▁haven	0
▁dog	0
▁actually	0
▁mind	0
▁hard	0
▁united	0
▁wanted	0
▁happened	0
▁miss	0
▁bed	0
▁talking	0
▁pretty	0
▁boys	0
▁during	0
▁hold	0
▁gma	0
▁fire	0
▁far	0
▁knew	0
▁bad	0
▁against	0
▁top	0
▁watch	0
▁six	0
▁family	0
▁hello	0
▁set	0
▁days	0
▁high	0
▁states	0
▁gave	0
▁stay	0
▁party	0
▁live	0
▁along	0
▁black	0
▁king	0
▁died	0
▁table	0
▁run	0
▁believe	0
▁brother	0
▁ask	0
▁started	0
▁saying	0
▁almost	0
▁bro	0
▁playing	0
▁war	0
▁whole	0
▁trying	0
▁green	0
▁light	0
▁move	0
▁food	0
▁matter	0
▁game	0
▁became	0
▁sort	0
▁real	0
▁happy	0
▁cat	0
▁probably	0
▁mom	0
▁son	0
▁fine	0
▁bring	0
▁country	0
▁comes	0
▁began	0
▁times	0
▁feet	0
▁word	0
▁moment	0
▁state	0
▁woman	0
▁town	0
▁floor	0
▁start	0
▁near	0
▁sometimes	0
▁already	0
▁girls	0
▁john	0
▁care	0
▁close	0
▁friends	0
▁lost	0
▁thomas	0
▁heart	0
▁picture	0
▁person	0
▁wrong	0
▁jack	0
▁sleep	0
▁played	0
▁minute	0
▁point	0
▁hair	0
▁poor	0
▁north	0
▁behind	0
▁voice	0
▁full	0
▁paper	0
▁team	0
▁train	0
▁idea	0
▁however	0
▁music	0
▁cup	0
▁means	0
▁air	0
▁ten	0
▁often	0
▁brought	0
▁bear	0
▁turned	0
▁front	0
▁outside	0
▁cut	0
▁death	0
▁chair	0
▁captain	0
▁points	0
▁lady	0
▁guess	0
▁understand	0
▁mine	0
▁seemed	0
▁hope	0
▁early	0
▁sound	0
▁dead	0
▁drink	0
▁movie	0
▁job	0
▁national	0
▁nan	0
▁taking	0
▁line	0
▁wants	0
▁tree	0
▁sec	0
▁taken	0
▁perhaps	0
▁piece	0
▁someone	0
▁pat	0
▁hundred	0
▁south	0
▁hot	0
▁mch	0
▁toys	0
▁twenty	0
▁words	0
▁week	0
▁rest	0
▁ones	0
▁takes	0
▁county	0
▁large	0
▁listen	0
▁inside	0
▁yourself	0
▁mouth	0
▁stand	0
▁seven	0
▁women	0
▁color	0
▁guy	0
▁page	0
▁song	0
▁rather	0
▁age	0
▁doctor	0
▁wife	0
▁horse	0
▁yellow	0
▁stuff	0
▁sea	0
▁till	0
▁sister	0
▁beautiful	0
▁myself	0
▁felt	0
▁true	0
▁minutes	0
▁fall	0
▁others	0
▁either	0
▁several	0
▁given	0
▁group	0
▁case	0
▁late	0
▁river	0
▁bye	0
▁cold	0
▁road	0
▁company	0
▁funny	0
▁body	0
▁boat	0
▁eight	0
▁change	0
▁order	0
▁fell	0
▁thanks	0
▁english	0
▁alone	0
▁walk	0
▁gets	0
▁ago	0
▁area	0
▁tom	0
▁important	0
▁hurt	0
▁animals	0
▁somebody	0
▁france	0
▁business	0
▁fish	0
▁sent	0
▁short	0
▁working	0
▁mum	0
▁free	0
▁least	0
▁land	0
▁pay	0
▁brown	0
▁march	0
▁guys	0
▁wish	0
▁general	0
▁milk	0
▁cried	0
▁hat	0
▁bob	0
▁fact	0
▁toy	0
▁history	0
▁fun	0
▁june	0
▁singing	0
▁mar	0
▁government	0
▁ground	0
▁usually	0
▁peter	0
▁pick	0
▁french	0
▁buy	0
▁tried	0
▁books	0
▁meet	0
▁finished	0
▁wow	0
▁dinner	0
▁president	0
▁hour	0
▁ran	0
▁everybody	0
▁herself	0
▁thinking	0
▁kill	0
▁write	0
▁killed	0
▁power	0
▁living	0
▁phone	0
▁held	0
▁running	0
▁nine	0
▁series	0
▁lived	0
▁become	0
▁sun	0
▁hit	0
▁football	0
▁dark	0
▁sitting	0
▁speak	0
▁january	0
▁west	0
▁kept	0
▁break	0
▁york	0
▁laugh	0
▁darling	0
▁nose	0
▁uncle	0
▁present	0
▁trouble	0
▁window	0
▁eating	0
▁bag	0
▁fast	0
▁bird	0
▁sounds	0
▁past	0
▁less	0
▁university	0
▁stood	0
▁chance	0
▁anyway	0
▁letter	0
▁ooh	0
▁glad	0
▁named	0
▁cds	0
▁tomorrow	0
▁street	0
▁foot	0
▁question	0
▁replied	0
▁within	0
▁strong	0
▁loi	0
▁afraid	0
▁birthday	0
▁fight	0
▁easy	0
▁seems	0
▁suppose	0
▁club	0
▁hours	0
▁summer	0
▁british	0
▁police	0
▁daughter	0
▁problem	0
▁released	0
▁answered	0
▁april	0
▁wonder	0
▁member	0
▁throw	0
▁earth	0
▁married	0
▁ship	0
▁joe	0
▁clothes	0
▁ice	0
▁tired	0
▁kids	0
▁although	0
▁adu	0
▁lovely	0
▁lives	0
▁yours	0
▁church	0
▁turns	0
▁deal	0
▁pull	0
▁sat	0
▁laughing	0
▁main	0
▁reason	0
▁department	0
▁east	0
▁indeed	0
▁clock	0
▁places	0
▁special	0
▁answer	0
▁office	0
▁noises	0
▁system	0
▁october	0
▁third	0
▁rock	0
▁shoes	0
▁above	0
▁island	0
▁months	0
▁catch	0
▁lay	0
▁july	0
▁careful	0
▁met	0
▁arms	0
▁clear	0
▁knows	0
▁passed	0
▁single	0
▁career	0
▁possible	0
▁moved	0
▁november	0
▁truck	0
▁worked	0
▁september	0
▁august	0
▁waiting	0
▁christmas	0
▁die	0
▁form	0
▁whose	0
▁region	0
▁december	0
▁park	0
▁quickly	0
▁middle	0
▁orange	0
▁ain	0
▁building	0
▁silence	0
▁eye	0
▁master	0
▁forward	0
▁exactly	0
▁television	0
▁touch	0
▁ring	0
▁news	0
▁nearly	0
▁reached	0
▁wind	0
▁stick	0
▁everyone	0
▁england	0
▁forget	0
▁shot	0
▁draw	0
▁broken	0
▁lord	0
▁fit	0
▁february	0
▁send	0
▁trees	0
▁juice	0
▁excuse	0
▁certain	0
▁army	0
▁tonight	0
▁law	0
▁thousand	0
▁couple	0
▁husband	0
▁drive	0
▁silly	0
▁longer	0
▁clean	0
▁low	0
▁standing	0
▁evening	0
▁human	0
▁village	0
▁mama	0
▁caught	0
▁million	0
▁return	0
▁board	0
▁returned	0
▁language	0
▁class	0
▁built	0
▁feeling	0
▁service	0
▁needs	0
▁straight	0
▁arm	0
▁written	0
▁frog	0
▁save	0
▁chapter	0
▁player	0
▁aunt	0
▁seat	0
▁certainly	0
▁station	0
▁nobody	0
▁blood	0
▁games	0
▁hungry	0
▁major	0
▁using	0
▁sing	0
▁tape	0
▁gra	0
▁frank	0
▁album	0
▁mark	0
▁anyone	0
▁miles	0
▁quick	0
▁changed	0
▁works	0
▁holding	0
▁london	0
▁century	0
▁opened	0
▁cow	0
▁quiet	0
▁cake	0
▁including	0
▁wear	0
▁ride	0
▁stopped	0
▁wall	0
▁yep	0
▁broke	0
▁hell	0
▁german	0
▁followed	0
▁bus	0
▁suddenly	0
▁honey	0
▁season	0
▁breakfast	0
▁pardon	0
▁district	0
▁band	0
▁carry	0
▁moving	0
▁heavy	0
▁former	0
▁strange	0
▁garden	0
▁mary	0
▁yesterday	0
▁rose	0
▁crying	0
▁george	0
▁field	0
▁push	0
▁gold	0
▁cry	0
▁david	0
▁example	0
▁common	0
▁chief	0
▁camp	0
▁fellow	0
▁kitchen	0
▁legs	0
▁pieces	0
▁fraser	0
▁wee	0
▁added	0
▁sweet	0
▁ben	0
▁cross	0
▁giving	0
▁sight	0
▁afternoon	0
▁bunny	0
▁wrote	0
▁based	0
▁hole	0
▁led	0
▁cool	0
▁space	0
▁supposed	0
▁thirty	0
▁weeks	0
▁star	0
▁gun	0
▁public	0
▁bottom	0
▁bread	0
▁decided	0
▁plan	0
▁animal	0
▁pictures	0
▁position	0
▁population	0
▁nor	0
▁dress	0
▁apple	0
▁sick	0
▁watching	0
▁sings	0
▁teacher	0
▁stuck	0
▁safe	0
▁helen	0
▁duck	0
▁members	0
▁fifty	0
▁bought	0
▁learn	0
▁indian	0
▁bill	0
▁film	0
▁silver	0
▁check	0
▁happens	0
▁somewhere	0
▁snow	0
▁hall	0
▁shop	0
▁nin	0
▁deep	0
▁figure	0
▁pass	0
▁flowers	0
▁america	0
▁finish	0
▁exclaimed	0
▁none	0
▁international	0
▁except	0
▁parents	0
▁leaving	0
▁finally	0
▁fair	0
▁meant	0
▁queen	0
▁warm	0
▁truth	0
▁force	0
▁received	0
▁win	0
▁coffee	0
▁dat	0
▁chicken	0
▁jump	0
▁list	0
▁league	0
▁act	0
▁cover	0
▁further	0
▁control	0
▁busy	0
▁college	0
▁bottle	0
▁hospital	0
▁cars	0
▁kiss	0
▁pink	0
▁follow	0
▁plays	0
▁teeth	0
▁lake	0
▁walking	0
▁fucking	0
▁cheese	0
▁reach	0
▁bet	0
▁continued	0
▁wild	0
▁beginning	0
▁billy	0
▁harry	0
▁kid	0
▁commune	0
▁especially	0
▁appeared	0
▁doll	0
▁engine	0
▁moon	0
▁visit	0
▁fear	0
▁gives	0
▁james	0
▁stone	0
▁type	0
▁spoke	0
▁shit	0
▁art	0
▁attack	0
▁illustration	0
▁race	0
▁capital	0
▁farm	0
▁wood	0
▁dance	0
▁officer	0
▁bridge	0
▁dis	0
▁created	0
▁allowed	0
▁sense	0
▁lunch	0
▁lie	0
▁minister	0
▁birds	0
▁information	0
▁build	0
▁fuck	0
▁fly	0
▁walked	0
▁letters	0
▁sky	0
▁court	0
▁tail	0
▁writing	0
▁famous	0
▁pig	0
▁view	0
▁attention	0
▁step	0
▁soft	0
▁reading	0
▁blow	0
▁welcome	0
▁wash	0
▁stars	0
▁corner	0
▁council	0
▁likes	0
▁dropped	0
▁distance	0
▁parts	0
▁pop	0
▁month	0
▁bath	0
▁level	0
▁starts	0
▁battle	0
▁paul	0
▁leaves	0
▁due	0
▁hill	0
▁horses	0
▁pretend	0
▁record	0
▁grandma	0
▁interest	0
▁meeting	0
▁bank	0
▁pounds	0
▁germany	0
▁difficult	0
▁local	0
▁winter	0
▁wonderful	0
▁lead	0
▁ate	0
▁plate	0
▁lose	0
▁monkey	0
▁drop	0
▁dry	0
▁elephant	0
▁shape	0
▁count	0
▁eggs	0
▁japan	0
▁shows	0
▁popular	0
▁teddy	0
▁store	0
▁countries	0
▁object	0
▁bright	0
▁laughed	0
▁sign	0
▁spot	0
▁wet	0
▁species	0
▁ears	0
▁mad	0
▁hang	0
▁video	0
▁rabbit	0
▁michael	0
▁crayon	0
▁fix	0
▁grew	0
▁union	0
▁crazy	0
▁names	0
▁report	0
▁character	0
▁amy	0
▁cream	0
▁jim	0
▁interesting	0
▁central	0
▁twelve	0
▁liked	0
▁trust	0
▁favorite	0
▁future	0
▁kitty	0
▁lying	0
▁slowly	0
▁bobby	0
▁finger	0
▁charge	0
▁cook	0
▁term	0
▁glass	0
▁sheep	0
▁rain	0
▁below	0
▁egg	0
▁whoa	0
▁post	0
▁worth	0
▁kingdom	0
▁doubt	0
▁needed	0
▁unless	0
▁track	0
▁showed	0
▁secret	0
▁include	0
▁alive	0
▁betty	0
▁paid	0
▁grow	0
▁fingers	0
▁surprise	0
▁camera	0
▁largest	0
▁questions	0
▁grass	0
▁period	0
▁wide	0
▁closed	0
▁stories	0
▁india	0
▁cries	0
▁square	0
▁dogs	0
▁western	0
▁mountain	0
▁interested	0
▁sad	0
▁loved	0
▁problems	0
▁forgot	0
▁speaking	0
▁beat	0
▁self	0
▁grand	0
▁sam	0
▁smile	0
▁action	0
▁bigger	0
▁covered	0
▁forty	0
▁serious	0
▁sleeping	0
▁terrible	0
▁hate	0
▁scared	0
▁match	0
▁neck	0
▁hide	0
▁moves	0
▁leg	0
▁health	0
▁circle	0
▁dirty	0
▁robert	0
▁center	0
▁roll	0
▁roman	0
▁support	0
▁chocolate	0
▁clever	0
▁lion	0
▁key	0
▁dream	0
▁stage	0
▁base	0
▁hardly	0
▁loud	0
▁machine	0
▁promise	0
▁henry	0
▁asleep	0
▁leader	0
▁aft	0
▁therefore	0
▁study	0
▁various	0
▁conversation	0
▁province	0
▁served	0
▁mess	0
▁direction	0
▁japanese	0
▁prince	0
▁drawing	0
▁share	0
▁europe	0
▁aye	0
▁tall	0
▁counter	0
▁helped	0
▁perfect	0
▁carl	0
▁mouse	0
▁tiny	0
▁natural	0
▁size	0
▁modern	0
▁press	0
▁ways	0
▁joined	0
▁older	0
▁picked	0
▁california	0
▁tiger	0
▁likely	0
▁caused	0
▁total	0
▁sue	0
▁bite	0
▁spent	0
▁final	0
▁considered	0
▁sarah	0
▁nature	0
▁similar	0
▁beyond	0
▁card	0
▁bell	0
▁shoot	0
▁flying	0
▁entered	0
▁calling	0
▁military	0
▁coat	0
▁political	0
▁spoon	0
▁learned	0
▁directed	0
▁politician	0
▁tower	0
▁fighting	0
▁forest	0
▁peace	0
▁lines	0
▁choo	0
▁radio	0
▁driving	0
▁shirt	0
▁role	0
▁wake	0
▁spring	0
▁declared	0
▁spanish	0
▁numbers	0
▁worse	0
▁meat	0
▁att	0
▁northern	0
▁agreed	0
▁award	0
▁van	0
▁computer	0
▁lower	0
▁whispered	0
▁rich	0
▁san	0
▁situation	0
▁social	0
▁movies	0
▁upstairs	0
▁enemy	0
▁danger	0
▁soldiers	0
▁beach	0
▁shore	0
▁oops	0
▁eleanor	0
▁angry	0
▁drew	0
▁produced	0
▁expect	0
▁simple	0
▁education	0
▁director	0
▁sunday	0
▁energy	0
▁laid	0
▁join	0
▁dressed	0
▁starting	0
▁fresh	0
▁colors	0
▁stupid	0
▁sharp	0
▁knock	0
▁ancient	0
▁original	0
▁australia	0
▁european	0
▁missing	0
▁william	0
▁discovered	0
▁jesus	0
▁hiding	0
▁placed	0
▁songs	0
▁houses	0
▁anne	0
▁dick	0
▁babies	0
▁naughty	0
▁beside	0
▁windows	0
▁pain	0
▁besides	0
▁meaning	0
▁pointing	0
▁driver	0
▁cookie	0
▁neither	0
▁steps	0
▁ladies	0
▁absolutely	0
▁professional	0
▁personal	0
▁formed	0
▁luck	0
▁lucky	0
▁tries	0
▁length	0
▁speed	0
▁forth	0
▁dollars	0
▁royal	0
▁ear	0
▁snake	0
▁arrived	0
▁blocks	0
▁date	0
▁census	0
▁pocket	0
▁note	0
▁puppet	0
▁pen	0
▁skin	0
▁plane	0
▁threw	0
▁escape	0
▁filled	0
▁gate	0
▁charles	0
▁society	0
▁continues	0
▁lee	0
▁urs	0
▁sold	0
▁dolly	0
▁hmm	0
▁raised	0
▁actor	0
▁higher	0
▁sell	0
▁falling	0
▁mostly	0
▁block	0
▁easily	0
▁spend	0
▁woods	0
▁adult	0
▁butter	0
▁damn	0
▁coast	0
▁hotel	0
▁watched	0
▁wheel	0
▁weather	0
▁pleasure	0
▁wearing	0
▁china	0
▁shoe	0
▁phil	0
▁difference	0
▁goodness	0
▁private	0
▁trip	0
▁immediately	0
▁puzzle	0
▁completely	0
▁cost	0
▁background	0
▁pulled	0
▁storm	0
▁nina	0
▁ended	0
▁gas	0
▁dangerous	0
▁tony	0
▁richard	0
▁southern	0
▁missed	0
▁price	0
▁thinks	0
▁anywhere	0
▁bang	0
▁smell	0
▁current	0
▁twice	0
▁breath	0
▁magic	0
▁article	0
▁jane	0
▁huge	0
▁handle	0
▁scene	0
▁municipality	0
▁surprised	0
▁deck	0
▁feed	0
▁purple	0
▁sugar	0
▁amount	0
▁tur	0
▁taste	0
▁saturday	0
▁fox	0
▁account	0
▁empty	0
▁cousin	0
▁monster	0
▁announced	0
▁believed	0
▁professor	0
▁lid	0
▁brush	0
▁spread	0
▁governor	0
▁fruit	0
▁smoke	0
▁experience	0
▁centre	0
▁effect	0
▁singer	0
▁sib	0
▁market	0
▁paris	0
▁lad	0
▁lights	0
▁joy	0
▁duty	0
▁community	0
▁subject	0
▁bar	0
▁paint	0
▁begin	0
▁runs	0
▁maggie	0
▁result	0
▁explain	0
▁iron	0
▁edge	0
▁per	0
▁enjoy	0
▁pleased	0
▁expected	0
▁spirit	0
▁double	0
▁charlie	0
▁walks	0
▁imagine	0
▁mountains	0
▁science	0
▁notice	0
▁published	0
▁fallen	0
▁groups	0
▁lieutenant	0
▁opening	0
▁russian	0
▁swimming	0
▁election	0
▁pause	0
▁ill	0
▁begins	0
▁bowl	0
▁castle	0
▁heads	0
▁slow	0
▁necessary	0
▁officers	0
▁soul	0
▁earlier	0
▁growing	0
▁guns	0
▁founded	0
▁spoken	0
▁terms	0
▁movement	0
▁italian	0
▁areas	0
▁sex	0
▁choice	0
▁evidence	0
▁val	0
▁mike	0
▁trade	0
▁eastern	0
▁test	0
▁supper	0
▁plants	0
▁tears	0
▁rule	0
▁stairs	0
▁event	0
▁flat	0
▁golden	0
▁princess	0
▁female	0
▁knife	0
▁flower	0
▁purpose	0
▁faith	0
▁fourth	0
▁awful	0
▁crew	0
▁christian	0
▁plant	0
▁bloody	0
▁accident	0
▁tone	0
▁usual	0
▁brothers	0
▁grown	0
▁sand	0
▁fifteen	0
▁prime	0
▁ocean	0
▁located	0
▁canada	0
▁laura	0
▁medicine	0
▁button	0
▁basket	0
▁italy	0
▁journey	0
▁nurse	0
▁africa	0
▁path	0
▁bow	0
▁keeping	0
▁carefully	0
▁shake	0
▁eleven	0
▁promised	0
▁anna	0
▁search	0
▁empire	0
▁proud	0
▁saved	0
▁otherwise	0
▁dancing	0
▁agree	0
▁whoops	0
▁range	0
▁fri	0
▁rights	0
▁telephone	0
▁extra	0
▁quarter	0
▁watches	0
▁ordered	0
▁nods	0
▁version	0
▁soa	0
▁strength	0
▁oil	0
▁success	0
▁listening	0
▁washington	0
▁development	0
▁jen	0
▁native	0
▁chinese	0
▁roof	0
▁slide	0
▁involved	0
▁falls	0
▁title	0
▁tells	0
▁obviously	0
▁choose	0
▁noticed	0
▁generally	0
▁shoulder	0
▁alice	0
▁ross	0
▁offer	0
▁martin	0
▁smaller	0
▁rate	0
▁pot	0
▁changes	0
▁research	0
▁message	0
▁training	0
▁friday	0
▁calls	0
▁aged	0
▁taught	0
▁super	0
▁fellows	0
▁guard	0
▁orders	0
▁lips	0
▁fault	0
▁command	0
▁prison	0
▁republic	0
▁mistake	0
▁regular	0
▁finding	0
▁prize	0
▁pair	0
▁flight	0
▁youth	0
▁bonnet	0
▁row	0
▁adam	0
▁islands	0
▁pound	0
▁meal	0
▁rough	0
▁sudden	0
▁style	0
▁events	0
▁sides	0
▁ann	0
▁pleasant	0
▁rocks	0
▁showing	0
▁impossible	0
▁boo	0
▁rya	0
▁program	0
▁ned	0
▁allow	0
▁everywhere	0
▁climb	0
▁brain	0
▁closer	0
▁normal	0
▁beauty	0
▁surface	0
▁murder	0
▁spain	0
▁shown	0
▁gentleman	0
▁drinking	0
▁cases	0
▁downstairs	0
▁greater	0
▁official	0
▁santa	0
▁teach	0
▁brave	0
▁stands	0
▁bay	0
▁judge	0
▁civil	0
▁possibly	0
▁colonel	0
▁related	0
▁yum	0
▁wheels	0
▁tongue	0
▁forces	0
▁honor	0
▁texas	0
▁entire	0
▁ninety	0
▁division	0
▁sixty	0
▁pie	0
▁prepared	0
▁remained	0
▁calm	0
▁rules	0
▁commander	0
▁managed	0
▁jumped	0
▁leading	0
▁seconds	0
▁cards	0
▁championship	0
▁students	0
▁complete	0
▁cities	0
▁worried	0
▁studio	0
▁services	0
▁riding	0
▁farmer	0
▁pants	0
▁papa	0
▁sits	0
▁carrying	0
▁evil	0
▁gray	0
▁lift	0
▁boss	0
▁crash	0
▁pizza	0
▁doors	0
▁actress	0
▁excited	0
▁developed	0
▁marriage	0
▁suggested	0
▁valley	0
▁suit	0
▁languages	0
▁greek	0
▁gentlemen	0
▁fixed	0
▁practice	0
▁bits	0
▁academy	0
▁ships	0
▁sung	0
▁plans	0
▁forgotten	0
▁awards	0
▁heat	0
▁appearance	0
▁faces	0
▁definitely	0
▁committee	0
▁process	0
▁male	0
▁shouted	0
▁pulls	0
▁sandwich	0
▁players	0
▁schools	0
▁opens	0
▁crime	0
▁channel	0
▁weight	0
▁protect	0
▁greatest	0
▁mister	0
▁kay	0
▁quietly	0
▁security	0
▁records	0
▁dare	0
▁saint	0
▁bessie	0
▁softly	0
▁opportunity	0
▁included	0
▁loves	0
▁mamma	0
▁kick	0
▁opposite	0
▁metal	0
▁gordon	0
▁bike	0
▁continue	0
▁stayed	0
▁steven	0
▁holiday	0
▁mass	0
▁helping	0
▁nope	0
▁bedroom	0
▁model	0
▁sports	0
▁dutch	0
▁rope	0
▁heaven	0
▁museum	0
▁bound	0
▁nineteen	0
▁morrow	0
▁cast	0
▁throat	0
▁afterwards	0
▁manager	0
▁knee	0
▁speech	0
▁spider	0
▁tie	0
▁wan	0
▁walls	0
▁formula	0
▁safety	0
▁towel	0
▁younger	0
▁directly	0
▁crowd	0
▁project	0
▁offered	0
▁wolf	0
▁media	0
▁apparently	0
▁highest	0
▁thick	0
▁ideas	0
▁successful	0
▁papers	0
▁cloth	0
▁wine	0
▁remain	0
▁knowledge	0
▁fred	0
▁biggest	0
▁holy	0
▁balls	0
▁yyy	0
▁decision	0
▁marry	0
▁salt	0
▁eaten	0
▁secretary	0
▁clown	0
▁easier	0
▁coach	0
▁balloon	0
▁cabin	0
▁smiled	0
▁teams	0
▁toast	0
▁site	0
▁sake	0
▁travel	0
▁boats	0
▁bout	0
▁accept	0
▁smart	0
▁ourselves	0
▁glasses	0
▁retired	0
▁plain	0
▁respect	0
▁frightened	0
▁sighs	0
▁memory	0
▁swim	0
▁yup	0
▁smith	0
▁forced	0
▁microphone	0
▁painting	0
▁whispers	0
▁roz	0
▁ass	0
▁risk	0
▁yard	0
▁larger	0
▁knowing	0
▁pages	0
▁writer	0
▁shopping	0
▁goodbye	0
▁mentioned	0
▁boots	0
▁somewhat	0
▁elected	0
▁add	0
▁flew	0
▁giant	0
▁corn	0
▁picking	0
▁max	0
▁eighty	0
▁monday	0
▁dinosaur	0
▁wings	0
▁loss	0
▁shook	0
▁settled	0
▁filler	0
▁mate	0
▁silent	0
▁cats	0
▁lawyer	0
▁theory	0
▁olympics	0
▁wedding	0
▁drops	0
▁types	0
▁powerful	0
▁palace	0
▁fancy	0
▁studied	0
▁excellent	0
▁pet	0
▁pool	0
▁honest	0
▁airport	0
▁nursery	0
▁zoo	0
▁rings	0
▁explained	0
▁fairy	0
▁upper	0
▁anxious	0
▁medical	0
▁perfectly	0
▁chairman	0
▁washing	0
▁keys	0
▁disease	0
▁production	0
▁signed	0
▁hanging	0
▁string	0
▁buddy	0
▁comfortable	0
▁grace	0
▁port	0
▁mission	0
▁release	0
▁waited	0
▁hearing	0
▁desk	0
▁acting	0
▁available	0
▁talks	0
▁grandmother	0
▁cell	0
▁cancer	0
▁feels	0
▁indians	0
▁wise	0
▁passing	0
▁hills	0
▁activity	0
▁prove	0
▁fort	0
▁russia	0
▁gay	0
▁vote	0
▁louis	0
▁flag	0
▁soldier	0
▁decide	0
▁association	0
▁bin	0
▁response	0
▁attempt	0
▁enter	0
▁episode	0
▁appear	0
▁fishing	0
▁fence	0
▁brilliant	0
▁hero	0
▁faster	0
▁blanket	0
▁upset	0
▁roger	0
▁chris	0
▁pressure	0
▁shouts	0
▁thoughts	0
▁fought	0
▁reply	0
▁cute	0
▁culture	0
▁crown	0
▁value	0
▁soviet	0
▁willing	0
▁christ	0
▁average	0
▁serve	0
▁fad	0
▁clearly	0
▁staff	0
▁yay	0
▁fill	0
▁troops	0
▁magazine	0
▁lap	0
▁motion	0
▁mile	0
▁african	0
▁tight	0
▁drawn	0
▁library	0
▁throwing	0
▁footnote	0
▁effort	0
▁iii	0
▁forever	0
▁smiling	0
▁andy	0
▁stones	0
▁bathroom	0
▁pushed	0
▁cooking	0
▁property	0
▁shakes	0
▁condition	0
▁policy	0
▁fashion	0
▁justice	0
▁objects	0
▁baseball	0
▁characters	0
▁dozen	0
▁bert	0
▁swing	0
▁stream	0
▁rid	0
▁artist	0
▁hung	0
▁relationship	0
▁tractor	0
▁stan	0
▁ireland	0
▁worst	0
▁disappeared	0
▁dan	0
▁waves	0
▁author	0
▁birth	0
▁parliament	0
▁thin	0
▁rise	0
▁remembered	0
▁forms	0
▁soup	0
▁knocked	0
▁fired	0
▁emperor	0
▁knees	0
▁concerned	0
▁barn	0
▁chicago	0
▁weird	0
▁presence	0
▁foreign	0
▁includes	0
▁thrown	0
▁ruth	0
▁failed	0
▁throws	0
▁described	0
▁established	0
▁friendly	0
▁fully	0
▁bee	0
▁sail	0
▁jones	0
▁manage	0
▁waste	0
▁amazing	0
▁rush	0
▁lara	0
▁ends	0
▁treat	0
▁families	0
▁doggie	0
▁australian	0
▁percent	0
▁shh	0
▁mexico	0
▁feelings	0
▁gently	0
▁fool	0
▁vessel	0
▁drama	0
▁thumb	0
▁joseph	0
▁understood	0
▁tied	0
▁crayons	0
▁grandpa	0
▁address	0
▁realize	0
▁seriously	0
▁grandfather	0
▁belong	0
▁previous	0
▁florida	0
▁material	0
▁helps	0
▁independent	0
▁wished	0
▁los	0
▁opinion	0
▁expand	0
▁currently	0
▁notes	0
▁wave	0
▁data	0
▁agent	0
▁jimmy	0
▁becoming	0
▁tale	0
▁darkness	0
▁rome	0
▁patient	0
▁section	0
▁scott	0
▁mirror	0
▁dying	0
▁haha	0
▁correct	0
▁elizabeth	0
▁statistics	0
▁cap	0
▁shoulders	0
▁degree	0
▁cups	0
▁buried	0
▁shooting	0
▁peas	0
▁consider	0
▁figures	0
▁socks	0
▁planet	0
▁ellie	0
▁gentle	0
▁tip	0
▁contact	0
▁mixed	0
▁fifth	0
▁boxes	0
▁dada	0
▁lies	0
▁pushes	0
▁totally	0
▁drove	0
▁bunch	0
▁airplane	0
▁garage	0
▁spell	0
▁originally	0
▁design	0
▁effects	0
▁rolling	0
▁jumping	0
▁canadian	0
▁voices	0
▁gift	0
▁merry	0
▁mail	0
▁penny	0
▁latin	0
▁sword	0
▁performance	0
▁joke	0
▁edward	0
▁damage	0
▁freedom	0
▁mainly	0
▁hidden	0
▁wipe	0
▁butterfly	0
▁repeated	0
▁tummy	0
▁plus	0
▁folks	0
▁julia	0
▁reported	0
▁recording	0
▁killing	0
▁determined	0
▁sets	0
▁goat	0
▁industry	0
▁tommy	0
▁trains	0
▁plastic	0
▁puppy	0
▁bull	0
▁network	0
▁eventually	0
▁reasons	0
▁cutting	0
▁fortune	0
▁fields	0
▁features	0
▁observed	0
▁gosh	0
▁owned	0
▁toes	0
▁breaking	0
▁hop	0
▁touched	0
▁alexander	0
▁realized	0
▁arthur	0
▁forgive	0
▁religion	0
▁americans	0
▁lock	0
▁boom	0
▁blind	0
▁scotland	0
▁recently	0
▁medal	0
▁active	0
▁strike	0
▁pooh	0
▁religious	0
▁hockey	0
▁bush	0
▁stops	0
▁narrow	0
▁buildings	0
▁stranger	0
▁pan	0
▁individual	0
▁expression	0
▁ted	0
▁trail	0
▁ladder	0
▁pack	0
▁staying	0
▁direct	0
▁yummy	0
▁turkey	0
▁burning	0
▁influence	0
▁divided	0
▁bears	0
▁rice	0
▁chest	0
▁recorded	0
▁trick	0
▁deer	0
▁victory	0
▁mention	0
▁horrible	0
▁learning	0
▁branch	0
▁brian	0
▁whenever	0
▁sisters	0
▁normally	0
▁motor	0
▁signal	0
▁matches	0
▁burn	0
▁separate	0
▁task	0
▁sees	0
▁scientists	0
▁bitch	0
▁paying	0
▁cookies	0
▁beep	0
▁gathered	0
▁winning	0
▁boston	0
▁ray	0
▁slightly	0
▁madam	0
▁standard	0
▁locked	0
▁traffic	0
▁steve	0
▁grave	0
▁newspaper	0
▁carriage	0
▁trunk	0
▁bones	0
▁advice	0
▁sweetheart	0
▁companies	0
▁britain	0
▁clouds	0
▁desire	0
▁holes	0
▁issue	0
▁wore	0
▁dreams	0
▁instant	0
▁owner	0
▁destroyed	0
▁climate	0
▁caterpillar	0
▁authority	0
▁owl	0
▁loose	0
▁seventy	0
▁companion	0
▁tough	0
▁receive	0
▁hunting	0
▁curious	0
▁pour	0
▁border	0
▁performed	0
▁student	0
▁electric	0
▁frogs	0
▁musical	0
▁partner	0
▁grant	0
▁pencil	0
▁weapons	0
▁slept	0
▁nick	0
▁streets	0
▁wooden	0
▁positive	0
▁delight	0
▁postman	0
▁doggy	0
▁excitement	0
▁create	0
▁cloud	0
▁quack	0
▁mud	0
▁yards	0
▁brings	0
▁tent	0
▁broad	0
▁prisoners	0
▁treasure	0
▁referring	0
▁systems	0
▁hug	0
▁copy	0
▁zzz	0
▁grey	0
▁cash	0
▁duh	0
▁chase	0
▁auntie	0
▁bodies	0
▁jerry	0
▁candy	0
▁shout	0
▁icecream	0
▁results	0
▁bags	0
▁source	0
▁democratic	0
▁banana	0
▁planning	0
▁becomes	0
▁patsy	0
▁aware	0
▁weekend	0
▁stub	0
▁polly	0
▁railway	0
▁removed	0
▁proved	0
▁harm	0
▁tickle	0
▁dorothy	0
▁weak	0
▁dust	0
▁sticks	0
▁operation	0
▁nana	0
▁trial	0
▁chairs	0
▁category	0
▁creature	0
▁adventure	0
▁odd	0
▁aid	0
▁tim	0
▁oth	0
▁thousands	0
▁stubs	0
▁familiar	0
▁comedy	0
▁racing	0
▁bless	0
▁handed	0
▁angeles	0
▁federal	0
▁sport	0
▁laws	0
▁neat	0
▁mayor	0
▁lifted	0
▁shame	0
▁ours	0
▁tank	0
▁rising	0
▁touches	0
▁temple	0
▁jean	0
▁asia	0
▁stepped	0
▁rooms	0
▁listened	0
▁congress	0
▁bone	0
▁jobs	0
▁allah	0
▁awake	0
▁queer	0
▁dragon	0
▁wounded	0
▁sang	0
▁pilot	0
▁toilet	0
▁truly	0
▁raise	0
▁branches	0
▁hearts	0
▁useful	0
▁poo	0
▁irish	0
▁alarm	0
▁enjoyed	0
▁switzerland	0
▁tour	0
▁daily	0
▁code	0
▁introduced	0
▁sorts	0
▁bricks	0
▁equal	0
▁folk	0
▁humans	0
▁sons	0
▁signs	0
▁underneath	0
▁courage	0
▁mighty	0
▁kim	0
▁moo	0
▁detective	0
▁beer	0
▁technology	0
▁hunt	0
▁quality	0
▁goal	0
▁nearer	0
▁festival	0
▁hurried	0
▁shower	0
▁competition	0
▁peggy	0
▁fireman	0
▁recorder	0
▁chips	0
▁organization	0
▁structure	0
▁mat	0
▁lucy	0
▁blows	0
▁difficulty	0
▁kat	0
▁landed	0
▁responsible	0
▁nation	0
▁studies	0
▁invited	0
▁losing	0
▁chain	0
▁steady	0
▁giggles	0
▁changing	0
▁armed	0
▁blame	0
▁turtle	0
▁dolls	0
▁angel	0
▁treated	0
▁novel	0
▁washed	0
▁cows	0
▁split	0
▁aah	0
▁required	0
▁lonely	0
▁replaced	0
▁territory	0
▁captured	0
▁nervous	0
▁campaign	0
▁ordinary	0
▁grab	0
▁host	0
▁remains	0
▁purse	0
▁eve	0
▁becky	0
▁woof	0
▁nest	0
▁exciting	0
▁temperature	0
▁spare	0
▁marks	0
▁firm	0
▁provided	0
▁pony	0
▁handsome	0
▁burst	0
▁pipe	0
▁accepted	0
▁engaged	0
▁jacket	0
▁selling	0
▁catholic	0
▁credit	0
▁couch	0
▁speaks	0
▁unit	0
▁guilty	0
▁score	0
▁ugly	0
▁jigsaw	0
▁glance	0
▁oliver	0
▁presents	0
▁slave	0
▁leaf	0
▁shouting	0
▁designed	0
▁lisa	0
▁shell	0
▁ghost	0
▁hammer	0
▁eric	0
▁cave	0
▁prisoner	0
▁apartment	0
▁recognized	0
▁col	0
▁trousers	0
▁conditions	0
▁delicious	0
▁guide	0
▁parties	0
▁advantage	0
▁piano	0
▁pity	0
▁robin	0
▁tuesday	0
▁relief	0
▁florence	0
▁chosen	0
▁ages	0
▁pushing	0
▁rushed	0
▁contract	0
▁pile	0
▁appointed	0
▁sixteen	0
▁colour	0
▁lorry	0
▁doo	0
▁setting	0
▁rescue	0
▁finds	0
▁waters	0
▁labour	0
▁comfort	0
▁nicole	0
▁conference	0
▁etc	0
▁refused	0
▁tropical	0
▁attacked	0
▁powers	0
▁economic	0
▁legal	0
▁laughter	0
▁eighteen	0
▁appears	0
▁walter	0
▁produce	0
▁arts	0
▁slipped	0
▁sore	0
▁egypt	0
▁physical	0
▁planned	0
▁pale	0
▁potato	0
▁screams	0
▁affairs	0
▁hoping	0
▁wing	0
▁lamb	0
▁increased	0
▁donald	0
▁volume	0
▁provide	0
▁nations	0
▁shadow	0
▁drunk	0
▁soap	0
▁towns	0
▁belt	0
▁chemical	0
▁treatment	0
▁admit	0
▁alex	0
▁supply	0
▁circumstances	0
▁policeman	0
▁mistress	0
▁oldest	0
▁dishes	0
▁pray	0
▁thursday	0
▁kar	0
▁favor	0
▁stock	0
▁caroline	0
▁duke	0
▁ela	0
▁collection	0
▁increase	0
▁jail	0
▁fourteen	0
▁crossed	0
▁load	0
▁intended	0
▁warning	0
▁picnic	0
▁revolution	0
▁climbing	0
▁wagon	0
▁universe	0
▁stomach	0
▁beans	0
▁guest	0
▁recent	0
▁zealand	0
▁mmm	0
▁expensive	0
▁drug	0
▁lane	0
▁kidding	0
▁gained	0
▁content	0
▁satisfied	0
▁reaching	0
▁brazil	0
▁screen	0
▁destroy	0
▁honour	0
▁dig	0
▁approach	0
▁hook	0
▁nancy	0
▁rolled	0
▁majesty	0
▁map	0
▁sergeant	0
▁drugs	0
▁desert	0
▁sally	0
▁pigs	0
▁connected	0
▁demanded	0
▁lessons	0
▁addition	0
▁pride	0
▁smiles	0
▁brick	0
▁refers	0
▁avoid	0
▁express	0
▁jenny	0
▁wha	0
▁escaped	0
▁fate	0
▁extremely	0
▁circus	0
▁giraffe	0
▁fur	0
▁unknown	0
▁claim	0
▁selected	0
▁scary	0
▁lesson	0
▁prevent	0
▁wednesday	0
▁climbed	0
▁basically	0
▁quit	0
▁tunnel	0
▁daniel	0
▁actual	0
▁text	0
▁breathing	0
▁adventures	0
▁hoped	0
▁shock	0
▁despite	0
▁colored	0
▁ducks	0
▁senior	0
▁pakistan	0
▁jimmie	0
▁scale	0
▁blowing	0
▁seek	0
▁hasta	0
▁contents	0
▁occasion	0
▁teaching	0
▁route	0
▁pole	0
▁eagerly	0
▁gods	0
▁traditional	0
▁shining	0
▁navy	0
▁mel	0
▁nights	0
▁coal	0
▁leans	0
▁bucket	0
▁rolls	0
▁workers	0
▁seated	0
▁moments	0
▁dawn	0
▁progress	0
▁sentence	0
▁den	0
▁maid	0
▁mix	0
▁champion	0
▁wrestling	0
▁tracks	0
▁vice	0
▁pond	0
▁file	0
▁marie	0
▁mount	0
▁arrest	0
▁slight	0
▁weapon	0
▁entrance	0
▁abe	0
▁belongs	0
▁distant	0
▁susan	0
▁molly	0
▁ken	0
▁fleet	0
▁witch	0
▁enemies	0
▁advance	0
▁whispering	0
▁buttons	0
▁daisy	0
▁harder	0
▁sandy	0
▁cells	0
▁austria	0
▁sweden	0
▁bent	0
▁assembly	0
▁kissed	0
▁worn	0
▁marked	0
▁pitcher	0
▁gain	0
▁lois	0
▁sunshine	0
▁rear	0
▁annie	0
▁painted	0
▁splash	0
▁netherlands	0
▁mid	0
▁shops	0
▁hundreds	0
▁plates	0
▁maria	0
▁bubbles	0
▁thirteen	0
▁innocent	0
▁roles	0
▁jason	0
▁snap	0
▁victim	0
▁access	0
▁advanced	0
▁dude	0
▁construction	0
▁slaves	0
▁driven	0
▁tin	0
▁ugh	0
▁teachers	0
▁wound	0
▁beast	0
▁virginia	0
▁passengers	0
▁rivers	0
▁debut	0
▁bump	0
▁involuntary	0
▁tax	0
▁suffered	0
▁swear	0
▁eager	0
▁details	0
▁fed	0
▁horn	0
▁rare	0
▁producer	0
▁goods	0
▁nuts	0
▁sending	0
▁passage	0
▁independence	0
▁statement	0
▁doctors	0
▁shed	0
▁basketball	0
▁entertainment	0
▁spirits	0
▁kings	0
▁burned	0
▁atlantic	0
▁seats	0
▁philip	0
▁protection	0
▁nonsense	0
▁ouch	0
▁steal	0
▁beg	0
▁rachel	0
▁emergency	0
▁bomb	0
▁refer	0
▁proposed	0
▁bart	0
▁dish	0
▁apples	0
▁noble	0
▁distributed	0
▁inhabitants	0
▁slip	0
▁affair	0
▁economy	0
▁presented	0
▁priest	0
▁wales	0
▁issues	0
▁recognize	0
▁arrested	0
▁bible	0
▁causes	0
▁cage	0
▁homes	0
▁oven	0
▁stole	0
▁sink	0
▁mabel	0
▁spots	0
▁limited	0
▁junior	0
▁voc	0
▁shaking	0
▁dollar	0
▁pee	0
▁killer	0
▁glo	0
▁pirate	0
▁pillow	0
▁drinks	0
▁kisses	0
▁completed	0
▁woo	0
▁exist	0
▁location	0
▁arranged	0
▁dem	0
▁opera	0
▁peanut	0
▁splendid	0
▁covers	0
▁mickey	0
▁draws	0
▁tools	0
▁guests	0
▁margaret	0
▁craft	0
▁grapes	0
▁films	0
▁mystery	0
▁jelly	0
▁happiness	0
▁landing	0
▁els	0
▁whisper	0
▁succeeded	0
▁buying	0
▁creek	0
▁chose	0
▁log	0
▁jackson	0
▁creatures	0
▁bishop	0
▁principal	0
▁measure	0
▁confidence	0
▁settle	0
▁sylvia	0
▁management	0
▁precious	0
▁returning	0
▁ability	0
▁naturally	0
▁suggest	0
▁potatoes	0
▁aha	0
▁audience	0
▁madame	0
▁israel	0
▁louise	0
▁nap	0
▁clap	0
▁trucks	0
▁johnny	0
▁ellen	0
▁switch	0
▁appreciate	0
▁occupied	0
▁kissing	0
▁hut	0
▁companions	0
▁barbara	0
▁punch	0
▁screaming	0
▁sounded	0
▁noisy	0
▁majority	0
▁disney	0
▁hits	0
▁transport	0
▁internet	0
▁contains	0
▁platform	0
▁andrew	0
▁matthew	0
▁failure	0
▁roads	0
▁height	0
▁bushes	0
▁lincoln	0
▁steel	0
▁institute	0
▁equipment	0
▁ambulance	0
▁hay	0
▁flash	0
▁attempts	0
▁follows	0
▁unusual	0
▁aircraft	0
▁smooth	0
▁backwards	0
▁brief	0
▁christopher	0
▁kate	0
▁wire	0
▁jewish	0
▁settlement	0
▁units	0
▁politics	0
▁glory	0
▁exercise	0
▁exchange	0
▁faced	0
▁sailor	0
▁johnson	0
▁primary	0
▁steam	0
▁arab	0
▁stronger	0
▁servant	0
▁suffering	0
▁meanwhile	0
▁ryan	0
▁description	0
▁gina	0
▁cheeks	0
▁struggle	0
▁sigh	0
▁jam	0
▁surrounded	0
▁pussy	0
▁compared	0
▁net	0
▁sleepy	0
▁matt	0
▁brand	0
▁poet	0
▁solid	0
▁crocodile	0
▁powder	0
▁theatre	0
▁balance	0
▁seized	0
▁sexual	0
▁beds	0
▁bees	0
▁eddie	0
▁danny	0
▁efforts	0
▁raining	0
▁persons	0
▁pure	0
▁fork	0
▁fan	0
▁proof	0
▁korea	0
▁basic	0
▁delighted	0
▁discovery	0
▁shapes	0
▁de	0
▁je	0
▁het	0
▁een	0
▁en	0
▁niet	0
▁zijn	0
▁wat	0
▁ze	0
▁voor	0
▁er	0
▁maar	0
▁aan	0
▁heb	0
▁dit	0
▁ook	0
▁nog	0
▁uit	0
▁kan	0
▁hier	0
▁moet	0
▁heeft	0
▁wel	0
▁jij	0
▁geen	0
▁ja	0
▁hebben	0
▁deze	0
▁goed	0
▁wil	0
▁nu	0
▁weet	0
▁hoe	0
▁hem	0
▁waar	0
▁haar	0
▁meer	0
▁gaan	0
▁al	0
▁gaat	0
▁daar	0
▁zou	0
▁wordt	0
▁kom	0
▁worden	0
▁kunnen	0
▁veel	0
▁ons	0
▁zal	0
▁iets	0
▁waarom	0
▁tot	0
▁alleen	0
▁laat	0
▁mensen	0
▁moeten	0
▁twee	0
▁zien	0
▁eens	0
▁toch	0
▁nou	0
▁weer	0
▁alles	0
▁wie	0
▁maken	0
▁komt	0
▁weg	0
▁doe	0
▁echt	0
▁werd	0
▁jou	0
▁tijd	0
▁jaar	0
▁nooit	0
▁komen	0
▁hun	0
▁denk	0
▁andere	0
▁terug	0
▁tegen	0
▁laten	0
▁kijk	0
▁leven	0
▁zei	0
▁mag	0
▁onze	0
▁na	0
▁staat	0
▁af	0
▁zie	0
▁zit	0
▁nodig	0
▁iemand	0
▁misschien	0
▁omdat	0
▁altijd	0
▁kunt	0
▁zoals	0
▁niets	0
▁dag	0
▁zij	0
▁waren	0
▁grote	0
▁zeggen	0
▁alle	0
▁één	0
▁geef	0
▁oké	0
▁gewoon	0
▁eerste	0
▁hou	0
▁maak	0
▁zegt	0
▁onder	0
▁allemaal	0
▁vind	0
▁zeg	0
▁vader	0
▁weten	0
▁huis	0
▁doet	0
▁uw	0
▁kinderen	0
▁drie	0
▁zitten	0
▁kun	0
▁anders	0
▁gedaan	0
▁welke	0
▁iedereen	0
▁dood	0
▁hele	0
▁vragen	0
▁jouw	0
▁vinden	0
▁moeder	0
▁willen	0
▁nieuwe	0
▁tussen	0
▁ging	0
▁wacht	0
▁wilde	0
▁geld	0
▁vrouw	0
▁beter	0
▁binnen	0
▁volgende	0
▁kon	0
▁werk	0
▁zullen	0
▁zelf	0
▁lang	0
▁zeker	0
▁leuk	0
▁ziet	0
▁samen	0
▁maakt	0
▁uur	0
▁kijken	0
▁vraag	0
▁wilt	0
▁eerst	0
▁wereld	0
▁klaar	0
▁zonder	0
▁dacht	0
▁snel	0
▁kwam	0
▁niemand	0
▁krijgen	0
▁nederland	0
▁eten	0
▁gezien	0
▁geven	0
▁naam	0
▁niks	0
▁eigen	0
▁gemaakt	0
▁tekst	0
▁mooi	0
▁genoeg	0
▁dank	0
▁dingen	0
▁neem	0
▁achter	0
▁opdracht	0
▁auto	0
▁meneer	0
▁beetje	0
▁houden	0
▁natuurlijk	0
▁blijven	0
▁hé	0
▁stad	0
▁laatste	0
▁bedankt	0
▁helpen	0
▁vaak	0
▁hoor	0
▁wist	0
▁praten	0
▁jongen	0
▁wanneer	0
▁elke	0
▁kleine	0
▁spijt	0
▁groot	0
▁verder	0
▁graag	0
▁zelfs	0
▁hallo	0
▁hadden	0
▁beste	0
▁paar	0
▁bijna	0
▁gebruik	0
▁ooit	0
▁soms	0
▁plaats	0
▁verschillende	0
▁vandaag	0
▁lijkt	0
▁geeft	0
▁gek	0
▁werden	0
▁zet	0
▁blijf	0
▁jongens	0
▁zag	0
▁werken	0
▁meisje	0
▁tijdens	0
▁daarom	0
▁stap	0
▁deed	0
▁schrijf	0
▁nemen	0
▁alsjeblieft	0
▁vriend	0
▁krijgt	0
▁woorden	0
▁vindt	0
▁vier	0
▁informatie	0
▁he	0
▁gebruikt	0
▁buiten	0
▁idee	0
▁manier	0
▁luister	0
▁spelen	0
▁horen	0
▁eigenlijk	0
▁mannen	0
▁tweede	0
▁thuis	0
▁deel	0
▁hoofd	0
▁hen	0
▁heet	0
▁pas	0
▁oude	0
▁antwoord	0
▁zoek	0
▁vijf	0
▁denken	0
▁halen	0
▁morgen	0
▁gebruiken	0
▁geweldig	0
▁soort	0
▁kant	0
▁lees	0
▁aantal	0
▁zoon	0
▁boek	0
▁lekker	0
▁oud	0
▁verhaal	0
▁familie	0
▁dagen	0
▁ogen	0
▁houdt	0
▁jaren	0
▁gebeurt	0
▁krijg	0
▁boven	0
▁geleden	0
▁woord	0
▁daarna	0
▁gelijk	0
▁precies	0
▁oorlog	0
▁denkt	0
▁zin	0
▁foto	0
▁koning	0
▁vroeg	0
▁betekent	0
▁gezegd	0
▁hoop	0
▁kamer	0
▁vrienden	0
▁pak	0
▁zat	0
▁landen	0
▁minder	0
▁klein	0
▁gevonden	0
▁vertel	0
▁juist	0
▁geloof	0
▁ander	0
▁vooral	0
▁werkt	0
▁rustig	0
▁bestaat	0
▁elk	0
▁blijft	0
▁leren	0
▁kans	0
▁mogelijk	0
▁blij	0
▁hoort	0
▁lopen	0
▁probleem	0
▁minuten	0
▁wachten	0
▁mooie	0
▁rond	0
▁vanaf	0
▁zoeken	0
▁sinds	0
▁terwijl	0
▁vrouwen	0
▁belangrijk	0
▁kreeg	0
▁gehad	0
▁brengen	0
▁eruit	0
▁verdomme	0
▁bron	0
▁ongeveer	0
▁hond	0
▁deur	0
▁vanavond	0
▁voel	0
▁echte	0
▁handen	0
▁slecht	0
▁vrij	0
▁probeer	0
▁ding	0
▁beginnen	0
▁jezelf	0
▁onderwerp	0
▁ouders	0
▁lezen	0
▁dieren	0
▁duidelijk	0
▁tien	0
▁mogen	0
▁vol	0
▁hart	0
▁nummer	0
▁stond	0
▁hetzelfde	0
▁stuk	0
▁nieuw	0
▁groep	0
▁pijn	0
▁gelukkig	0
▁aarde	0
▁ergens	0
▁grond	0
▁orde	0
▁lucht	0
▁mevrouw	0
▁begrijp	0
▁nederlandse	0
▁voordat	0
▁problemen	0
▁sommige	0
▁licht	0
▁zorg	0
▁druk	0
▁grootste	0
▁bekend	0
▁eerder	0
▁politie	0
▁liefde	0
▁vallen	0
▁moeilijk	0
▁hulp	0
▁zes	0
▁via	0
▁slapen	0
▁valt	0
▁einde	0
▁proberen	0
▁ver	0
▁broer	0
▁bekijk	0
▁kent	0
▁begint	0
▁geloven	0
▁gehoord	0
▁mens	0
▁pakken	0
▁schat	0
▁meeste	0
▁spreken	0
▁gaf	0
▁wees	0
▁les	0
▁vergeten	0
▁loopt	0
▁beeld	0
▁beneden	0
▁gezicht	0
▁afbeelding	0
▁onderzoek	0
▁stoppen	0
▁genoemd	0
▁schiet	0
▁schrijven	0
▁muziek	0
▁enkele	0
▁vooruit	0
▁nieuws	0
▁kennis	0
▁geluid	0
▁gebied	0
▁bezig	0
▁vraagt	0
▁breng	0
▁weinig	0
▁miljoen	0
▁naast	0
▁lichaam	0
▁drinken	0
▁zee	0
▁bel	0
▁anderen	0
▁gegeven	0
▁meester	0
▁praat	0
▁dochter	0
▁voorbij	0
▁bloed	0
▁amerikaanse	0
▁mis	0
▁nacht	0
▁wakker	0
▁kwamen	0
▁begon	0
▁zeer	0
▁lange	0
▁staten	0
▁neemt	0
▁verteld	0
▁vroeger	0
▁betalen	0
▁kopen	0
▁maanden	0
▁doden	0
▁reden	0
▁duitsland	0
▁overal	0
▁meter	0
▁punten	0
▁eeuw	0
▁recht	0
▁meestal	0
▁prima	0
▁dokter	0
▁welkom	0
▁fijn	0
▁rijden	0
▁waarschijnlijk	0
▁mond	0
▁figuur	0
▁kaart	0
▁geval	0
▁straks	0
▁kop	0
▁leger	0
▁voelt	0
▁klopt	0
▁alstublieft	0
▁beide	0
▁veilig	0
▁ter	0
▁redden	0
▁amerika	0
▁vorm	0
▁stil	0
▁eén	0
▁buurt	0
▁antwoorden	0
▁rijk	0
▁fout	0
▁uiteindelijk	0
▁vermoord	0
▁zon	0
▁meest	0
▁der	0
▁inhoud	0
▁klas	0
▁meisjes	0
▁vergeet	0
▁weken	0
▁baas	0
▁eet	0
▁avond	0
▁opnieuw	0
▁heer	0
▁eind	0
▁klinkt	0
▁voorbeeld	0
▁delen	0
▁schip	0
▁hoorde	0
▁regering	0
▁hieronder	0
▁geboren	0
▁veranderen	0
▁baan	0
▁geluk	0
▁afbeeldingen	0
▁frankrijk	0
▁ieder	0
▁macht	0
▁partij	0
▁heren	0
▁spel	0
▁oma	0
▁gevraagd	0
▁sterven	0
▁onderdeel	0
▁bal	0
▁vechten	0
▁kracht	0
▁bellen	0
▁mam	0
▁links	0
▁kapitein	0
▁zichzelf	0
▁succes	0
▁persoon	0
▁verenigde	0
▁kies	0
▁regels	0
▁hoog	0
▁rol	0
▁rust	0
▁hield	0
▁boos	0
▁punt	0
▁eerlijk	0
▁belangrijke	0
▁geschiedenis	0
▁midden	0
▁doel	0
▁erin	0
▁telefoon	0
▁ruimte	0
▁zeven	0
▁liever	0
▁houd	0
▁zinnen	0
▁sterk	0
▁prachtig	0
▁leerlingen	0
▁speelt	0
▁verloren	0
▁slag	0
▁eindelijk	0
▁winnen	0
▁acht	0
▁langer	0
▁kerk	0
▁schuld	0
▁zwarte	0
▁waarheid	0
▁toekomst	0
▁stemmen	0
▁keek	0
▁voorzichtig	0
▁pap	0
▁begrepen	0
▁boeken	0
▁vriendin	0
▁ziek	0
▁rode	0
▁iedere	0
▁trouwen	0
▁soorten	0
▁mezelf	0
▁opa	0
▁groter	0
▁normaal	0
▁prijs	0
▁gevoel	0
▁google	0
▁witte	0
▁kleur	0
▁stellen	0
▁slechts	0
▁nam	0
▁bestaan	0
▁duitse	0
▁jonge	0
▁euro	0
▁examen	0
▁paard	0
▁wedstrijd	0
▁trein	0
▁wilden	0
▁steden	0
▁energie	0
▁belangrijkste	0
▁derde	0
▁koffie	0
▁reis	0
▁dames	0
▁maand	0
▁europese	0
▁kiezen	0
▁kwijt	0
▁allebei	0
▁vuur	0
▁geschreven	0
▁bedrijf	0
▁verschil	0
▁gisteren	0
▁straat	0
▁viel	0
▁vliegen	0
▁echter	0
▁zaak	0
▁feest	0
▁eiland	0
▁koningin	0
▁jezus	0
▁tafel	0
▁stem	0
▁bepaalde	0
▁begonnen	0
▁geleerd	0
▁trots	0
▁boot	0
▁uitleggen	0
▁haat	0
▁vliegtuig	0
▁rivier	0
▁oom	0
▁namen	0
▁voelen	0
▁zus	0
▁trek	0
▁youtube	0
▁kwaad	0
▁verwacht	0
▁zuid	0
▁hoge	0
▁docent	0
▁pa	0
▁kort	0
▁grappig	0
▁programma	0
▁slechte	0
▁dansen	0
▁begrijpen	0
▁loop	0
▁gang	0
▁trekken	0
▁makkelijk	0
▁inderdaad	0
▁lachen	0
▁stukje	0
▁planten	0
▁plezier	0
▁spullen	0
▁volgen	0
▁lief	0
▁ontmoet	0
▁woont	0
▁vervolgens	0
▁vertrouwen	0
▁nergens	0
▁veranderd	0
▁verliefd	0
▁nederlands	0
▁noord	0
▁ontmoeten	0
▁vertelt	0
▁leeft	0
▁vertelde	0
▁klootzak	0
▁situatie	0
▁wikipedia	0
▁leiden	0
▁redenen	0
▁taal	0
▁enkel	0
▁politieke	0
▁liep	0
▁voorbeelden	0
▁thema	0
▁totaal	0
▁toets	0
▁jong	0
▁npo	0
▁teken	0
▁koud	0
▁hemel	0
▁vorige	0
▁behalve	0
▁gesproken	0
▁bleef	0
▁bereken	0
▁luisteren	0
▁lieve	0
▁dorp	0
▁brengt	0
▁probeert	0
▁sneller	0
▁alinea	0
▁franse	0
▁generaal	0
▁dragen	0
▁beschermen	0
▁voedsel	0
▁vreemd	0
▁stuur	0
▁vormen	0
▁lijn	0
▁gebracht	0
▁droom	0
▁slaap	0
▁gebeurde	0
▁tegenwoordig	0
▁rij	0
▁plaatsen	0
▁bouwen	0
▁inwoners	0
▁rood	0
▁wapen	0
▁verkopen	0
▁overheid	0
▁gevaarlijk	0
▁lijst	0
▁verlaten	0
▁schieten	0
▁duurt	0
▁oog	0
▁engeland	0
▁gekozen	0
▁getrouwd	0
▁kleren	0
▁gehouden	0
▁stof	0
▁rug	0
▁commons	0
▁sturen	0
▁gewonnen	0
▁amsterdam	0
▁keuze	0
▁voorkomen	0
▁leggen	0
▁waard	0
▁zingen	0
▁mening	0
▁parijs	0
▁lag	0
▁wikimedia	0
▁kapot	0
▁ziekenhuis	0
▁dier	0
▁pagina	0
▁voelde	0
▁korte	0
▁neus	0
▁slaan	0
▁vakantie	0
▁genomen	0
▁periode	0
▁zwaar	0
▁rennen	0
▁wapens	0
▁gevallen	0
▁probeerde	0
▁speciale	0
▁muur	0
▁filmpje	0
▁ongeluk	0
▁vele	0
▁verliezen	0
▁natuur	0
▁hoewel	0
▁helpt	0
▁gegevens	0
▁invloed	0
▁seconden	0
▁engels	0
▁vertrekken	0
▁uitleg	0
▁slim	0
▁bos	0
▁fantastisch	0
▁prins	0
▁beantwoord	0
▁leek	0
▁gevaar	0
▁lijken	0
▁hoef	0
▁kilometer	0
▁regel	0
▁krant	0
▁geheim	0
▁gesloten	0
▁aandacht	0
▁bevolking	0
▁gebouwd	0
▁tabel	0
▁bronnen	0
▁rechts	0
▁goud	0
▁helft	0
▁verkeerd	0
▁vreselijk	0
▁moe	0
▁jan	0
▁klasgenoot	0
▁honger	0
▁rusland	0
▁klik	0
▁gered	0
▁raar	0
▁papier	0
▁producten	0
▁unie	0
▁oplossing	0
▁spanje	0
▁diep	0
▁serieus	0
▁winkel	0
▁schatje	0
▁negen	0
▁toon	0
▁kerel	0
▁raad	0
▁johannes	0
▁afrika	0
▁vogel	0
▁verleden	0
▁leer	0
▁arme	0
▁prinses	0
▁politiek	0
▁bepaald	0
▁bekijken	0
▁opdrachten	0
▁begrijpt	0
▁goedemorgen	0
▁ijs	0
▁ineens	0
▁maan	0
▁kosten	0
▁zak	0
▁artikel	0
▁gezin	0
▁basis	0
▁vrede	0
▁meid	0
▁idioot	0
▁zomer	0
▁willem	0
▁afstand	0
▁huilen	0
▁passen	0
▁voorstellen	0
▁belgië	0
▁vrijheid	0
▁spreek	0
▁bedoeld	0
▁geest	0
▁schoenen	0
▁oefening	0
▁gesprek	0
▁volg	0
▁sluit	0
▁gebieden	0
▁sla	0
▁dienst	0
▁bereiken	0
▁bewegen	0
▁stappen	0
▁tekening	0
▁tante	0
▁hoger	0
▁hangt	0
▁richting	0
▁verklaring	0
▁stoel	0
▁wit	0
▁langzaam	0
▁stom	0
▁jammer	0
▁betaald	0
▁meerdere	0
▁onzin	0
▁beloof	0
▁soldaten	0
▁dikke	0
▁koninkrijk	0
▁hierbij	0
▁vlees	0
▁leeftijd	0
▁controle	0
▁fiets	0
▁verkocht	0
▁londen	0
▁broek	0
▁verhalen	0
▁publiek	0
▁tuin	0
▁gedacht	0
▁noorden	0
▁gaten	0
▁titel	0
▁relatie	0
▁strijd	0
▁vlucht	0
▁kantoor	0
▁manieren	0
▁bomen	0
▁raam	0
▁enorme	0
▁zwart	0
▁verdienen	0
▁gevangenis	0
▁januari	0
▁hoogte	0
▁vul	0
▁gouden	0
▁actie	0
▁blauwe	0
▁voeten	0
▁reactie	0
▁plannen	0
▁angst	0
▁dromen	0
▁bloemen	0
▁schrijft	0
▁benen	0
▁missen	0
▁riep	0
▁spreekt	0
▁mei	0
▁donker	0
▁huwelijk	0
▁gestolen	0
▁tekenen	0
▁waarde	0
▁gelukt	0
▁systeem	0
▁volgt	0
▁gewone	0
▁verschillen	0
▁erger	0
▁keizer	0
▁dom	0
▁draaien	0
▁laag	0
▁verkeerde	0
▁lastig	0
▁activiteit	0
▁gelezen	0
▁beweging	0
▁armen	0
▁werkte	0
▁positie	0
▁volledig	0
▁dame	0
▁gedood	0
▁leider	0
▁zuiden	0
▁hee	0
▁bijzonder	0
▁omgeving	0
▁gevolg	0
▁bedrijven	0
▁gedachten	0
▁speciaal	0
▁eer	0
▁schrijver	0
▁draait	0
▁frans	0
▁bekende	0
▁bezoek	0
▁ruzie	0
▁glas	0
▁oke	0
▁kunst	0
▁dak	0
▁schreef	0
▁thee	0
▁voet	0
▁gevolgen	0
▁leeg	0
▁stelt	0
▁republiek	0
▁meiden	0
▁beantwoorden	0
▁groene	0
▁terecht	0
▁huizen	0
▁steen	0
▁vissen	0
▁teksten	0
▁beurt	0
▁bracht	0
▁allen	0
▁prachtige	0
▁ontdekt	0
▁keuken	0
▁gebeld	0
▁kasteel	0
▁melk	0
▁groeien	0
▁afspraak	0
▁heerlijk	0
▁heilige	0
▁sluiten	0
▁oosten	0
▁onderdelen	0
▁absoluut	0
▁helaas	0
▁bewijs	0
▁universiteit	0
▁huid	0
▁bevat	0
▁been	0
▁planeet	0
▁beoordeling	0
▁sleutel	0
▁verboden	0
▁gedrag	0
▁vijand	0
▁honden	0
▁trekt	0
▁geraakt	0
▁seks	0
▁gestuurd	0
▁besloten	0
▁brug	0
▁aanval	0
▁rekening	0
▁boeren	0
▁gast	0
▁vogels	0
▁speel	0
▁stelling	0
▁adem	0
▁zwemmen	0
▁stierf	0
▁enorm	0
▁zware	0
▁gooi	0
▁ziekte	0
▁hangen	0
▁sociale	0
▁trap	0
▁haast	0
▁alweer	0
▁steek	0
▁blauw	0
▁ma	0
▁cultuur	0
▁slaat	0
▁snelheid	0
▁oefenen	0
▁activiteiten	0
▁gefeliciteerd	0
▁zagen	0
▁berg	0
▁westen	0
▁britse	0
▁bericht	0
▁hoofdstad	0
▁gewerkt	0
▁pakt	0
▁temperatuur	0
▁koop	0
▁hoek	0
▁tas	0
▁regen	0
▁taak	0
▁gekocht	0
▁economie	0
▁juni	0
▁burgers	0
▁verslag	0
▁slot	0
▁functie	0
▁onmogelijk	0
▁website	0
▁gratis	0
▁leo	0
▁maat	0
▁oost	0
▁stoffen	0
▁hoeven	0
▁grens	0
▁wens	0
▁missie	0
▁jongeren	0
▁gat	0
▁italië	0
▁groen	0
▁noemt	0
▁oktober	0
▁gespeeld	0
▁formule	0
▁geprobeerd	0
▁gooien	0
▁gebruikte	0
▁verband	0
▁verdwenen	0
▁groepen	0
▁bergen	0
▁juli	0
▁vreemde	0
▁draagt	0
▁ach	0
▁raakt	0
▁ster	0
▁schoon	0
▁paarden	0
▁wijn	0
▁herinneren	0
▁opeens	0
▁romeinse	0
▁tijden	0
▁speelde	0
▁gebroken	0
▁leert	0
▁schema	0
▁dik	0
▁ziel	0
▁vervangen	0
▁kleuren	0
▁partijen	0
▁gelooft	0
▁leden	0
▁berekening	0
▁voldoende	0
▁gemist	0
▁maximaal	0
▁oranje	0
▁rechter	0
▁ruim	0
▁tanden	0
▁economische	0
▁ware	0
▁risico	0
▁gevecht	0
▁ouder	0
▁ideeën	0
▁as	0
▁hoeveelheid	0
▁amerikanen	0
▁christus	0
▁wint	0
▁provincie	0
▁bespreek	0
▁reizen	0
▁weergegeven	0
▁rijdt	0
▁theorie	0
▁grapje	0
▁revolutie	0
▁liefje	0
▁leidt	0
▁draai	0
▁oren	0
▁hout	0
▁verjaardag	0
▁ontvangen	0
▁verkiezingen	0
▁brood	0
▁kust	0
▁sterke	0
▁overleven	0
▁interessant	0
▁gevangen	0
▁twaalf	0
▁nummers	0
▁gewond	0
▁hersenen	0
▁liedje	0
▁personen	0
▁maart	0
▁proces	0
▁betekenis	0
▁stroom	0
▁burgemeester	0
▁knap	0
▁duizenden	0
▁cel	0
▁dronken	0
▁onderwijs	0
▁beest	0
▁stenen	0
▁vieren	0
▁jurk	0
▁gedeelte	0
▁indruk	0
▁augustus	0
▁ontwikkeling	0
▁onderzoeken	0
▁huidige	0
▁dichtbij	0
▁russische	0
▁kleding	0
▁mijne	0
▁beloofd	0
▁graden	0
▁zand	0
▁bewijzen	0
▁kolonel	0
▁vertrouw	0
▁tevreden	0
▁benedictus	0
▁springen	0
▁kaarten	0
▁leest	0
▁wisten	0
▁veiligheid	0
▁zuurstof	0
▁gemakkelijk	0
▁klimaat	0
▁plekken	0
▁kont	0
▁vlag	0
▁boodschap	0
▁rot	0
▁sneeuw	0
▁achteruit	0
▁gegeten	0
▁gemiddelde	0
▁serie	0
▁feit	0
▁kip	0
▁aanwezig	0
▁tenzij	0
▁poes	0
▁ouwe	0
▁hel	0
▁jas	0
▁stukken	0
▁wagen	0
▁scholen	0
▁honderd	0
▁directeur	0
▁ongelooflijk	0
▁hoogste	0
▁herkennen	0
▁middel	0
▁slaapt	0
▁juffrouw	0
▁handel	0
▁veld	0
▁advocaat	0
▁televisie	0
▁cellen	0
▁vangen	0
▁ochtend	0
▁duur	0
▁bepalen	0
▁schepen	0
▁kenmerken	0
▁moord	0
▁presentatie	0
▁verdient	0
▁centrum	0
▁sterren	0
▁schade	0
▁cijfers	0
▁schuldig	0
▁markt	0
▁pad	0
▁lul	0
▁geheel	0
▁volgorde	0
▁gasten	0
▁mooiste	0
▁volwassen	0
▁verrassing	0
▁minuut	0
▁belang	0
▁kikker	0
▁persoonlijk	0
▁vaste	0
▁doos	0
▁bereid	0
▁vlug	0
▁ronde	0
▁product	0
▁dachten	0
▁bevel	0
▁zuster	0
▁meegenomen	0
▁kleiner	0
▁koude	0
▁nationale	0
▁trok	0
▁toren	0
▁stelen	0
▁nederlanders	0
▁das	0
▁lach	0
▁dans	0
▁wegen	0
▁stopt	0
▁besluit	0
▁lied	0
▁oceaan	0
▁kus	0
▁grafiek	0
▁twintig	0
▁beelden	0
▁feestje	0
▁leerling	0
▁zweer	0
▁populair	0
▁eieren	0
▁duizend	0
▁fles	0
▁moderne	0
▁trouw	0
▁soldaat	0
▁vernietigen	0
▁blijkbaar	0
▁zwaard	0
▁kwalijk	0
▁sommigen	0
▁paleis	0
▁nek	0
▁organisatie	0
▁levend	0
▁verlies	0
▁buik	0
▁doorgaan	0
▁materiaal	0
▁veroorzaakt	0
▁link	0
▁toestemming	0
▁aanvallen	0
▁begrippen	0
▁bom	0
▁bouw	0
▁uitspraak	0
▁overleden	0
▁bereikt	0
▁ondanks	0
▁bedoeling	0
▁nauwelijks	0
▁ontsnappen	0
▁geweld	0
▁boer	0
▁opgenomen	0
▁bleek	0
▁sprak	0
▁vannacht	0
▁binnenkort	0
▁grotere	0
▁rekenen	0
▁sovjet	0
▁goden	0
▁zakken	0
▁nadenken	0
▁regio	0
▁onmiddellijk	0
▁duits	0
▁algemeen	0
▁romeinen	0
▁staart	0
▁breken	0
▁optreden	0
▁gezond	0
▁hopelijk	0
▁olie	0
▁vorig	0
▁besloot	0
▁karel	0
▁bezit	0
▁berlijn	0
▁belachelijk	0
▁officieel	0
▁sloeg	0
▁koe	0
▁rijke	0
▁weggaan	0
▁bureau	0
▁blik	0
▁harde	0
▁kaas	0
▁welterusten	0
▁joden	0
▁vingers	0
▁vecht	0
▁miljoenen	0
▁betaal	0
▁bord	0
▁oorzaak	0
▁seizoen	0
▁inkomen	0
▁bodem	0
▁verdeeld	0
▁vrolijk	0
▁min	0
▁geregeld	0
▁gestopt	0
▁betaalt	0
▁rechten	0
▁samenleving	0
▁beiden	0
▁grap	0
▁tegelijk	0
▁pistool	0
▁werkelijk	0
▁stijl	0
▁clemens	0
▁parlement	0
▁hitler	0
▁betrokken	0
▁ervaring	0
▁niveau	0
▁februari	0
▁verantwoordelijk	0
▁oostenrijk	0
▁hoed	0
▁goos	0
▁vierde	0
▁begraven	0
▁verandering	0
▁taart	0
▁vertrek	0
▁wijze	0
▁favoriete	0
▁online	0
▁straf	0
▁persoonlijke	0
▁geschikt	0
▁duitsers	0
▁verdwijnen	0
▁fouten	0
▁zacht	0
▁tegenover	0
▁des	0
▁dol	0
▁gemiddeld	0
▁mist	0
▁rotterdam	0
▁getekend	0
▁suiker	0
▁tonen	0
▁eilanden	0
▁polen	0
▁ontslagen	0
▁hoofdstuk	0
▁zwanger	0
▁kast	0
▁utrecht	0
▁kalm	0
▁uren	0
▁steken	0
▁resultaat	0
▁kussen	0
▁zaterdag	0
▁gebleven	0
▁finale	0
▁vinger	0
▁krachten	0
▁paus	0
▁simpel	0
▁kamp	0
▁gebouwen	0
▁gedragen	0
▁lacht	0
▁kopje	0
▁rook	0
▁steun	0
▁leraar	0
▁vergelijking	0
▁reed	0
▁bestand	0
▁reacties	0
▁advies	0
▁zondag	0
▁beschrijven	0
▁gevoelens	0
▁gemeen	0
▁koken	0
▁au	0
▁sterker	0
▁majesteit	0
▁moed	0
▁conclusie	0
▁schilderij	0
▁netjes	0
▁versie	0
▁gras	0
▁bestond	0
▁volle	0
▁sint	0
▁wezen	0
▁nat	0
▁droog	0
▁ontstond	0
▁aap	0
▁roos	0
▁verslaan	0
▁excuses	0
▁spoor	0
▁handig	0
▁belde	0
▁spaanse	0
▁warme	0
▁luitenant	0
▁verenigd	0
▁ei	0
▁openen	0
▁vluchten	0
▁normale	0
▁boerderij	0
▁holland	0
▁productie	0
▁hopen	0
▁komende	0
▁broers	0
▁gebeurtenissen	0
▁vriendje	0
▁kruis	0
▁gebaseerd	0
▁voetbal	0
▁jeugd	0
▁vrijdag	0
▁simon	0
▁vermogen	0
▁mes	0
▁wetenschap	0
▁bier	0
▁bekeken	0
▁geholpen	0
▁reageren	0
▁controleren	0
▁woestijn	0
▁groei	0
▁opnemen	0
▁ontbijt	0
▁verschrikkelijk	0
▁lengte	0
▁draag	0
▁luistert	0
▁lijk	0
▁plotseling	0
▁keus	0
▁viii	0
▁bezorgd	0
▁oefeningen	0
▁menselijke	0
▁module	0
▁taxi	0
▁eng	0
▁roken	0
▁joost	0
▁bedrag	0
▁durf	0
▁beroemde	0
▁tong	0
▁verbonden	0
▁vergeef	0
▁winnaar	0
▁pakte	0
▁klok	0
▁bedoelde	0
▁talent	0
▁begrip	0
▁bieden	0
▁muis	0
▁lenen	0
▁medicijnen	0
▁schijnt	0
▁document	0
▁operatie	0
▁gezondheid	0
▁elf	0
▁tips	0
▁dichterbij	0
▁telt	0
▁mogelijke	0
▁perfecte	0
▁spannend	0
▁vliegt	0
▁ruikt	0
▁bespreken	0
▁bestuur	0
▁beslissing	0
▁meedoen	0
▁victor	0
▁verkoop	0
▁stilte	0
▁eenheid	0
▁militaire	0
▁milieu	0
▁ondertussen	0
▁volledige	0
▁at	0
▁afgesproken	0
▁werkwoorden	0
▁ballen	0
▁eigenaar	0
▁rivieren	0
▁vak	0
▁geslagen	0
▁vuile	0
▁massa	0
▁afhankelijk	0
▁studenten	0
▁pius	0
▁fabriek	0
▁kiest	0
▁lever	0
▁plaatjes	0
▁beroep	0
▁bacteriën	0
▁genaamd	0
▁adres	0
▁kerst	0
▁aangegeven	0
▁lol	0
▁rand	0
▁dorpen	0
▁eenvoudig	0
▁konijn	0
▁touw	0
▁voornamelijk	0
▁toevallig	0
▁vertrokken	0
▁wc	0
▁olympische	0
▁kilo	0
▁gestorven	0
▁provincies	0
▁vii	0
▁klanten	0
▁geniet	0
▁lessen	0
▁verslagen	0
▁argumenten	0
▁eikel	0
▁liegen	0
▁mogelijkheden	0
▁kampioen	0
▁inleiding	0
▁kerstmis	0
▁troepen	0
▁schoonheid	0
▁oudste	0
▁veranderde	0
▁kritiek	0
▁las	0
▁opgericht	0
▁miljard	0
▁homo	0
▁minimaal	0
▁smaak	0
▁maandag	0
▁winst	0
▁buitenland	0
▁verlaat	0
▁jagen	0
▁bloem	0
▁leef	0
▁bruiloft	0
▁elektrische	0
▁aangeven	0
▁griekse	0
▁gemeenten	0
▁gele	0
▁heks	0
▁groeit	0
▁vies	0
▁jake	0
▁verwachten	0
▁kaartje	0
▁poster	0
▁gepakt	0
▁stukjes	0
▁makkelijker	0
▁regelmatig	0
▁resultaten	0
▁cent	0
▁wraak	0
▁premier	0
▁klap	0
▁vóór	0
▁vet	0
▁lager	0
▁donkere	0
▁gewicht	0
▁gedicht	0
▁onderzoekers	0
▁bond	0
▁vriendelijk	0
▁duurde	0
▁wetten	0
▁opstand	0
▁oppervlakte	0
▁gezocht	0
▁wassen	0
▁dna	0
▁akkoord	0
▁fietsen	0
▁vijanden	0
▁geopend	0
▁landbouw	0
▁zocht	0
▁omstandigheden	0
▁democratie	0
▁oor	0
▁compleet	0
▁egypte	0
▁natuurlijke	0
▁jaloers	0
▁commandant	0
▁collega	0
▁honderden	0
▁voordeel	0
▁neef	0
▁zout	0
▁vaders	0
▁sheriff	0
▁leefde	0
▁leerde	0
▁verzamelen	0
▁azië	0
▁verdorie	0
▁dichter	0
▁papieren	0
▁eeuwig	0
▁voorwerp	0
▁reclame	0
▁bril	0
▁lage	0
▁argument	0
▁prijzen	0
▁afscheid	0
▁merken	0
▁oplossen	0
▁ernstig	0
▁spul	0
▁sterft	0
▁genieten	0
▁poort	0
▁geboorte	0
▁agenten	0
▁varken	0
▁gedurende	0
▁carrière	0
▁ich	0
▁geel	0
▁opleiding	0
▁paniek	0
▁bezoeken	0
▁aangenaam	0
▁vergelijken	0
▁cadeau	0
▁botten	0
▁intro	0
▁woonde	0
▁gedoe	0
▁spanning	0
▁knop	0
▁geplaatst	0
▁wetenschappers	0
▁gevolgd	0
▁moeders	0
▁haag	0
▁koopt	0
▁slaven	0
▁afval	0
▁levens	0
▁muren	0
▁beschreven	0
▁australië	0
▁napoleon	0
▁tellen	0
▁speler	0
▁stuurt	0
▁signaal	0
▁grondwet	0
▁stadion	0
▁saai	0
▁gaaf	0
▁tekeningen	0
▁interview	0
▁moordenaar	0
▁albert	0
▁vertrekt	0
▁bak	0
▁toegang	0
▁actief	0
▁alcohol	0
▁deuren	0
▁zwak	0
▁ontwerp	0
▁vloer	0
▁verzet	0
▁sprong	0
▁verhuizen	0
▁samenvatting	0
▁studeren	0
▁wensen	0
▁voorzitter	0
▁mogelijkheid	0
▁dertig	0
▁zelfmoord	0
▁blok	0
▁geweer	0
▁verstopt	0
▁rusten	0
▁duivel	0
▁vaarwel	0
▁verbaasd	0
▁zwembad	0
▁eisen	0
▁drankje	0
▁ontdekken	0
▁slang	0
▁voorstel	0
▁twijfel	0
▁gescheiden	0
▁moeilijke	0
▁vliegtuigen	0
▁stroomt	0
▁ramp	0
▁vasthouden	0
▁onderwerpen	0
▁levert	0
▁broeder	0
▁pauze	0
▁houten	0
▁grenzen	0
▁ontsnapt	0
▁sleutels	0
▁liefste	0
▁soep	0
▁gekeken	0
▁blanke	0
▁katholieke	0
▁overwinning	0
▁beroemd	0
▁neuken	0
▁schaal	0
▁vergadering	0
▁uwe	0
▁oudere	0
▁toeristen	0
▁wauw	0
▁mars	0
▁theater	0
▁ergste	0
▁griekenland	0
▁zelfstandig	0
▁spelers	0
▁varen	0
▁behoort	0
▁dierentuin	0
▁geur	0
▁verpest	0
▁ren	0
▁noch	0
▁liter	0
▁talen	0
▁brak	0
▁lamp	0
▁vergeven	0
▁getallen	0
▁ophalen	0
▁verborgen	0
▁dienen	0
▁vergelijk	0
▁uitvoeren	0
▁graven	0
▁geweten	0
▁geloofde	0
▁gezellig	0
▁apparaat	0
▁uitgevoerd	0
▁aanbod	0
▁feiten	0
▁sporen	0
▁turkije	0
▁lijden	0
▁fragment	0
▁wijs	0
▁werkelijkheid	0
▁robot	0
▁verkeer	0
▁fase	0
▁lodewijk	0
▁rollen	0
▁appel	0
▁sexy	0
▁vlieg	0
▁machines	0
▁kindje	0
▁geïnteresseerd	0
▁officiële	0
▁plaat	0
▁vleugels	0
▁spiegel	0
▁afmaken	0
▁graaf	0
▁aangevallen	0
▁verdedigen	0
▁industrie	0
▁piloot	0
▁samenwerking	0
▁menselijk	0
▁maatregelen	0
▁spieren	0
▁gram	0
▁vervelend	0
▁vreselijke	0
▁kevin	0
▁liedjes	0
▁bladeren	0
▁leeuw	0
▁mannetje	0
▁kaartjes	0
▁nogmaals	0
▁dubbele	0
▁verliest	0
▁warmte	0
▁wedstrijden	0
▁afdeling	0
▁vernietigd	0
▁eindigt	0
▁leveren	0
▁geheugen	0
▁herinneringen	0
▁vliegveld	0
▁troep	0
▁nationaal	0
▁spelletje	0
▁boekje	0
▁israël	0
▁slachtoffers	0
▁koninklijke	0
▁zaal	0
▁brazilië	0
▁behaald	0
▁stopte	0
▁bidden	0
▁beslissen	0
▁eigenschappen	0
▁uitgenodigd	0
▁vijftig	0
▁genezen	0
▁gewend	0
▁bescherming	0
▁roze	0
▁brieven	0
▁geslapen	0
▁hogere	0
▁magie	0
▁branden	0
▁golf	0
▁zweden	0
▁maarten	0
▁techniek	0
▁patiënt	0
▁samenwerken	0
▁bewoners	0
▁droeg	0
▁beschrijf	0
▁gestoord	0
▁kerstman	0
▁graf	0
▁winkels	0
▁koos	0
▁maatschappij	0
▁privé	0
▁opzoeken	0
▁cirkel	0
▁podium	0
▁behandeld	0
▁discussie	0
▁controleer	0
▁amerikaans	0
▁russen	0
▁aankomen	0
▁proef	0
▁verdiend	0
▁lege	0
▁tel	0
▁kist	0
▁crisis	0
▁omlaag	0
▁drank	0
▁veranderingen	0
▁tranen	0
▁beslist	0
▁hondje	0
▁daan	0
▁nerveus	0
▁gericht	0
▁schattig	0
▁werkwoord	0
▁klant	0
▁klasse	0
▁draak	0
▁nazi	0
▁kranten	0
▁snelle	0
▁arbeiders	0
▁zicht	0
▁lossen	0
▁kanten	0
▁beweegt	0
▁bladzijde	0
▁openbaar	0
▁californië	0
▁stevig	0
▁hal	0
▁locatie	0
▁getal	0
▁dankbaar	0
▁lagen	0
▁buren	0
▁von	0
▁testen	0
▁ierland	0
▁schaduw	0
▁insecten	0
▁zijde	0
▁caesar	0
▁gezelschap	0
▁schreeuwen	0
▁koeien	0
▁filmpjes	0
▁logisch	0
▁maag	0
▁jarig	0
▁virus	0
▁verdrietig	0
▁hendrik	0
▁kanker	0
▁uitspraken	0
▁voorzien	0
▁dagelijks	0
▁dave	0
▁dief	0
▁neerslag	0
▁bevatten	0
▁paulus	0
▁voorlopig	0
▁onderzocht	0
▁roy	0
▁koers	0
▁steekt	0
▁elektriciteit	0
▁ontwikkeld	0
▁chef	0
▁verbinding	0
▁bewaren	0
▁indianen	0
▁genoegen	0
▁groningen	0
▁symbool	0
▁ruiken	0
▁terrein	0
▁mensheid	0
▁verdriet	0
▁uitstekend	0
▁verbeteren	0
▁durft	0
▁japanse	0
▁wandelen	0
▁levende	0
▁koffer	0
▁volgend	0
▁broertje	0
▁majoor	0
▁gehele	0
▁kwestie	0
▁reet	0
▁gouverneur	0
▁blad	0
▁verplicht	0
▁ministerie	0
▁rapport	0
▁lui	0
▁biedt	0
▁beschikbaar	0
▁middag	0
▁hek	0
▁toegevoegd	0
▁olifant	0
▁gevormd	0
▁hoogheid	0
▁hans	0
▁behandeling	0
▁overzicht	0
▁belgische	0
▁lelijk	0
▁kamers	0
▁verraden	0
▁vocht	0
▁kogel	0
▁verbergen	0
▁gevaarlijke	0
▁haren	0
▁fans	0
▁zeeland	0
▁ontmoette	0
▁merk	0
▁belasting	0
▁stephanus	0
▁klasgenoten	0
▁geleid	0
▁volwassenen	0
▁italiaanse	0
▁wiskunde	0
▁scherm	0
▁straten	0
▁verkoopt	0
▁goederen	0
▁gooit	0
▁personeel	0
▁fransen	0
▁gevangenen	0
▁schouders	0
▁opgelost	0
▁huiswerk	0
▁klimmen	0
▁hielp	0
▁poten	0
▁eenzaam	0
▁lijnen	0
▁brandstof	0
▁overtuigen	0
▁biologie	0
▁verantwoordelijkheid	0
▁gebeurtenis	0
▁oekraïne	0
▁beleid	0
▁experiment	0
▁nicht	0
▁klonk	0
▁streep	0
▁centimeter	0
▁kleinere	0
▁oorspronkelijk	0
▁paragraaf	0
▁richten	0
▁sinterklaas	0
▁ijzer	0
▁sukkel	0
▁glazen	0
▁wezens	0
▁verklaren	0
▁lippen	0
▁eeuwen	0
▁verdieping	0
▁verbrand	0
▁emma	0
▁genade	0
▁boem	0
▁borst	0
▁opgesloten	0
▁vriendschap	0
▁woede	0
▁hoopte	0
▁geduld	0
▁trainen	0
▁uitzending	0
▁ontworpen	0
▁draaide	0
▁verklaar	0
▁omgaan	0
▁afronding	0
▁kanaal	0
▁maatje	0
▁acteur	0
▁wiens	0
▁opgeven	0
▁kern	0
▁werknemers	0
▁hoer	0
▁sociaal	0
▁speelgoed	0
▁getuige	0
▁hof	0
▁breekt	0
▁stam	0
▁afgesloten	0
▁katten	0
▁volgde	0
▁stok	0
▁jacht	0
▁ontbreekt	0
▁methode	0
▁dinsdag	0
▁herken	0
▁helder	0
▁knappe	0
▁gewacht	0
▁zielig	0
▁ist	0
▁organismen	0
▁letterlijk	0
▁gemeenschap	0
▁britten	0
▁redelijk	0
▁karakter	0
▁klaas	0
▁scheiden	0
▁benzine	0
▁ridder	0
▁potter	0
▁vullen	0
▁knieën	0
▁opgewonden	0
▁achtergrond	0
▁verzoek	0
▁functies	0
▁aangenomen	0
▁pers	0
▁landschap	0
▁zingt	0
▁bruce	0
▁technologie	0
▁verstoppen	0
▁middelen	0
▁combinatie	0
▁fabrieken	0
▁stijgt	0
▁gedronken	0
▁keel	0
▁diverse	0
▁zing	0
▁grot	0
▁ontwikkelen	0
▁zusje	0
▁regent	0
▁echtgenoot	0
▁leefden	0
▁geliefde	0
▁kees	0
▁mol	0
▁hierboven	0
▁schrikken	0
▁vijfde	0
▁klassieke	0
▁starten	0
▁vervoer	0
▁ruil	0
▁ruik	0
▁lente	0
▁hartelijk	0
▁aspecten	0
▁ron	0
▁reageert	0
▁kerels	0
▁slimme	0
▁gevochten	0
▁afspraken	0
▁proeven	0
▁wolken	0
▁kloppen	0
▁vieze	0
▁groeten	0
▁begrafenis	0
▁behandelen	0
▁lokale	0
▁armoede	0
▁rijn	0
▁bende	0
▁bibliotheek	0
▁streng	0
▁zonde	0
▁schouder	0
▁teleurgesteld	0
▁onafhankelijk	0
▁dwars	0
▁groeide	0
▁kabinet	0
▁download	0
▁positief	0
▁ton	0
▁literatuur	0
▁ijsje	0
▁rondje	0
▁houding	0
▁berichten	0
▁bezoekers	0
▁bijbel	0
▁historische	0
▁ballon	0
▁voltooid	0
▁taylor	0
▁vloog	0
▁chauffeur	0
▁vijftien	0
▁rat	0
▁opgepakt	0
▁bestuderen	0
▁zwitserland	0
▁zachtjes	0
▁voorwerpen	0
▁rende	0
▁oorzaken	0
▁vrouwelijke	0
▁banden	0
▁donderdag	0
▁overige	0
▁herinnert	0
▁senator	0
▁briefje	0
▁uiterlijk	0
▁helikopter	0
▁gearresteerd	0
▁apart	0
▁gelegd	0
▁ademen	0
▁officier	0
▁medelijden	0
▁voorkomt	0
▁boodschappen	0
▁studie	0
▁ingang	0
▁vrees	0
▁gereed	0
▁marcus	0
▁algemene	0
▁stal	0
▁magische	0
▁chr	0
▁kandidaat	0
▁springt	0
▁plat	0
▁badkamer	0
▁cijfer	0
▁uitgaven	0
▁rondom	0
▁slavernij	0
▁waarden	0
▁kwaliteit	0
▁produceren	0
▁vos	0
▁kopie	0
▁medische	0
▁onschuldig	0
▁raden	0
▁bas	0
▁benodigdheden	0
▁verf	0
▁rechtbank	0
▁slachtoffer	0
▁poging	0
▁vriendinnen	0
▁jury	0
▁ongelofelijk	0
▁longen	0
▁kou	0
▁grootte	0
▁vietnam	0
▁meten	0
▁avontuur	0
▁aanbieden	0
▁joodse	0
▁schilderijen	0
▁overleg	0
▁generatie	0
▁troon	0
▁waarschuwen	0
▁verdwijnt	0
▁supermarkt	0
▁huisje	0
▁duwen	0
▁achtergelaten	0
▁slaapkamer	0
▁bewust	0
▁veroorzaken	0
▁kolonie	0
▁elementen	0
▁scherp	0
▁verwijderd	0
▁doelwit	0
▁plein	0
▁drukken	0
▁aanraken	0
▁platteland	0
▁raket	0
▁nul	0
▁nicolaas	0
▁materialen	0
▁velen	0
▁organen	0
▁marine	0
▁droge	0
▁tempel	0
▁zone	0
▁mede	0
▁kunstenaar	0
▁app	0
▁gelogen	0
▁burger	0
▁vals	0
▁concert	0
▁bruin	0
▁eva	0
▁tijger	0
▁spelletjes	0
▁herstellen	0
▁toeval	0
▁verhouding	0
▁betekende	0
▁trappen	0
▁veilige	0
▁engel	0
▁indonesië	0
▁chinees	0
▁tijdelijk	0
▁externe	0
▁www	0
▁filips	0
▁benoemen	0
▁interesse	0
▁bot	0
▁champagne	0
▁aanwezigheid	0
▁beschermd	0
▁plassen	0
▁redt	0
▁tegelijkertijd	0
▁aangekomen	0
▁gekend	0
▁moskou	0
▁schot	0
▁sterf	0
▁politici	0
▁cia	0
▁donder	0
▁bijen	0
▁kelly	0
▁woensdag	0
▁doei	0
▁vergeleken	0
▁plicht	0
▁moge	0
▁kocht	0
▁waarschuwing	0
▁personages	0
▁momenteel	0
▁voetballen	0
▁xii	0
▁kroon	0
▁lichten	0
▁tegenstelling	0
▁iris	0
▁bijlage	0
▁grijze	0
▁piet	0
▁herinnering	0
▁monsters	0
▁factoren	0
▁voorbereid	0
▁vuil	0
▁bram	0
▁bruine	0
▁negatief	0
▁nieuwsgierig	0
▁fbi	0
▁metaal	0
▁ezel	0
▁stiekem	0
▁leugenaar	0
▁tegenstander	0
▁positieve	0
▁democratische	0
▁toernooi	0
▁bestaande	0
▁dapper	0
▁bossen	0
▁jaap	0
▁opruimen	0
▁afsluiting	0
▁gedwongen	0
▁handelen	0
▁verwijzen	0
▁loon	0
▁patiënten	0
▁moeilijker	0
▁schuur	0
▁dek	0
▁ontdekte	0
▁sara	0
▁inclusief	0
▁rob	0
▁puzzel	0
▁tovenaar	0
▁verspreid	0
▁zetels	0
▁denemarken	0
▁charlotte	0
▁apen	0
▁scène	0
▁ontwerpen	0
▁kok	0
▁bemanning	0
▁grijp	0
▁koekjes	0
▁datum	0
▁bravo	0
▁pensioen	0
▁identiteit	0
▁toestand	0
▁jesse	0
▁bepaal	0
▁vermeld	0
▁zichtbaar	0
▁voordelen	0
▁beschrijving	0
▁onbekende	0
▁accepteren	0
▁emmer	0
▁onszelf	0
▁vrachtwagen	0
▁verdrag	0
▁ajax	0
▁constant	0
▁snijden	0
▁beker	0
▁minste	0
▁ontslag	0
▁verdween	0
▁geheimen	0
▁kelder	0
▁kansen	0
▁benieuwd	0
▁café	0
▁gitaar	0
▁zekerheid	0
▁percentage	0
▁bewaard	0
▁negatieve	0
▁gooide	0
▁dergelijke	0
▁naakt	0
▁lening	0
▁computers	0
▁europees	0
▁onthoud	0
▁applaus	0
▁commissie	0
▁voormalige	0
▁passagiers	0
▁afrikaanse	0
▁ramen	0
▁diner	0
▁aandelen	0
▁universum	0
▁verplaatsen	0
▁leuker	0
▁schitterend	0
▁bepaalt	0
▁beveiliging	0
▁doelen	0
▁gepland	0
▁vergissing	0
▁stijgen	0
▁noorwegen	0
▁verwoest	0
▁eend	0
▁portugal	0
▁verscheen	0
▁belofte	0
▁momenten	0
▁verspreiden	0
▁johan	0
▁snelweg	0
▁rente	0
▁presenteren	0
▁gen	0
▁tekort	0
▁berekenen	0
▁bol	0
▁douche	0
▁leiders	0
▁traditie	0
▁verdachte	0
▁figuren	0
▁legende	0
▁straling	0
▁misdaad	0
▁gegooid	0
▁brandt	0
▁koekje	0
▁platen	0
▁hongarije	0
▁koningen	0
▁situaties	0
▁overeenkomst	0
▁gelopen	0
▁lawaai	0
▁uitgebreid	0
▁thijs	0
▁mooier	0
▁vulkaan	0
▁verstandig	0
▁bewaar	0
▁smaakt	0
▁bevelen	0
▁onbekend	0
▁zelfde	0
▁vuren	0
▁zwakke	0
▁getrokken	0
▁helden	0
▁patrick	0
▁brein	0
▁uitgelegd	0
▁enthousiast	0
▁gevuld	0
▁diepe	0
▁vloot	0
▁koen	0
▁lucas	0
▁hol	0
▁achterkant	0
▁schrijvers	0
▁ervaren	0
▁verlegen	0
▁doc	0
▁opgegeten	0
▁oorlogen	0
▁dochters	0
▁treinen	0
▁stelletje	0
▁gepubliceerd	0
▁sophie	0
▁verwerkt	0
▁schoen	0
▁neergeschoten	0
▁jeetje	0
▁ein	0
▁stinkt	0
▁omgezet	0
▁luke	0
▁lading	0
▁vat	0
▁geesten	0
▁greep	0
▁slagen	0
▁strak	0
▁zenuwachtig	0
▁vrouwtje	0
▁grootvader	0
▁dunne	0
▁voortaan	0
▁vloeistof	0
▁verwijderen	0
▁diensten	0
▁gezonde	0
▁ellende	0
▁trut	0
▁robbie	0
▁draad	0
▁wereldwijd	0
▁amper	0
▁aardbeving	0
▁stichting	0
▁tak	0
▁heuvel	0
▁duisternis	0
▁bezet	0
▁kooi	0
▁bakken	0
▁nep	0
▁chaos	0
▁pik	0
▁werkloosheid	0
▁verwerken	0
▁metalen	0
▁uitgezonden	0
▁overtuigd	0
▁ophangen	0
你	0
一	0
这	0
人	0
说	0
那	0
大	0
也	0
小	0
还	0
后	0
家	0
一个	0
这个	0
多	0
生	0
道	0
和	0
心	0
点	0
老	0
她	0
回	0
年	0
面	0
开	0
话	0
当	0
长	0
发	0
成	0
让	0
只	0
经	0
自己	0
实	0
十	0
前	0
现在	0
他们	0
但	0
方	0
打	0
三	0
学	0
太	0
吃	0
两	0
动	0
见	0
手	0
二	0
明	0
果	0
问	0
听	0
从	0
干	0
那个	0
比	0
女	0
头	0
本	0
主	0
关	0
然后	0
法	0
高	0
感	0
因为	0
气	0
水	0
电	0
像	0
西	0
解	0
你的	0
重	0
无	0
东	0
白	0
直	0
体	0
但是	0
日	0
机	0
哥	0
欢	0
钱	0
爱	0
外	0
王	0
新	0
活	0
已经	0
谁	0
还有	0
死	0
信	0
带	0
个人	0
花	0
姐	0
少	0
军	0
马	0
美	0
车	0
可能	0
孩子	0
结	0
今天	0
五	0
变	0
四	0
百	0
山	0
更	0
月	0
难	0
那么	0
加	0
选	0
亲	0
错	0
平	0
请	0
门	0
路	0
喜欢	0
口	0
眼	0
帮	0
将	0
朋友	0
答	0
原	0
度	0
大家	0
张	0
他的	0
表	0
时间	0
球	0
万	0
文	0
量	0
男	0
任	0
海	0
数	0
其实	0
事情	0
性	0
光	0
一起	0
清	0
应该	0
管	0
这些	0
玩	0
晚	0
报	0
金	0
八	0
为什么	0
怕	0
战	0
房	0
色	0
问题	0
内	0
风	0
条	0
中国	0
影	0
以后	0
近	0
买	0
跑	0
父	0
教	0
九	0
两个	0
特别	0
强	0
飞	0
乐	0
书	0
底	0
六	0
神	0
远	0
非常	0
红	0
准	0
空	0
饭	0
根	0
城	0
这里	0
笑	0
一些	0
千	0
喝	0
字	0
七	0
紧	0
不过	0
火	0
xxx	0
一次	0
病	0
包	0
林	0
北	0
节	0
你好	0
市	0
单	0
工作	0
发现	0
流	0
第一	0
老师	0
树	0
伤	0
留	0
生活	0
睡	0
需要	0
线	0
南	0
李	0
失	0
之后	0
程	0
象	0
青	0
满	0
杀	0
周	0
轻	0
亮	0
而且	0
慢	0
星	0
建	0
兴	0
关系	0
拉	0
奶	0
肯	0
半	0
零	0
音	0
写	0
里面	0
台	0
拜	0
转	0
地方	0
答案	0
怪	0
一天	0
段	0
游	0
调	0
希望	0
步	0
感觉	0
酒	0
忙	0
黑	0
有人	0
急	0
敢	0
站	0
义	0
团	0
热	0
黄	0
区	0
哈哈	0
深	0
官	0
展	0
班	0
石	0
鱼	0
所有	0
苦	0
排	0
二十	0
只是	0
画	0
久	0
基	0
龙	0
网	0
最后	0
xxxx	0
世界	0
设	0
领	0
先生	0
志	0
聊	0
之前	0
歌	0
比较	0
元	0
过去	0
断	0
楚	0
重要	0
公司	0
狗	0
论	0
脸	0
毛	0
切	0
夜	0
跳	0
只有	0
兵	0
香	0
晚上	0
类	0
fra	0
河	0
食	0
药	0
板	0
布	0
办法	0
情况	0
卖	0
米	0
那些	0
草	0
故事	0
华	0
德	0
鼠	0
猫	0
刻	0
刘	0
福	0
穿	0
微	0
电话	0
xxxxx	0
牛	0
只要	0
江	0
值	0
熊	0
皮	0
价	0
历	0
脑	0
费	0
陈	0
角	0
菜	0
儿子	0
云	0
静	0
lin	0
英	0
找到	0
ine	0
负	0
line	0
极	0
假	0
推	0
礼	0
速	0
后来	0
erl	0
梦	0
拍	0
克	0
坏	0
党	0
嘴	0
脚	0
雨	0
鸡	0
语	0
虽然	0
兔	0
幸	0
第二	0
叶	0
背	0
味	0
村	0
简	0
武	0
选项	0
土	0
木	0
属	0
剧	0
集	0
追	0
唱	0
曾	0
油	0
姑娘	0
国家	0
蛋	0
闻	0
雪	0
最近	0
广	0
xxxxxx	0
哭	0
存	0
鬼	0
春	0
投	0
超	0
以前	0
怀	0
双	0
环	0
压	0
严	0
必须	0
她的	0
兄弟	0
结果	0
在一起	0
血	0
钟	0
洗	0
通过	0
店	0
温	0
女人	0
铁	0
乱	0
汉	0
列	0
派	0
松	0
解析	0
贵	0
围	0
偷	0
权	0
电影	0
麻	0
创	0
玉	0
不同	0
比赛	0
小姐	0
顺	0
肉	0
每天	0
高兴	0
读	0
其他	0
守	0
低	0
图	0
宫	0
选择	0
营	0
机会	0
课	0
igh	0
三个	0
发展	0
容易	0
枪	0
园	0
惊	0
猪	0
坚	0
罪	0
离开	0
日本	0
杨	0
休	0
群	0
呼	0
冷	0
州	0
苏	0
修	0
永	0
想要	0
股	0
狼	0
累	0
抱	0
男人	0
任何	0
虎	0
房子	0
鸟	0
漂	0
三十	0
明天	0
女孩	0
舞	0
史	0
衣服	0
一切	0
屋	0
个月	0
女儿	0
划	0
船	0
身体	0
姐姐	0
结婚	0
决定	0
成为	0
主要	0
痛	0
银	0
源	0
罗	0
影响	0
社会	0
小时	0
毒	0
眼睛	0
野	0
孙	0
运动	0
手机	0
错误	0
田	0
直接	0
农	0
退	0
它们	0
借	0
有些	0
彩	0
哎呀	0
父亲	0
得到	0
同志	0
很好	0
夏	0
奶奶	0
弹	0
沙	0
卡	0
美国	0
老板	0
互	0
羊	0
率	0
哥哥	0
姓	0
开心	0
翻	0
床	0
省	0
同学	0
吸	0
富	0
圆	0
医院	0
绿	0
声音	0
赵	0
漂亮	0
安全	0
顶	0
动物	0
胜	0
日子	0
就像	0
康	0
完全	0
乡	0
狐	0
反正	0
唐	0
年轻	0
刀	0
秀	0
波	0
终于	0
担心	0
洞	0
公主	0
eft	0
烧	0
兰	0
父母	0
lef	0
猴	0
短	0
人们	0
层	0
学习	0
圈	0
学生	0
丝	0
左	0
方式	0
纸	0
敌	0
冰	0
封	0
拜拜	0
杯	0
笔	0
医生	0
刺	0
袋	0
降	0
学校	0
票	0
耳	0
如何	0
要求	0
货	0
挑	0
恋	0
昨天	0
名字	0
努力	0
豆	0
湖	0
秋	0
旅	0
蓝	0
欢迎	0
一般	0
爷爷	0
辛	0
大学	0
迷	0
洋	0
粉	0
十五	0
颜	0
茶	0
健	0
新的	0
减	0
能力	0
最好	0
新闻	0
词	0
十二	0
补	0
幸福	0
败	0
部分	0
恐	0
阿姨	0
保护	0
仙	0
人生	0
感情	0
诗	0
忍	0
喊	0
理解	0
注意	0
丢	0
骨	0
除了	0
牌	0
太阳	0
织	0
镜	0
冬	0
经济	0
每个	0
成功	0
灯	0
经常	0
勇	0
晓	0
馆	0
腿	0
折	0
游戏	0
困	0
甚至	0
森	0
完成	0
范	0
狐狸	0
研究	0
浪	0
家人	0
蛙	0
射	0
傻	0
简单	0
十年	0
输	0
天天	0
右	0
北京	0
自然	0
舒	0
丁	0
脱	0
更多	0
牙	0
帅	0
施	0
睡觉	0
人民	0
休息	0
总是	0
餐	0
解决	0
生气	0
老鼠	0
十一	0
文化	0
暗	0
恶	0
快乐	0
包括	0
宁	0
胖	0
爬	0
植	0
县	0
条件	0
参加	0
宋	0
吹	0
季	0
环境	0
母亲	0
考虑	0
原因	0
永远	0
雷	0
最大	0
稳	0
妖	0
任务	0
厂	0
外面	0
平时	0
轮	0
青蛙	0
属于	0
哇	0
th	0
烟	0
麻烦	0
帮助	0
吃了	0
der	0
改变	0
回答	0
nde	0
酸	0
技术	0
好吃	0
设计	0
祖	0
灰	0
留下	0
码	0
摇	0
戴	0
作用	0
甜	0
尾	0
街	0
妹妹	0
说明	0
暖	0
后面	0
梅	0
秦	0
关于	0
鞋	0
基本	0
束	0
瓜	0
生命	0
庆	0
杰	0
限	0
糖	0
市场	0
接受	0
未来	0
电视	0
宗	0
液	0
分钟	0
她们	0
净	0
上海	0
摸	0
苹果	0
全部	0
奖	0
篮	0
绝对	0
核	0
镇	0
变化	0
棒	0
小孩	0
城市	0
嫁	0
精神	0
同意	0
赢	0
猜	0
珠	0
鹿	0
目的	0
宣	0
亿	0
雄	0
拼	0
行动	0
五十	0
盖	0
方向	0
国王	0
老公	0
麦	0
房间	0
巨	0
害怕	0
速度	0
韩	0
聪	0
家庭	0
四十	0
ime	0
历史	0
鼓	0
计划	0
磨	0
队长	0
美丽	0
窗	0
徐	0
饿	0
泡	0
针	0
沈	0
十八	0
很快	0
打电话	0
思考	0
男孩	0
烈	0
代表	0
荣	0
存在	0
冠	0
珍	0
现场	0
第三	0
硬	0
偏	0
位置	0
反应	0
炸	0
方法	0
键	0
弟弟	0
庄	0
各种	0
也许	0
诚	0
状态	0
桥	0
安排	0
处理	0
介绍	0
汤	0
软	0
负责	0
合作	0
弱	0
染	0
瓶	0
面对	0
人类	0
夫人	0
报告	0
音乐	0
危险	0
活动	0
腾	0
产生	0
正常	0
组织	0
签	0
兔子	0
港	0
登	0
警察	0
丹	0
政府	0
许多	0
厅	0
恨	0
责任	0
实际	0
解释	0
太太	0
老人	0
物体	0
盛	0
朱	0
tim	0
times	0
劝	0
离婚	0
鬼子	0
飞机	0
符	0
主人	0
肚子	0
使用	0
谷	0
主任	0
吉	0
辛苦	0
植物	0
箱	0
峰	0
教育	0
泪	0
人员	0
丈	0
奇怪	0
爆	0
森林	0
董	0
企业	0
闪	0
鸭	0
梁	0
蒙	0
叔叔	0
首先	0
十四	0
域	0
科学	0
调查	0
洲	0
材料	0
照片	0
利用	0
领导	0
小熊	0
前面	0
身份	0
小小	0
笨	0
桃	0
mat	0
十六	0
旧	0
结束	0
想法	0
墙	0
滑	0
目前	0
爱情	0
四个	0
刷	0
锅	0
有时候	0
日本人	0
岛	0
共产党	0
关键	0
师父	0
赏	0
佛	0
怀疑	0
氧	0
挣	0
早上	0
证明	0
保证	0
粮	0
伟	0
鼻	0
控制	0
部队	0
扬	0
聪明	0
合适	0
扔	0
实现	0
碗	0
感受	0
形成	0
剑	0
妻子	0
池	0
时代	0
郎	0
郑	0
颜色	0
宝宝	0
大小	0
丰	0
骑	0
实验	0
忠	0
拖	0
赚	0
观察	0
获得	0
踢	0
舒服	0
女朋友	0
分享	0
唉	0
行为	0
严重	0
ath	0
健康	0
厚	0
司令	0
分析	0
生物	0
心情	0
屁	0
奔	0
情绪	0
琴	0
服务	0
穷	0
大象	0
可爱	0
启	0
凤	0
来自	0
空间	0
礼物	0
迟	0
疯	0
咬	0
圣	0
肥	0
习惯	0
放弃	0
系统	0
项目	0
知识	0
租	0
力量	0
阴	0
压力	0
序	0
内容	0
全国	0
记住	0
猎	0
足球	0
更好	0
空气	0
王子	0
慧	0
提供	0
孔	0
判断	0
十九	0
扫	0
自由	0
质量	0
磁	0
演员	0
宇	0
不明	0
食物	0
库	0
敌人	0
门口	0
乔	0
禁	0
十七	0
淡	0
纯	0
瞎	0
滴	0
细胞	0
抬	0
赞	0
sqrt	0
六十	0
宽	0
泥	0
脏	0
地球	0
恋爱	0
心理	0
专业	0
嘿	0
婚姻	0
岸	0
nee	0
物质	0
ndf	0
fla	0
欠	0
最终	0
生产	0
师傅	0
适合	0
男朋友	0
尖	0
燕	0
中央	0
钻	0
敏	0
宝贝	0
紧张	0
观众	0
证据	0
钢	0
每个人	0
卷	0
国际	0
伤害	0
秘密	0
命令	0
投资	0
老虎	0
罚	0
价值	0
堆	0
管理	0
怜	0
猴子	0
隆	0
方便	0
距离	0
羽	0
小狗	0
吐	0
地区	0
建议	0
锁	0
曹	0
态度	0
壁	0
直到	0
脾	0
梦想	0
沟	0
蛇	0
表达	0
月亮	0
石头	0
蜂	0
训练	0
腰	0
生日	0
上次	0
相关	0
怒	0
篮球	0
普通	0
中间	0
汽车	0
亲自	0
泽	0
增加	0
阳光	0
关心	0
银行	0
共同	0
喝酒	0
意见	0
内心	0
窝	0
丈夫	0
必要	0
每一个	0
欣	0
认真	0
洪	0
尤其	0
飘	0
龟	0
估计	0
困难	0
尸	0
炮	0
值得	0
豪	0
柳	0
民族	0
狮	0
兴趣	0
小猪	0
革命	0
小猫	0
帮忙	0
直播	0
思想	0
产品	0
皇帝	0
政治	0
梯	0
想象	0
竹	0
聊天	0
挖	0
帽	0
下午	0
艺术	0
妖怪	0
可惜	0
垃圾	0
甘	0
紫	0
有机	0
烂	0
饱	0
ian	0
英雄	0
汇	0
目标	0
魏	0
蚁	0
成绩	0
现象	0
通知	0
寻找	0
检查	0
老大	0
塔	0
情感	0
表演	0
埋	0
八十	0
郭	0
真实	0
七十	0
分手	0
敲	0
脑袋	0
战争	0
耳朵	0
孝	0
具体	0
岩	0
中心	0
味道	0
尾巴	0
成长	0
湾	0
喷	0
女生	0
丑	0
种子	0
现实	0
将来	0
底下	0
人物	0
辣	0
基础	0
哭了	0
国民	0
夫妻	0
实际上	0
脾气	0
科技	0
同样	0
扑	0
以上	0
一旦	0
湿	0
箭	0
教授	0
仁	0
受伤	0
提醒	0
接触	0
一生	0
实力	0
经验	0
水平	0
弯	0
缝	0
建设	0
懒	0
办公	0
毕业	0
记者	0
侯	0
结构	0
手术	0
附近	0
超过	0
挑战	0
伏	0
自我	0
盐	0
干净	0
邻	0
拥有	0
秒	0
鹰	0
难过	0
链	0
芬	0
意识	0
题目	0
伦	0
分子	0
作品	0
仪	0
赖	0
头发	0
繁	0
恢复	0
工程	0
赌	0
焦	0
依然	0
痛苦	0
事实	0
单位	0
地下	0
苗	0
凌	0
蒋	0
贼	0
勤	0
提高	0
承认	0
年龄	0
脑子	0
氏	0
一半	0
年纪	0
稳定	0
浮	0
导演	0
曼	0
沿	0
蚂蚁	0
警方	0
误会	0
几乎	0
欺负	0
版	0
标准	0
狮子	0
传统	0
醉	0
最高	0
执行	0
盒	0
胸	0
建立	0
唱歌	0
伤心	0
鼻子	0
汗	0
相同	0
星星	0
奏	0
九十	0
红色	0
泉	0
朗	0
添	0
背后	0
当地	0
人才	0
旗	0
粗	0
扣	0
一切都	0
姜	0
失败	0
玲	0
行业	0
上学	0
瘦	0
再次	0
试试	0
指挥	0
仿	0
天气	0
动作	0
好玩	0
加入	0
然而	0
恒	0
少年	0
后悔	0
潮	0
裂	0
松鼠	0
忘记	0
矛	0
斤	0
洁	0
眉	0
队伍	0
网上	0
创造	0
有用	0
坡	0
鹅	0
多多	0
法律	0
能量	0
贤	0
冠军	0
兽	0
满意	0
温度	0
晶	0
大声	0
嘟	0
好奇	0
记录	0
教练	0
cd	0
交流	0
信任	0
首歌	0
显示	0
国内	0
加上	0
读书	0
等于	0
时刻	0
电脑	0
申	0
消费	0
功能	0
桶	0
拒绝	0
一面	0
文章	0
天空	0
cdo	0
cdot	0
理由	0
胎	0
伙伴	0
主席	0
同事	0
锦	0
霸	0
肖	0
随时	0
凯	0
情报	0
星期	0
莲	0
政策	0
劫	0
肺	0
泰	0
俊	0
柱	0
尤其是	0
铜	0
轻轻	0
盆	0
基本上	0
程度	0
资源	0
涛	0
参与	0
径	0
周围	0
阶段	0
建筑	0
价格	0
贪	0
壳	0
孟	0
床上	0
结合	0
坑	0
病人	0
墨	0
大海	0
薄	0
剪	0
感动	0
ver	0
可怕	0
讨厌	0
记忆	0
假的	0
绳	0
正式	0
浑	0
邓	0
看起来	0
机器	0
砸	0
南方	0
性格	0
资料	0
烤	0
尊重	0
溶液	0
专家	0
煮	0
意外	0
五个	0
舞台	0
贾	0
制度	0
脆	0
客人	0
明星	0
巨大	0
事件	0
东北	0
累了	0
独立	0
委屈	0
矛盾	0
熟悉	0
咖啡	0
冬天	0
改革	0
氧化	0
从来没有	0
经理	0
全球	0
办公室	0
炒	0
偷偷	0
丛	0
生长	0
治疗	0
火车	0
侧	0
相对	0
嘴巴	0
平台	0
消失	0
强大	0
牺牲	0
晋	0
职业	0
复杂	0
太子	0
彻底	0
减少	0
扭	0
激动	0
遥	0
考试	0
椅	0
英国	0
冯	0
男生	0
咕	0
桑	0
叶子	0
今日	0
蝴蝶	0
空中	0
暂时	0
吸引	0
夹	0
颈	0
提前	0
角色	0
作者	0
方案	0
百万	0
书记	0
否则	0
允	0
制造	0
对手	0
翅膀	0
工资	0
温暖	0
尽管	0
挤	0
享受	0
交通	0
渡	0
体育	0
胜利	0
侵	0
增长	0
土地	0
师兄	0
不久	0
追求	0
会议	0
裤	0
萝卜	0
角度	0
绿色	0
腐	0
柴	0
婷	0
制作	0
做饭	0
芳	0
线索	0
体现	0
传播	0
拳	0
相互	0
纵	0
国外	0
工具	0
岳	0
昌	0
犯罪	0
春天	0
战斗	0
范围	0
特点	0
测量	0
卫生	0
顺利	0
悬	0
陶	0
出生	0
董事	0
晕	0
今晚	0
印象	0
部门	0
少了	0
排除	0
肩	0
堡	0
表面	0
开车	0
效果	0
昆	0
十个	0
肠	0
平安	0
羞	0
逆	0
利益	0
家长	0
期间	0
成熟	0
掌握	0
失望	0
辉	0
死亡	0
为何	0
作业	0
女子	0
陵	0
理想	0
祥	0
棋	0
球队	0
姐妹	0
资金	0
津	0
玻璃	0
或许	0
眼泪	0
白天	0
开放	0
便宜	0
善良	0
翼	0
漏	0
乌龟	0
南京	0
电子	0
渴	0
粮食	0
邀请	0
饶	0
需求	0
帽子	0
碳	0
胃	0
通常	0
旅游	0
仍然	0
解放	0
生态	0
广州	0
积极	0
跃	0
誓	0
鸡蛋	0
晒	0
尿	0
常常	0
铃	0
计算	0
二月	0
破坏	0
最多	0
吞	0
驴	0
一月	0
袁	0
iao	0
案件	0
等待	0
阁	0
匙	0
电视剧	0
娃娃	0
重点	0
蔡	0
大师	0
溪	0
恭喜	0
讨论	0
笼	0
水果	0
军队	0
台湾	0
完美	0
面包	0
厨房	0
培养	0
推荐	0
中华	0
中午	0
现代	0
羡慕	0
瞬间	0
调整	0
勇敢	0
沟通	0
虾	0
白色	0
不足	0
姚	0
创新	0
语言	0
旅行	0
进步	0
伞	0
律师	0
惠	0
任何人	0
规模	0
小说	0
允许	0
邻居	0
墓	0
收入	0
寿	0
国民党	0
动员	0
粉丝	0
真相	0
彭	0
钥匙	0
数字	0
遇见	0
女性	0
伪	0
青年	0
命运	0
寺	0
基因	0
酷	0
军事	0
蒸	0
公众	0
豹	0
自信	0
风险	0
鹏	0
大多	0
世纪	0
热闹	0
玩具	0
蟹	0
统一	0
形式	0
地面	0
夏天	0
状况	0
男子	0
游泳	0
eng	0
司机	0
及时	0
准确	0
文明	0
婚礼	0
心灵	0
生病	0
联合	0
丰富	0
始终	0
农民	0
罐	0
公里	0
拨	0
百年	0
回忆	0
员工	0
尘	0
工业	0
球员	0
团队	0
大部分	0
蜜蜂	0
虹	0
帝国	0
琳	0
伟大	0
耶	0
学院	0
平衡	0
斜	0
内部	0
厕	0
留下来	0
庙	0
劳动	0
木头	0
赢了	0
每年	0
西方	0
兴奋	0
刺猬	0
体验	0
战场	0
信心	0
割	0
冻	0
萧	0
无聊	0
科长	0
合同	0
浪费	0
舌	0
有趣	0
有效	0
武器	0
刺激	0
逐渐	0
反对	0
持续	0
安慰	0
霍	0
原子	0
轻松	0
棉	0
酒店	0
月份	0
原则	0
洗澡	0
水中	0
面积	0
广告	0
跳舞	0
第四	0
券	0
高度	0
黎	0
税	0
公平	0
工人	0
生存	0
交易	0
屁股	0
化学	0
心疼	0
时光	0
智慧	0
邦	0
青春	0
产业	0
黄色	0
进一步	0
西瓜	0
蛋糕	0
卢	0
寸	0
树林	0
成就	0
和平	0
媒体	0
一代	0
六个	0
浅	0
裙	0
阅读	0
形状	0
厕所	0
机构	0
方程	0
稍微	0
大地	0
损失	0
羽毛	0
多数	0
特征	0
原本	0
作战	0
子弹	0
晴	0
合理	0
竞争	0
欧洲	0
对待	0
人大	0
跨	0
蓝色	0
观点	0
超级	0
笑话	0
岭	0
脖子	0
气体	0
创业	0
描述	0
接近	0
模式	0
元素	0
资本	0
数量	0
公鸡	0
烫	0
欣赏	0
道路	0
提升	0
业务	0
点头	0
以下	0
孙子	0
销售	0
传说	0
尸体	0
地点	0
ing	0
锻炼	0
潘	0
文学	0
客户	0
院子	0
群众	0
力气	0
保险	0
愿望	0
古代	0
炉	0
战士	0
适应	0
下雨	0
细节	0
运动员	0
鸭子	0
葬	0
资格	0
有利	0
话题	0
采访	0
神奇	0
法院	0
花园	0
雾	0
无数	0
感兴趣	0
辜	0
到达	0
死者	0
电台	0
反映	0
新鲜	0
洒	0
病毒	0
孤独	0
威胁	0
撕	0
神秘	0
山羊	0
雕	0
胡子	0
多个	0
慢慢地	0
文字	0
芽	0
两次	0
著名	0
迈	0
转移	0
三月	0
输了	0
美元	0
绣	0
勇气	0
镜子	0
患者	0
葡萄	0
博士	0
乌鸦	0
加强	0
班长	0
玄	0
留言	0
捐	0
军人	0
营养	0
湘	0
怀孕	0
矮	0
平均	0
动力	0
不适	0
更大	0
俄	0
半夜	0
鼓励	0
下降	0
碧	0
长颈鹿	0
汁	0
掌柜	0
不满	0
陌生	0
黄金	0
数学	0
神经	0
操作	0
臂	0
早晨	0
蘑菇	0
飞行	0
疯了	0
树叶	0
区域	0
主题	0
柏	0
骄傲	0
楠	0
核心	0
电流	0
避免	0
函数	0
外国	0
已知	0
赫	0
对面	0
腹	0
校长	0
七月	0
筋	0
规则	0
连续	0
花儿	0
法国	0
崔	0
页	0
权利	0
煤	0
美女	0
刮	0
个案	0
五月	0
事故	0
热情	0
金融	0
措施	0
决心	0
民主	0
蹲	0
广东	0
惊喜	0
温柔	0
工厂	0
四月	0
报仇	0
公开	0
区别	0
八月	0
薛	0
要么	0
农村	0
三角	0
心态	0
窗户	0
进攻	0
亲戚	0
概念	0
人口	0
商业	0
练习	0
表情	0
理论	0
酱	0
充分	0
土壤	0
膜	0
翔	0
指导	0
六月	0
教训	0
家乡	0
灿	0
玫瑰	0
猎人	0
有限	0
向前	0
宣传	0
尝试	0
科学家	0
上午	0
晚安	0
士兵	0
藤	0
珍惜	0
快递	0
千年	0
金属	0
成年	0
北方	0
重庆	0
攻击	0
类型	0
微笑	0
手指	0
皇后	0
突破	0
茂	0
完整	0
幼儿园	0
吻	0
div	0
较大	0
影子	0
一致	0
氢	0
停止	0
走路	0
评价	0
强调	0
胶	0
请求	0
老了	0
circ	0
qsl	0
王后	0
往下	0
昂	0
椅子	0
爪	0
泛	0
优势	0
坤	0
eta	0
草地	0
有名	0
污染	0
卵	0
深圳	0
物理	0
大门	0
都市	0
砖	0
含有	0
放大	0
娱乐	0
黑色	0
移动	0
加速	0
风格	0
眼神	0
蠢	0
出口	0
人工	0
暴露	0
系列	0
儿童	0
基金	0
维持	0
弥	0
蜘蛛	0
创作	0
魔法	0
坛	0
医疗	0
玉米	0
武汉	0
降低	0
翁	0
叮	0
犹豫	0
尴尬	0
骨头	0
崖	0
han	0
眼镜	0
姑姑	0
最爱	0
评论	0
槽	0
醋	0
战略	0
难得	0
严格	0
公园	0
保障	0
收获	0
海洋	0
投入	0
快速	0
杀死	0
宏	0
保密	0
彪	0
申请	0
渣	0
祖国	0
最小	0
早餐	0
珊	0
网友	0
爱好	0
辽	0
壶	0
测试	0
村民	0
爆炸	0
整体	0
感染	0
先进	0
掌声	0
推动	0
周末	0
吸收	0
后果	0
光明	0
外人	0
文件	0
印度	0
咸	0
促进	0
东方	0
八个	0
密码	0
社会主义	0
韩国	0
单身	0
树枝	0
身后	0
精灵	0
抓到	0
丸	0
山东	0
霞	0
草原	0
相亲	0
乳	0
寂寞	0
确认	0
大臣	0
偶尔	0
幸运	0
九月	0
蛋白	0
冲动	0
燕子	0
报纸	0
天才	0
逸	0
监狱	0
痒	0
大多数	0
自杀	0
传递	0
蜗牛	0
肝	0
大脑	0
做梦	0
生成	0
浇	0
鞋子	0
舞蹈	0
肌	0
十月	0
政委	0
天真	0
类似	0
瑶	0
批评	0
固定	0
位于	0
轴	0
气球	0
护士	0
机场	0
岩石	0
干部	0
鹊	0
扩大	0
餐厅	0
今后	0
危机	0
背景	0
讲话	0
kan	0
权力	0
继承	0
氧气	0
改造	0
猫咪	0
互动	0
浴	0
浪漫	0
囊	0
多种	0
商人	0
德国	0
鹤	0
口袋	0
减肥	0
夜晚	0
贸易	0
斌	0
心脏	0
比例	0
释放	0
靠近	0
驾驶	0
成本	0
蚕	0
运气	0
家属	0
绳子	0
资产	0
感冒	0
欧阳	0
宿舍	0
农业	0
被子	0
gle	0
股份	0
盒子	0
上市	0
苏联	0
设计师	0
无奈	0
能源	0
更重	0
小美	0
腔	0
双手	0
贷款	0
栏	0
综合	0
跑步	0
自动	0
庞	0
居民	0
郡	0
买卖	0
钉	0
来源	0
体积	0
良心	0
维护	0
瓶子	0
摇头	0
失踪	0
惊讶	0
规划	0
资讯	0
梳	0
芒	0
教室	0
错过	0
亭	0
定义	0
铁路	0
承诺	0
打架	0
垫	0
个体	0
上级	0
中共	0
机械	0
缸	0
口水	0
强烈	0
自行车	0
性质	0
果实	0
牙齿	0
形容	0
村子	0
周期	0
沙发	0
紧急	0
财产	0
呈现	0
经典	0
爆发	0
艰难	0
支付	0
祝福	0
舰	0
舅舅	0
最新	0
惩罚	0
发明	0
辞职	0
犬	0
樱	0
检测	0
总统	0
勉	0
杭州	0
韦	0
成员	0
品牌	0
集合	0
悄悄地	0
培训	0
牛奶	0
母鸡	0
眨	0
癌	0
秘书	0
枕	0
纪念	0
螃蟹	0
饭店	0
水分	0
专辑	0
上升	0
化妆	0
煎	0
恐怖	0
可能性	0
展示	0
坚决	0
年级	0
相当于	0
拓	0
肿	0
运输	0
瓷	0
疾病	0
淑	0
哎哟	0
解答	0
反复	0
第五	0
网球	0
池塘	0
弟子	0
恐惧	0
土匪	0
鸟儿	0
卫星	0
出国	0
麻雀	0
部长	0
嘟嘟	0
节奏	0
思维	0
成分	0
纱	0
饺子	0
楼下	0
小组	0
秋天	0
风景	0
确保	0
巫婆	0
大笑	0
仙女	0
pha	0
角落	0
点心	0
食品	0
剥	0
大气	0
协议	0
抱怨	0
流行	0
写作	0
怡	0
转化	0
神仙	0
乡亲	0
除非	0
演技	0
商品	0
七个	0
枫	0
lph	0
主持人	0
城堡	0
盲	0
财富	0
爱人	0
塑料	0
情人	0
天生	0
广播	0
高大	0
限制	0
月球	0
alpha	0
购买	0
彩虹	0
动机	0
碑	0
呱	0
熊猫	0
胳膊	0
十一月	0
个性	0
指示	0
株	0
平静	0
迟到	0
咽	0
黑暗	0
豆腐	0
画画	0
流动	0
作家	0
粥	0
河马	0
萍	0
统治	0
耐心	0
电动	0
奋斗	0
名单	0
难度	0
烦恼	0
珍珠	0
试验	0
火箭	0
小米	0
更新	0
加班	0
对话	0
镖	0
偶像	0
怪物	0
弦	0
蜡	0
遗传	0
重力	0
太平	0
畏	0
总理	0
诗人	0
拍摄	0
人群	0
地产	0
坚强	0
下落	0
日常	0
不利	0
现有	0
梨	0
发表	0
蚊	0
曲线	0
拥抱	0
叉	0
冒险	0
免费	0
特色	0
联络	0
卓	0
伤口	0
徒弟	0
豆豆	0
斗争	0
翻译	0
香味	0
最早	0
跟踪	0
组合	0
前辈	0
ots	0
烛	0
美食	0
鸽	0
天然	0
钢琴	0
旭	0
礼貌	0
男友	0
裤子	0
西北	0
有意义	0
分布	0
蕉	0
咒	0
美人	0
服装	0
长江	0
庆祝	0
推进	0
十二月	0
侦查	0
季节	0
推出	0
对外	0
奥运	0
例子	0
基地	0
鳄	0
叠	0
分数	0
频率	0
电路	0
从不	0
钩	0
喜鹊	0
可见	0
鞭	0
官方	0
洗衣	0
裙子	0
巢	0
打扫	0
灵魂	0
流浪	0
楼上	0
漆	0
从未	0
礼拜	0
大陆	0
渴望	0
发光	0
蔬菜	0
哑	0
不当	0
anr	0
探索	0
燃烧	0
喵	0
清晰	0
金子	0
效率	0
晚饭	0
云南	0
沙漠	0
假装	0
车站	0
防止	0
电荷	0
王朝	0
耿	0
包子	0
法官	0
尹	0
宇宙	0
朴	0
僧	0
物资	0
居住	0
保留	0
泡泡	0
天津	0
柿	0
成果	0
虫子	0
长度	0
支撑	0
医学	0
大胆	0
四川	0
明知	0
原理	0
素质	0
道德	0
游击	0
仓库	0
海上	0
场景	0
脚步	0
取消	0
仪式	0
消灭	0
集体	0
引发	0
助理	0
痕迹	0
团结	0
依靠	0
守护	0
路边	0
蜀	0
愤怒	0
身高	0
弓	0
前提	0
疯狂	0
花朵	0
返回	0
官员	0
认可	0
坚定	0
牡丹	0
可可	0
补充	0
车辆	0
雁	0
定性	0
常见	0
对比	0
熙	0
橡	0
鳄鱼	0
粘	0
蕾	0
奴才	0
决赛	0
未知	0
大街	0
校园	0
喜剧	0
歌手	0
缺乏	0
星球	0
通道	0
和尚	0
焦虑	0
三角形	0
猫头鹰	0
戒指	0
恐龙	0
演戏	0
最强	0
岁月	0
受害	0
杏	0
液体	0
秃	0
女神	0
装备	0
句子	0
实践	0
透明	0
帆	0
交换	0
锤	0
歌声	0
分类	0
最佳	0
mol	0
异常	0
阶级	0
广场	0
亲密	0
爵	0
重复	0
老年	0
天鹅	0
告别	0
自私	0
传奇	0
相似	0
胡萝卜	0
依据	0
更高	0
女友	0
非洲	0
硫	0
录音	0
标志	0
司马	0
瘾	0
舔	0
平方	0
激烈	0
欢乐	0
新娘	0
电池	0
外界	0
歌曲	0
吨	0
文物	0
费用	0
同情	0
电阻	0
夫妇	0
收集	0
魔鬼	0
逻辑	0
王国	0
号码	0
重量	0
egi	0
气质	0
陕西	0
混合	0
口罩	0
模型	0
江南	0
孔雀	0
路线	0
隐藏	0
总之	0
肺炎	0
健身	0
楼梯	0
数列	0
轨道	0
皱	0
卸	0
靖	0
磁铁	0
利润	0
酒吧	0
舌头	0
股票	0
疑问	0
积累	0
郝	0
结局	0
应对	0
莓	0
土豆	0
新疆	0
第十	0
借口	0
改善	0
回复	0
好友	0
成年人	0
散步	0
发射	0
棚	0
勺	0
顺序	0
独特	0
不公	0
差异	0
农夫	0
冲突	0
浸	0
剧本	0
住院	0
详细	0
诸葛	0
季度	0
手艺	0
远方	0
证券	0
欺骗	0
辣椒	0
杯子	0
支队	0
图书	0
魅力	0
黏	0
说服	0
叙述	0
绑架	0
袜	0
詹	0
投票	0
热点	0
警告	0
博物馆	0
每当	0
自主	0
剧情	0
小偷	0
民间	0
sha	0
正面	0
货币	0
巨人	0
分配	0
公路	0
连线	0
气候	0
鱼儿	0
美味	0
增强	0
珍贵	0
义务	0
绒	0
亚洲	0
潭	0
对应	0
摩擦	0
妇女	0
成都	0
播出	0
葫芦	0
搞笑	0
传承	0
报名	0
镜头	0
蓬	0
卧室	0
框	0
和谐	0
肾	0
奇迹	0
地图	0
治理	0
消费者	0
包围	0
市长	0
扁	0
指数	0
南瓜	0
橘	0
悲伤	0
回应	0
jiu	0
赔偿	0
消耗	0
花瓣	0
人性	0
解放军	0
保卫	0
坟	0
分离	0
报复	0
花生	0
主张	0
暴力	0
湖南	0
开花	0
依赖	0
饿死	0
聚会	0
桃子	0
登记	0
出租	0
香蕉	0
钠	0
教师	0
严肃	0
菲菲	0
杀害	0
无辜	0
出院	0
打破	0
缺点	0
振动	0
孤单	0
无限	0
鲜花	0
平等	0
河南	0
浙江	0
俄罗斯	0
炸弹	0
投降	0
马车	0
火锅	0
巴巴	0
韵	0
莺	0
成人	0
发行	0
理念	0
霜	0
地铁	0
天亮	0
勋	0
樊	0
梅花	0
加工	0
发起	0
笑容	0
勉强	0
阿拉	0
<0x00>	0
<0x01>	0
<0x02>	0
<0x03>	0
<0x04>	0
<0x05>	0
<0x06>	0
<0x07>	0
<0x08>	0
<0x09>	0
<0x0A>	0
<0x0B>	0
<0x0C>	0
<0x0D>	0
<0x0E>	0
<0x0F>	0
<0x10>	0
<0x11>	0
<0x12>	0
<0x13>	0
<0x14>	0
<0x15>	0
<0x16>	0
<0x17>	0
<0x18>	0
<0x19>	0
<0x1A>	0
<0x1B>	0
<0x1C>	0
<0x1D>	0
<0x1E>	0
<0x1F>	0
<0x20>	0
<0x21>	0
<0x22>	0
<0x23>	0
<0x24>	0
<0x25>	0
<0x26>	0
<0x27>	0
<0x28>	0
<0x29>	0
<0x2A>	0
<0x2B>	0
<0x2C>	0
<0x2D>	0
<0x2E>	0
<0x2F>	0
<0x30>	0
<0x31>	0
<0x32>	0
<0x33>	0
<0x34>	0
<0x35>	0
<0x36>	0
<0x37>	0
<0x38>	0
<0x39>	0
<0x3A>	0
<0x3B>	0
<0x3C>	0
<0x3D>	0
<0x3E>	0
<0x3F>	0
<0x40>	0
<0x41>	0
<0x42>	0
<0x43>	0
<0x44>	0
<0x45>	0
<0x46>	0
<0x47>	0
<0x48>	0
<0x49>	0
<0x4A>	0
<0x4B>	0
<0x4C>	0
<0x4D>	0
<0x4E>	0
<0x4F>	0
<0x50>	0
<0x51>	0
<0x52>	0
<0x53>	0
<0x54>	0
<0x55>	0
<0x56>	0
<0x57>	0
<0x58>	0
<0x59>	0
<0x5A>	0
<0x5B>	0
<0x5C>	0
<0x5D>	0
<0x5E>	0
<0x5F>	0
<0x60>	0
<0x61>	0
<0x62>	0
<0x63>	0
<0x64>	0
<0x65>	0
<0x66>	0
<0x67>	0
<0x68>	0
<0x69>	0
<0x6A>	0
<0x6B>	0
<0x6C>	0
<0x6D>	0
<0x6E>	0
<0x6F>	0
<0x70>	0
<0x71>	0
<0x72>	0
<0x73>	0
<0x74>	0
<0x75>	0
<0x76>	0
<0x77>	0
<0x78>	0
<0x79>	0
<0x7A>	0
<0x7B>	0
<0x7C>	0
<0x7D>	0
<0x7E>	0
<0x7F>	0
<0x80>	0
<0x81>	0
<0x82>	0
<0x83>	0
<0x84>	0
<0x85>	0
<0x86>	0
<0x87>	0
<0x88>	0
<0x89>	0
<0x8A>	0
<0x8B>	0
<0x8C>	0
<0x8D>	0
<0x8E>	0
<0x8F>	0
<0x90>	0
<0x91>	0
<0x92>	0
<0x93>	0
<0x94>	0
<0x95>	0
<0x96>	0
<0x97>	0
<0x98>	0
<0x99>	0
<0x9A>	0
<0x9B>	0
<0x9C>	0
<0x9D>	0
<0x9E>	0
<0x9F>	0
<0xA0>	0
<0xA1>	0
<0xA2>	0
<0xA3>	0
<0xA4>	0
<0xA5>	0
<0xA6>	0
<0xA7>	0
<0xA8>	0
<0xA9>	0
<0xAA>	0
<0xAB>	0
<0xAC>	0
<0xAD>	0
<0xAE>	0
<0xAF>	0
<0xB0>	0
<0xB1>	0
<0xB2>	0
<0xB3>	0
<0xB4>	0
<0xB5>	0
<0xB6>	0
<0xB7>	0
<0xB8>	0
<0xB9>	0
<0xBA>	0
<0xBB>	0
<0xBC>	0
<0xBD>	0
<0xBE>	0
<0xBF>	0
<0xC0>	0
<0xC1>	0
<0xC2>	0
<0xC3>	0
<0xC4>	0
<0xC5>	0
<0xC6>	0
<0xC7>	0
<0xC8>	0
<0xC9>	0
<0xCA>	0
<0xCB>	0
<0xCC>	0
<0xCD>	0
<0xCE>	0
<0xCF>	0
<0xD0>	0
<0xD1>	0
<0xD2>	0
<0xD3>	0
<0xD4>	0
<0xD5>	0
<0xD6>	0
<0xD7>	0
<0xD8>	0
<0xD9>	0
<0xDA>	0
<0xDB>	0
<0xDC>	0
<0xDD>	0
<0xDE>	0
<0xDF>	0
<0xE0>	0
<0xE1>	0
<0xE2>	0
<0xE3>	0
<0xE4>	0
<0xE5>	0
<0xE6>	0
<0xE7>	0
<0xE8>	0
<0xE9>	0
<0xEA>	0
<0xEB>	0
<0xEC>	0
<0xED>	0
<0xEE>	0
<0xEF>	0
<0xF0>	0
<0xF1>	0
<0xF2>	0
<0xF3>	0
<0xF4>	0
<0xF5>	0
<0xF6>	0
<0xF7>	0
<0xF8>	0
<0xF9>	0
<0xFA>	0
<0xFB>	0
<0xFC>	0
<0xFD>	0
<0xFE>	0
<0xFF>	0
▁i	-0
en	-1
▁o	-2
▁*	-3
er	-4
▁t	-5
▁in	-6
an	-7
▁I	-8
▁to	-9
ar	-10
st	-11
▁a	-12
▁of	-13
el	-14
ij	-15
ed	-16
on	-17
CH	-18
▁D	-19
▁is	-20
at	-21
ch	-22
▁b	-23
▁A	-24
IL	-25
ILD	-26
CHILD	-27
or	-28
es	-29
▁B	-30
AR	-31
ET	-32
GET	-33
TAR	-34
TARGET	-35
▁"	-36
▁T	-37
▁H	-38
ER	-39
$$	-40
▁S	-41
et	-42
▁s	-43
▁M	-44
al	-45
▁it	-46
re	-47
TH	-48
▁m	-49
THER	-50
ie	-51
is	-52
▁W	-53
in	-54
it	-55
OTHER	-56
ou	-57
MOTHER	-58
▁op	-59
▁E	-60
ge	-61
le	-62
ro	-63
▁C	-64
he	-65
▁N	-66
we	-67
▁O	-68
▁'	-69
▁1	-70
▁De	-71
om	-72
ra	-73
▁u	-74
▁be	-75
▁(	-76
▁d	-77
▁on	-78
il	-79
..	-80
▁G	-81
de	-82
▁h	-83
▁P	-84
AT	-85
IN	-86
ST	-87
OR	-88
▁te	-89
▁c	-90
aar	-91
VE	-92
us	-93
IG	-94
ol	-95
▁L	-96
STIG	-97
ATOR	-98
VESTIG	-99
INVESTIG	-100
INVESTIGATOR	-101
▁J	-102
▁V	-103
▁g	-104
ly	-105
ur	-106
▁we	-107
and	-108
la	-109
ent	-110
▁p	-111
▁R	-112
id	-113
ic	-114
am	-115
▁z	-116
ig	-117
ve	-118
."	-119
oor	-120
,"	-121
te	-122
▁F	-123
▁2	-124
se	-125
▁K	-126
▁Z	-127
ion	-128
▁In	-129
▁k	-130
ik	-131
oo	-132
oe	-133
▁me	-134
▁The	-135
ul	-136
▁·	-137
ut	-138
je	-139
ijk	-140
▁Y	-141
▁st	-142
ri	-143
--	-144
▁up	-145
as	-146
▁n	-147
▁hij	-148
▁om	-149
▁so	-150
▁bij	-151
cht	-152
▁我	-153
un	-154
▁do	-155
ap	-156
ken	-157
▁Het	-158
ru	-159
▁Th	-160
ers	-161
den	-162
gen	-163
...	-164
!"	-165
ll	-166
00	-167
lo	-168
?"	-169
▁an	-170
ad	-171
▁-	-172
ct	-173
▁An	-174
▁ik	-175
ot	-176
▁v	-177
▁ge	-178
ce	-179
be	-180
▁f	-181
ak	-182
aan	-183
▁or	-184
land	-185
什么	-186
em	-187
to	-188
▁by	-189
um	-190
▁zo	-191
▁my	-192
▁if	-193
ijn	-194
ja	-195
ter	-196
就是	-197
eld	-198
ea	-199
▁re	-200
。"	-201
os	-202
ck	-203
▁是	-204
ee	-205
:"	-206
▁He	-207
▁w	-208
ag	-209
op	-210
li	-211
ere	-212
}$$	-213
ess	-214
ten	-215
ell	-216
ir	-217
我们	-218
▁Ne	-219
没有	-220
▁no	-221
$$\	-222
{{	-223
ab	-224
▁了	-225
che	-226
ow	-227
ier	-228
ist	-229
ma	-230
▁Al	-231
▁It	-232
ard	-233
ven	-234
▁19	-235
ke	-236
ran	-237
可以	-238
}}	-239
▁3	-240
ation	-241
▁And	-242
▁Wh	-243
ia	-244
▁\	-245
ay	-246
▁go	-247
▁的	-248
▁con	-249
eah	-250
▁...	-251
jes	-252
ne	-253
eer	-254
ich	-255
▁个	-256
▁St	-257
ip	-258
-1	-259
▁En	-260
sch	-261
im	-262
▁l	-263
▁Ze	-264
ast	-265
ies	-266
▁e	-267
TE	-268
妈妈	-269
ze	-270
qu	-271
▁Een	-272
不是	-273
ant	-274
▁Hij	-275
▁Er	-276
pen	-277
▁into	-278
est	-279
ACH	-280
,'	-281
ACHER	-282
TEACHER	-283
ok	-284
ff	-285
na	-286
▁(1	-287
.'	-288
gel	-289
▁But	-290
▁Mr	-291
rij	-292
▁Ch	-293
ste	-294
eren	-295
怎么	-296
▁U	-297
{2	-298
od	-299
▁You	-300
▁20	-301
sen	-302
eg	-303
uit	-304
▁Yeah	-305
av	-306
ust	-307
mp	-308
▁sch	-309
▁r	-310
▁Mar	-311
时候	-312
mer	-313
end	-314
sp	-315
ië	-316
▁sp	-317
▁Be	-318
▁Op	-319
ob	-320
▁4	-321
▁对	-322
ta	-323
▁好	-324
FA	-325
▁在	-326
ien	-327
▁zich	-328
AD	-329
▁他	-330
▁am	-331
FATHER	-332
▁嗯	-333
ment	-334
ep	-335
ous	-336
▁不	-337
if	-338
ische	-339
ert	-340
een	-341
UL	-342
▁pro	-343
▁有	-344
voor	-345
ige	-346
dat	-347
▁Je	-348
▁啊	-349
men	-350
ond	-351
▁No	-352
ek	-353
ish	-354
ULT	-355
ADULT	-356
▁us	-357
▁5	-358
cent	-359
ill	-360
▁We	-361
oh	-362
▁•	-363
▁Sch	-364
art	-365
ry	-366
aal	-367
ort	-368
hu	-369
▁.	-370
▁$$	-371
me	-372
ub	-373
).	-374
▁Ik	-375
觉得	-376
uw	-377
▁Oh	-378
的是	-379
▁就	-380
elijk	-381
▁So	-382
og	-383
▁题	-384
nd	-385
▁She	-386
rm	-387
II	-388
▁Maar	-389
▁看	-390
tje	-391
▁j	-392
iet	-393
▁Dat	-394
man	-395
▁Fran	-396
ang	-397
▁They	-398
▁com	-399
ug	-400
eden	-401
iss	-402
正确	-403
起来	-404
our	-405
ster	-406
lie	-407
per	-408
▁Als	-409
?'	-410
ome	-411
$$,	-412
▁Daar	-413
▁什么	-414
▁Wat	-415
ss	-416
lijk	-417
▁_	-418
uur	-419
ind	-420
ord	-421
到了	-422
ai	-423
pe	-424
ite	-425
所以	-426
▁$$\	-427
ong	-428
ud	-429
▁To	-430
els	-431
elen	-432
ouw	-433
▁un	-434
Th	-435
all	-436
beeld	-437
▁6	-438
▁Ma	-439
}{	-440
▁Dit	-441
ber	-442
}_	-443
ate	-444
▁ch	-445
ga	-446
row	-447
ren	-448
zen	-449
pt	-450
ful	-451
atie	-452
EN	-453
AN	-454
的时候	-455
▁toen	-456
我的	-457
kt	-458
▁mee	-459
Wh	-460
wer	-461
af	-462
ius	-463
iv	-464
ker	-465
▁Le	-466
ost	-467
▁mijn	-468
▁Well	-469
▁uh	-470
爸爸	-471
▁Sp	-472
lu	-473
ool	-474
wat	-475
▁要	-476
ac	-477
{1	-478
ble	-479
ks	-480
▁Br	-481
出来	-482
ty	-483
}^	-484
ity	-485
▁le	-486
▁y	-487
▁ra	-488
▁201	-489
都是	-490
able	-491
▁sc	-492
20	-493
▁There	-494
▁200	-495
▁That	-496
bo	-497
led	-498
ood	-499
ons	-500
▁Ook	-501
oek	-502
▁18	-503
▁ac	-504
▁What	-505
esch	-506
int	-507
erd	-508
oud	-509
rop	-510
ive	-511
可是	-512
真的	-513
▁,	-514
▁ont	-515
▁$	-516
▁Ge	-517
mo	-518
!'	-519
▁lig	-520
ure	-521
aat	-522
zo	-523
▁Voor	-524
ward	-525
icht	-526
nen	-527
▁)	-528
omm	-529
▁staan	-530
▁Wik	-531
aten	-532
▁upon	-533
▁ex	-534
▁Af	-535
rie	-536
▁X	-537
),	-538
red	-539
▁Bij	-540
ide	-541
ale	-542
ely	-543
▁7	-544
sh	-545
▁keer	-546
▁ste	-547
▁呢	-548
oord	-549
▁Deze	-550
ged	-551
▁ga	-552
van	-553
ron	-554
len	-555
ack	-556
eds	-557
----	-558
▁=	-559
▁8	-560
▁Eu	-561
of	-562
▁ro	-563
Oh	-564
vo	-565
ick	-566
▁sh	-567
isch	-568
▁Then	-569
▁dus	-570
ele	-571
▁Mm	-572
You	-573
du	-574
不能	-575
▁toe	-576
rijf	-577
▁Hier	-578
acht	-579
bij	-580
ton	-581
rs	-582
orm	-583
▁Mrs	-584
▁Hoe	-585
ore	-586
▁Amer	-587
unt	-588
▁Yes	-589
▁ano	-590
000	-591
vol	-592
heid	-593
kom	-594
▁到	-595
ah	-596
▁Is	-597
rijk	-598
sel	-599
sten	-600
lag	-601
res	-602
uk	-603
are	-604
Ik	-605
来了	-606
uid	-607
▁Ver	-608
loo	-609
▁Van	-610
▁ar	-611
The	-612
It	-613
io	-614
▁steeds	-615
▁我们	-616
{2}}	-617
ger	-618
ec	-619
out	-620
geb	-621
▁10	-622
up	-623
ted	-624
door	-625
maal	-626
ank	-627
.$$	-628
enn	-629
ink	-630
gh	-631
ness	-632
aanse	-633
We	-634
app	-635
ally	-636
ib	-637
因此	-638
上的	-639
▁下	-640
▁kn	-641
▁嗯嗯	-642
ated	-643
不会	-644
▁Na	-645
les	-646
▁Zo	-647
oem	-648
▁Wel	-649
iz	-650
不知	-651
veel	-652
▁Ar	-653
wel	-654
ft	-655
And	-656
ied	-657
ance	-658
voorbeeld	-659
nt	-660
{2}	-661
=\	-662
mm	-663
1.	-664
4.	-665
die	-666
{{{	-667
▁x	-668
看到	-669
act	-670
▁去	-671
ily	-672
▁9	-673
▁Wil	-674
▁来	-675
ens	-676
ese	-677
ark	-678
▁Jo	-679
eel	-680
ao	-681
ins	-682
▁Dan	-683
eef	-684
ina	-685
ict	-686
中的	-687
ruik	-688
▁ad	-689
▁故	-690
zet	-691
▁它	-692
Yes	-693
au	-694
}$$,	-695
oed	-696
▁Frank	-697
▁上	-698
10	-699
ullie	-700
▁beh	-701
样的	-702
走了	-703
Well	-704
▁Schrijf	-705
less	-706
▁la	-707
▁呀	-708
No	-709
landse	-710
co	-711
waar	-712
▁As	-713
",	-714
▁II	-715
▁When	-716
pro	-717
by	-718
ice	-719
▁Met	-720
▁If	-721
▁Duit	-722
▁imp	-723
pla	-724
rik	-725
▁就是	-726
dam	-727
▁res	-728
ire	-729
▁This	-730
age	-731
{}$$	-732
but	-733
▁ligt	-734
▁Die	-735
▁Beeld	-736
不好	-737
▁是啊	-738
ris	-739
rist	-740
ves	-741
nie	-742
Uh	-743
no	-744
ram	-745
kijk	-746
oren	-747
elijke	-748
ret	-749
▁Am	-750
▁[	-751
▁Miss	-752
elt	-753
one	-754
▁Now	-755
ach	-756
▁ie	-757
tre	-758
2.	-759
▁On	-760
ious	-761
▁Geef	-762
50	-763
▁Ro	-764
bur	-765
ass	-766
ts	-767
▁Waar	-768
ef	-769
▁0	-770
But	-771
old	-772
▁Om	-773
▁给	-774
oot	-775
und	-776
▁Europ	-777
eter	-778
▁Bel	-779
ids	-780
▁bijvoorbeeld	-781
ld	-782
▁Har	-783
tain	-784
ief	-785
▁Jack	-786
▁vast	-787
▁Tom	-788
▁pre	-789
ustr	-790
▁At	-791
als	-792
ions	-793
ook	-794
ans	-795
▁Ind	-796
pp	-797
ress	-798
wij	-799
idd	-800
igen	-801
nou	-802
▁Do	-803
ary	-804
▁Ha	-805
▁Sh	-806
ium	-807
▁Ben	-808
ny	-809
▁oh	-810
Yeah	-811
▁TH	-812
4)	-813
ise	-814
▁jullie	-815
ph	-816
alen	-817
看看	-818
2)	-819
iek	-820
30	-821
ede	-822
▁Bob	-823
ect	-824
▁em	-825
下来	-826
ue	-827
huh	-828
ont	-829
▁把	-830
What	-831
uss	-832
pl	-833
▁qu	-834
ns	-835
▁15	-836
3.	-837
gro	-838
好的	-839
cy	-840
ile	-841
air	-842
▁Goo	-843
}_{	-844
wa	-845
▁Jan	-846
▁&	-847
sk	-848
chten	-849
▁没	-850
po	-851
▁Vol	-852
▁Te	-853
里的	-854
ame	-855
eten	-856
▁ru	-857
ors	-858
为了	-859
kken	-860
bb	-861
-2	-862
▁Amerik	-863
▁hav	-864
▁Gel	-865
lip	-866
▁mij	-867
▁Car	-868
ner	-869
▁ne	-870
za	-871
分之	-872
▁Q	-873
its	-874
do	-875
出了	-876
ijd	-877
▁Joh	-878
ough	-879
▁12	-880
mee	-881
org	-882
ult	-883
▁Re	-884
use	-885
That	-886
ets	-887
log	-888
wor	-889
▁199	-890
erv	-891
▁THE	-892
igde	-893
}\	-894
▁Ste	-895
ui	-896
▁ab	-897
进行	-898
▁16	-899
▁Me	-900
▁Door	-901
wo	-902
▁妈妈	-903
▁Leg	-904
da	-905
▁Un	-906
ha	-907
$${	-908
}^{2}}	-909
gens	-910
ade	-911
我就	-912
▁el	-913
$$1	-914
baar	-915
rat	-916
▁Lu	-917
oog	-918
看了	-919
bruik	-920
▁哦	-921
ls	-922
▁对啊	-923
uff	-924
▁17	-925
racht	-926
▁都	-927
AND	-928
于是	-929
▁All	-930
▁Erm	-931
▁会	-932
5)	-933
▁isn	-934
AP	-935
amp	-936
▁讲	-937
hou	-938
▁怎么	-939
com	-940
▁Bo	-941
▁Gre	-942
▁Christ	-943
uren	-944
tjes	-945
ial	-946
▁ve	-947
ations	-948
omen	-949
▁toward	-950
rit	-951
▁sn	-952
He	-953
▁吗	-954
▁John	-955
ho	-956
werk	-957
stel	-958
ys	-959
ler	-960
厉害	-961
bouw	-962
▁Pro	-963
oc	-964
我觉得	-965
▁For	-966
▁+	-967
nes	-968
▁Toen	-969
val	-970
hm	-971
1)	-972
▁III	-973
▁Veren	-974
ike	-975
▁ontst	-976
3)	-977
sc	-978
▁Welke	-979
elf	-980
erde	-981
▁Gro	-982
ieren	-983
▁Engel	-984
40	-985
去了	-986
▁1.	-987
way	-988
rin	-989
不要	-990
mb	-991
▁Her	-992
net	-993
▁很	-994
▁Twe	-995
▁li	-996
告诉	-997
ped	-998
▁Lees	-999
let	-1000
▁Sam	-1001
▁再	-1002
▁lo	-1003
▁Brit	-1004
ident	-1005
▁God	-1006
▁rem	-1007
aren	-1008
▁Don	-1009
▁Comm	-1010
oun	-1011
lem	-1012
ps	-1013
▁Par	-1014
▁comp	-1015
▁inst	-1016
▁Eng	-1017
ON	-1018
$${{	-1019
vis	-1020
rom	-1021
ned	-1022
▁ob	-1023
7)	-1024
{\	-1025
day	-1026
ugh	-1027
ake	-1028
▁Meer	-1029
schap	-1030
▁Of	-1031
IE	-1032
▁吧	-1033
会儿	-1034
oss	-1035
kk	-1036
lex	-1037
▁mo	-1038
▁Rob	-1039
aard	-1040
.000	-1041
▁Joe	-1042
lij	-1043
arm	-1044
br	-1045
ross	-1046
▁Pa	-1047
18	-1048
▁ple	-1049
amer	-1050
▁Duits	-1051
过来	-1052
▁New	-1053
▁inter	-1054
意思	-1055
iteit	-1056
ix	-1057
ern	-1058
$$.	-1059
▁Gebruik	-1060
▁School	-1061
▁tra	-1062
60	-1063
sta	-1064
▁拿	-1065
▁conf	-1066
ca	-1067
isme	-1068
▁ha	-1069
▁sk	-1070
burg	-1071
onna	-1072
ei	-1073
▁所以	-1074
bla	-1075
样子	-1076
▁rel	-1077
GR	-1078
▁cos	-1079
ley	-1080
rim	-1081
iel	-1082
▁Sc	-1083
19	-1084
De	-1085
▁How	-1086
好了	-1087
wh	-1088
{3	-1089
▁没有	-1090
突然	-1091
uck	-1092
igd	-1093
mie	-1094
hrm	-1095
出现	-1096
来的	-1097
EL	-1098
▁想	-1099
woord	-1100
bank	-1101
▁里	-1102
orn	-1103
6)	-1104
low	-1105
▁/	-1106
PO	-1107
真是	-1108
ekst	-1109
uz	-1110
▁Ph	-1111
▁Can	-1112
ennis	-1113
哪里	-1114
ube	-1115
▁Wer	-1116
vel	-1117
bel	-1118
▁可以	-1119
gave	-1120
ats	-1121
ijs	-1122
ory	-1123
ald	-1124
ract	-1125
boek	-1126
▁His	-1127
▁gonna	-1128
▁CH	-1129
}{{{	-1130
▁着	-1131
▁West	-1132
GRAND	-1133
▁Tekst	-1134
not	-1135
▁che	-1136
ama	-1137
urs	-1138
就会	-1139
▁Jim	-1140
TER	-1141
▁Lo	-1142
▁El	-1143
bed	-1144
ree	-1145
mit	-1146
--------	-1147
▁rec	-1148
edia	-1149
llustr	-1150
ellen	-1151
▁Zij	-1152
yy	-1153
▁Zijn	-1154
▁202	-1155
▁able	-1156
ara	-1157
15	-1158
ars	-1159
▁cons	-1160
它的	-1161
ba	-1162
▁Bet	-1163
huis	-1164
▁gewe	-1165
▁One	-1166
lan	-1167
tar	-1168
ces	-1169
tle	-1170
▁Belg	-1171
ham	-1172
oon	-1173
▁Staten	-1174
▁vis	-1175
▁Ger	-1176
atter	-1177
het	-1178
cl	-1179
regen	-1180
▁Noord	-1181
"。	-1182
iden	-1183
ork	-1184
aut	-1185
▁知	-1186
▁among	-1187
▁Per	-1188
▁Daarna	-1189
我是	-1190
▁YouT	-1191
lak	-1192
you	-1193
12	-1194
ussen	-1195
ept	-1196
咱们	-1197
$$2	-1198
▁sw	-1199
olog	-1200
谢谢	-1201
▁$\	-1202
▁Bon	-1203
▁Pol	-1204
ced	-1205
gy	-1206
▁wh	-1207
能够	-1208
上了	-1209
ijden	-1210
XX	-1211
midd	-1212
dit	-1213
▁NPO	-1214
▁Wi	-1215
En	-1216
rab	-1217
ched	-1218
ereken	-1219
99	-1220
aart	-1221
|$$\	-1222
▁YouTube	-1223
给我	-1224
ges	-1225
for	-1226
tv	-1227
▁fl	-1228
▁whe	-1229
▁Mo	-1230
ular	-1231
▁pl	-1232
▁Cap	-1233
room	-1234
houd	-1235
▁Verenigde	-1236
tie	-1237
70	-1238
▁across	-1239
rand	-1240
..."	-1241
▁Con	-1242
con	-1243
▁ri	-1244
▁Nor	-1245
正在	-1246
▁By	-1247
▁di	-1248
▁Span	-1249
off	-1250
ved	-1251
▁198	-1252
▁ges	-1253
▁rep	-1254
+\	-1255
都不	-1256
ail	-1257
▁bu	-1258
▁14	-1259
▁Veel	-1260
▁Aan	-1261
▁sub	-1262
open	-1263
lish	-1264
▁喔	-1265
selves	-1266
▁Bar	-1267
ush	-1268
▁Wiki	-1269
▁Clip	-1270
son	-1271
▁ind	-1272
oop	-1273
▁Oost	-1274
rid	-1275
las	-1276
Kids	-1277
oof	-1278
lands	-1279
▁Afbeeld	-1280
tin	-1281
▁爸爸	-1282
akt	-1283
dia	-1284
▁WikiKids	-1285
▁13	-1286
▁liggen	-1287
dot	-1288
{1}	-1289
ple	-1290
之间	-1291
ipedia	-1292
oen	-1293
▁Amerikaanse	-1294
▁Den	-1295
Dat	-1296
Wat	-1297
▁Wikipedia	-1298
▁Let	-1299
ica	-1300
▁如	-1301
nem	-1302
▁11	-1303
▁Tweede	-1304
gaan	-1305
appen	-1306
}}_	-1307
▁Geluid	-1308
▁Kennis	-1309
▁Zuid	-1310
68	-1311
看着	-1312
rag	-1313
fully	-1314
▁Ed	-1315
III	-1316
▁Commons	-1317
cle	-1318
rift	-1319
maar	-1320
▁IV	-1321
her	-1322
dy	-1323
ical	-1324
▁Kon	-1325
▁opge	-1326
elde	-1327
illy	-1328
▁好的	-1329
▁co	-1330
▁geweest	-1331
▁Or	-1332
IJ	-1333
bor	-1334
ific	-1335
▁Schooltv	-1336
▁Uit	-1337
不到	-1338
▁bev	-1339
gra	-1340
ught	-1341
ound	-1342
▁Clipjes	-1343
▁Qu	-1344
▁Beeldbank	-1345
ried	-1346
0.	-1347
▁2.	-1348
是不是	-1349
ction	-1350
▁pol	-1351
met	-1352
,--	-1353
▁My	-1354
▁Maak	-1355
ude	-1356
▁Frankrijk	-1357
▁Man	-1358
▁啦	-1359
'.	-1360
出去	-1361
▁Phil	-1362
get	-1363
▁Paul	-1364
▁roept	-1365
是在	-1366
▁Rome	-1367
ild	-1368
lor	-1369
▁ə	-1370
moet	-1371
oorlog	-1372
bod	-1373
bu	-1374
▁Se	-1375
eid	-1376
▁La	-1377
APTER	-1378
ured	-1379
▁besch	-1380
zien	-1381
',	-1382
allen	-1383
▁Nie	-1384
我们的	-1385
ford	-1386
真的是	-1387
▁inc	-1388
oos	-1389
pos	-1390
来到	-1391
▁acc	-1392
▁Col	-1393
Illustr	-1394
16	-1395
uf	-1396
▁aard	-1397
-9	-1398
{1}{	-1399
head	-1400
▁Bereken	-1401
hij	-1402
▁$${	-1403
▁da	-1404
▁du	-1405
有的	-1406
▁CHAPTER	-1407
Het	-1408
bre	-1409
lei	-1410
▁Ital	-1411
vin	-1412
stand	-1413
▁1,	-1414
hier	-1415
}=	-1416
我要	-1417
Illustration	-1418
▁Duitsland	-1419
wijk	-1420
▁Tur	-1421
▁Alle	-1422
▁可	-1423
▁wij	-1424
或者	-1425
water	-1426
▁Europa	-1427
▁sur	-1428
▁Gra	-1429
lf	-1430
rown	-1431
▁dicht	-1432
55	-1433
}$$.	-1434
▁Bla	-1435
▁Some	-1436
▁int	-1437
gr	-1438
sl	-1439
tarrow	-1440
认为	-1441
越来	-1442
14	-1443
ister	-1444
▁Zw	-1445
▁Eer	-1446
weg	-1447
▁Volgens	-1448
stra	-1449
越来越	-1450
ient	-1451
起了	-1452
sterdam	-1453
▁Char	-1454
▁又	-1455
yn	-1456
▁Hol	-1457
▁Ad	-1458
▁eh	-1459
▁vo	-1460
▁(9	-1461
-10	-1462
继续	-1463
具有	-1464
cc	-1465
▁Europese	-1466
aps	-1467
ng	-1468
其中	-1469
ney	-1470
va	-1471
ung	-1472
才能	-1473
zie	-1474
是个	-1475
isten	-1476
ash	-1477
▁reg	-1478
ator	-1479
想到	-1480
sn	-1481
▁放	-1482
▁comm	-1483
so	-1484
lock	-1485
oms	-1486
▁Why	-1487
▁Kar	-1488
daar	-1489
mon	-1490
ulp	-1491
uh	-1492
▁Just	-1493
kay	-1494
--"	-1495
$$,$$	-1496
▁30	-1497
▁ontstaan	-1498
ities	-1499
dra	-1500
▁DE	-1501
rouw	-1502
▁25	-1503
ijdens	-1504
过了	-1505
▁mon	-1506
▁(10	-1507
Why	-1508
GRANDMOTHER	-1509
aint	-1510
itie	-1511
enten	-1512
▁Amsterdam	-1513
There	-1514
▁sm	-1515
25	-1516
同时	-1517
sin	-1518
ould	-1519
ater	-1520
▁Wereld	-1521
ries	-1522
-8	-1523
毕竟	-1524
▁mer	-1525
▁Tijdens	-1526
}$	-1527
▁100	-1528
▁是的	-1529
lect	-1530
▁Captain	-1531
ille	-1532
8)	-1533
ished	-1534
oemen	-1535
-\	-1536
ni	-1537
▁inf	-1538
▁Not	-1539
haal	-1540
▁plek	-1541
了吗	-1542
stuk	-1543
orrow	-1544
bare	-1545
ey	-1546
dan	-1547
由于	-1548
▁cur	-1549
▁做	-1550
不了	-1551
bra	-1552
▁Waarom	-1553
▁跟	-1554
▁English	-1555
▁Tim	-1556
▁Nu	-1557
▁Bra	-1558
mar	-1559
3$$	-1560
gest	-1561
▁Alex	-1562
tra	-1563
▁3.	-1564
mi	-1565
gan	-1566
9)	-1567
▁bo	-1568
先走了	-1569
ES	-1570
Ja	-1571
gie	-1572
test	-1573
ruct	-1574
▁tri	-1575
ition	-1576
dru	-1577
▁Harry	-1578
是什么	-1579
duct	-1580
记得	-1581
ence	-1582
ose	-1583
▁ref	-1584
都有	-1585
att	-1586
BL	-1587
gels	-1588
▁掉	-1589
▁ged	-1590
▁Hierdoor	-1591
bert	-1592
▁Men	-1593
ments	-1594
。""	-1595
▁Euro	-1596
▁bre	-1597
yl	-1598
▁gest	-1599
▁Opgave	-1600
▁Dav	-1601
ijnen	-1602
lic	-1603
icular	-1604
pr	-1605
ain	-1606
▁Cl	-1607
aw	-1608
▁Wal	-1609
erm	-1610
abel	-1611
''	-1612
是我	-1613
▁cre	-1614
▁ought	-1615
eerd	-1616
bro	-1617
So	-1618
▁Ex	-1619
▁而	-1620
是不	-1621
90	-1622
▁Daarom	-1623
rench	-1624
urd	-1625
komen	-1626
以为	-1627
▁York	-1628
ikt	-1629
UN	-1630
▁Peter	-1631
▁Betty	-1632
▁tre	-1633
pi	-1634
▁After	-1635
dien	-1636
▁Ga	-1637
有什么	-1638
看的	-1639
▁|	-1640
▁Noem	-1641
▁ba	-1642
▁{	-1643
loop	-1644
ekt	-1645
lim	-1646
▁bl	-1647
sla	-1648
▁用	-1649
不得	-1650
lfde	-1651
my	-1652
They	-1653
If	-1654
▁haal	-1655
oep	-1656
stof	-1657
▁dre	-1658
ement	-1659
是很	-1660
vorm	-1661
▁hor	-1662
都会	-1663
正确的是	-1664
▁gebe	-1665
▁Nat	-1666
rt	-1667
作为	-1668
ible	-1669
pan	-1670
AL	-1671
▁197	-1672
kle	-1673
▁Ah	-1674
par	-1675
身边	-1676
goed	-1677
▁Mag	-1678
有个	-1679
ban	-1680
hei	-1681
illa	-1682
dag	-1683
▁194	-1684
▁tro	-1685
hal	-1686
ikk	-1687
▁Go	-1688
min	-1689
不对	-1690
rel	-1691
._	-1692
orge	-1693
pers	-1694
▁Ber	-1695
▁Willem	-1696
27	-1697
▁完	-1698
了吧	-1699
ije	-1700
▁(8	-1701
ën	-1702
▁?	-1703
▁Toch	-1704
导致	-1705
ew	-1706
▁Russ	-1707
ded	-1708
的事	-1709
▁bes	-1710
ric	-1711
ones	-1712
lue	-1713
进了	-1714
▁stra	-1715
▁Mary	-1716
考查	-1717
▁zodat	-1718
ield	-1719
sy	-1720
issch	-1721
5$$	-1722
anc	-1723
etje	-1724
▁kw	-1725
oten	-1726
4$$	-1727
▁{{	-1728
身上	-1729
ery	-1730
ANK	-1731
▁Jap	-1732
IS	-1733
ates	-1734
▁sche	-1735
body	-1736
▁Inhoud	-1737
ID	-1738
gev	-1739
tu	-1740
看过	-1741
▁Grie	-1742
ko	-1743
▁0,	-1744
▁嗨	-1745
▁Gu	-1746
▁Will	-1747
▁ins	-1748
▁Zet	-1749
worden	-1750
▁Billy	-1751
ony	-1752
▁België	-1753
gs	-1754
17	-1755
lot	-1756
gar	-1757
几个	-1758
住了	-1759
▁能	-1760
tered	-1761
anda	-1762
ye	-1763
是有	-1764
ase	-1765
was	-1766
▁bla	-1767
▁Kijk	-1768
nam	-1769
我不	-1770
pect	-1771
own	-1772
▁tr	-1773
los	-1774
bal	-1775
Now	-1776
ieden	-1777
==	-1778
以及	-1779
题意	-1780
▁Franse	-1781
  	-1782
uwen	-1783
▁Bun	-1784
gor	-1785
-4	-1786
=2	-1787
ilm	-1788
ING	-1789
ola	-1790
How	-1791
▁50	-1792
how	-1793
oeg	-1794
ds	-1795
IT	-1796
▁过	-1797
.$$\	-1798
wit	-1799
kte	-1800
可知	-1801
ably	-1802
rif	-1803
地上	-1804
▁得	-1805
▁remark	-1806
▁geworden	-1807
blad	-1808
▁Aunt	-1809
11	-1810
ship	-1811
ently	-1812
▁"'	-1813
entie	-1814
rd	-1815
认识	-1816
▁sy	-1817
ift	-1818
inds	-1819
▁Pr	-1820
ED	-1821
36	-1822
uil	-1823
olf	-1824
kie	-1825
geven	-1826
▁French	-1827
▁是不是	-1828
innen	-1829
▁Ra	-1830
ign	-1831
▁VI	-1832
▁mm	-1833
▁Duitse	-1834
下了	-1835
Do	-1836
▁Wie	-1837
▁stro	-1838
}_{1	-1839
mag	-1840
rip	-1841
▁sal	-1842
recht	-1843
quir	-1844
我想	-1845
▁Co	-1846
▁towards	-1847
essie	-1848
在看	-1849
otter	-1850
▁ni	-1851
hoog	-1852
Je	-1853
ave	-1854
RO	-1855
iff	-1856
分别	-1857
▁Okay	-1858
出的	-1859
aars	-1860
▁对呀	-1861
ray	-1862
▁Lin	-1863
进入	-1864
就在	-1865
▁ger	-1866
▁Mhm	-1867
tern	-1868
.)	-1869
uis	-1870
4-1	-1871
deel	-1872
umb	-1873
就不	-1874
stead	-1875
én	-1876
+1	-1877
▁shi	-1878
lijke	-1879
▁Mad	-1880
berg	-1881
heden	-1882
hoe	-1883
cause	-1884
leg	-1885
BLANK	-1886
▁Ja	-1887
▁Rep	-1888
▁tran	-1889
▁Part	-1890
▁Wereldoorlog	-1891
raag	-1892
que	-1893
gebied	-1894
▁happen	-1895
▁Com	-1896
▁Cle	-1897
cept	-1898
nog	-1899
▁边	-1900
fore	-1901
like	-1902
▁Niet	-1903
pa	-1904
▁Jul	-1905
enty	-1906
IST	-1907
▁AN	-1908
定要	-1909
ENT	-1910
pak	-1911
ruis	-1912
▁Ho	-1913
pel	-1914
▁(2	-1915
ett	-1916
part	-1917
▁Did	-1918
str	-1919
kker	-1920
go	-1921
reek	-1922
▁Where	-1923
▁China	-1924
usland	-1925
52	-1926
ijf	-1927
坐在	-1928
▁24	-1929
oort	-1930
oorden	-1931
gelopen	-1932
我看	-1933
下的	-1934
Maar	-1935
▁Ke	-1936
wed	-1937
消息	-1938
▁conc	-1939
13	-1940
▁Here	-1941
gang	-1942
▁Somm	-1943
tr	-1944
BA	-1945
punt	-1946
ax	-1947
不起	-1948
-3	-1949
▁hy	-1950
enen	-1951
nis	-1952
gu	-1953
fe	-1954
对于	-1955
▁cra	-1956
▁Haar	-1957
▁tw	-1958
▁Japan	-1959
▁gesch	-1960
oel	-1961
▁Kamer	-1962
的好	-1963
eek	-1964
都在	-1965
上去	-1966
cos	-1967
In	-1968
▁Jam	-1969
▁behulp	-1970
▁cor	-1971
ull	-1972
ieve	-1973
}=\	-1974
▁Mijn	-1975
ogra	-1976
niet	-1977
▁Hel	-1978
▁IN	-1979
▁走	-1980
▁Europe	-1981
▁Bur	-1982
正确的	-1983
orry	-1984
▁Mer	-1985
▁XI	-1986
▁4.	-1987
?""	-1988
▁um	-1989
rum	-1990
ited	-1991
well	-1992
▁commun	-1993
aak	-1994
▁Blue	-1995
_,	-1996
zij	-1997
67	-1998
ox	-1999
放在	-2000
▁Su	-2001
gaat	-2002
stad	-2003
▁har	-2004
".	-2005
▁Kies	-2006
▁German	-2007
even	-2008
aans	-2009
▁我是	-2010
▁Brown	-2011
了起来	-2012
onen	-2013
vi	-2014
进去	-2015
▁Uncle	-2016
▁George	-2017
▁Ter	-2018
ered	-2019
▁(19	-2020
board	-2021
zicht	-2022
_{	-2023
▁Ab	-2024
tijd	-2025
BC	-2026
rijs	-2027
▁Black	-2028
▁Welk	-2029
▁ant	-2030
}_{1}}	-2031
aur	-2032
是否	-2033
eken	-2034
edict	-2035
naal	-2036
2$$	-2037
ullen	-2038
▁!	-2039
ser	-2040
▁David	-2041
$,	-2042
yed	-2043
jo	-2044
ump	-2045
plo	-2046
好好	-2047
▁Pat	-2048
}^{	-2049
下去	-2050
Then	-2051
▁Mich	-2052
子的	-2053
80	-2054
oeken	-2055
64	-2056
OM	-2057
不行	-2058
定是	-2059
ches	-2060
▁Mon	-2061
cel	-2062
▁Lord	-2063
▁Lou	-2064
定的	-2065
reet	-2066
=1	-2067
ceed	-2068
NA	-2069
ute	-2070
olly	-2071
旁边	-2072
aa	-2073
▁temp	-2074
raal	-2075
bron	-2076
wege	-2077
▁我觉得	-2078
▁哪	-2079
▁se	-2080
mas	-2081
iger	-2082
zer	-2083
ants	-2084
slag	-2085
rijd	-2086
.①	-2087
▁Ie	-2088
▁Nieuw	-2089
▁的时候	-2090
▁Benedict	-2091
做的	-2092
komst	-2093
izen	-2094
ately	-2095
有了	-2096
laas	-2097
ener	-2098
▁Bobby	-2099
要是	-2100
AK	-2101
isschien	-2102
▁Dis	-2103
就要	-2104
elden	-2105
istische	-2106
stal	-2107
▁Mil	-2108
sche	-2109
yyy	-2110
我国	-2111
1-1	-2112
▁es	-2113
▁Cal	-2114
leid	-2115
▁Lit	-2116
ann	-2117
▁Bekijk	-2118
▁May	-2119
maat	-2120
▁Dor	-2121
col	-2122
▁Even	-2123
haps	-2124
几天	-2125
来看	-2126
▁天	-2127
auto	-2128
tal	-2129
)$$	-2130
▁起来	-2131
▁noemen	-2132
aties	-2133
▁Spanje	-2134
houden	-2135
▁Bunny	-2136
!""	-2137
▁Benedictus	-2138
▁zowel	-2139
24	-2140
▁var	-2141
port	-2142
eerde	-2143
ope	-2144
▁Kle	-2145
rant	-2146
jour	-2147
受到	-2148
ummer	-2149
OO	-2150
▁sl	-2151
▁pr	-2152
mens	-2153
jar	-2154
▁zu	-2155
刚才	-2156
▁Zie	-2157
unten	-2158
rika	-2159
bar	-2160
gelijk	-2161
▁Omdat	-2162
ils	-2163
▁Rusland	-2164
▁Ros	-2165
▁OF	-2166
▁Bart	-2167
▁哎	-2168
▁21	-2169
lies	-2170
我都	-2171
inn	-2172
ugd	-2173
▁fe	-2174
▁sus	-2175
▁找	-2176
▁poss	-2177
amen	-2178
▁ST	-2179
不仅	-2180
的啊	-2181
ole	-2182
▁Ken	-2183
epen	-2184
▁Port	-2185
▁kregen	-2186
▁Sommige	-2187
clock	-2188
▁Ki	-2189
+2	-2190
UR	-2191
▁Gregor	-2192
▁cl	-2193
75	-2194
有没有	-2195
Is	-2196
▁哪里	-2197
▁Engeland	-2198
wil	-2199
▁Bill	-2200
genwoord	-2201
ene	-2202
▁叫	-2203
gesch	-2204
▁Min	-2205
每次	-2206
uld	-2207
schijn	-2208
uwe	-2209
48	-2210
My	-2211
▁Oosten	-2212
3-1	-2213
ives	-2214
ieke	-2215
▁Americ	-2216
vang	-2217
toen	-2218
65	-2219
AAR	-2220
Don	-2221
▁Coun	-2222
mak	-2223
kel	-2224
-5	-2225
用的	-2226
▁Karel	-2227
staa	-2228
▁Tot	-2229
▁prof	-2230
kw	-2231
▁Hoeveel	-2232
▁Dick	-2233
28	-2234
忽然	-2235
oint	-2236
zit	-2237
▁40	-2238
▁2,	-2239
▁(18	-2240
uiten	-2241
fect	-2242
rn	-2243
jaar	-2244
kn	-2245
▁Repub	-2246
ams	-2247
▁ut	-2248
▁Dum	-2249
就可以	-2250
▁zoveel	-2251
▁scar	-2252
ci	-2253
定会	-2254
lam	-2255
ka	-2256
▁不是	-2257
▁Anne	-2258
▁lu	-2259
^{2}	-2260
She	-2261
----------------	-2262
ule	-2263
▁Rijk	-2264
ott	-2265
ratie	-2266
▁bi	-2267
ility	-2268
愿意	-2269
▁Gregorius	-2270
ouse	-2271
▁可是	-2272
▁Bert	-2273
▁Daarnaast	-2274
ened	-2275
ico	-2276
▁Jer	-2277
cer	-2278
▁Sy	-2279
oost	-2280
▁Fre	-2281
ages	-2282
ution	-2283
▁Sue	-2284
LE	-2285
riv	-2286
接着	-2287
kl	-2288
ffen	-2289
▁Hal	-2290
ww	-2291
刚刚	-2292
+{{	-2293
cip	-2294
▁Mal	-2295
▁stru	-2296
▁Wan	-2297
IF	-2298
weer	-2299
▁rap	-2300
▁cru	-2301
ijl	-2302
▁Alexa	-2303
voer	-2304
保持	-2305
▁23	-2306
▁Good	-2307
力的	-2308
chter	-2309
vident	-2310
▁instead	-2311
▁真	-2312
别的	-2313
~~	-2314
del	-2315
怎么样	-2316
spel	-2317
rument	-2318
az	-2319
ane	-2320
}_{2}}	-2321
Nee	-2322
有很	-2323
▁organ	-2324
完了	-2325
lay	-2326
题考查	-2327
gezien	-2328
ips	-2329
zorg	-2330
▁protest	-2331
▁Luc	-2332
▁Em	-2333
gram	-2334
整个	-2335
▁Fred	-2336
▁vlak	-2337
▁Konink	-2338
▁出来	-2339
▁ontstaat	-2340
▁22	-2341
▁Egy	-2342
Ne	-2343
▁kra	-2344
▁kl	-2345
schapp	-2346
ative	-2347
随着	-2348
achter	-2349
▁Oostenrijk	-2350
▁是呀	-2351
uin	-2352
inse	-2353
dle	-2354
ISTER	-2355
▁ble	-2356
groep	-2357
lok	-2358
▁ret	-2359
都没有	-2360
▁juf	-2361
▁Bro	-2362
$$(	-2363
▁pla	-2364
...'	-2365
▁ye	-2366
journaal	-2367
▁Who	-2368
▁gebouw	-2369
▁hur	-2370
▁shut	-2371
▁Sinds	-2372
▁Sim	-2373
heb	-2374
▁Val	-2375
▁).	-2376
▁①	-2377
mama	-2378
sm	-2379
▁快	-2380
▁Leo	-2381
▁\\	-2382
▁sol	-2383
▁XV	-2384
▁(15	-2385
haald	-2386
rlei	-2387
▁Soms	-2388
▁先	-2389
45	-2390
ically	-2391
une	-2392
reven	-2393
EE	-2394
maken	-2395
▁Christmas	-2396
organ	-2397
▁Fl	-2398
volg	-2399
ady	-2400
oom	-2401
()	-2402
▁br	-2403
Amer	-2404
来是	-2405
▁孩	-2406
xt	-2407
heen	-2408
maakt	-2409
dom	-2410
▁5.	-2411
支持	-2412
▁好不好	-2413
▁看看	-2414
bak	-2415
▁Come	-2416
66	-2417
▁②	-2418
med	-2419
tor	-2420
fin	-2421
▁Lee	-2422
了个	-2423
aster	-2424
▁pe	-2425
▁pit	-2426
oofd	-2427
▁Eerste	-2428
hol	-2429
enk	-2430
▁ban	-2431
atur	-2432
▁occ	-2433
他是	-2434
erk	-2435
▁Cor	-2436
▁prop	-2437
▁Are	-2438
▁有没有	-2439
lig	-2440
Een	-2441
把它	-2442
▁cont	-2443
)=	-2444
▁Bonnet	-2445
▁kost	-2446
deze	-2447
▁Was	-2448
▁VIII	-2449
lad	-2450
orst	-2451
nor	-2452
▁England	-2453
了好	-2454
hee	-2455
▁Ru	-2456
ror	-2457
fort	-2458
▁Jeugd	-2459
licht	-2460
▁Have	-2461
lijn	-2462
inter	-2463
fer	-2464
的样子	-2465
AC	-2466
rust	-2467
AM	-2468
▁insp	-2469
plaats	-2470
桌子	-2471
▁28	-2472
SISTER	-2473
komt	-2474
▁mut	-2475
▁Frans	-2476
hel	-2477
▁vi	-2478
zelf	-2479
他就	-2480
▁Goos	-2481
不用	-2482
meer	-2483
▁195	-2484
合题意	-2485
kend	-2486
zuur	-2487
▁suff	-2488
▁Cos	-2489
ino	-2490
rek	-2491
▁km	-2492
eme	-2493
▁regard	-2494
▁Bessie	-2495
▁193	-2496
BR	-2497
▁27	-2498
▁sum	-2499
ikke	-2500
都很	-2501
:$$	-2502
了很	-2503
▁War	-2504
▁呃	-2505
zak	-2506
▁ed	-2507
▁Turk	-2508
我去	-2509
jij	-2510
给他	-2511
.(	-2512
ket	-2513
不可	-2514
jet	-2515
liek	-2516
llen	-2517
aire	-2518
▁Robert	-2519
▁Stan	-2520
▁Sou	-2521
▁leid	-2522
nest	-2523
zi	-2524
▁VII	-2525
imp	-2526
zetten	-2527
▁Clemens	-2528
遇到	-2529
orgen	-2530
29	-2531
▁Sir	-2532
isted	-2533
bie	-2534
▁zwe	-2535
▁ahead	-2536
▁evident	-2537
inus	-2538
delen	-2539
▁sav	-2540
▁noem	-2541
1,	-2542
▁Sal	-2543
cou	-2544
ila	-2545
rijven	-2546
arts	-2547
All	-2548
不住	-2549
都要	-2550
▁€	-2551
iets	-2552
atuur	-2553
▁Arab	-2554
他在	-2555
AS	-2556
▁Grote	-2557
▁Hiero	-2558
22	-2559
zed	-2560
}}$$	-2561
nel	-2562
▁中	-2563
ov	-2564
不想	-2565
zoek	-2566
▁Les	-2567
▁med	-2568
▁Pl	-2569
side	-2570
lied	-2571
▁cheer	-2572
我在	-2573
$$、	-2574
▁为	-2575
▁gev	-2576
不然	-2577
tel	-2578
vent	-2579
▁schil	-2580
▁gel	-2581
▁∴	-2582
ira	-2583
egd	-2584
uist	-2585
oes	-2586
ente	-2587
▁India	-2588
▁ya	-2589
跟着	-2590
▁cal	-2591
otterdam	-2592
ism	-2593
▁zang	-2594
zaam	-2595
▁Dummie	-2596
▁26	-2597
▁imm	-2598
▁Fe	-2599
wegen	-2600
uc	-2601
iën	-2602
ete	-2603
▁IJ	-2604
▁These	-2605
fen	-2606
▁Hun	-2607
▁mus	-2608
lymp	-2609
▁shu	-2610
OU	-2611
note	-2612
去看	-2613
eh	-2614
因素	-2615
ously	-2616
▁Sar	-2617
▁Pres	-2618
▁IX	-2619
ison	-2620
qi	-2621
richt	-2622
▁Rotterdam	-2623
pap	-2624
▁hum	-2625
得很	-2626
▁elekt	-2627
看来	-2628
mond	-2629
omas	-2630
就能	-2631
▁gro	-2632
bs	-2633
▁dr	-2634
▁Ag	-2635
rupt	-2636
▁Mos	-2637
▁bra	-2638
genwoordig	-2639
,$$	-2640
▁Maggie	-2641
会有	-2642
ked	-2643
eert	-2644
▁kool	-2645
aden	-2646
jarige	-2647
bl	-2648
▁Ser	-2649
ters	-2650
▁kol	-2651
▁哈	-2652
ooi	-2653
▁AND	-2654
school	-2655
ics	-2656
▁CO	-2657
ively	-2658
eur	-2659
mis	-2660
form	-2661
给了	-2662
▁bur	-2663
▁Italië	-2664
ession	-2665
ada	-2666
▁(17	-2667
▁Sov	-2668
5-1	-2669
irst	-2670
house	-2671
▁flu	-2672
▁Inno	-2673
ctor	-2674
iled	-2675
▁Rich	-2676
kens	-2677
疫情	-2678
orie	-2679
▁Red	-2680
▁Hoewel	-2681
▁IK	-2682
raï	-2683
妈妈的	-2684
cies	-2685
▁Mc	-2686
▁Net	-2687
clus	-2688
_2	-2689
ootnote	-2690
ws	-2691
▁Mex	-2692
就把	-2693
ual	-2694
doen	-2695
▁(5	-2696
▁Two	-2697
▁grie	-2698
▁gep	-2699
▁Willi	-2700
rijden	-2701
aam	-2702
rug	-2703
eep	-2704
▁Ca	-2705
▁pra	-2706
之间的	-2707
▁③	-2708
▁wo	-2709
zel	-2710
mel	-2711
}}^	-2712
nit	-2713
vest	-2714
▁Noor	-2715
trecht	-2716
▁San	-2717
▁Innocent	-2718
▁ph	-2719
▁fin	-2720
kracht	-2721
▁Britse	-2722
▁struck	-2723
▁ho	-2724
▁Mee	-2725
▁2000	-2726
▁Sa	-2727
▁American	-2728
This	-2729
],	-2730
期待	-2731
stre	-2732
ustral	-2733
――	-2734
▁Dr	-2735
▁gem	-2736
们的	-2737
▁Ham	-2738
▁mocht	-2739
▁Innocentius	-2740
是要	-2741
如此	-2742
kop	-2743
ondon	-2744
并不	-2745
6$$	-2746
▁Toon	-2747
是指	-2748
▁Ted	-2749
osten	-2750
在了	-2751
▁Want	-2752
掉了	-2753
ior	-2754
IED	-2755
怎么办	-2756
ku	-2757
▁Ant	-2758
▁Heb	-2759
dieren	-2760
9.	-2761
出来的	-2762
▁:	-2763
1$$	-2764
▁Max	-2765
▁zw	-2766
Hij	-2767
▁Later	-2768
schrift	-2769
演的	-2770
rol	-2771
inkel	-2772
etjes	-2773
ika	-2774
▁yi	-2775
▁Vanaf	-2776
▁Any	-2777
nummer	-2778
Waar	-2779
plaat	-2780
▁omhoog	-2781
Ch	-2782
cis	-2783
ona	-2784
▁dread	-2785
iously	-2786
woorden	-2787
gers	-2788
▁Martin	-2789
▁Li	-2790
▁ur	-2791
▁fre	-2792
ras	-2793
gt	-2794
▁Pas	-2795
▁London	-2796
▁Mark	-2797
zy	-2798
▁IS	-2799
的过	-2800
▁abs	-2801
▁kle	-2802
▁Jane	-2803
inst	-2804
ience	-2805
lopen	-2806
▁Koninkrijk	-2807
▁Tru	-2808
reden	-2809
apt	-2810
▁Kat	-2811
illen	-2812
▁Austral	-2813
baan	-2814
▁id	-2815
ilt	-2816
hoor	-2817
moe	-2818
▁Amerika	-2819
▁Olymp	-2820
过的	-2821
▁AL	-2822
cellen	-2823
cely	-2824
▁Bas	-2825
正好	-2826
▁Mensen	-2827
bour	-2828
▁Stel	-2829
ustom	-2830
没想到	-2831
kelijk	-2832
ïn	-2833
时的	-2834
}}_2	-2835
35	-2836
zijn	-2837
时期	-2838
▁Utrecht	-2839
Not	-2840
-19	-2841
▁accom	-2842
IDENT	-2843
ekraï	-2844
竟然	-2845
我有	-2846
moc	-2847
▁James	-2848
边的	-2849
vens	-2850
ky	-2851
是啊	-2852
▁hu	-2853
不停	-2854
blij	-2855
去找	-2856
▁blo	-2857
哪儿	-2858
▁gal	-2859
▁Grand	-2860
▁ta	-2861
▁由	-2862
▁Fil	-2863
▁gebeurd	-2864
▁Vla	-2865
▁Cent	-2866
pte	-2867
,$$\	-2868
▁Du	-2869
出来了	-2870
2,	-2871
St	-2872
ival	-2873
keur	-2874
IFIED	-2875
lang	-2876
rok	-2877
UNIDENT	-2878
UNIDENTIFIED	-2879
▁adm	-2880
▁gez	-2881
sit	-2882
laat	-2883
真正	-2884
子里	-2885
kiez	-2886
做了	-2887
6.	-2888
▁Laat	-2889
▁British	-2890
zee	-2891
▁EEN	-2892
cuss	-2893
roeg	-2894
▁Kit	-2895
▁Pius	-2896
▁gezet	-2897
ana	-2898
▁Tw	-2899
tig	-2900
▁Zee	-2901
Come	-2902
▁gl	-2903
用于	-2904
▁Fort	-2905
78	-2906
resent	-2907
put	-2908
▁(4	-2909
offen	-2910
veld	-2911
tens	-2912
{1}{2}	-2913
▁弄	-2914
Als	-2915
都没	-2916
▁29	-2917
aad	-2918
war	-2919
▁Vict	-2920
哪个	-2921
▁并	-2922
▁试	-2923
AB	-2924
isf	-2925
▁Little	-2926
▁Sund	-2927
▁Nap	-2928
▁dra	-2929
range	-2930
▁Beden	-2931
IC	-2932
▁别	-2933
▁Parijs	-2934
▁squ	-2935
件事	-2936
Let	-2937
▁Pe	-2938
ula	-2939
▁spec	-2940
▁确	-2941
erij	-2942
▁Oli	-2943
pie	-2944
▁swe	-2945
走到	-2946
▁sle	-2947
好吧	-2948
ari	-2949
▁Bos	-2950
▁。	-2951
的吗	-2952
ace	-2953
▁exc	-2954
vaart	-2955
▁等	-2956
▁remarked	-2957
ël	-2958
wood	-2959
IR	-2960
lai	-2961
下子	-2962
oet	-2963
past	-2964
▁Nation	-2965
amb	-2966
▁("	-2967
▁我的	-2968
▁Eli	-2969
▁坐	-2970
▁60	-2971
ument	-2972
▁Misschien	-2973
▁Pal	-2974
▁strip	-2975
了啊	-2976
我知	-2977
▁Oekraï	-2978
▁fro	-2979
BROTHER	-2980
olen	-2981
gemaakt	-2982
看到了	-2983
kers	-2984
,5	-2985
=0	-2986
yi	-2987
▁EN	-2988
▁真的	-2989
gevo	-2990
hed	-2991
▁Piet	-2992
morrow	-2993
▁fil	-2994
▁被	-2995
tur	-2996
▁Bl	-2997
rang	-2998
mpt	-2999
▁Des	-3000
OL	-3001
了呢	-3002
7.	-3003
里有	-3004
▁Engelse	-3005
达到	-3006
film	-3007
▁Sunday	-3008
hy	-3009
indt	-3010
▁Ur	-3011
▁(13	-3012
;"	-3013
ased	-3014
▁则	-3015
差不	-3016
ral	-3017
▁Hen	-3018
vie	-3019
▁Ann	-3020
▁cr	-3021
wi	-3022
哪些	-3023
▁wol	-3024
ragen	-3025
▁(14	-3026
5.	-3027
top	-3028
ctie	-3029
_.	-3030
 ·	-3031
sse	-3032
mach	-3033
▁From	-3034
▁出	-3035
onnen	-3036
iedenis	-3037
▁Tussen	-3038
好看	-3039
chn	-3040
▁Samen	-3041
staat	-3042
▁Jeugdjournaal	-3043
▁Spe	-3044
nus	-3045
▁Victor	-3046
ified	-3047
▁Jimmie	-3048
urt	-3049
Al	-3050
erie	-3051
rook	-3052
▁Mid	-3053
gramma	-3054
▁Richard	-3055
arch	-3056
teken	-3057
cul	-3058
▁190	-3059
很有	-3060
▁Dus	-3061
ette	-3062
organis	-3063
▁行	-3064
▁Maria	-3065
band	-3066
,0	-3067
▁Gal	-3068
aien	-3069
▁Six	-3070
▁arch	-3071
▁Oor	-3072
▁对不对	-3073
的呢	-3074
▁Lat	-3075
▁Ned	-3076
raak	-3077
▁Alleen	-3078
▁④	-3079
▁Vul	-3080
wijs	-3081
▁Kn	-3082
▁哦哦	-3083
▁emplo	-3084
duce	-3085
▁Wit	-3086
press	-3087
拿着	-3088
都能	-3089
看不	-3090
sters	-3091
▁Bedenk	-3092
hood	-3093
项是	-3094
ouden	-3095
Cl	-3096
pol	-3097
▁Sovjet	-3098
对对	-3099
的不	-3100
weet	-3101
▁Satur	-3102
,[	-3103
▁trans	-3104
gebouw	-3105
▁gr	-3106
merk	-3107
▁Jac	-3108
居然	-3109
▁rapid	-3110
hi	-3111
aura	-3112
跟我	-3113
gre	-3114
▁plenty	-3115
▁Engels	-3116
zu	-3117
▁sup	-3118
▁Bor	-3119
field	-3120
▁cm	-3121
pose	-3122
▁Nan	-3123
62	-3124
▁6.	-3125
▁Tra	-3126
▁Isra	-3127
仔细	-3128
}}=	-3129
▁Twee	-3130
事儿	-3131
▁hao	-3132
AG	-3133
nu	-3134
▁financ	-3135
▁XX	-3136
yp	-3137
▁kru	-3138
▁Joost	-3139
{4	-3140
:20	-3141
▁Mel	-3142
▁Disney	-3143
▁sens	-3144
住在	-3145
park	-3146
Of	-3147
gele	-3148
raad	-3149
下次	-3150
ida	-3151
▁Han	-3152
.,	-3153
Die	-3154
oer	-3155
▁See	-3156
▁procent	-3157
▁Roos	-3158
2-	-3159
ners	-3160
uizen	-3161
▁hurry	-3162
上有	-3163
得了	-3164
▁Che	-3165
▁Gesch	-3166
ides	-3167
▁诶	-3168
mes	-3169
teen	-3170
▁Sil	-3171
staan	-3172
▁bewer	-3173
loed	-3174
""	-3175
▁opv	-3176
们都	-3177
▁Oran	-3178
▁resol	-3179
▁fav	-3180
grond	-3181
zame	-3182
,-	-3183
pop	-3184
▁Gar	-3185
挺好的	-3186
$$1$$	-3187
》,	-3188
}+\	-3189
$$2$$	-3190
▁pun	-3191
▁2010	-3192
alk	-3193
▁Old	-3194
▁gere	-3195
di	-3196
▁Ts	-3197
hoek	-3198
▁reck	-3199
genomen	-3200
7-1	-3201
ject	-3202
▁Rom	-3203
avond	-3204
▁Counc	-3205
是吧	-3206
9-1	-3207
urch	-3208
▁Nic	-3209
▁exam	-3210
到的	-3211
cor	-3212
▁CD	-3213
loos	-3214
▁gar	-3215
▁Prin	-3216
{5	-3217
21	-3218
▁Thomas	-3219
▁grin	-3220
▁Grieken	-3221
ait	-3222
▁Az	-3223
▁amb	-3224
pped	-3225
▁tru	-3226
▁Ten	-3227
ized	-3228
不是很	-3229
ense	-3230
▁据	-3231
bes	-3232
▁Republiek	-3233
OE	-3234
▁2020	-3235
vrouw	-3236
8.	-3237
chte	-3238
itude	-3239
▁Haag	-3240
Hoe	-3241
▁Had	-3242
▁Links	-3243
▁试题	-3244
▁觉得	-3245
lass	-3246
toe	-3247
udd	-3248
是怎么	-3249
▁simp	-3250
stem	-3251
▁proceed	-3252
▁const	-3253
8$$	-3254
Where	-3255
}{3	-3256
▁倒	-3257
want	-3258
uze	-3259
▁gu	-3260
mt	-3261
sey	-3262
▁arbe	-3263
▁Vaak	-3264
▁vent	-3265
AY	-3266
是由	-3267
zhei	-3268
kig	-3269
ures	-3270
look	-3271
▁Fin	-3272
▁requ	-3273
ben	-3274
ersch	-3275
mber	-3276
▁crim	-3277
▁31	-3278
▁WE	-3279
▁Alice	-3280
wedst	-3281
▁Because	-3282
kamp	-3283
▁Tex	-3284
gebracht	-3285
nik	-3286
▁Air	-3287
elled	-3288
ought	-3289
ologie	-3290
▁strand	-3291
elle	-3292
geh	-3293
▁schrift	-3294
▁Lot	-3295
▁batter	-3296
▁gebeuren	-3297
Af	-3298
Dan	-3299
ex	-3300
waard	-3301
assen	-3302
rew	-3303
而是	-3304
ita	-3305
zz	-3306
▁HE	-3307
cks	-3308
▁cli	-3309
dracht	-3310
ya	-3311
▁plu	-3312
punten	-3313
agram	-3314
▁Mart	-3315
fab	-3316
pot	-3317
used	-3318
▁ag	-3319
▁(20	-3320
oorten	-3321
▁Mor	-3322
▁nod	-3323
▁谢谢	-3324
NBA	-3325
真的很	-3326
的就是	-3327
iety	-3328
了我	-3329
按照	-3330
▁sta	-3331
▁Sarah	-3332
ael	-3333
▁simply	-3334
iev	-3335
stoffen	-3336
▁Lang	-3337
rr	-3338
▁Land	-3339
▁Partij	-3340
iaal	-3341
▁Oranje	-3342
就有	-3343
taal	-3344
lop	-3345
▁Anna	-3346
kun	-3347
ulf	-3348
什么的	-3349
怎样	-3350
▁stret	-3351
▁instrument	-3352
▁最	-3353
oto	-3354
▁Look	-3355
100	-3356
dro	-3357
eens	-3358
rad	-3359
)\	-3360
^2	-3361
roep	-3362
▁Wij	-3363
\%	-3364
以来	-3365
'''	-3366
oef	-3367
▁孩儿	-3368
erve	-3369
product	-3370
▁Wor	-3371
▁HET	-3372
oemd	-3373
▁Gener	-3374
送给	-3375
ecul	-3376
▁Sur	-3377
▁Goed	-3378
▁Saturday	-3379
GRANDFATHER	-3380
▁Prins	-3381
itei	-3382
▁Romeinse	-3383
zam	-3384
$$3$$	-3385
来到了	-3386
③④	-3387
lant	-3388
▁Afrika	-3389
起来了	-3390
▁wa	-3391
▁Midd	-3392
CO	-3393
才是	-3394
视频	-3395
出现了	-3396
rië	-3397
▁2019	-3398
ists	-3399
▁Sint	-3400
reken	-3401
Eu	-3402
did	-3403
▁dun	-3404
▁Perhaps	-3405
ission	-3406
daan	-3407
▁Jes	-3408
爸爸妈妈	-3409
▁===	-3410
naam	-3411
6-1	-3412
▁latter	-3413
样啊	-3414
ipp	-3415
gment	-3416
iaanse	-3417
irt	-3418
▁Uitei	-3419
middels	-3420
▁Serv	-3421
▁kla	-3422
wan	-3423
stant	-3424
▁同	-3425
▁pret	-3426
▁kr	-3427
躺在	-3428
gelegd	-3429
▁Pep	-3430
▁Verenigd	-3431
ination	-3432
▁Uni	-3433
▁Hend	-3434
erse	-3435
▁kap	-3436
atius	-3437
won	-3438
▁Peg	-3439
▁Win	-3440
▁Unie	-3441
▁favour	-3442
boom	-3443
▁impro	-3444
▁Geschiedenis	-3445
hao	-3446
▁Bes	-3447
▁haalt	-3448
gezet	-3449
▁即	-3450
▁Marc	-3451
▁与	-3452
例如	-3453
vor	-3454
▁(3	-3455
我很	-3456
▁Mat	-3457
▁fond	-3458
.]	-3459
rix	-3460
programma	-3461
吓得	-3462
2-1	-3463
▁GE	-3464
▁vle	-3465
achtig	-3466
ize	-3467
▁Bea	-3468
OOR	-3469
ston	-3470
▁Bal	-3471
▁geb	-3472
regel	-3473
uziek	-3474
oorde	-3475
cas	-3476
ards	-3477
▁City	-3478
Ze	-3479
icient	-3480
▁Water	-3481
▁Doe	-3482
▁Daardoor	-3483
▁Lady	-3484
中医	-3485
▁crit	-3486
▁Da	-3487
ukkig	-3488
xi	-3489
lar	-3490
▁Pers	-3491
▁Wash	-3492
▁gauw	-3493
▁scarcely	-3494
想着	-3495
kast	-3496
elsel	-3497
spr	-3498
outs	-3499
▁Provin	-3500
wie	-3501
▁mob	-3502
ffe	-3503
▁Rog	-3504
▁Eén	-3505
▁zhei	-3506
▁Napole	-3507
anen	-3508
loot	-3509
rijv	-3510
ount	-3511
Unie	-3512
▁Hong	-3513
doe	-3514
▁wijk	-3515
alle	-3516
wacht	-3517
ocht	-3518
iële	-3519
▁35	-3520
▁pres	-3521
▁voed	-3522
▁admir	-3523
▁impress	-3524
name	-3525
▁Jon	-3526
▁7.	-3527
vat	-3528
apen	-3529
dier	-3530
到处	-3531
用了	-3532
she	-3533
raat	-3534
乒乓	-3535
▁Sus	-3536
▁worry	-3537
druk	-3538
▁Laura	-3539
▁Russische	-3540
国的	-3541
cial	-3542
智能	-3543
}^\	-3544
▁XII	-3545
▁purs	-3546
▁好吧	-3547
gew	-3548
▁cla	-3549
▁2014	-3550
不如	-3551
ows	-3552
icularly	-3553
把我	-3554
▁une	-3555
▁concent	-3556
▁inquir	-3557
▁Bijvoorbeeld	-3558
算是	-3559
▁Flor	-3560
▁Tegenwoordig	-3561
oy	-3562
▁Spaanse	-3563
bben	-3564
anten	-3565
▁TO	-3566
pad	-3567
▁Del	-3568
天上	-3569
appoint	-3570
ify	-3571
▁Charles	-3572
uch	-3573
gesteld	-3574
32	-3575
▁ap	-3576
rank	-3577
▁--	-3578
▁Eliza	-3579
▁und	-3580
ji	-3581
好啊	-3582
▁po	-3583
actie	-3584
sluit	-3585
Nou	-3586
unch	-3587
(\	-3588
ues	-3589
▁accord	-3590
▁ON	-3591
sa	-3592
不在	-3593
▁Rad	-3594
rokken	-3595
OH	-3596
ised	-3597
kse	-3598
now	-3599
▁cot	-3600
▁toege	-3601
dewijk	-3602
car	-3603
我来	-3604
▁Louis	-3605
▁Queen	-3606
erden	-3607
}_{2}	-3608
▁evidently	-3609
kort	-3610
.②	-3611
").	-3612
ijen	-3613
ante	-3614
▁Arm	-3615
ograf	-3616
arte	-3617
▁Paulus	-3618
并且	-3619
ura	-3620
Here	-3621
▁Napoleon	-3622
似的	-3623
ume	-3624
aris	-3625
▁Portug	-3626
FF	-3627
▁Lodewijk	-3628
▁Sand	-3629
Good	-3630
Amerika	-3631
▁2017	-3632
▁Kl	-3633
ikte	-3634
aap	-3635
▁Jos	-3636
。(	-3637
▁Hendrik	-3638
相等	-3639
)$$,	-3640
ball	-3641
引起	-3642
▁Nog	-3643
▁neg	-3644
▁William	-3645
▁(7	-3646
waarde	-3647
▁此	-3648
叫做	-3649
▁80	-3650
▁Ri	-3651
▁Eerst	-3652
▁Naast	-3653
▁Vooral	-3654
▁Bom	-3655
ouwen	-3656
zil	-3657
ribut	-3658
tend	-3659
▁Ooh	-3660
▁bew	-3661
▁acqu	-3662
rey	-3663
icus	-3664
kund	-3665
▁chap	-3666
▁Pap	-3667
hop	-3668
gere	-3669
sequ	-3670
▁Lea	-3671
dge	-3672
roeger	-3673
上来	-3674
▁zom	-3675
称为	-3676
▁stat	-3677
gin	-3678
chief	-3679
}^{2}	-3680
pic	-3681
▁schud	-3682
▁pract	-3683
beelden	-3684
队的	-3685
▁其中	-3686
23	-3687
uel	-3688
ios	-3689
rukt	-3690
渐渐	-3691
-7	-3692
▁France	-3693
要去	-3694
▁Nee	-3695
▁Pet	-3696
▁2018	-3697
▁ah	-3698
eest	-3699
icked	-3700
▁Footnote	-3701
▁spite	-3702
Europ	-3703
▁Rose	-3704
▁meeg	-3705
▁tv	-3706
▁8.	-3707
的意思	-3708
Did	-3709
▁Kun	-3710
prijs	-3711
steem	-3712
▁represent	-3713
▁Gron	-3714
69	-3715
▁oblig	-3716
ym	-3717
▁EU	-3718
▁Olympische	-3719
ents	-3720
----"	-3721
halen	-3722
{}^\	-3723
是为了	-3724
▁viol	-3725
isc	-3726
snel	-3727
wijz	-3728
▁Achter	-3729
{3}	-3730
tent	-3731
▁Boven	-3732
lagen	-3733
can	-3734
的呀	-3735
▁2015	-3736
nemen	-3737
bus	-3738
▁mos	-3739
loss	-3740
▁Naar	-3741
lah	-3742
▁Arn	-3743
联系	-3744
又是	-3745
61	-3746
▁(2)	-3747
▁Natuur	-3748
mal	-3749
▁pin	-3750
▁Peggy	-3751
规定	-3752
▁vac	-3753
uten	-3754
婆婆	-3755
volgens	-3756
▁Albert	-3757
▁opgave	-3758
$$3	-3759
▁JE	-3760
▁Elke	-3761
via	-3762
▁Klaas	-3763
▁faint	-3764
▁comment	-3765
身子	-3766
▁Park	-3767
▁symp	-3768
ceiv	-3769
▁East	-3770
utie	-3771
▁fier	-3772
▁While	-3773
▁Mexico	-3774
alie	-3775
▁Jeff	-3776
不再	-3777
kamer	-3778
▁Bonif	-3779
▁嗯呢	-3780
arken	-3781
useum	-3782
beer	-3783
bled	-3784
▁2011	-3785
mot	-3786
rap	-3787
gain	-3788
▁2012	-3789
▁Zoek	-3790
▁Roy	-3791
3,	-3792
▁NO	-3793
▁bek	-3794
▁2016	-3795
igt	-3796
tien	-3797
是真的	-3798
rucht	-3799
0,	-3800
itt	-3801
ieten	-3802
▁Aye	-3803
ville	-3804
▁Michael	-3805
riek	-3806
▁lean	-3807
▁Bonifatius	-3808
物的	-3809
▁frequ	-3810
▁ka	-3811
▁Best	-3812
RE	-3813
ilde	-3814
▁arri	-3815
PL	-3816
cher	-3817
国足	-3818
▁reco	-3819
hod	-3820
▁tar	-3821
IET	-3822
▁General	-3823
▁wre	-3824
xide	-3825
▁Bul	-3826
▁reckon	-3827
Who	-3828
▁charm	-3829
dr	-3830
itect	-3831
它是	-3832
对他	-3833
98	-3834
▁才	-3835
▁ber	-3836
▁occur	-3837
并没有	-3838
▁Their	-3839
忘了	-3840
iem	-3841
most	-3842
ikken	-3843
▁Neem	-3844
了几	-3845
▁Democ	-3846
laag	-3847
▁haalde	-3848
opp	-3849
hem	-3850
▁proper	-3851
▁Pan	-3852
▁Your	-3853
随便	-3854
alis	-3855
teur	-3856
-{{	-3857
aas	-3858
icro	-3859
Ah	-3860
ki	-3861
isfact	-3862
进来	-3863
不及	-3864
don	-3865
▁是吗	-3866
▁comb	-3867
▁wr	-3868
iter	-3869
把他	-3870
▁Jacob	-3871
▁Gr	-3872
ichte	-3873
reeuw	-3874
▁Urban	-3875
▁zanger	-3876
An	-3877
ored	-3878
gegeven	-3879
很不	-3880
▁2004	-3881
▁XIII	-3882
96	-3883
andaag	-3884
leed	-3885
▁Bab	-3886
▁今	-3887
没看	-3888
▁2008	-3889
提出	-3890
▁kg	-3891
▁Polen	-3892
▁communic	-3893
best	-3894
club	-3895
▁Sto	-3896
huizen	-3897
▁Brazil	-3898
vlie	-3899
着了	-3900
iers	-3901
some	-3902
规律	-3903
▁ce	-3904
▁bez	-3905
.①②	-3906
bon	-3907
▁下来	-3908
tic	-3909
gent	-3910
uits	-3911
▁Dal	-3912
boeken	-3913
▁fluist	-3914
▁stir	-3915
eltjes	-3916
▁Council	-3917
ury	-3918
▁Three	-3919
▁voeren	-3920
▁Belgische	-3921
▁rit	-3922
enken	-3923
▁element	-3924
loe	-3925
ums	-3926
rzoek	-3927
是挺	-3928
▁Kim	-3929
▁2005	-3930
▁Canada	-3931
我了	-3932
{3}}	-3933
▁prin	-3934
unn	-3935
▁Nad	-3936
对了	-3937
▁9.	-3938
inal	-3939
pend	-3940
▁breed	-3941
orp	-3942
▁Before	-3943
DE	-3944
▁Boy	-3945
▁该	-3946
▁BO	-3947
place	-3948
▁prepar	-3949
maak	-3950
纷纷	-3951
sty	-3952
▁Ni	-3953
了出来	-3954
orence	-3955
schappen	-3956
▁drag	-3957
dienst	-3958
用来	-3959
key	-3960
▁Syl	-3961
ishment	-3962
gend	-3963
what	-3964
▁2006	-3965
▁几	-3966
ATI	-3967
last	-3968
▁gei	-3969
steen	-3970
去吧	-3971
▁Stad	-3972
\{	-3973
▁Jas	-3974
厉害的	-3975
onds	-3976
▁188	-3977
ibility	-3978
▁leap	-3979
▁Israël	-3980
▁gegaan	-3981
▁Urbanus	-3982
urm	-3983
▁告诉	-3984
ioen	-3985
▁consc	-3986
▁种	-3987
cont	-3988
▁Cas	-3989
▁wal	-3990
▁Zelf	-3991
tes	-3992
ower	-3993
warm	-3994
!!	-3995
ti	-3996
▁OP	-3997
ijnse	-3998
wee	-3999
▁Tony	-4000
▁mode	-4001
▁Australië	-4002
▁inj	-4003
▁Up	-4004
cast	-4005
rict	-4006
▁Cla	-4007
天下	-4008
▁gru	-4009
▁时	-4010
我可以	-4011
ractie	-4012
▁Scott	-4013
▁zomaar	-4014
▁对于	-4015
没事	-4016
isse	-4017
▁inform	-4018
}$$、	-4019
▁Aug	-4020
ala	-4021
接下来	-4022
ills	-4023
▁Vroeger	-4024
▁Ele	-4025
riend	-4026
▁behalen	-4027
ript	-4028
werken	-4029
▁3,	-4030
▁Ju	-4031
orough	-4032
yeah	-4033
lacht	-4034
▁Florence	-4035
▁地	-4036
aker	-4037
tage	-4038
wards	-4039
▁Dag	-4040
▁hab	-4041
▁Gelukkig	-4042
▁哈喽	-4043
▁Bru	-4044
▁Mus	-4045
▁spo	-4046
▁buur	-4047
Er	-4048
▁VAN	-4049
▁Great	-4050
Daar	-4051
▁500	-4052
▁Ot	-4053
rib	-4054
ega	-4055
▁sac	-4056
koop	-4057
ennie	-4058
rak	-4059
望着	-4060
▁AB	-4061
amma	-4062
▁cit	-4063
middel	-4064
▁Gord	-4065
ructuur	-4066
ital	-4067
▁Which	-4068
Hol	-4069
conom	-4070
▁...-	-4071
vey	-4072
vlak	-4073
中有	-4074
我会	-4075
▁Hans	-4076
hore	-4077
58	-4078
heel	-4079
wagen	-4080
▁2009	-4081
vind	-4082
▁Dad	-4083
▁Bre	-4084
eland	-4085
▁Jones	-4086
loor	-4087
naar	-4088
▁Street	-4089
▁roar	-4090
▁Anton	-4091
72	-4092
pet	-4093
anks	-4094
▁Frid	-4095
estival	-4096
▁America	-4097
ream	-4098
ually	-4099
ena	-4100
cked	-4101
▁stre	-4102
▁polit	-4103
▁ku	-4104
▁以	-4105
去看看	-4106
▁emot	-4107
fle	-4108
sle	-4109
plant	-4110
▁merc	-4111
emand	-4112
▁zogen	-4113
▁extre	-4114
▁Oekraïne	-4115
是的	-4116
▁Turkije	-4117
▁我想	-4118
teer	-4119
boy	-4120
iti	-4121
tas	-4122
=3	-4123
▁Jean	-4124
ili	-4125
liet	-4126
就被	-4127
imburg	-4128
的了	-4129
lucht	-4130
▁Bear	-4131
▁Rond	-4132
▁indic	-4133
To	-4134
▁Groot	-4135
▁est	-4136
ograph	-4137
▁Denk	-4138
tis	-4139
▁ir	-4140
▁Fel	-4141
▁若	-4142
ife	-4143
onk	-4144
www	-4145
▁WK	-4146
lict	-4147
▁Yet	-4148
zeker	-4149
▁Ir	-4150
▁rubb	-4151
{{\	-4152
ago	-4153
得好	-4154
$$10	-4155
rot	-4156
▁diam	-4157
bye	-4158
voud	-4159
▁flo	-4160
伯伯	-4161
▁Sw	-4162
erst	-4163
▁Friday	-4164
▁sprang	-4165
cky	-4166
XXXX	-4167
voerd	-4168
▁Griekse	-4169
了下来	-4170
posed	-4171
vallen	-4172
似乎	-4173
▁im	-4174
▁VER	-4175
▁Polly	-4176
)$	-4177
}+	-4178
不上	-4179
$$0	-4180
▁Act	-4181
确定	-4182
▁Mond	-4183
tog	-4184
▁Bram	-4185
spect	-4186
ias	-4187
不好意思	-4188
oph	-4189
tus	-4190
▁Once	-4191
▁nood	-4192
gue	-4193
▁Va	-4194
并不是	-4195
sion	-4196
▁dru	-4197
给我们	-4198
▁zil	-4199
▁Daan	-4200
▁Nicola	-4201
▁United	-4202
▁Elizabe	-4203
eleid	-4204
asc	-4205
什么时候	-4206
▁Doro	-4207
Are	-4208
leur	-4209
▁rapidly	-4210
oken	-4211
will	-4212
▁Rem	-4213
▁Zwits	-4214
▁Huis	-4215
On	-4216
ipt	-4217
mitted	-4218
▁Would	-4219
▁70	-4220
我把	-4221
ote	-4222
▁Pen	-4223
Na	-4224
zin	-4225
▁ig	-4226
When	-4227
▁Green	-4228
hold	-4229
▁Donald	-4230
isie	-4231
stein	-4232
CAR	-4233
▁Kor	-4234
▁2013	-4235
aus	-4236
middag	-4237
不出	-4238
举行	-4239
pat	-4240
▁Kleur	-4241
▁possess	-4242
▁2007	-4243
▁Drie	-4244
werpen	-4245
▁Spelen	-4246
kon	-4247
▁于是	-4248
aded	-4249
geheten	-4250
▁koolstof	-4251
}{4	-4252
都可以	-4253
▁Rijn	-4254
ologische	-4255
toge	-4256
otland	-4257
▁Middel	-4258
▁Howe	-4259
abb	-4260
oul	-4261
cases	-4262
我先	-4263
赶快	-4264
sb	-4265
kijken	-4266
▁interrupt	-4267
enig	-4268
▁Maarten	-4269
等等	-4270
▁Kom	-4271
▁Lie	-4272
抓住	-4273
igie	-4274
vangen	-4275
▁gehaald	-4276
xy	-4277
bol	-4278
▁我看	-4279
▁Dra	-4280
lotte	-4281
aled	-4282
▁Fai	-4283
拿出	-4284
他想	-4285
akes	-4286
opper	-4287
▁Still	-4288
▁cruel	-4289
▁Texas	-4290
▁zogeheten	-4291
US	-4292
500	-4293
▁wou	-4294
AKER	-4295
31	-4296
▁Bat	-4297
▁Hon	-4298
paard	-4299
eeuwen	-4300
早就	-4301
▁hok	-4302
XXXXX	-4303
▁Saar	-4304
▁BE	-4305
▁Bern	-4306
riet	-4307
▁Dar	-4308
是对	-4309
rick	-4310
neke	-4311
▁2002	-4312
regels	-4313
▁Angel	-4314
▁arrange	-4315
brand	-4316
ère	-4317
▁Jij	-4318
lessly	-4319
iland	-4320
▁House	-4321
▁Midden	-4322
▁Hit	-4323
fortun	-4324
▁bud	-4325
FT	-4326
erend	-4327
reat	-4328
zend	-4329
}{2}	-4330
▁Vandaag	-4331
km	-4332
了他	-4333
hip	-4334
▁Far	-4335
▁accompan	-4336
=4	-4337
jam	-4338
什么呢	-4339
arted	-4340
处的	-4341
cons	-4342
work	-4343
▁2022	-4344
▁architect	-4345
cho	-4346
▁et	-4347
▁Nieuws	-4348
OP	-4349
▁【	-4350
}}\	-4351
▁Besch	-4352
没什么	-4353
▁Zweden	-4354
▁beschouw	-4355
.--	-4356
-6	-4357
▁kwart	-4358
▁compla	-4359
)。	-4360
bao	-4361
isa	-4362
rice	-4363
temp	-4364
▁Fan	-4365
▁White	-4366
▁Kerk	-4367
▁mochten	-4368
▁organis	-4369
gebruik	-4370
road	-4371
$$、$$	-4372
▁Os	-4373
▁ham	-4374
besch	-4375
▁beper	-4376
是他	-4377
47	-4378
▁ke	-4379
▁DAT	-4380
}{2	-4381
}{\	-4382
▁custom	-4383
▁Eef	-4384
outer	-4385
▁tand	-4386
▁mod	-4387
▁Indones	-4388
bi	-4389
cm	-4390
wet	-4391
▁acquaint	-4392
▁Only	-4393
▁Helen	-4394
east	-4395
rison	-4396
▁Charlie	-4397
▁10.	-4398
▁Francis	-4399
处于	-4400
的对	-4401
▁Nick	-4402
▁Cat	-4403
iform	-4404
▁instruct	-4405
▁Griekenland	-4406
▁Mum	-4407
VER	-4408
▁sna	-4409
VD	-4410
得意	-4411
Del	-4412
eks	-4413
▁App	-4414
▁bon	-4415
▁mor	-4416
-20	-4417
▁yo	-4418
chen	-4419
▁Our	-4420
▁Hall	-4421
rabant	-4422
46	-4423
wk	-4424
oma	-4425
oepen	-4426
不着	-4427
化的	-4428
间的	-4429
▁Vo	-4430
ssel	-4431
▁2021	-4432
hond	-4433
igers	-4434
▁glim	-4435
95	-4436
▁sil	-4437
▁chem	-4438
▁rejo	-4439
pre	-4440
achtige	-4441
vy	-4442
嘻嘻	-4443
▁Es	-4444
wijl	-4445
▁DNA	-4446
▁Geen	-4447
.$${	-4448
ogen	-4449
ented	-4450
aft	-4451
una	-4452
mmel	-4453
▁Nou	-4454
▁Werk	-4455
▁Mac	-4456
▁pup	-4457
}}$$,	-4458
umph	-4459
▁Oorlog	-4460
uts	-4461
vle	-4462
▁Gil	-4463
▁Ont	-4464
▁Mi	-4465
▁employ	-4466
win	-4467
的吧	-4468
▁桌子	-4469
geve	-4470
▁choc	-4471
▁Kitty	-4472
▁sufficient	-4473
}_{0	-4474
▁Nicolaas	-4475
jor	-4476
pected	-4477
▁consum	-4478
pool	-4479
reas	-4480
▁Kro	-4481
nieuw	-4482
▁每	-4483
的有	-4484
elest	-4485
▁阿	-4486
▁Ac	-4487
▁inmiddels	-4488
zett	-4489
klaar	-4490
▁Four	-4491
▁liber	-4492
▁Master	-4493
▁suspic	-4494
▁conduct	-4495
atief	-4496
soort	-4497
是我们	-4498
}_{3	-4499
▁(1)	-4500
▁trem	-4501
想了	-4502
rede	-4503
umber	-4504
▁zucht	-4505
aly	-4506
ETAKER	-4507
Zo	-4508
uele	-4509
▁Alr	-4510
▁import	-4511
CARETAKER	-4512
自身	-4513
Kom	-4514
muziek	-4515
▁Iemand	-4516
▁Egypt	-4517
drukk	-4518
37	-4519
▁whist	-4520
儿的	-4521
bew	-4522
pres	-4523
while	-4524
▁Hierbij	-4525
Um	-4526
stit	-4527
▁dip	-4528
volutie	-4529
▁contin	-4530
▁Gordon	-4531
不停地	-4532
    	-4533
▁pest	-4534
200	-4535
对不起	-4536
就很	-4537
edi	-4538
▁techn	-4539
OW	-4540
▁Kan	-4541
▁NIET	-4542
$$5$$	-4543
IJN	-4544
▁World	-4545
icul	-4546
tail	-4547
▁Volks	-4548
▁"_	-4549
spro	-4550
klaas	-4551
▁Geme	-4552
▁Julia	-4553
gekomen	-4554
▁sorrow	-4555
arl	-4556
ody	-4557
▁Stef	-4558
去的	-4559
▁Pre	-4560
oi	-4561
gas	-4562
jax	-4563
rus	-4564
▁onge	-4565
▁ABC	-4566
▁vest	-4567
ms	-4568
zeg	-4569
▁Oce	-4570
juist	-4571
▁First	-4572
▁greet	-4573
是我的	-4574
▁$$,	-4575
▁kolon	-4576
$$4$$	-4577
▁tradit	-4578
个子	-4579
可得	-4580
▁fee	-4581
▁aardig	-4582
DER	-4583
bet	-4584
分为	-4585
▁Iris	-4586
▁Jaap	-4587
乖乖	-4588
VEN	-4589
ays	-4590
urr	-4591
▁hè	-4592
ijna	-4593
▁dam	-4594
往往	-4595
▁Sec	-4596
▁不知	-4597
shi	-4598
iest	-4599
aag	-4600
ranten	-4601
OC	-4602
使劲	-4603
▁August	-4604
wedstrijd	-4605
▁XIV	-4606
▁schrik	-4607
▁Vrij	-4608
▁resp	-4609
33	-4610
emen	-4611
▁nodded	-4612
1-	-4613
59	-4614
ght	-4615
reep	-4616
antly	-4617
▁swift	-4618
]。	-4619
▁Lib	-4620
ushed	-4621
▁gepro	-4622
正是	-4623
rog	-4624
会不会	-4625
▁Bir	-4626
ommen	-4627
▁Like	-4628
▁intell	-4629
stelde	-4630
等着	-4631
▁Adr	-4632
wassen	-4633
May	-4634
lav	-4635
vd	-4636
地位	-4637
ema	-4638
▁Cong	-4639
tan	-4640
就行	-4641
jon	-4642
▁por	-4643
▁wor	-4644
7$$	-4645
idge	-4646
▁Jud	-4647
tocht	-4648
bos	-4649
▁Ven	-4650
▁filos	-4651
text	-4652
在我	-4653
▁Hi	-4654
我得	-4655
▁Cam	-4656
▁Nancy	-4657
▁Stra	-4658
▁Filips	-4659
▁Sylvia	-4660
就没有	-4661
lijst	-4662
▁gew	-4663
ways	-4664
▁consequ	-4665
▁Rol	-4666
▁Kruis	-4667
涉及	-4668
▁intent	-4669
CD	-4670
▁ama	-4671
velop	-4672
▁Binnen	-4673
好不好	-4674
▁Lux	-4675
▁Licht	-4676
▁45	-4677
markt	-4678
上涨	-4679
unk	-4680
etch	-4681
olie	-4682
▁Adam	-4683
▁Bron	-4684
Per	-4685
stelsel	-4686
有时	-4687
此时	-4688
▁Sn	-4689
--_	-4690
次的	-4691
▁obe	-4692
▁zul	-4693
coura	-4694
teerd	-4695
+3	-4696
boot	-4697
▁cer	-4698
▁schu	-4699
好看的	-4700
▁stak	-4701
▁av	-4702
▁Ron	-4703
erous	-4704
▁Nina	-4705
快地	-4706
back	-4707
ueel	-4708
elect	-4709
wezen	-4710
对着	-4711
落在	-4712
▁opz	-4713
Go	-4714
公交	-4715
rnal	-4716
cess	-4717
▁lux	-4718
centrum	-4719
▁Egypte	-4720
emon	-4721
▁gli	-4722
▁2003	-4723
▁Bomba	-4724
rows	-4725
▁吓	-4726
Europa	-4727
▁Groen	-4728
住着	-4729
bru	-4730
Goed	-4731
keren	-4732
west	-4733
▁Get	-4734
▁Ellen	-4735
▁nei	-4736
▁zwa	-4737
▁compl	-4738
Om	-4739
wl	-4740
会的	-4741
▁cy	-4742
ided	-4743
▁princip	-4744
我先走了	-4745
▁Paris	-4746
ople	-4747
▁Sen	-4748
▁murm	-4749
不够	-4750
▁Marok	-4751
▁Roger	-4752
interklaas	-4753
por	-4754
▁AD	-4755
▁Has	-4756
▁✿	-4757
可真	-4758
▁prik	-4759
▁Illustr	-4760
vraag	-4761
▁opvatt	-4762
middelen	-4763
▁Pla	-4764
▁spr	-4765
Delta	-4766
▁Weet	-4767
aurant	-4768
▁Christus	-4769
festival	-4770
或者是	-4771
▁Dam	-4772
立即	-4773
▁Chair	-4774
olk	-4775
iken	-4776
elstuk	-4777
ear	-4778
aks	-4779
▁Ajax	-4780
▁Zoals	-4781
▁Jullie	-4782
▁咱们	-4783
itor	-4784
rill	-4785
▁raken	-4786
天的	-4787
▁Simon	-4788
^{	-4789
▁Teken	-4790
just	-4791
▁分	-4792
有所	-4793
我就是	-4794
而不是	-4795
kind	-4796
▁ess	-4797
▁2023	-4798
▁Ameri	-4799
gebieden	-4800
地的	-4801
iërs	-4802
▁Portugal	-4803
▁嘛	-4804
-18	-4805
▁roepen	-4806
kee	-4807
enny	-4808
▁Pier	-4809
uge	-4810
▁(6	-4811
▁Pepijn	-4812
▁Ly	-4813
mand	-4814
oegen	-4815
▁Terwijl	-4816
uls	-4817
▁tor	-4818
heer	-4819
IM	-4820
了嘛	-4821
取得	-4822
都被	-4823
他把	-4824
走着	-4825
▁mig	-4826
broek	-4827
kin	-4828
ament	-4829
▁caut	-4830
▁myster	-4831
book	-4832
▁《	-4833
49	-4834
})	-4835
想想	-4836
▁amus	-4837
▁keen	-4838
共有	-4839
serv	-4840
▁luk	-4841
▁Holland	-4842
讲的	-4843
▁duw	-4844
loten	-4845
uded	-4846
▁fac	-4847
▁对对对	-4848
▁Dave	-4849
▁inquired	-4850
在您	-4851
▁vel	-4852
▁2001	-4853
stikke	-4854
▁Georg	-4855
▁300	-4856
▁Off	-4857
▁stout	-4858
▁leidde	-4859
可不	-4860
ecess	-4861
iforn	-4862
ester	-4863
▁Eind	-4864
_1	-4865
ipper	-4866
▁Henry	-4867
▁bevindt	-4868
uurt	-4869
▁ceased	-4870
emarken	-4871
▁Chris	-4872
▁print	-4873
▁spect	-4874
▁Duitsers	-4875
-0	-4876
su	-4877
呵呵	-4878
而已	-4879
var	-4880
▁pi	-4881
read	-4882
ruim	-4883
▁Edu	-4884
▁Tro	-4885
wn	-4886
▁Barb	-4887
ieur	-4888
Waarom	-4889
不定	-4890
▁Rub	-4891
▁Mabel	-4892
▁Marie	-4893
president	-4894
amil	-4895
boel	-4896
▁Tel	-4897
▁Thijs	-4898
▁)。	-4899
▁Bol	-4900
▁Wed	-4901
▁Tr	-4902
▁150	-4903
▁schoot	-4904
▁90	-4905
oopp	-4906
▁psy	-4907
▁zhe	-4908
elaar	-4909
▁stri	-4910
straat	-4911
39	-4912
▁抓	-4913
mos	-4914
geld	-4915
ertje	-4916
round	-4917
vogel	-4918
ially	-4919
▁struik	-4920
▁事	-4921
定律	-4922
既然	-4923
dekk	-4924
inson	-4925
▁knikt	-4926
-"	-4927
alt	-4928
Just	-4929
▁voren	-4930
拿起	-4931
▁TE	-4932
▁horiz	-4933
上映	-4934
▁Jose	-4935
<{	-4936
00$$	-4937
▁kit	-4938
▁obliged	-4939
就没	-4940
appy	-4941
▁Rock	-4942
▁Gri	-4943
▁Hor	-4944
ove	-4945
tru	-4946
▁Nadat	-4947
▁Monday	-4948
▁Steden	-4949
▁cheap	-4950
38	-4951
SE	-4952
doet	-4953
DEN	-4954
▁180	-4955
▁dim	-4956
issie	-4957
loopt	-4958
▁Koen	-4959
公公	-4960
照顾	-4961
▁ME	-4962
▁Eefie	-4963
oude	-4964
▁Kees	-4965
公式	-4966
整天	-4967
$$4	-4968
GEN	-4969
ape	-4970
ini	-4971
▁Dun	-4972
▁Cast	-4973
erence	-4974
找不到	-4975
▁Brand	-4976
kap	-4977
是没有	-4978
Some	-4979
pakken	-4980
ems	-4981
fty	-4982
我们要	-4983
▁Mol	-4984
▁mort	-4985
uy	-4986
▁qi	-4987
▁web	-4988
▁WAT	-4989
▁schol	-4990
▁可不是	-4991
):	-4992
▁tramp	-4993
▁Sol	-4994
because	-4995
bles	-4996
▁Philip	-4997
▁Station	-4998
mob	-4999
▁Corn	-5000
▁concern	-5001
始了	-5002
30)	-5003
▁Rea	-5004
▁yao	-5005
▁Susan	-5006
▁dreadful	-5007
才会	-5008
come	-5009
▁Kam	-5010
在您身边	-5011
对我	-5012
▁Sara	-5013
▁flow	-5014
▁起	-5015
lier	-5016
ppen	-5017
▁tick	-5018
▁tremb	-5019
itation	-5020
teren	-5021
▁Does	-5022
做好	-5023
▁hap	-5024
▁lukt	-5025
▁States	-5026
就好了	-5027
▁mult	-5028
▁Aha	-5029
▁happ	-5030
▁prefer	-5031
▁aardapp	-5032
dus	-5033
ici	-5034
▁Belle	-5035
▁全	-5036
arily	-5037
▁Open	-5038
▁Jesus	-5039
场的	-5040
▁我要	-5041
onel	-5042
▁Heel	-5043
▁wort	-5044
▁opzichte	-5045
five	-5046
▁Top	-5047
cious	-5048
▁Denemarken	-5049
是最	-5050
table	-5051
kes	-5052
在地上	-5053
真正的	-5054
ijns	-5055
erable	-5056
▁摔	-5057
佩奇	-5058
▁typ	-5059
hoven	-5060
istisch	-5061
▁schreeuw	-5062
期的	-5063
-17	-5064
▁Dom	-5065
▁Dou	-5066
▁Reg	-5067
haven	-5068
悄悄	-5069
▁Med	-5070
eless	-5071
▁Sud	-5072
▁reflect	-5073
他又	-5074
ease	-5075
▁bul	-5076
él	-5077
mans	-5078
wekker	-5079
▁arbeids	-5080
rels	-5081
station	-5082
▁Californ	-5083
zal	-5084
asius	-5085
sport	-5086
istance	-5087
vec	-5088
oenen	-5089
▁Limburg	-5090
▁→	-5091
▁Brad	-5092
vir	-5093
pass	-5094
~~~~	-5095
▁hob	-5096
▁priv	-5097
者的	-5098
▁dar	-5099
▁rad	-5100
boekje	-5101
VV	-5102
aid	-5103
▁为了	-5104
pje	-5105
see	-5106
omers	-5107
bf	-5108
会在	-5109
▁Lab	-5110
▁Cra	-5111
▁Prof	-5112
▁imag	-5113
koek	-5114
▁躲	-5115
9$$	-5116
ATE	-5117
pas	-5118
▁Sin	-5119
▁dur	-5120
▁Brazilië	-5121
▁Marg	-5122
▁crack	-5123
▁Fair	-5124
iar	-5125
kra	-5126
}{5	-5127
怎么了	-5128
▁mill	-5129
▁Gemeenten	-5130
ev	-5131
Can	-5132
▁kor	-5133
▁slo	-5134
坐标	-5135
醒了	-5136
lers	-5137
quad	-5138
pelen	-5139
▁Eigen	-5140
TS	-5141
Okay	-5142
▁Nob	-5143
geleid	-5144
▁Madame	-5145
▁diagram	-5146
ln	-5147
bedrijf	-5148
erefore	-5149
stoel	-5150
fection	-5151
▁Margar	-5152
dad	-5153
_{1}	-5154
▁Sinterklaas	-5155
刚好	-5156
▁vain	-5157
▁micro	-5158
Holland	-5159
▁necess	-5160
sf	-5161
▁hi	-5162
▁innit	-5163
>0	-5164
ippen	-5165
▁Noteer	-5166
▁Ox	-5167
ature	-5168
Afrika	-5169
▁ident	-5170
▁32	-5171
想去	-5172
ano	-5173
▁Tomm	-5174
▁conce	-5175
▁Very	-5176
▁Luxem	-5177
▁Dieren	-5178
▁Provincies	-5179
地里	-5180
着的	-5181
▁Elk	-5182
▁Pris	-5183
传来	-5184
▁1000	-5185
▁Jerry	-5186
▁Meester	-5187
▁unf	-5188
zocht	-5189
▁Cour	-5190
oven	-5191
tily	-5192
▁Day	-5193
usion	-5194
Dit	-5195
umn	-5196
▁36	-5197
▁non	-5198
▁Isa	-5199
kaart	-5200
▁propos	-5201
的很	-5202
▁4,	-5203
▁Gem	-5204
▁hypo	-5205
▁Major	-5206
▁Super	-5207
离子	-5208
行的	-5209
队员	-5210
fel	-5211
能不能	-5212
bury	-5213
▁nie	-5214
▁Boris	-5215
▁1:	-5216
▁过来	-5217
他不	-5218
eteld	-5219
▁Wolf	-5220
rechten	-5221
想起	-5222
特殊	-5223
uzen	-5224
▁Put	-5225
cilla	-5226
▁Vervolgens	-5227
应用	-5228
ïnv	-5229
▁lai	-5230
▁Big	-5231
vragen	-5232
84	-5233
▁Smi	-5234
▁Saint	-5235
isfaction	-5236
▁Vir	-5237
svorm	-5238
ima	-5239
▁jun	-5240
Have	-5241
hard	-5242
krij	-5243
oted	-5244
zelfde	-5245
▁Kenne	-5246
▁religie	-5247
走去	-5248
▁37	-5249
▁Moe	-5250
aken	-5251
gene	-5252
duceerd	-5253
tuig	-5254
▁char	-5255
▁orig	-5256
lement	-5257
运用	-5258
▁quar	-5259
▁Staat	-5260
zers	-5261
▁bree	-5262
▁incident	-5263
roken	-5264
strom	-5265
▁brut	-5266
ioxide	-5267
inkeltje	-5268
sd	-5269
▁截	-5270
是正确的	-5271
esc	-5272
看了看	-5273
iful	-5274
umin	-5275
97	-5276
ero	-5277
utch	-5278
▁Could	-5279
▁chuck	-5280
▁Spanish	-5281
▁meegeteld	-5282
Look	-5283
keer	-5284
▁Plan	-5285
▁conta	-5286
gelaten	-5287
▁compos	-5288
▁gall	-5289
▁Vor	-5290
▁trop	-5291
▁opeten	-5292
ratische	-5293
99)	-5294
▁SP	-5295
kwam	-5296
▁Cons	-5297
kosten	-5298
名叫	-5299
TEN	-5300
我记得	-5301
▁Emma	-5302
bond	-5303
boven	-5304
我给	-5305
}^{2}}+{{	-5306
您的	-5307
oli	-5308
▁dou	-5309
akken	-5310
lease	-5311
4!	-5312
irl	-5313
ultuur	-5314
▁Robbie	-5315
tw	-5316
zw	-5317
)=\	-5318
terne	-5319
▁omsch	-5320
groepen	-5321
RI	-5322
不懂	-5323
即使	-5324
ERS	-5325
▁Ei	-5326
halve	-5327
▁Beat	-5328
schappij	-5329
好吗	-5330
fte	-5331
▁我知	-5332
Mijn	-5333
▁opt	-5334
etten	-5335
化合	-5336
▁beïnv	-5337
▁我就	-5338
▁uniform	-5339
={{	-5340
igg	-5341
4,	-5342
lemn	-5343
raph	-5344
▁dijk	-5345
▁Hitler	-5346
▁Europees	-5347
的嘛	-5348
zus	-5349
▁din	-5350
得不	-5351
aff	-5352
ografie	-5353
▁Steven	-5354
hen	-5355
tof	-5356
papa	-5357
▁Hav	-5358
where	-5359
▁Island	-5360
▁sin	-5361
stellen	-5362
lee	-5363
▁Fa	-5364
▁Sid	-5365
ietnam	-5366
▁respo	-5367
▁==	-5368
▁Ve	-5369
igar	-5370
zaal	-5371
▁11.	-5372
▁Priscilla	-5373
ock	-5374
icip	-5375
oston	-5376
iviteit	-5377
dt	-5378
岁的	-5379
vely	-5380
▁住	-5381
edy	-5382
▁Bay	-5383
▁muz	-5384
▁Jimmy	-5385
里去	-5386
hor	-5387
▁BY	-5388
iele	-5389
urance	-5390
▁Sorry	-5391
▁Louise	-5392
▁Inter	-5393
介质	-5394
▁Bed	-5395
▁Tran	-5396
);	-5397
▁12.	-5398
alf	-5399
lege	-5400
ikker	-5401
netje	-5402
},	-5403
uster	-5404
▁President	-5405
deur	-5406
▁另	-5407
reaten	-5408
▁solemn	-5409
88	-5410
▁5,	-5411
我好	-5412
▁0.	-5413
uiven	-5414
▁More	-5415
tallen	-5416
isje	-5417
▁Azië	-5418
olven	-5419
▁rail	-5420
14)	-5421
osc	-5422
▁Els	-5423
▁labor	-5424
▁inspir	-5425
bber	-5426
trekken	-5427
Hel	-5428
▁NE	-5429
doek	-5430
rich	-5431
因此正确	-5432
用力	-5433
▁Long	-5434
是可以	-5435
helm	-5436
ators	-5437
ories	-5438
▁Irish	-5439
REL	-5440
stenen	-5441
▁Cy	-5442
▁怎么样	-5443
▁ontdekk	-5444
iser	-5445
▁unh	-5446
就去	-5447
▁Externe	-5448
全身	-5449
}$,	-5450
brug	-5451
izer	-5452
▁Joden	-5453
▁FC	-5454
illes	-5455
iction	-5456
isatie	-5457
▁schild	-5458
▁正确	-5459
proken	-5460
▁keren	-5461
ternation	-5462
公共	-5463
▁fail	-5464
ture	-5465
oroughly	-5466
amse	-5467
▁Fer	-5468
▁Star	-5469
woon	-5470
▁Oude	-5471
";	-5472
拿了	-5473
采取	-5474
oemde	-5475
As	-5476
Mar	-5477
vet	-5478
$$20	-5479
paal	-5480
▁fer	-5481
▁Suz	-5482
他俩	-5483
▁75	-5484
▁VS	-5485
Your	-5486
okken	-5487
▁(115	-5488
redenen	-5489
贡献	-5490
▁lit	-5491
▁q	-5492
▁Ob	-5493
身上的	-5494
vaard	-5495
▁Luxemburg	-5496
▁ca	-5497
artoe	-5498
▁impat	-5499
▁Nieuwe	-5500
▁sprook	-5501
IJK	-5502
怎么会	-5503
对的	-5504
▁Zou	-5505
▁advis	-5506
▁Constant	-5507
44	-5508
形的	-5509
box	-5510
▁33	-5511
krant	-5512
▁shuo	-5513
▁County	-5514
gg	-5515
bby	-5516
}}{	-5517
vrij	-5518
指出	-5519
:$$\	-5520
glas	-5521
▁Sven	-5522
▁Italiaanse	-5523
▁Nieuwswekker	-5524
ado	-5525
bat	-5526
tek	-5527
▁Alf	-5528
array	-5529
noemd	-5530
▁Caro	-5531
án	-5532
▁自	-5533
here	-5534
▁Those	-5535
》。	-5536
assa	-5537
otel	-5538
leggen	-5539
▁;	-5540
我又	-5541
vil	-5542
▁vrucht	-5543
oci	-5544
▁Britten	-5545
▁Margaret	-5546
▁unfortun	-5547
▁们	-5548
剩下	-5549
yes	-5550
▁看来	-5551
厉害了	-5552
umed	-5553
▁stiff	-5554
▁provis	-5555
▁却	-5556
▁总	-5557
▁Soc	-5558
就好	-5559
inda	-5560
用户	-5561
▁EK	-5562
stan	-5563
}}=\	-5564
{1}{3	-5565
▁1999	-5566
▁strom	-5567
Perhaps	-5568
反而	-5569
Mal	-5570
▁bijdra	-5571
▁Sun	-5572
▁zoiets	-5573
▁其	-5574
had	-5575
▁Pinkeltje	-5576
.=	-5577
了不	-5578
ito	-5579
▁toer	-5580
▁breast	-5581
联赛	-5582
acy	-5583
gek	-5584
▁veg	-5585
ause	-5586
▁Hello	-5587
elly	-5588
pris	-5589
▁wiss	-5590
▁temper	-5591
ooks	-5592
ronen	-5593
我最	-5594
的意	-5595
hof	-5596
▁2:	-5597
▁ops	-5598
achel	-5599
▁Walter	-5600
oei	-5601
ussel	-5602
▁Fanny	-5603
bericht	-5604
orted	-5605
atieve	-5606
▁Stone	-5607
▁snoep	-5608
▁wicked	-5609
▁Noorwegen	-5610
▁crept	-5611
▁conflict	-5612
好几	-5613
ela	-5614
▁gym	-5615
▁Leon	-5616
▁Annie	-5617
颗粒	-5618
bind	-5619
lter	-5620
arije	-5621
oorn	-5622
▁2024	-5623
zaak	-5624
▁Dolly	-5625
▁request	-5626
对啊	-5627
tro	-5628
▁Him	-5629
▁su	-5630
▁下去	-5631
▁neut	-5632
isteren	-5633
地叫	-5634
gos	-5635
Duits	-5636
leden	-5637
▁bleven	-5638
▁structuur	-5639
▁相	-5640
irk	-5641
不可以	-5642
voet	-5643
Jij	-5644
▁stab	-5645
▁Celest	-5646
OS	-5647
IES	-5648
到时候	-5649
arde	-5650
▁Chr	-5651
{1}{2	-5652
▁Thus	-5653
▁Meestal	-5654
快的	-5655
chi	-5656
▁LE	-5657
ager	-5658
走进	-5659
▁Hy	-5660
ride	-5661
▁Ano	-5662
能在	-5663
istan	-5664
▁Boston	-5665
▁bru	-5666
▁Sant	-5667
▁symb	-5668
eculiar	-5669
▁Doctor	-5670
▁budget	-5671
geke	-5672
▁Hard	-5673
▁Doordat	-5674
85	-5675
yard	-5676
▁Jor	-5677
maker	-5678
limaat	-5679
oppen	-5680
oonstel	-5681
▁indust	-5682
就算	-5683
我对	-5684
uut	-5685
▁exec	-5686
▁occup	-5687
▁Amerikaans	-5688
地把	-5689
appe	-5690
issen	-5691
stappen	-5692
▁Colonel	-5693
▁Beschrijf	-5694
IK	-5695
▁remo	-5696
}}_3	-5697
▁fal	-5698
呜呜	-5699
Sure	-5700
▁schaat	-5701
anne	-5702
▁peculiar	-5703
aries	-5704
▁cord	-5705
醒来	-5706
ices	-5707
ural	-5708
▁Lor	-5709
▁possession	-5710
42	-5711
cra	-5712
hai	-5713
ijst	-5714
▁Indonesië	-5715
看得	-5716
chem	-5717
ikki	-5718
rein	-5719
}$$(	-5720
▁1998	-5721
▁mere	-5722
GE	-5723
▁Wa	-5724
entje	-5725
▁Lincol	-5726
79	-5727
ATIVE	-5728
temis	-5729
叫声	-5730
▁Au	-5731
的妈妈	-5732
。[	-5733
躲在	-5734
我没有	-5735
inty	-5736
des	-5737
ciale	-5738
breken	-5739
▁Tommy	-5740
attered	-5741
aya	-5742
uous	-5743
▁geit	-5744
▁Alles	-5745
▁sloot	-5746
所谓	-5747
actor	-5748
schuw	-5749
▁drum	-5750
▁fo	-5751
aval	-5752
sprong	-5753
▁Holly	-5754
43	-5755
Mr	-5756
统计	-5757
siteit	-5758
$$;	-5759
▁HI	-5760
twee	-5761
▁Atlant	-5762
schil	-5763
imum	-5764
vast	-5765
▁behoor	-5766
▁、	-5767
aha	-5768
▁Amy	-5769
使得	-5770
场上	-5771
rior	-5772
▁pij	-5773
▁chat	-5774
▁Sport	-5775
2\	-5776
endom	-5777
-104	-5778
At	-5779
Sh	-5780
▁某	-5781
▁én	-5782
stic	-5783
week	-5784
▁recept	-5785
▁occurred	-5786
至于	-5787
要不	-5788
iep	-5789
▁ju	-5790
ades	-5791
▁Prince	-5792
SO	-5793
dur	-5794
}-\	-5795
essor	-5796
告诉我	-5797
owed	-5798
我们可以	-5799
63	-5800
▁tap	-5801
▁Many	-5802
nemers	-5803
▁Fries	-5804
▁interrupted	-5805
的天	-5806
ijg	-5807
feer	-5808
▁lov	-5809
schip	-5810
▁indign	-5811
我们就	-5812
efit	-5813
essen	-5814
▁Julius	-5815
▁cottage	-5816
我才	-5817
$$5	-5818
bei	-5819
▁dub	-5820
▁jud	-5821
meester	-5822
Van	-5823
ites	-5824
▁Fox	-5825
▁Hil	-5826
Peter	-5827
▁buff	-5828
ekenen	-5829
▁正	-5830
▁Ala	-5831
scheid	-5832
▁Edward	-5833
▁proceeded	-5834
上下	-5835
ird	-5836
ourn	-5837
wise	-5838
▁Dur	-5839
▁Kra	-5840
werkers	-5841
▁Lincoln	-5842
▁monarch	-5843
▁prospect	-5844
▁zogenaam	-5845
+4	-5846
▁收	-5847
了呀	-5848
igs	-5849
^{2}}	-5850
eller	-5851
plein	-5852
▁Allah	-5853
▁regret	-5854
是好	-5855
tened	-5856
wereld	-5857
4-	-5858
omp	-5859
allow	-5860
▁Tsje	-5861
▁anch	-5862
▁gazed	-5863
vestigd	-5864
RELATIVE	-5865
Kijk	-5866
lamb	-5867
▁Mill	-5868
vissen	-5869
▁Sixtus	-5870
moed	-5871
▁Ren	-5872
."--_	-5873
}_{1}	-5874
ceived	-5875
▁Japanse	-5876
跟他	-5877
▁进去	-5878
▁Mot	-5879
kg	-5880
bot	-5881
}^{\	-5882
▁Chairman	-5883
▁~	-5884
▁Cub	-5885
▁viss	-5886
▁strat	-5887
ooppunt	-5888
baarheid	-5889
▁huil	-5890
▁Artemis	-5891
不去	-5892
oeh	-5893
▁MO	-5894
▁Bour	-5895
▁toep	-5896
▁prompt	-5897
▁Wood	-5898
▁geste	-5899
genheid	-5900
▁commer	-5901
▁我在	-5902
beter	-5903
定了	-5904
▁Si	-5905
▁Camp	-5906
又有	-5907
效应	-5908
set	-5909
kaar	-5910
ralen	-5911
▁Niels	-5912
▁cheerful	-5913
▁#	-5914
-89	-5915
▁由于	-5916
▁swept	-5917
Brit	-5918
▁zuur	-5919
▁Buiten	-5920
▁出去	-5921
▁anx	-5922
▁voert	-5923
之中	-5924
即可	-5925
▁1990	-5926
是吗	-5927
▁Ale	-5928
ielen	-5929
▁Minister	-5930
RA	-5931
意的	-5932
=$$	-5933
kele	-5934
▁(16	-5935
logen	-5936
ii	-5937
▁Sea	-5938
▁merely	-5939
bas	-5940
cla	-5941
▁AC	-5942
▁Ba	-5943
▁About	-5944
▁opsomm	-5945
可不是	-5946
▁Sep	-5947
▁Tay	-5948
▁Poor	-5949
▁toss	-5950
komsten	-5951
Re	-5952
探究	-5953
erson	-5954
▁Rand	-5955
rtussen	-5956
gem	-5957
对不对	-5958
long	-5959
▁gig	-5960
▁次	-5961
▁Out	-5962
itive	-5963
bouwen	-5964
▁Again	-5965
顿时	-5966
ads	-5967
▁Ray	-5968
▁besmet	-5969
▁stretched	-5970
fst	-5971
sed	-5972
▁vari	-5973
对吧	-5974
▁Av	-5975
view	-5976
▁(68	-5977
▁stoom	-5978
了的	-5979
利亚	-5980
▁Charlotte	-5981
ionele	-5982
komstig	-5983
会上	-5984
For	-5985
了什么	-5986
shire	-5987
▁lood	-5988
▁Hoofd	-5989
▁compar	-5990
在上	-5991
▁Ast	-5992
▁Wol	-5993
▁fol	-5994
▁relat	-5995
名的	-5996
CBA	-5997
Very	-5998
volk	-5999
oused	-6000
▁bore	-6001
▁weal	-6002
beid	-6003
lambda	-6004
▁accompl	-6005
形态	-6006
▁pursu	-6007
▁confess	-6008
▁AT	-6009
▁Ass	-6010
没有什么	-6011
▁(127	-6012
▁Palest	-6013
Me	-6014
▁∵	-6015
ops	-6016
uldig	-6017
▁Lake	-6018
▁pist	-6019
▁遍	-6020
bell	-6021
▁Res	-6022
▁stelde	-6023
▁Celestinus	-6024
▁Nell	-6025
着我	-6026
Voor	-6027
veen	-6028
vour	-6029
wind	-6030
▁Jun	-6031
▁wra	-6032
▁Arch	-6033
▁geïn	-6034
▁cliff	-6035
57	-6036
leen	-6037
ilities	-6038
gestelde	-6039
amilie	-6040
之下	-6041
采用	-6042
issa	-6043
▁wid	-6044
▁ignor	-6045
▁knikte	-6046
里边	-6047
ustomed	-6048
▁Pieter	-6049
▁1)	-6050
▁Got	-6051
▁swung	-6052
instrument	-6053
▁hai	-6054
▁scheme	-6055
roo	-6056
▁Ban	-6057
▁vig	-6058
▁Felix	-6059
综艺	-6060
nah	-6061
▁400	-6062
▁fold	-6063
winkel	-6064
▁Hierna	-6065
▁Besides	-6066
而不	-6067
▁Bow	-6068
ffect	-6069
▁Oxford	-6070
▁Eh	-6071
inary	-6072
utter	-6073
▁beschad	-6074
做到	-6075
abri	-6076
eters	-6077
ssen	-6078
wicht	-6079
▁strik	-6080
gedrukt	-6081
kampioen	-6082
tom	-6083
▁zai	-6084
erved	-6085
▁spin	-6086
▁geslacht	-6087
<{}	-6088
▁BL	-6089
▁adop	-6090
▁instance	-6091
▁Internation	-6092
hoofd	-6093
▁darm	-6094
▁inspect	-6095
clo	-6096
ora	-6097
▁intellig	-6098
boat	-6099
hire	-6100
▁Jord	-6101
我能	-6102
▁tremend	-6103
▁concentratie	-6104
tte	-6105
rier	-6106
▁IJs	-6107
rious	-6108
zoals	-6109
▁Brussel	-6110
▁ZE	-6111
plan	-6112
werp	-6113
预计	-6114
▁RE	-6115
four	-6116
▁pub	-6117
事业	-6118
airs	-6119
voed	-6120
lezen	-6121
▁onjuist	-6122
蚯蚓	-6123
mei	-6124
ureau	-6125
steden	-6126
▁stead	-6127
geboren	-6128
▁consult	-6129
kam	-6130
▁rev	-6131
ology	-6132
▁1960	-6133
▁Hill	-6134
我没	-6135
_{2}	-6136
▁Afrik	-6137
▁Britt	-6138
▁fierce	-6139
懂得	-6140
▁extent	-6141
▁National	-6142
ato	-6143
emel	-6144
ique	-6145
▁Ram	-6146
▁glu	-6147
▁inn	-6148
denly	-6149
▁MAAR	-6150
schijnlijk	-6151
、"	-6152
Ind	-6153
din	-6154
▁muttered	-6155
bode	-6156
▁Chic	-6157
▁Stud	-6158
▁dull	-6159
Be	-6160
-25	-6161
rho	-6162
▁Zwe	-6163
erves	-6164
8-	-6165
({	-6166
▁Wilhelm	-6167
UT	-6168
...-	-6169
itable	-6170
vdA	-6171
bord	-6172
lamp	-6173
▁torn	-6174
▁anger	-6175
1:	-6176
▁Len	-6177
ioned	-6178
▁Moor	-6179
▁Roman	-6180
▁keken	-6181
jaarden	-6182
▁League	-6183
就不会	-6184
▁bid	-6185
▁rag	-6186
urk	-6187
ugel	-6188
vormen	-6189
做什么	-6190
▁Sas	-6191
▁Bijna	-6192
▁veert	-6193
▁Oceaan	-6194
势能	-6195
▁zol	-6196
serie	-6197
▁Honor	-6198
▁Joseph	-6199
▁unable	-6200
▁anxiety	-6201
▁Ap	-6202
,$${	-6203
bbel	-6204
ziek	-6205
▁arose	-6206
lly	-6207
▁bewo	-6208
▁pitch	-6209
▁Eduard	-6210
▁contra	-6211
By	-6212
▁Nij	-6213
▁∴$$	-6214
feest	-6215
kunst	-6216
▁fasc	-6217
mission	-6218
gebroken	-6219
ava	-6220
▁Jong	-6221
▁pijl	-6222
gegaan	-6223
▁Janneke	-6224
▁kre	-6225
ached	-6226
▁trot	-6227
minste	-6228
▁Sandy	-6229
▁Burton	-6230
▁办	-6231
aleis	-6232
straf	-6233
Malley	-6234
▁Grant	-6235
▁schim	-6236
appointed	-6237
sem	-6238
tee	-6239
▁Sm	-6240
ieven	-6241
lijks	-6242
soorten	-6243
utenant	-6244
▁Virgin	-6245
▁Jackson	-6246
eeuw	-6247
onst	-6248
ommel	-6249
▁amongst	-6250
92	-6251
等式	-6252
▁Bud	-6253
rwijs	-6254
oest	-6255
nation	-6256
▁Infor	-6257
▁prakt	-6258
voorschrift	-6259
rekk	-6260
▁HEB	-6261
koper	-6262
umbled	-6263
▁Vietnam	-6264
Wel	-6265
▁Duck	-6266
54	-6267
姆斯	-6268
alo	-6269
hamed	-6270
ois	-6271
ierd	-6272
▁ani	-6273
▁dro	-6274
▁skill	-6275
ux	-6276
显得	-6277
som	-6278
▁equ	-6279
▁Robin	-6280
▁rifle	-6281
▁Suddenly	-6282
▁behoorlijk	-6283
真好	-6284
cend	-6285
stam	-6286
blijf	-6287
▁Theod	-6288
▁exact	-6289
sal	-6290
▁sa	-6291
▁pep	-6292
groot	-6293
▁Clare	-6294
▁concl	-6295
▁Presently	-6296
CE	-6297
NO	-6298
lt	-6299
我我	-6300
质的	-6301
▁Ty	-6302
在哪里	-6303
▁Hoo	-6304
▁sought	-6305
▁Voorbeelden	-6306
AV	-6307
bably	-6308
ertel	-6309
partij	-6310
zullen	-6311
▁Antwerpen	-6312
▁Vers	-6313
▁Opdracht	-6314
在地	-6315
没了	-6316
▁som	-6317
tress	-6318
kundige	-6319
要把	-6320
▁repe	-6321
▁Argent	-6322
▁Dennis	-6323
▁chocol	-6324
ongfestival	-6325
law	-6326
mers	-6327
mijn	-6328
▁STAP	-6329
dioxide	-6330
▁38	-6331
地看着	-6332
▁awa	-6333
▁Take	-6334
▁huur	-6335
keurig	-6336
▁Zelfs	-6337
▁straw	-6338
34	-6339
Sch	-6340
zon	-6341
▁6,	-6342
gsel	-6343
}}^{	-6344
ances	-6345
▁VOOR	-6346
▁Vier	-6347
perate	-6348
bab	-6349
▁佩奇	-6350
eman	-6351
▁Verd	-6352
▁chum	-6353
向上	-6354
emd	-6355
Niet	-6356
oute	-6357
▁Mars	-6358
▁Fransen	-6359
▁各	-6360
有好	-6361
种的	-6362
▁Guy	-6363
▁Vin	-6364
etter	-6365
▁(200	-6366
▁aim	-6367
infty	-6368
volgd	-6369
▁aboard	-6370
吵架	-6371
贝贝	-6372
ares	-6373
elia	-6374
▁hua	-6375
▁Tegen	-6376
68)	-6377
rond	-6378
▁Joy	-6379
aide	-6380
toren	-6381
▁...'	-6382
onment	-6383
▁habit	-6384
▁respons	-6385
公民	-6386
是被	-6387
▁Mont	-6388
▁Puck	-6389
hib	-6390
▁Roo	-6391
▁Papa	-6392
roe	-6393
▁34	-6394
iguur	-6395
▁Hoog	-6396
▁lust	-6397
▁munt	-6398
▁Jezus	-6399
▁insisted	-6400
Op	-6401
▁国	-6402
▁geï	-6403
伸出	-6404
咪咪	-6405
救命	-6406
▁scheid	-6407
▁slu	-6408
oni	-6409
trein	-6410
▁Such	-6411
及其	-6412
daag	-6413
▁dunno	-6414
{~	-6415
(1)	-6416
non	-6417
▁厉害	-6418
▁opper	-6419
chester	-6420
geslagen	-6421
▁Di	-6422
▁Trump	-6423
▁Taylor	-6424
^{\	-6425
▁Wo	-6426
有意思	-6427
▁vic	-6428
$$6$$	-6429
trekk	-6430
gebouwd	-6431
辈子	-6432
KEN	-6433
很厉害	-6434
odie	-6435
rijke	-6436
挂在	-6437
的我	-6438
dig	-6439
olle	-6440
▁zaad	-6441
▁conscious	-6442
ijm	-6443
▁65	-6444
ands	-6445
▁Dub	-6446
▁grim	-6447
$$,$$\	-6448
▁flung	-6449
▁resolved	-6450
他有	-6451
到我	-6452
指着	-6453
sity	-6454
▁clo	-6455
vlieg	-6456
▁1980	-6457
▁Andy	-6458
▁Wind	-6459
Ga	-6460
74)	-6461
kou	-6462
reg	-6463
sbe	-6464
▁Tal	-6465
▁mil	-6466
stroom	-6467
zinnen	-6468
▁Verklaar	-6469
▁geproduceerd	-6470
会了	-6471
40)	-6472
IGH	-6473
tit	-6474
}^{2	-6475
▁Ran	-6476
▁kam	-6477
▁suffer	-6478
联盟	-6479
Bec	-6480
uct	-6481
omer	-6482
rale	-6483
▁Tre	-6484
地对	-6485
ses	-6486
uan	-6487
rokod	-6488
slagen	-6489
早知	-6490
的名	-6491
配合	-6492
35)	-6493
iere	-6494
▁recog	-6495
One	-6496
Wie	-6497
分别为	-6498
我怎么	-6499
poes	-6500
▁(25	-6501
▁SCH	-6502
▁mec	-6503
master	-6504
hes	-6505
ired	-6506
▁Oud	-6507
{1}{4	-6508
▁Rod	-6509
▁Dist	-6510
▁scout	-6511
▁observ	-6512
▁Gen	-6513
▁June	-6514
▁onto	-6515
▁supp	-6516
waarden	-6517
position	-6518
▁安	-6519
初中	-6520
kool	-6521
oved	-6522
grote	-6523
▁Most	-6524
▁Party	-6525
▁spaar	-6526
sol	-6527
iles	-6528
ires	-6529
▁cler	-6530
▁stik	-6531
stance	-6532
▁Bovendien	-6533
▁sem	-6534
▁vir	-6535
▁lukte	-6536
Because	-6537
▁toegekend	-6538
fl	-6539
的地	-6540
会导致	-6541
▁zoet	-6542
eculen	-6543
▁Bernard	-6544
▁arrival	-6545
6,	-6546
agt	-6547
▁时候	-6548
duid	-6549
woud	-6550
ieved	-6551
imale	-6552
gebeeld	-6553
Mo	-6554
▁Lucy	-6555
▁Zwarte	-6556
不相	-6557
inks	-6558
▁dut	-6559
izend	-6560
▁Eva	-6561
▁concurr	-6562
▁XVI	-6563
▁Edna	-6564
lekker	-6565
在于	-6566
是用	-6567
gage	-6568
ilst	-6569
▁Sle	-6570
▁Mean	-6571
zettend	-6572
UM	-6573
$$0.	-6574
▁就是啊	-6575
▁feast	-6576
会被	-6577
nat	-6578
▁13.	-6579
▁kloo	-6580
letter	-6581
▁Museum	-6582
拿到	-6583
送到	-6584
gehouden	-6585
▁声	-6586
。。	-6587
就知	-6588
iks	-6589
▁sew	-6590
▁Laur	-6591
volger	-6592
▁Republike	-6593
ievoorschrift	-6594
kje	-6595
tinct	-6596
▁Kroat	-6597
▁excla	-6598
Brabant	-6599
▁Church	-6600
▁improve	-6601
etta	-6602
alect	-6603
▁(118	-6604
▁Chief	-6605
着他	-6606
kleur	-6607
steun	-6608
▁Cont	-6609
▁Schip	-6610
▁revol	-6611
我到	-6612
ugo	-6613
uzz	-6614
▁Rec	-6615
▁Wales	-6616
▁Joegos	-6617
▁Frances	-6618
给它	-6619
▁Pak	-6620
haust	-6621
istic	-6622
▁Vlaa	-6623
▁whip	-6624
tische	-6625
▁klank	-6626
kru	-6627
uig	-6628
▁Gold	-6629
▁Anast	-6630
▁Leslie	-6631
▁Potter	-6632
▁sau	-6633
ertain	-6634
▁Twenty	-6635
▁Eigenlijk	-6636
在他	-6637
Wil	-6638
arks	-6639
tains	-6640
▁Tell	-6641
▁Natuurlijk	-6642
Nu	-6643
完善	-6644
ieel	-6645
ardon	-6646
lijden	-6647
▁Art	-6648
▁Aut	-6649
▁Stap	-6650
▁Joegoslav	-6651
73	-6652
▁不要	-6653
geen	-6654
▁Tit	-6655
bergen	-6656
▁Beide	-6657
}$$、$${	-6658
▁borrow	-6659
▁Kareltje	-6660
妙的	-6661
都知	-6662
▁Law	-6663
▁esc	-6664
Britt	-6665
liber	-6666
▁require	-6667
foto	-6668
inct	-6669
vier	-6670
▁qual	-6671
▁recall	-6672
举办	-6673
的总	-6674
asy	-6675
▁ket	-6676
▁Niemand	-6677
▁Ali	-6678
▁Say	-6679
▁zun	-6680
▁State	-6681
▁scrat	-6682
reis	-6683
rouwen	-6684
▁convin	-6685
▁horror	-6686
▁Ta	-6687
▁Radio	-6688
▁psych	-6689
'-	-6690
IV	-6691
cose	-6692
cted	-6693
▁smok	-6694
▁Mexic	-6695
想的	-6696
爸爸的	-6697
▁Slo	-6698
▁VVD	-6699
▁Surin	-6700
▁jolly	-6701
▁Bum	-6702
▁gri	-6703
geschreven	-6704
各个	-6705
▁Serg	-6706
▁sweep	-6707
▁Roemen	-6708
▁sacrif	-6709
ffie	-6710
ijdt	-6711
▁Pip	-6712
▁ser	-6713
rades	-6714
▁ER	-6715
avan	-6716
uted	-6717
▁gul	-6718
onstr	-6719
▁creep	-6720
▁Professor	-6721
▁accustomed	-6722
zhe	-6723
comm	-6724
inië	-6725
▁Spr	-6726
▁noemde	-6727
等到	-6728
▁Five	-6729
▁behav	-6730
▁zulke	-6731
▁impatient	-6732
▁Club	-6733
▁phot	-6734
iveau	-6735
reeks	-6736
dually	-6737
▁进	-6738
啥的	-6739
块儿	-6740
Hier	-6741
走的	-6742
cord	-6743
功夫	-6744
▁Next	-6745
▁Zeeland	-6746
.'"	-6747
TLE	-6748
▁klim	-6749
▁Clara	-6750
fa	-6751
▁Marokko	-6752
倒是	-6753
入了	-6754
iste	-6755
naast	-6756
▁Ster	-6757
olieke	-6758
▁utter	-6759
26	-6760
Le	-6761
▁Ol	-6762
tron	-6763
▁Mas	-6764
quest	-6765
raagt	-6766
▁Down	-6767
▁initi	-6768
bid	-6769
▁pH	-6770
cour	-6771
▁Zsa	-6772
▁geë	-6773
▁wis	-6774
oxide	-6775
ochtend	-6776
OB	-6777
ILL	-6778
▁ty	-6779
role	-6780
▁rage	-6781
▁stretch	-6782
▁Cass	-6783
▁duik	-6784
▁|$$\	-6785
▁Johns	-6786
▁Vlaamse	-6787
Duitsland	-6788
我再	-6789
就是在	-6790
没有了	-6791
▁Sta	-6792
▁negro	-6793
▁behore	-6794
▁filosof	-6795
.《	-6796
巴萨	-6797
连接	-6798
可以在	-6799
aged	-6800
gust	-6801
vironment	-6802
▁European	-6803
▁tremendous	-6804
uul	-6805
ouch	-6806
▁要不要	-6807
appear	-6808
spelen	-6809
vester	-6810
reactie	-6811
wijst	-6812
▁Aust	-6813
▁tack	-6814
上最	-6815
制的	-6816
mod	-6817
ames	-6818
oelen	-6819
stone	-6820
▁Daarmee	-6821
相反	-6822
▁BR	-6823
hist	-6824
▁Vide	-6825
▁reus	-6826
▁cheek	-6827
真不	-6828
bomen	-6829
▁ZIJN	-6830
▁lack	-6831
各自	-6832
就想	-6833
mus	-6834
▁都是	-6835
erts	-6836
rone	-6837
volle	-6838
Footnote	-6839
倒了	-6840
委员	-6841
部的	-6842
18)	-6843
wal	-6844
play	-6845
▁Eugen	-6846
▁Robinson	-6847
AYM	-6848
进行了	-6849
kins	-6850
pair	-6851
rson	-6852
▁Maur	-6853
▁Soph	-6854
▁Groep	-6855
▁Schotland	-6856
放下	-6857
dao	-6858
ridge	-6859
ertijd	-6860
ée	-6861
应了	-6862
氯化	-6863
duc	-6864
可以用	-6865
rade	-6866
▁Akk	-6867
▁meen	-6868
▁unex	-6869
▁absol	-6870
▁humor	-6871
▁surround	-6872
▁impression	-6873
的身	-6874
bec	-6875
nda	-6876
lood	-6877
upon	-6878
▁fel	-6879
的确	-6880
cus	-6881
loy	-6882
resh	-6883
▁grief	-6884
快要	-6885
真的好	-6886
▁voy	-6887
▁Word	-6888
▁subs	-6889
▁Though	-6890
收拾	-6891
13)	-6892
-200	-6893
annië	-6894
igden	-6895
laten	-6896
▁(155	-6897
▁Form	-6898
▁Play	-6899
▁burden	-6900
行政	-6901
走出	-6902
goo	-6903
▁Fr	-6904
▁Moh	-6905
nment	-6906
▁1970	-6907
▁Joep	-6908
stukken	-6909
Fe	-6910
itch	-6911
kuai	-6912
rene	-6913
bronnen	-6914
▁murmured	-6915
▁您	-6916
他对	-6917
iny	-6918
▁Bu	-6919
▁curios	-6920
▁importance	-6921
Ex	-6922
Huh	-6923
may	-6924
▁同时	-6925
▁Mur	-6926
▁Gran	-6927
gepast	-6928
▁clasp	-6929
我们在	-6930
yang	-6931
▁120	-6932
▁Rosa	-6933
ildren	-6934
bt	-6935
就看	-6936
pens	-6937
stok	-6938
▁Stand	-6939
▁Story	-6940
▁Barbara	-6941
alys	-6942
▁zui	-6943
heids	-6944
quare	-6945
tisch	-6946
▁Kenn	-6947
▁Il	-6948
Will	-6949
位移	-6950
来找	-6951
sted	-6952
▁Via	-6953
▁Iets	-6954
▁Matt	-6955
▁glimla	-6956
均匀	-6957
▁Pop	-6958
▁gef	-6959
▁purch	-6960
首次	-6961
▁Carl	-6962
▁kett	-6963
riften	-6964
▁Jasper	-6965
▁repeat	-6966
Wij	-6967
cium	-6968
▁刚才	-6969
dney	-6970
teful	-6971
uable	-6972
blijven	-6973
▁exhaust	-6974
▁ontvang	-6975
足够	-6976
ALL	-6977
▁ao	-6978
▁Ear	-6979
▁bao	-6980
vlees	-6981
▁1997	-6982
▁groan	-6983
▁horizon	-6984
走吧	-6985
bow	-6986
achte	-6987
▁Pierre	-6988
▁reward	-6989
▁construct	-6990
denk	-6991
halte	-6992
▁Versch	-6993
▁Daarbij	-6994
82	-6995
pent	-6996
▁Zod	-6997
▁syn	-6998
▁drift	-6999
Ha	-7000
iced	-7001
▁250	-7002
▁Ker	-7003
▁ontzettend	-7004
叫起来	-7005
aise	-7006
eind	-7007
macht	-7008
▁March	-7009
CT	-7010
阻力	-7011
ata	-7012
ilig	-7013
bouwd	-7014
zorgd	-7015
egorie	-7016
▁vorst	-7017
cr	-7018
▁Ka	-7019
▁(3)	-7020
▁Tob	-7021
agger	-7022
AYMATE	-7023
nesday	-7024
▁Harold	-7025
容器	-7026
spre	-7027
▁bund	-7028
不来	-7029
有着	-7030
hbf	-7031
▁39	-7032
▁Sk	-7033
▁突然	-7034
旁边的	-7035
看到的	-7036
olis	-7037
arrow	-7038
▁Post	-7039
▁bevi	-7040
gedaan	-7041
certain	-7042
▁muizen	-7043
▁scream	-7044
PLAYMATE	-7045
▁Blackie	-7046
▁concluded	-7047
Or	-7048
要不要	-7049
velyn	-7050
▁fled	-7051
rijzen	-7052
▁compet	-7053
咚咚	-7054
agd	-7055
leef	-7056
▁Los	-7057
erham	-7058
gaven	-7059
ilige	-7060
kleed	-7061
rowned	-7062
▁Lijst	-7063
udeerde	-7064
▁Really	-7065
▁savage	-7066
▁gemeten	-7067
2!	-7068
身的	-7069
gren	-7070
oelt	-7071
▁dialect	-7072
"--	-7073
15)	-7074
▁对了	-7075
plex	-7076
▁plot	-7077
elicht	-7078
▁repro	-7079
▁Enkele	-7080
▁monument	-7081
56	-7082
把握	-7083
有看	-7084
的中	-7085
8-1	-7086
cri	-7087
fles	-7088
iode	-7089
phen	-7090
uite	-7091
▁Lil	-7092
▁Life	-7093
ulatie	-7094
ursday	-7095
▁confident	-7096
▁ko	-7097
▁1995	-7098
▁Moun	-7099
alisme	-7100
整理	-7101
wen	-7102
vaar	-7103
▁hid	-7104
▁ler	-7105
▁pred	-7106
istent	-7107
roffen	-7108
▁gehoor	-7109
▁Roemenië	-7110
▁Wednesday	-7111
故意	-7112
就是我	-7113
的消息	-7114
gebo	-7115
▁FOR	-7116
▁HIJ	-7117
▁Hea	-7118
▁hon	-7119
hoorn	-7120
▁Ford	-7121
▁Onze	-7122
▁Reken	-7123
趋势	-7124
要不然	-7125
▁comrades	-7126
模样	-7127
▁WH	-7128
▁Hou	-7129
▁eff	-7130
▁Hugh	-7131
▁absen	-7132
▁moslim	-7133
}_{{	-7134
▁lodge	-7135
elev	-7136
▁(70	-7137
amber	-7138
▁Maas	-7139
▁limb	-7140
▁gesteld	-7141
是呀	-7142
来得	-7143
ziet	-7144
▁Wes	-7145
▁People	-7146
▁PS	-7147
igned	-7148
ustrie	-7149
▁Dallas	-7150
▁exceed	-7151
▁Revolutie	-7152
子上	-7153
▁float	-7154
▁kab	-7155
▁vit	-7156
comfort	-7157
▁Gouden	-7158
antwoord	-7159
▁Thursday	-7160
啦啦	-7161
盯着	-7162
jan	-7163
oeke	-7164
▁Hind	-7165
schappelijke	-7166
%.	-7167
IP	-7168
露出	-7169
bers	-7170
avily	-7171
steld	-7172
pelijke	-7173
▁Arnold	-7174
▁Anastasius	-7175
先不	-7176
汪汪	-7177
ookt	-7178
anger	-7179
▁extreme	-7180
organisatie	-7181
怎么能	-7182
▁breeze	-7183
全是	-7184
助于	-7185
▁Gl	-7186
下来了	-7187
告诉我们	-7188
▁omzet	-7189
▁schak	-7190
gevallen	-7191
们在	-7192
运行	-7193
bad	-7194
▁Ell	-7195
selen	-7196
▁py	-7197
觉得很	-7198
▁cop	-7199
▁tide	-7200
▁Royal	-7201
▁Lieutenant	-7202
kr	-7203
blok	-7204
etic	-7205
oney	-7206
▁stikstof	-7207
不愿意	-7208
onie	-7209
erekend	-7210
▁leaped	-7211
来着	-7212
▁Sab	-7213
oeien	-7214
▁Union	-7215
▁Evelyn	-7216
aaf	-7217
gez	-7218
ode	-7219
oke	-7220
hearted	-7221
▁Sergius	-7222
5\	-7223
骆驼	-7224
ppe	-7225
enda	-7226
▁Pel	-7227
itiek	-7228
▁bewe	-7229
stalige	-7230
▁swallow	-7231
▁politicus	-7232
▁对对	-7233
不得不	-7234
more	-7235
oman	-7236
rium	-7237
▁Road	-7238
▁dwel	-7239
▁spier	-7240
▁Labour	-7241
OK	-7242
▁NS	-7243
onië	-7244
▁Pass	-7245
|}	-7246
eloos	-7247
ledge	-7248
▁immig	-7249
7-	-7250
▁Ko	-7251
boer	-7252
ucht	-7253
inatie	-7254
▁Nikki	-7255
放到	-7256
loze	-7257
uken	-7258
uurd	-7259
▁Mass	-7260
ilg	-7261
▁(12	-7262
irkel	-7263
▁dict	-7264
▁hind	-7265
▁Honorius	-7266
cre	-7267
Frank	-7268
▁Mike	-7269
▁conclus	-7270
▁Eugenius	-7271
mmm	-7272
▁gij	-7273
▁slee	-7274
▁spre	-7275
ysteem	-7276
▁shone	-7277
▁Galerij	-7278
▁criminal	-7279
做功	-7280
并非	-7281
独自	-7282
他就是	-7283
▁sap	-7284
▁onbe	-7285
▁Lar	-7286
▁lijf	-7287
▁Prinses	-7288
▁complex	-7289
▁fluisterde	-7290
型的	-7291
碰到	-7292
究竟	-7293
hua	-7294
mou	-7295
graf	-7296
roon	-7297
genoten	-7298
▁ 	-7299
▁搭	-7300
xia	-7301
▁7,	-7302
suit	-7303
▁fir	-7304
遇到了	-7305
atus	-7306
iesten	-7307
▁Berry	-7308
▁Klaar	-7309
▁Johnson	-7310
▁absence	-7311
-,	-7312
pub	-7313
▁PL	-7314
▁cock	-7315
Brittannië	-7316
它就	-7317
omb	-7318
stro	-7319
▁Cli	-7320
蛤蟆	-7321
"、"	-7322
See	-7323
▁Sup	-7324
ecuul	-7325
▁buis	-7326
▁stel	-7327
▁toeg	-7328
▁unhappy	-7329
▁Afrikaanse	-7330
down	-7331
kozen	-7332
▁Each	-7333
▁Mama	-7334
做出	-7335
片的	-7336
.③④	-7337
▁ts	-7338
hout	-7339
ties	-7340
valt	-7341
▁Hugo	-7342
▁gebo	-7343
har	-7344
▁截至	-7345
▁gan	-7346
tegenwoordig	-7347
▁Aud	-7348
▁Wim	-7349
spraak	-7350
▁libert	-7351
▁munten	-7352
ertainly	-7353
▁Spanjaarden	-7354
得出	-7355
miss	-7356
zoen	-7357
▁Ash	-7358
▁Bang	-7359
▁conne	-7360
▁fetch	-7361
▁conserv	-7362
▁spe	-7363
itter	-7364
licate	-7365
▁é	-7366
苍蝇	-7367
adden	-7368
▁Fire	-7369
▁Hein	-7370
mannen	-7371
}_{0}}	-7372
83	-7373
在是	-7374
姥姥	-7375
agg	-7376
▁DIE	-7377
Maybe	-7378
▁Soon	-7379
▁Thor	-7380
▁poly	-7381
steken	-7382
▁Cross	-7383
aced	-7384
meel	-7385
▁Gerard	-7386
ront	-7387
▁gre	-7388
eldom	-7389
▁klei	-7390
▁Bronnen	-7391
▁dragged	-7392
$$.(	-7393
▁Dol	-7394
heers	-7395
▁anti	-7396
▁kale	-7397
ration	-7398
▁Amanda	-7399
▁unexpected	-7400
▁Sla	-7401
itale	-7402
rance	-7403
")	-7404
喇叭	-7405
定能	-7406
普遍	-7407
Jan	-7408
esp	-7409
▁Pool	-7410
▁biosc	-7411
▁amusement	-7412
上看	-7413
全都	-7414
fall	-7415
liep	-7416
▁Tem	-7417
▁dyn	-7418
pleas	-7419
▁1996	-7420
▁Dren	-7421
▁Noah	-7422
▁staal	-7423
▁calcul	-7424
#$	-7425
nemer	-7426
urely	-7427
araten	-7428
▁Pruis	-7429
▁lepel	-7430
▁kie	-7431
ongen	-7432
▁Somers	-7433
伙子	-7434
彼此	-7435
17)	-7436
reh	-7437
shu	-7438
post	-7439
▁1900	-7440
▁Raad	-7441
▁vloe	-7442
▁IJssel	-7443
▁zangeres	-7444
叫着	-7445
蹦蹦	-7446
▁Bi	-7447
ipen	-7448
ragg	-7449
▁189	-7450
▁Rut	-7451
ember	-7452
idence	-7453
▁intend	-7454
▁curiosity	-7455
dank	-7456
ijke	-7457
stijl	-7458
▁    	-7459
formule	-7460
▁regarded	-7461
▁georganis	-7462
▁Rel	-7463
▁absolute	-7464
sts	-7465
agne	-7466
kerk	-7467
quar	-7468
oloog	-7469
unted	-7470
▁Joris	-7471
▁spark	-7472
▁elektro	-7473
nl	-7474
地在	-7475
zes	-7476
什么呀	-7477
▁Home	-7478
▁plun	-7479
zitten	-7480
事的	-7481
kor	-7482
▁随着	-7483
了过来	-7484
ware	-7485
怎么办呢	-7486
▁ople	-7487
▁flock	-7488
整整	-7489
ibly	-7490
raten	-7491
▁prov	-7492
▁wret	-7493
}}_2}{	-7494
▁arbeid	-7495
gesloten	-7496
引力	-7497
turb	-7498
▁Deel	-7499
▁Moses	-7500
kerchief	-7501
hs	-7502
我可	-7503
uesday	-7504
)}^{2}}	-7505
▁commen	-7506
▁uttered	-7507
och	-7508
oup	-7509
crim	-7510
pril	-7511
}_{4	-7512
ionen	-7513
geveer	-7514
▁Grace	-7515
▁accompanied	-7516
Ph	-7517
▁48	-7518
▁(99	-7519
▁voeg	-7520
waarom	-7521
▁Sydney	-7522
vre	-7523
▁ax	-7524
▁我不	-7525
vlies	-7526
▁pistol	-7527
6-	-7528
ria	-7529
Zeel	-7530
pret	-7531
▁Dim	-7532
▁Liv	-7533
kkers	-7534
klein	-7535
menten	-7536
▁reage	-7537
dijk	-7538
foon	-7539
wiel	-7540
▁uil	-7541
狠狠	-7542
wijze	-7543
▁Waal	-7544
}$$,$$	-7545
iliteit	-7546
▁beïnvloed	-7547
▁intention	-7548
!)	-7549
的特	-7550
akk	-7551
▁$#	-7552
zone	-7553
ilton	-7554
▁whilst	-7555
▁Tuesday	-7556
ké	-7557
去做	-7558
毫不	-7559
财政	-7560
stor	-7561
▁1992	-7562
▁seldom	-7563
早已	-7564
看他	-7565
▁Son	-7566
merkt	-7567
vaten	-7568
▁1950	-7569
tentie	-7570
▁Liber	-7571
▁obtain	-7572
▁College	-7573
sect	-7574
wald	-7575
oster	-7576
▁opbr	-7577
belast	-7578
▁Mario	-7579
▁往	-7580
iot	-7581
ril	-7582
rate	-7583
▁Town	-7584
▁emer	-7585
▁Leiden	-7586
▁gister	-7587
ification	-7588
▁Hongarije	-7589
细菌	-7590
voeg	-7591
▁hui	-7592
▁lip	-7593
▁Boys	-7594
▁Irene	-7595
▁steer	-7596
▁Centraal	-7597
ua	-7598
它在	-7599
Kor	-7600
叫什么	-7601
▁vij	-7602
teraad	-7603
:-	-7604
▁3:	-7605
▁GR	-7606
▁SE	-7607
colm	-7608
:--	-7609
mad	-7610
sje	-7611
▁Bee	-7612
▁bug	-7613
▁Spani	-7614
▁interf	-7615
ïs	-7616
然是	-7617
rass	-7618
sper	-7619
voort	-7620
werkt	-7621
ommend	-7622
ruchten	-7623
分的	-7624
ION	-7625
{10	-7626
▁GA	-7627
bied	-7628
tekst	-7629
arters	-7630
▁porch	-7631
▁spectac	-7632
▁Friesland	-7633
▁omschrijv	-7634
坐着	-7635
如今	-7636
症状	-7637
的就	-7638
kla	-7639
zag	-7640
▁bun	-7641
▁Moham	-7642
▁Vraag	-7643
▁beschouwd	-7644
▁<	-7645
ESS	-7646
Heb	-7647
alty	-7648
erto	-7649
▁aar	-7650
▁tum	-7651
▁scru	-7652
▁Vanuit	-7653
▁anchor	-7654
2+	-7655
涨停	-7656
ARD	-7657
oft	-7658
try	-7659
atch	-7660
ints	-7661
staten	-7662
gehaald	-7663
▁Bumper	-7664
▁Rosalie	-7665
遗憾	-7666
36)	-7667
▁gaz	-7668
▁Slag	-7669
▁lect	-7670
▁urged	-7671
atische	-7672
好不	-7673
都不会	-7674
▁Lan	-7675
▁lan	-7676
▁mug	-7677
ribly	-7678
▁cong	-7679
$$10$$	-7680
▁stress	-7681
astricht	-7682
▁chocolade	-7683
PS	-7684
藏在	-7685
▁Acc	-7686
▁vag	-7687
▁Gent	-7688
▁STOR	-7689
▁plak	-7690
▁tribe	-7691
▁toepass	-7692
producten	-7693
▁zogenaamde	-7694
ees	-7695
vas	-7696
Weet	-7697
blemen	-7698
▁Tsjech	-7699
scheiden	-7700
TA	-7701
▁或者	-7702
▁记得	-7703
umenten	-7704
▁Servië	-7705
2{	-7706
可以看	-7707
▁lod	-7708
▁squir	-7709
▁Marcel	-7710
▁intens	-7711
▁recommend	-7712
BO	-7713
▁dod	-7714
alous	-7715
▁Econom	-7716
▁promptly	-7717
▁Joegoslavië	-7718
▁koolstofdioxide	-7719
ez	-7720
}{{	-7721
▁Duke	-7722
▁Gray	-7723
morgen	-7724
▁Hierin	-7725
▁leaned	-7726
▁Virginia	-7727
地走	-7728
zijd	-7729
ehead	-7730
▁Vera	-7731
ruimte	-7732
▁steep	-7733
▁Malcolm	-7734
的上	-7735
era	-7736
▁dw	-7737
when	-7738
hallo	-7739
fabriek	-7740
▁Nellie	-7741
▁Hiermee	-7742
zinn	-7743
breid	-7744
▁PvdA	-7745
▁Tijd	-7746
▁sier	-7747
▁scram	-7748
▁Suriname	-7749
▁擦	-7750
挺不	-7751
ruit	-7752
▁14.	-7753
fabet	-7754
▁keur	-7755
▁Merel	-7756
zou	-7757
是在看	-7758
vise	-7759
aired	-7760
▁daal	-7761
▁stek	-7762
87	-7763
stek	-7764
▁Fle	-7765
▁Nig	-7766
ional	-7767
cirkel	-7768
Zeeland	-7769
▁slij	-7770
ground	-7771
▁opzij	-7772
sitated	-7773
▁Nationale	-7774
▁financiële	-7775
vig	-7776
我不知	-7777
pakt	-7778
▁damp	-7779
▁opvolger	-7780
03	-7781
事物	-7782
由此	-7783
▁spijk	-7784
▁contain	-7785
▁看到	-7786
rest	-7787
emaal	-7788
▁Jood	-7789
▁Rode	-7790
▁skel	-7791
▁blaad	-7792
▁duties	-7793
▁vracht	-7794
tot	-7795
uwd	-7796
zië	-7797
▁twink	-7798
朵朵	-7799
要有	-7800
uter	-7801
▁Tar	-7802
▁Film	-7803
▁Alban	-7804
-88	-7805
58)	-7806
▁KL	-7807
ijntje	-7808
racted	-7809
▁Agnes	-7810
▁Carol	-7811
▁Santa	-7812
▁favourite	-7813
▁装	-7814
业绩	-7815
▁kro	-7816
ultan	-7817
maatschappij	-7818
队友	-7819
告诉了	-7820
aille	-7821
pends	-7822
papier	-7823
▁obser	-7824
▁contribut	-7825
Ar	-7826
zh	-7827
ota	-7828
是由于	-7829
okee	-7830
▁Clo	-7831
▁Sche	-7832
▁obta	-7833
▁Maybe	-7834
$.	-7835
5,	-7836
\%$$	-7837
行驶	-7838
eke	-7839
ros	-7840
toon	-7841
▁Ond	-7842
onies	-7843
rukte	-7844
streep	-7845
▁suspect	-7846
,.	-7847
▁摆	-7848
破了	-7849
讲述	-7850
ABC	-7851
都不知	-7852
rood	-7853
graven	-7854
▁drupp	-7855
▁schapen	-7856
mark	-7857
ounce	-7858
▁Rick	-7859
▁amid	-7860
▁April	-7861
Say	-7862
aurus	-7863
▁trad	-7864
▁calcium	-7865
-96	-7866
CHT	-7867
lyn	-7868
urn	-7869
▁GO	-7870
受不了	-7871
▁ink	-7872
▁tid	-7873
ITTLE	-7874
▁obst	-7875
▁Williams	-7876
▁Parlement	-7877
▁样	-7878
各样的	-7879
boog	-7880
luis	-7881
▁Alm	-7882
▁rude	-7883
▁piram	-7884
▁tempt	-7885
▁Waarschijnlijk	-7886
姊姊	-7887
某些	-7888
蜻蜓	-7889
分别是	-7890
▁gord	-7891
▁kalk	-7892
▁Jennie	-7893
snelheid	-7894
▁Schiphol	-7895
kaan	-7896
▁187	-7897
▁Oma	-7898
▁dode	-7899
▁Weten	-7900
▁Keizer	-7901
▁toename	-7902
▁Meanwhile	-7903
监督	-7904
Ben	-7905
itaal	-7906
ropri	-7907
uigen	-7908
▁1994	-7909
TT	-7910
90)	-7911
ELL	-7912
什么事	-7913
身边的	-7914
avel	-7915
klas	-7916
quis	-7917
▁Leeuw	-7918
▁villa	-7919
Met	-7920
▁Vl	-7921
▁Beck	-7922
zichtig	-7923
▁Anyway	-7924
▁Steeds	-7925
▁Behalve	-7926
Misschien	-7927
▁geschrokken	-7928
不觉	-7929
▁geh	-7930
▁(100	-7931
▁Weer	-7932
▁brig	-7933
ailles	-7934
▁gevierd	-7935
▁嘞	-7936
收益	-7937
计时	-7938
防控	-7939
▁Bad	-7940
riële	-7941
是没	-7942
▁ox	-7943
▁Bil	-7944
▁我们下	-7945
iaans	-7946
▁Abra	-7947
▁Chap	-7948
▁behoren	-7949
是以	-7950
是想	-7951
anor	-7952
mund	-7953
▁$${{	-7954
▁Dire	-7955
▁Buddy	-7956
▁Turkse	-7957
wedstrijden	-7958
▁remarkable	-7959
{7	-7960
所在	-7961
nity	-7962
oked	-7963
▁noon	-7964
▁ribb	-7965
tember	-7966
▁uncons	-7967
9,	-7968
any	-7969
megen	-7970
▁silk	-7971
▁Daddy	-7972
▁fluit	-7973
▁yield	-7974
▁Andrew	-7975
▁Jessie	-7976
▁Lucius	-7977
▁possessed	-7978
地向	-7979
看好	-7980
enkt	-7981
dagen	-7982
▁Witte	-7983
▁false	-7984
▁immers	-7985
▁mobiel	-7986
▁°	-7987
到来	-7988
座位	-7989
ska	-7990
▁SH	-7991
lash	-7992
▁Tam	-7993
▁Wee	-7994
graaf	-7995
▁Half	-7996
▁Kort	-7997
aarden	-7998
vogels	-7999
▁Noordzee	-8000
appointment	-8001
哪种	-8002
▁毕竟	-8003
geer	-8004
risch	-8005
▁noot	-8006
eeuwse	-8007
ertjes	-8008
duidelijk	-8009
getrokken	-8010
▁scattered	-8011
$$6	-8012
pten	-8013
craft	-8014
rough	-8015
▁reve	-8016
▁whis	-8017
speler	-8018
▁Court	-8019
▁mercy	-8020
▁punishment	-8021
供应	-8022
定有	-8023
对呀	-8024
.①③	-8025
_{0	-8026
mont	-8027
orus	-8028
|}#$	-8029
▁Mea	-8030
lijnen	-8031
merken	-8032
▁Punch	-8033
▁inten	-8034
▁inches	-8035
▁Jacobus	-8036
溜溜	-8037
END	-8038
irls	-8039
▁Der	-8040
▁Fif	-8041
▁git	-8042
passen	-8043
Br	-8044
他要	-8045
!--	-8046
urg	-8047
了我的	-8048
▁ven	-8049
nestly	-8050
▁Dutch	-8051
ization	-8052
▁voyage	-8053
▁swiftly	-8054
▁fluistert	-8055
▁​	-8056
利的	-8057
lid	-8058
▁对的	-8059
raan	-8060
▁una	-8061
▁zuo	-8062
▁koor	-8063
bakken	-8064
lieden	-8065
▁Percy	-8066
▁irrit	-8067
▁glucose	-8068
▁skipper	-8069
陪伴	-8070
pag	-8071
mage	-8072
▁tab	-8073
▁Flip	-8074
▁blew	-8075
▁surv	-8076
bestuur	-8077
▁September	-8078
▁ech	-8079
▁spy	-8080
▁Drake	-8081
▁opsch	-8082
▁mysterious	-8083
_2$$	-8084
▁amp	-8085
▁weig	-8086
wis	-8087
▁mL	-8088
▁Efte	-8089
▁admin	-8090
▁duren	-8091
▁Vel	-8092
icult	-8093
▁plas	-8094
▁tevens	-8095
53	-8096
belt	-8097
mmed	-8098
▁Ang	-8099
▁Britain	-8100
媳妇	-8101
uif	-8102
有助于	-8103
nific	-8104
▁Roxy	-8105
▁obey	-8106
zoeken	-8107
}^{3}}	-8108
▁regul	-8109
▁些	-8110
他很	-8111
会对	-8112
rde	-8113
pijn	-8114
▁Mir	-8115
▁mun	-8116
comot	-8117
▁strain	-8118
▁Allison	-8119
7,	-8120
匆匆	-8121
rend	-8122
sens	-8123
zijde	-8124
预期	-8125
who	-8126
▁1/	-8127
▁Yor	-8128
什么样的	-8129
allie	-8130
▁Lily	-8131
eerden	-8132
▁Butler	-8133
itz	-8134
ogh	-8135
不就是	-8136
看上去	-8137
vals	-8138
slaan	-8139
planten	-8140
sterkte	-8141
▁Mohammed	-8142
FC	-8143
的最	-8144
▁ec	-8145
stap	-8146
▁nom	-8147
▁tan	-8148
▁Lucas	-8149
的分	-8150
cup	-8151
issy	-8152
piece	-8153
duizend	-8154
**	-8155
imo	-8156
lik	-8157
▁因此	-8158
▁Sav	-8159
▁poe	-8160
▁shy	-8161
▁Adams	-8162
▁Sally	-8163
▁Bepaal	-8164
dd	-8165
要在	-8166
趴在	-8167
▁Tok	-8168
Korea	-8169
venue	-8170
▁Tara	-8171
▁inch	-8172
▁liqu	-8173
▁krokod	-8174
lanation	-8175
▁traditionele	-8176
起的	-8177
适宜	-8178
zig	-8179
mies	-8180
▁rais	-8181
iseren	-8182
▁Davis	-8183
▁Young	-8184
uminium	-8185
▁LITTLE	-8186
▁schudt	-8187
▁grinned	-8188
▁schudde	-8189
▁TW	-8190
aald	-8191
cussion	-8192
▁dubbel	-8193
轨迹	-8194
bors	-8195
=0$$,	-8196
appel	-8197
intig	-8198
▁bact	-8199
▁smelt	-8200
▁georganiseerd	-8201
Ge	-8202
Chr	-8203
Tok	-8204
cal	-8205
▁BOY	-8206
olden	-8207
niture	-8208
▁Norah	-8209
▁sticht	-8210
▁Ondanks	-8211
▁confusion	-8212
代的	-8213
佩服	-8214
arn	-8215
pon	-8216
vul	-8217
self	-8218
▁Give	-8219
▁Wemel	-8220
persoon	-8221
▁income	-8222
▁submar	-8223
LD	-8224
ér	-8225
涨幅	-8226
等我	-8227
acon	-8228
icks	-8229
▁...(	-8230
Amerik	-8231
▁Nigel	-8232
▁grijs	-8233
▁resour	-8234
▁Voordat	-8235
▁Daarvoor	-8236
▁(30	-8237
onsieur	-8238
▁bevrijd	-8239
THE	-8240
geef	-8241
▁Snel	-8242
▁slid	-8243
gument	-8244
▁cruis	-8245
uwkeurig	-8246
劲儿	-8247
haar	-8248
▁blz	-8249
▁tam	-8250
keeper	-8251
vember	-8252
▁bemoe	-8253
courage	-8254
▁responsibility	-8255
si	-8256
命题	-8257
默默	-8258
▁AR	-8259
就觉得	-8260
▁Yep	-8261
▁Mess	-8262
▁omroep	-8263
▁proced	-8264
▁profit	-8265
▁铺	-8266
快了	-8267
hic	-8268
jen	-8269
▁tril	-8270
▁Patty	-8271
▁公	-8272
放进	-8273
▁哪儿	-8274
就行了	-8275
iend	-8276
ores	-8277
mobile	-8278
▁Check	-8279
▁vacht	-8280
▁Argentinië	-8281
Tell	-8282
▁1945	-8283
▁conqu	-8284
}}_2}$$	-8285
opdracht	-8286
▁liberty	-8287
才知	-8288
god	-8289
▁BC	-8290
▁(128	-8291
▁Spot	-8292
▁Suzan	-8293
rnalist	-8294
▁arrive	-8295
▁Kroatië	-8296
上就	-8297
脂肪	-8298
DNA	-8299
mid	-8300
tree	-8301
▁curs	-8302
▁monarchie	-8303
▁>	-8304
在同	-8305
而言	-8306
61)	-8307
▁prest	-8308
1\	-8309
Hé	-8310
为他	-8311
沉淀	-8312
▁UN	-8313
roll	-8314
aaien	-8315
aarde	-8316
atory	-8317
▁Bosn	-8318
▁Slow	-8319
▁ease	-8320
▁kleed	-8321
▁Arnhem	-8322
▁Wilson	-8323
叫我	-8324
AST	-8325
不出来	-8326
bout	-8327
▁会不会	-8328
spart	-8329
▁Abel	-8330
▁Brun	-8331
rassen	-8332
▁Floor	-8333
▁flour	-8334
▁troop	-8335
▁straal	-8336
▁worship	-8337
搜索	-8338
:$${	-8339
Take	-8340
▁Pau	-8341
▁shr	-8342
cknow	-8343
▁Klik	-8344
▁zher	-8345
edeeld	-8346
▁meenemen	-8347
▁photograph	-8348
3-	-8349
ANG	-8350
▁Way	-8351
Jullie	-8352
cu	-8353
到很	-8354
▁Kr	-8355
clos	-8356
which	-8357
▁eleg	-8358
▁promot	-8359
tonishment	-8360
又不	-8361
▁是吧	-8362
fend	-8363
word	-8364
▁600	-8365
edition	-8366
▁Americans	-8367
的情	-8368
hog	-8369
▁42	-8370
▁hip	-8371
actly	-8372
akije	-8373
▁kwal	-8374
inters	-8375
wijken	-8376
▁ceremon	-8377
▁}	-8378
了就	-8379
承担	-8380
鹦鹉	-8381
zar	-8382
▁44	-8383
我看了	-8384
vious	-8385
的反	-8386
_{1	-8387
aka	-8388
▁cab	-8389
meren	-8390
otten	-8391
▁gesp	-8392
▁serv	-8393
▁quant	-8394
plaatsen	-8395
▁constit	-8396
▁2)	-8397
▁MET	-8398
▁glimp	-8399
▁opgel	-8400
▁Margot	-8401
▁admiration	-8402
不由	-8403
-28	-8404
das	-8405
想了想	-8406
boem	-8407
▁Fab	-8408
tonen	-8409
▁Alec	-8410
▁{{10	-8411
oosten	-8412
'?	-8413
其它	-8414
arse	-8415
▁Opa	-8416
ybody	-8417
▁Dory	-8418
▁Rhod	-8419
allend	-8420
▁Graham	-8421
▁whistle	-8422
▁Democratische	-8423
JE	-8424
乎乎	-8425
名医	-8426
客观	-8427
$$。	-8428
ami	-8429
rig	-8430
▁PR	-8431
▁tu	-8432
▁xi	-8433
loma	-8434
▁Cru	-8435
nacht	-8436
▁Bull	-8437
▁Last	-8438
▁Stefan	-8439
▁Florida	-8440
▁块	-8441
相应	-8442
eria	-8443
▁Ald	-8444
tussen	-8445
▁Eindhoven	-8446
不下	-8447
.②③	-8448
nod	-8449
▁好啊	-8450
就是他	-8451
iaan	-8452
owel	-8453
▁mead	-8454
▁quid	-8455
▁Illustrations	-8456
KS	-8457
|\	-8458
粒子	-8459
▁$$=	-8460
▁pron	-8461
▁Count	-8462
▁schaap	-8463
▁chamber	-8464
▁Nijmegen	-8465
onne	-8466
▁(11	-8467
zamer	-8468
▁veer	-8469
bureau	-8470
特斯	-8471
aga	-8472
我不是	-8473
bbie	-8474
▁Kap	-8475
arden	-8476
▁Sanne	-8477
two	-8478
达到了	-8479
osed	-8480
▁wed	-8481
▁craw	-8482
daagse	-8483
koe	-8484
lief	-8485
velt	-8486
rence	-8487
▁Hist	-8488
▁scra	-8489
▁conven	-8490
▁Finland	-8491
▁Victoria	-8492
2:	-8493
走来	-8494
预告	-8495
.②④	-8496
▁oe	-8497
char	-8498
▁Gert	-8499
▁worm	-8500
▁slope	-8501
▁strict	-8502
UG	-8503
我跟	-8504
agon	-8505
esar	-8506
▁Hay	-8507
▁kin	-8508
voted	-8509
roepen	-8510
▁Bible	-8511
eration	-8512
▁Bradford	-8513
▁55	-8514
▁Py	-8515
我看到	-8516
▁wél	-8517
▁Griff	-8518
▁elektron	-8519
gom	-8520
的事儿	-8521
ripp	-8522
▁Lam	-8523
schat	-8524
▁gaze	-8525
letjes	-8526
▁amused	-8527
ificatie	-8528
volution	-8529
▁studeerde	-8530
具备	-8531
irty	-8532
mail	-8533
take	-8534
}$$;	-8535
▁Oct	-8536
都快	-8537
▁yer	-8538
▁glan	-8539
broken	-8540
▁Commun	-8541
▁econom	-8542
4\	-8543
样了	-8544
糊涂	-8545
elp	-8546
▁不能	-8547
coun	-8548
▁CDA	-8549
▁Ged	-8550
▁conv	-8551
▁Martinus	-8552
▁Arabische	-8553
({{	-8554
mor	-8555
iker	-8556
▁Pim	-8557
▁wav	-8558
witten	-8559
didaten	-8560
geroepen	-8561
UE	-8562
物品	-8563
{20	-8564
▁ij	-8565
化合物	-8566
▁trui	-8567
▁Seven	-8568
▁kraan	-8569
▁acquaintance	-8570
▁换	-8571
放入	-8572
算了	-8573
纤维	-8574
▁而是	-8575
项正确	-8576
▁Hart	-8577
▁刚	-8578
定很	-8579
足的	-8580
过得	-8581
hew	-8582
▁我记得	-8583
▁Nout	-8584
centage	-8585
▁Columb	-8586
▁Teddie	-8587
▁praise	-8588
▁citizen	-8589
▁triumph	-8590
3:	-8591
▁照	-8592
交给	-8593
case	-8594
▁Nona	-8595
wkward	-8596
▁instinct	-8597
mu	-8598
几次	-8599
升级	-8600
却是	-8601
又要	-8602
融资	-8603
▁ped	-8604
ikkel	-8605
uilen	-8606
▁mees	-8607
▁Confe	-8608
▁flushed	-8609
▁接	-8610
chap	-8611
iegel	-8612
▁Maje	-8613
ziekte	-8614
▁accent	-8615
▁Gisteren	-8616
▁steadily	-8617
89	-8618
dw	-8619
他了	-8620
讲讲	-8621
sim	-8622
utt	-8623
▁Hu	-8624
aked	-8625
▁Sel	-8626
▁tub	-8627
▁Carr	-8628
▁Vlie	-8629
▁bloom	-8630
▁flood	-8631
▁zaden	-8632
▁streek	-8633
▁informed	-8634
▁送	-8635
IGHT	-8636
pare	-8637
▁fog	-8638
elten	-8639
praak	-8640
zamel	-8641
▁1940	-8642
▁1989	-8643
▁amaz	-8644
▁foss	-8645
▁Wouter	-8646
▁estate	-8647
▁status	-8648
▁Chicago	-8649
▁November	-8650
-)	-8651
▁身	-8652
的精	-8653
schenen	-8654
bly	-8655
rong	-8656
beren	-8657
illed	-8658
▁Hand	-8659
▁Pats	-8660
▁reeks	-8661
▁Annabel	-8662
▁Saartje	-8663
▁gevestigd	-8664
UW	-8665
▁Po	-8666
意思是	-8667
asus	-8668
chin	-8669
preek	-8670
▁goin	-8671
pannen	-8672
▁Thies	-8673
richten	-8674
▁Compan	-8675
▁贴	-8676
上帝	-8677
=0$$	-8678
▁dug	-8679
$$8$$	-8680
▁Vind	-8681
lected	-8682
▁vaart	-8683
▁Germans	-8684
rf	-8685
ün	-8686
▁Sak	-8687
ailed	-8688
estig	-8689
▁beam	-8690
unately	-8691
▁stable	-8692
▁amazement	-8693
中了	-8694
免疫	-8695
能把	-8696
里了	-8697
mij	-8698
osp	-8699
▁Mind	-8700
eriaal	-8701
tuigen	-8702
▁acknow	-8703
▁gesticht	-8704
▁Constantijn	-8705
-49	-8706
▁TV	-8707
▁Mic	-8708
▁chall	-8709
器的	-8710
eon	-8711
▁Hope	-8712
▁Kate	-8713
▁Zorg	-8714
▁Patrick	-8715
▁awkward	-8716
救了	-8717
▁ZO	-8718
▁ow	-8719
haan	-8720
only	-8721
▁Stu	-8722
▁Scar	-8723
中正确的是	-8724
▁Rosam	-8725
▁lezer	-8726
▁Austin	-8727
▁Heilige	-8728
▁Kennedy	-8729
▁unfortunate	-8730
会把	-8731
走向	-8732
▁Cit	-8733
asten	-8734
vindt	-8735
▁Wels	-8736
▁bisc	-8737
▁Kelly	-8738
▁waist	-8739
tegenwoord	-8740
: 	-8741
检验	-8742
看完	-8743
至今	-8744
▁ji	-8745
uary	-8746
lamit	-8747
▁Gaza	-8748
▁sele	-8749
▁vigor	-8750
▁Bennie	-8751
▁Winter	-8752
▁select	-8753
dest	-8754
pelt	-8755
perk	-8756
▁Cre	-8757
▁Love	-8758
gedeel	-8759
groeid	-8760
voorstel	-8761
▁Stadion	-8762
▁schrikt	-8763
_3	-8764
挺好	-8765
wart	-8766
▁COM	-8767
weten	-8768
▁July	-8769
▁Zand	-8770
hebben	-8771
▁relieved	-8772
▁inkomsten	-8773
依次	-8774
坐吧	-8775
的优	-8776
▁si	-8777
在我的	-8778
ezet	-8779
▁aer	-8780
▁Otto	-8781
▁Shar	-8782
▁gilt	-8783
▁stove	-8784
racties	-8785
▁Caesar	-8786
天哪	-8787
看我	-8788
woke	-8789
annen	-8790
ences	-8791
▁zwem	-8792
kshire	-8793
voorzit	-8794
▁conclusion	-8795
rk	-8796
▁恩	-8797
去世	-8798
Get	-8799
icy	-8800
▁是嘛	-8801
ques	-8802
rans	-8803
ootje	-8804
▁gigant	-8805
▁Silvester	-8806
场所	-8807
Car	-8808
}{6	-8809
▁ai	-8810
▁​​	-8811
Heel	-8812
▁hobby	-8813
gesproken	-8814
▁�	-8815
吓了	-8816
放了	-8817
giv	-8818
▁我去	-8819
▁Cuba	-8820
atoren	-8821
▁iv	-8822
的同时	-8823
ancy	-8824
▁15.	-8825
▁sim	-8826
erman	-8827
ittle	-8828
repub	-8829
▁tram	-8830
▁prent	-8831
▁stier	-8832
systeem	-8833
▁求	-8834
cyc	-8835
gaa	-8836
我真的	-8837
adem	-8838
agre	-8839
rica	-8840
bbers	-8841
▁poep	-8842
turbed	-8843
▁Shall	-8844
▁embar	-8845
▁ionen	-8846
▁Pardon	-8847
▁compon	-8848
oordeeld	-8849
▁continu	-8850
与其	-8851
天上的	-8852
1$$,	-8853
ICE	-8854
kke	-8855
▁suc	-8856
ereik	-8857
▁rece	-8858
▁stoep	-8859
▁harbor	-8860
▁infect	-8861
能的	-8862
题材	-8863
▁8,	-8864
▁KN	-8865
▁[_	-8866
melk	-8867
▁(60	-8868
akker	-8869
▁knip	-8870
▁Pruisen	-8871
▁chemische	-8872
\"	-8873
息的	-8874
Pro	-8875
kat	-8876
▁CON	-8877
▁cro	-8878
▁loy	-8879
▁clam	-8880
gevoerd	-8881
▁Please	-8882
quarters	-8883
▁Eurovis	-8884
▁Probably	-8885
1!	-8886
就得	-8887
差距	-8888
端的	-8889
蒲公	-8890
观念	-8891
走过	-8892
在我们	-8893
spor	-8894
letje	-8895
▁Armen	-8896
▁Effie	-8897
▁ammon	-8898
lachten	-8899
▁bioscoop	-8900
▁opgebouwd	-8901
所需	-8902
配置	-8903
72)	-8904
eton	-8905
▁Spi	-8906
▁sne	-8907
▁Akkie	-8908
▁Champ	-8909
▁caval	-8910
▁spons	-8911
vankelijk	-8912
相处	-8913
sis	-8914
▁Ama	-8915
▁utt	-8916
erted	-8917
▁Trek	-8918
▁inte	-8919
}$$,$$\	-8920
▁increas	-8921
▁Maastricht	-8922
看不到	-8923
ween	-8924
▁Ach	-8925
iëren	-8926
unate	-8927
kennen	-8928
moeten	-8929
▁prior	-8930
▁Moskou	-8931
▁employed	-8932
上述	-8933
都想	-8934
Was	-8935
fit	-8936
▁67	-8937
ario	-8938
▁pod	-8939
$${{\	-8940
teneg	-8941
rified	-8942
▁awoke	-8943
▁huilt	-8944
gewicht	-8945
undigen	-8946
▁intense	-8947
▁sensible	-8948
▁specific	-8949
▁哼	-8950
付出	-8951
叫他	-8952
就连	-8953
nuw	-8954
▁pur	-8955
▁tut	-8956
▁Clar	-8957
ailand	-8958
makers	-8959
▁Bruce	-8960
kelijke	-8961
tonished	-8962
▁wrapped	-8963
MA	-8964
却不	-8965
eda	-8966
▁blu	-8967
}}+{{	-8968
▁Ferd	-8969
▁bezocht	-8970
▁retreat	-8971
eik	-8972
rah	-8973
sum	-8974
就是不	-8975
lein	-8976
▁Hop	-8977
▁opmerk	-8978
▁possibility	-8979
ae	-8980
-1)	-8981
lijf	-8982
elves	-8983
celona	-8984
▁Russen	-8985
atuurlijk	-8986
概括	-8987
32)	-8988
tak	-8989
tou	-8990
▁HA	-8991
camp	-8992
braak	-8993
▁effe	-8994
akespe	-8995
▁Vertel	-8996
▁Eleanor	-8997
▁Princess	-8998
=5	-8999
bbed	-9000
ucker	-9001
wisse	-9002
▁Taal	-9003
▁Molly	-9004
▁Heaven	-9005
industrie	-9006
▁opgevolgd	-9007
现出	-9008
言自	-9009
阿里	-9010
▁我有	-9011
hart	-9012
nten	-9013
▁AAN	-9014
▁1920	-9015
iseerd	-9016
staart	-9017
▁Spaans	-9018
▁frequently	-9019
再来	-9020
找了	-9021
half	-9022
appels	-9023
▁Ruben	-9024
▁knuff	-9025
▁Willie	-9026
eau	-9027
been	-9028
gener	-9029
▁Kaya	-9030
▁haul	-9031
▁ontw	-9032
beleid	-9033
▁Floss	-9034
▁Think	-9035
sluiten	-9036
▁ontplo	-9037
couraged	-9038
ré	-9039
皇上	-9040
Miss	-9041
kest	-9042
▁Emp	-9043
▁Tik	-9044
▁kei	-9045
▁besp	-9046
bergte	-9047
clusie	-9048
▁sched	-9049
▁Abraham	-9050
5-	-9051
▁藏	-9052
杠杆	-9053
AVO	-9054
fare	-9055
oegd	-9056
tact	-9057
▁voer	-9058
lijkse	-9059
▁Sophie	-9060
}(	-9061
的正	-9062
-82	-9063
ubb	-9064
起来的	-9065
▁joh	-9066
▁lar	-9067
fence	-9068
laagd	-9069
stoot	-9070
ulated	-9071
取决	-9072
必然	-9073
下来的	-9074
cham	-9075
oeie	-9076
onte	-9077
▁Room	-9078
▁cher	-9079
▁rein	-9080
reland	-9081
▁Stella	-9082
▁moslims	-9083
▁ul	-9084
20$$	-9085
vell	-9086
▁Jop	-9087
▁Til	-9088
rific	-9089
▁Tuur	-9090
▁Gijs	-9091
▁Zeven	-9092
▁kabel	-9093
borough	-9094
▁anticip	-9095
呆了	-9096
落到	-9097
oub	-9098
▁RT	-9099
mooi	-9100
▁Pub	-9101
keuze	-9102
poort	-9103
quire	-9104
teurs	-9105
gemeen	-9106
bescherm	-9107
▁Monteneg	-9108
▁祝	-9109
好啦	-9110
edt	-9111
▁ii	-9112
aman	-9113
▁soo	-9114
ballen	-9115
▁absor	-9116
▁kitten	-9117
▁economisch	-9118
不时	-9119
$$8	-9120
kar	-9121
▁有的	-9122
受到的	-9123
ador	-9124
omon	-9125
eltje	-9126
ental	-9127
reigd	-9128
▁1988	-9129
▁1991	-9130
▁Paus	-9131
▁fret	-9132
▁∴$$\	-9133
titude	-9134
▁chums	-9135
▁onvol	-9136
familie	-9137
▁Ireland	-9138
▁Bespreek	-9139
IA	-9140
淘宝	-9141
赛事	-9142
emb	-9143
pton	-9144
▁NEW	-9145
▁1968	-9146
Oosten	-9147
▁Adele	-9148
▁instit	-9149
而来	-9150
yon	-9151
▁Ku	-9152
wick	-9153
▁Lisa	-9154
gehalte	-9155
▁Sister	-9156
?。	-9157
▁且	-9158
来不	-9159
不及待	-9160
cles	-9161
迫不及待	-9162
uries	-9163
▁Book	-9164
▁Kart	-9165
ologen	-9166
▁virtu	-9167
allemaal	-9168
蝌蚪	-9169
▁BD	-9170
▁(67	-9171
▁zwer	-9172
itions	-9173
gdieren	-9174
▁Scotland	-9175
级的	-9176
走在	-9177
▁好了	-9178
tten	-9179
▁800	-9180
▁Est	-9181
▁Raff	-9182
▁utmost	-9183
kundigen	-9184
▁Conserv	-9185
▁concept	-9186
▁俩	-9187
闭上	-9188
+1)	-9189
lord	-9190
▁1,0	-9191
▁cas	-9192
dacht	-9193
▁Goud	-9194
▁Wall	-9195
bridge	-9196
▁Mount	-9197
rechter	-9198
不怎么	-9199
取决于	-9200
都觉得	-9201
eyen	-9202
gate	-9203
▁Hog	-9204
▁pom	-9205
beurt	-9206
inand	-9207
▁1918	-9208
▁Brow	-9209
▁dwer	-9210
▁knie	-9211
enance	-9212
▁Burger	-9213
▁Shakespe	-9214
▁medaille	-9215
消化	-9216
航天	-9217
mann	-9218
▁reput	-9219
▁stort	-9220
▁Africa	-9221
▁refuse	-9222
▁IJsland	-9223
ebr	-9224
pir	-9225
why	-9226
eila	-9227
embled	-9228
enomen	-9229
▁mourn	-9230
▁Wadden	-9231
▁knooppunt	-9232
▁instrumenten	-9233
看啊	-9234
细细	-9235
rijft	-9236
▁Klein	-9237
▁brass	-9238
▁exhib	-9239
▁Germany	-9240
Any	-9241
被称为	-9242
走过来	-9243
cken	-9244
^{2}+	-9245
ounced	-9246
▁leraren	-9247
屏幕	-9248
▁OM	-9249
然可以	-9250
mene	-9251
▁160	-9252
▁unto	-9253
▁Patsy	-9254
▁convinced	-9255
的景	-9256
dic	-9257
nar	-9258
wiss	-9259
▁1,5	-9260
films	-9261
merous	-9262
▁Quinty	-9263
▁insect	-9264
▁greeted	-9265
76	-9266
▁连	-9267
公告	-9268
Gra	-9269
▁ci	-9270
oopt	-9271
▁smo	-9272
▁我看了	-9273
Omega	-9274
iënten	-9275
hedraal	-9276
▁consul	-9277
▁wijken	-9278
▁uncomfort	-9279
不算	-9280
确诊	-9281
IND	-9282
bil	-9283
ulen	-9284
berry	-9285
▁Hawk	-9286
▁Were	-9287
diensten	-9288
▁consequence	-9289
NE	-9290
SC	-9291
bey	-9292
wol	-9293
trok	-9294
▁Gas	-9295
undred	-9296
▁Goede	-9297
▁Jesse	-9298
▁essent	-9299
▁horrid	-9300
▁monnik	-9301
▁insurance	-9302
86	-9303
.①④	-9304
ERT	-9305
alb	-9306
cap	-9307
555)	-9308
echt	-9309
▁kaars	-9310
▁abrupt	-9311
▁transl	-9312
▁Mevrouw	-9313
3\	-9314
74	-9315
UC	-9316
óó	-9317
又把	-9318
裁判	-9319
0$$	-9320
ags	-9321
sst	-9322
▁Cu	-9323
▁我国	-9324
就是有	-9325
▁Pom	-9326
elson	-9327
leurde	-9328
▁obeyed	-9329
▁embarrass	-9330
糟糕	-9331
()。	-9332
▁Pea	-9333
▁duo	-9334
▁(114	-9335
▁wreck	-9336
▁Scouts	-9337
▁visible	-9338
▁gezongen	-9339
nk	-9340
各地	-9341
响了	-9342
的下	-9343
▁就在	-9344
kies	-9345
▁Tai	-9346
fiets	-9347
▁(160	-9348
bleven	-9349
evoerd	-9350
bedrijven	-9351
▁practical	-9352
危害	-9353
叽叽	-9354
就跟	-9355
收到	-9356
边走	-9357
阵容	-9358
▁ep	-9359
剩下的	-9360
tuin	-9361
▁banaan	-9362
▁injured	-9363
Am	-9364
来吧	-9365
mma	-9366
▁Bye	-9367
acity	-9368
▁Beke	-9369
RR	-9370
276)	-9371
ells	-9372
heim	-9373
ules	-9374
usie	-9375
▁uns	-9376
▁Baby	-9377
▁arrow	-9378
去上	-9379
挂着	-9380
▁MA	-9381
alem	-9382
ftig	-9383
mist	-9384
pherd	-9385
ritor	-9386
▁Dijk	-9387
▁Mist	-9388
▁praktijk	-9389
号的	-9390
自言自	-9391
mmen	-9392
▁roe	-9393
{2}{3	-9394
▁hint	-9395
▁(1045	-9396
▁scorn	-9397
▁spook	-9398
eyenoord	-9399
▁sprookje	-9400
▁toegepast	-9401
纪录	-9402
dor	-9403
▁WAS	-9404
▁真的是	-9405
barst	-9406
ittee	-9407
spann	-9408
▁Bank	-9409
▁Kast	-9410
▁Mees	-9411
▁remi	-9412
durend	-9413
▁Zodra	-9414
▁prote	-9415
▁Bijbel	-9416
▁Valent	-9417
▁(1276-1	-9418
▁Company	-9419
yr	-9420
边形	-9421
22)	-9422
nas	-9423
▁2\	-9424
▁Dot	-9425
brood	-9426
spron	-9427
▁inhe	-9428
▁whir	-9429
velden	-9430
▁commit	-9431
gedragen	-9432
▁Hiervoor	-9433
schijnselen	-9434
▁养	-9435
他能	-9436
ITH	-9437
▁他是	-9438
▁没事	-9439
▁看了	-9440
厉害啊	-9441
cijf	-9442
spec	-9443
▁17.	-9444
▁Lind	-9445
▁comrade	-9446
▁Middellandse	-9447
落地	-9448
UST	-9449
ijt	-9450
icit	-9451
loyd	-9452
▁Zowel	-9453
emorgen	-9454
cs	-9455
▁甲	-9456
好呀	-9457
就业	-9458
nce	-9459
不好的	-9460
}}{{	-9461
▁Kok	-9462
eigen	-9463
mogen	-9464
risis	-9465
▁Penn	-9466
▁woke	-9467
▁reken	-9468
▁Oswald	-9469
▁organiseren	-9470
▁咪	-9471
Mag	-9472
uro	-9473
▁",	-9474
dles	-9475
▁Fri	-9476
▁Glen	-9477
meisje	-9478
productie	-9479
▁Toelicht	-9480
▁Nationaal	-9481
激素	-9482
现了	-9483
gei	-9484
Poor	-9485
▁Cup	-9486
▁rept	-9487
▁Bulgar	-9488
ropriate	-9489
▁Leonard	-9490
受了	-9491
国产	-9492
往上	-9493
leag	-9494
▁puff	-9495
▁resist	-9496
gelegenheid	-9497
▁commission	-9498
不理	-9499
bek	-9500
▁cad	-9501
pelde	-9502
▁krij	-9503
▁golven	-9504
▁suspicion	-9505
▁陪	-9506
咯咯	-9507
是会	-9508
显著	-9509
jun	-9510
sie	-9511
停下来	-9512
过来了	-9513
10$$	-9514
jamin	-9515
▁(199	-9516
▁Didn	-9517
▁kook	-9518
▁merr	-9519
▁oars	-9520
▁stee	-9521
▁imper	-9522
▁abroad	-9523
▁apolog	-9524
提出了	-9525
舍不得	-9526
\}$$	-9527
▁Var	-9528
=1$$,	-9529
andon	-9530
▁...,	-9531
▁Vlag	-9532
▁recogn	-9533
▁tempor	-9534
ordinary	-9535
▁Californië	-9536
朝廷	-9537
行了	-9538
zad	-9539
▁41	-9540
▁孩名	-9541
teit	-9542
▁Zil	-9543
duced	-9544
ieken	-9545
▁(168	-9546
▁喜	-9547
又在	-9548
00)	-9549
cke	-9550
yan	-9551
▁作为	-9552
essa	-9553
kwamen	-9554
drukken	-9555
issance	-9556
▁Vlaams	-9557
▁Wesley	-9558
geschaft	-9559
Wi	-9560
拿来	-9561
Ste	-9562
iven	-9563
▁bie	-9564
▁wig	-9565
westen	-9566
▁sales	-9567
reatened	-9568
Amerikaanse	-9569
fi	-9570
wu	-9571
密的	-9572
走啊	-9573
bloem	-9574
pleegd	-9575
▁brede	-9576
cultuur	-9577
▁Winters	-9578
Ma	-9579
上场	-9580
gun	-9581
lat	-9582
Arab	-9583
loper	-9584
ufact	-9585
▁Tour	-9586
▁exem	-9587
ablish	-9588
▁Disco	-9589
▁Point	-9590
energie	-9591
parture	-9592
{1}{2}\	-9593
▁Castle	-9594
}_{2}}$$	-9595
▁Hamilton	-9596
▁按	-9597
淘淘	-9598
poe	-9599
▁43	-9600
▁gh	-9601
buis	-9602
usia	-9603
ashed	-9604
▁Vijf	-9605
▁meub	-9606
▁sale	-9607
▁happily	-9608
,①	-9609
他会	-9610
嗓子	-9611
出现的	-9612
eyed	-9613
▁WOR	-9614
leven	-9615
▁Amos	-9616
▁Lola	-9617
ouwers	-9618
tdurend	-9619
INE	-9620
eal	-9621
▁真是	-9622
了不起	-9623
loge	-9624
cribe	-9625
▁Help	-9626
▁Rabb	-9627
uished	-9628
▁Daarin	-9629
▁Finally	-9630
▁gewassen	-9631
某种	-9632
egt	-9633
vui	-9634
▁52	-9635
kent	-9636
itair	-9637
namen	-9638
pakket	-9639
▁Buurt	-9640
=6	-9641
冲击	-9642
桌上	-9643
隔离	-9644
ISS	-9645
▁Mu	-9646
isen	-9647
▁Fro	-9648
tafel	-9649
▁imit	-9650
▁ornam	-9651
draaien	-9652
ificant	-9653
▁succeed	-9654
▁wortels	-9655
▁Ongeveer	-9656
{6	-9657
Oké	-9658
bul	-9659
kust	-9660
tige	-9661
stemm	-9662
▁XVII	-9663
▁trace	-9664
▁向	-9665
均为	-9666
能有	-9667
过于	-9668
饮料	-9669
▁wu	-9670
什么啊	-9671
burgh	-9672
▁Chri	-9673
▁fuss	-9674
wijzer	-9675
▁Haven	-9676
▁gerecht	-9677
▁Ferdinand	-9678
▁necessarily	-9679
BS	-9680
式的	-9681
然了	-9682
Vol	-9683
▁Ou	-9684
▁kolom	-9685
▁medic	-9686
▁sacred	-9687
▁Herbert	-9688
▁unpleas	-9689
republiek	-9690
要用	-9691
▁样子	-9692
tice	-9693
▁Ade	-9694
▁qui	-9695
▁rig	-9696
▁Bush	-9697
▁Mack	-9698
▁haak	-9699
▁Lucia	-9700
▁Haarlem	-9701
▁consumenten	-9702
ZE	-9703
改进	-9704
OND	-9705
zan	-9706
avië	-9707
▁Juf	-9708
antal	-9709
eorie	-9710
▁1500	-9711
▁Filip	-9712
▁schem	-9713
atively	-9714
vormige	-9715
}}_{2}}	-9716
▁retorted	-9717
提到	-9718
身材	-9719
Tis	-9720
iva	-9721
nal	-9722
▁旁边	-9723
irts	-9724
oons	-9725
▁Isn	-9726
▁oer	-9727
▁exte	-9728
script	-9729
▁Blake	-9730
▁Hotel	-9731
▁Moore	-9732
▁blank	-9733
ementen	-9734
▁Edmund	-9735
sstoffen	-9736
▁Raymond	-9737
▁relation	-9738
50$$	-9739
ends	-9740
mpet	-9741
▁10,	-9742
▁Box	-9743
▁Vik	-9744
usias	-9745
▁Show	-9746
▁clos	-9747
▁educ	-9748
▁Barry	-9749
▁await	-9750
▁shift	-9751
atorium	-9752
▁Madrid	-9753
lication	-9754
▁remarks	-9755
▁exhausted	-9756
3!	-9757
公子	-9758
孩名	-9759
约为	-9760
bee	-9761
▁apt	-9762
▁wen	-9763
的时候就	-9764
gress	-9765
||$$\	-9766
▁====	-9767
▁edel	-9768
▁shil	-9769
▁vlam	-9770
lokken	-9771
tplant	-9772
zameld	-9773
▁Ottom	-9774
▁scold	-9775
▁Grandmo	-9776
▁California	-9777
▁cheerfully	-9778
,《	-9779
91	-9780
定理	-9781
联储	-9782
fire	-9783
▁Cir	-9784
▁Liz	-9785
▁1948	-9786
▁ruit	-9787
▁Conclusie	-9788
+5	-9789
位的	-9790
矿物	-9791
可以去	-9792
2019	-9793
reig	-9794
taat	-9795
▁16.	-9796
ooped	-9797
huisde	-9798
▁Clark	-9799
▁Spoor	-9800
▁vitam	-9801
▁install	-9802
▁onduidelijk	-9803
dorp	-9804
stop	-9805
▁lok	-9806
事先走了	-9807
$$0$$	-9808
uiden	-9809
▁tang	-9810
tegrond	-9811
▁Children	-9812
DR	-9813
▁Rh	-9814
Would	-9815
▁bundle	-9816
▁survey	-9817
▁contemp	-9818
▁beschadigd	-9819
▁到处	-9820
的都是	-9821
▁Cur	-9822
▁1984	-9823
▁Walt	-9824
viezen	-9825
scholen	-9826
▁zwavel	-9827
▁Benjamin	-9828
▁provisions	-9829
Cu	-9830
Un	-9831
▁噢	-9832
我妈	-9833
格局	-9834
离不	-9835
验证	-9836
Ver	-9837
quet	-9838
endum	-9839
grily	-9840
▁Bond	-9841
▁klom	-9842
▁corres	-9843
▁uncertain	-9844
▁Shakespeare	-9845
咳嗽	-9846
bit	-9847
elo	-9848
esh	-9849
chnie	-9850
stijd	-9851
staand	-9852
▁indul	-9853
▁prooi	-9854
▁Belang	-9855
▁Howard	-9856
▁advise	-9857
2?	-9858
疑惑	-9859
阵阵	-9860
cid	-9861
cie	-9862
zai	-9863
▁rub	-9864
▁Henk	-9865
▁Marj	-9866
▁mild	-9867
▁Humph	-9868
▁moral	-9869
ability	-9870
▁Hannah	-9871
▁Social	-9872
▁Vergelijk	-9873
天地	-9874
随意	-9875
-11	-9876
wei	-9877
▁46	-9878
▁Dru	-9879
▁MAR	-9880
▁Mam	-9881
▁pea	-9882
mense	-9883
▁True	-9884
▁Becky	-9885
▁Kerst	-9886
▁Lilly	-9887
▁Nobody	-9888
gedeelte	-9889
▁Grandma	-9890
▁transfer	-9891
voorschijn	-9892
▁Yorkshire	-9893
为啥	-9894
斯的	-9895
胆子	-9896
▁上去	-9897
Alex	-9898
▁agr	-9899
ekker	-9900
altijd	-9901
usiasm	-9902
▁Creek	-9903
▁bewil	-9904
▁instru	-9905
▁angrily	-9906
▁sacrifice	-9907
ét	-9908
进入了	-9909
▁PSV	-9910
▁bef	-9911
▁vee	-9912
▁hydro	-9913
▁stijg	-9914
▁Marcus	-9915
▁Morgen	-9916
▁onrust	-9917
▁Thailand	-9918
voorzitter	-9919
他看	-9920
考验	-9921
LIE	-9922
dar	-9923
uty	-9924
ober	-9925
pson	-9926
▁Sah	-9927
▁oak	-9928
▁Rijks	-9929
▁Schol	-9930
▁roast	-9931
▁stair	-9932
▁Joodse	-9933
▁reuzen	-9934
fy	-9935
▁越	-9936
旁的	-9937
是来	-9938
蟋蟀	-9939
▁想了	-9940
buut	-9941
glass	-9942
ommod	-9943
▁Gerv	-9944
▁phys	-9945
rediet	-9946
iculous	-9947
▁privile	-9948
▁古	-9949
我真	-9950
筷子	-9951
ANT	-9952
uim	-9953
chts	-9954
lage	-9955
▁Rab	-9956
▁Whe	-9957
▁plo	-9958
speel	-9959
▁Canad	-9960
▁Jordan	-9961
nificent	-9962
▁drijven	-9963
▁tevoorschijn	-9964
(1	-9965
获取	-9966
ISH	-9967
inc	-9968
Azië	-9969
▁Hum	-9970
▁Ruim	-9971
record	-9972
▁Audrey	-9973
▁Feyenoord	-9974
wy	-9975
át	-9976
般的	-9977
▁Div	-9978
不正确的	-9979
astie	-9980
genda	-9981
malig	-9982
duction	-9983
来就	-9984
oond	-9985
akeld	-9986
eerst	-9987
nished	-9988
▁Joyce	-9989
▁Isabel	-9990
▁cotton	-9991
▁Valerie	-9992
▁consent	-9993
▁cautiously	-9994
▁牠	-9995
pakk	-9996
▁Voet	-9997
▁ontv	-9998
▁sack	-9999
▁contr	-10000
ractive	-10001
▁plakken	-10002
▁vlakbij	-10003
▁klachten	-10004
▁Illustrated	-10005
KE	-10006
其中的	-10007
gery	-10008
▁196	-10009
chlor	-10010
▁Bald	-10011
▁Boer	-10012
▁crop	-10013
▁Winke	-10014
▁sloop	-10015
▁bijeen	-10016
▁prepare	-10017
是看	-10018
给予	-10019
aph	-10020
oly	-10021
omy	-10022
▁可不	-10023
乎乎的	-10024
inat	-10025
ables	-10026
ergie	-10027
sburg	-10028
cember	-10029
rehens	-10030
termin	-10031
▁boete	-10032
▁accompany	-10033
▁arrangements	-10034
▁破	-10035
awn	-10036
渐渐地	-10037
risk	-10038
▁bor	-10039
▁{{\	-10040
ships	-10041
▁Aren	-10042
▁Berg	-10043
▁slop	-10044
▁Bruin	-10045
▁Pearl	-10046
▁Steve	-10047
▁surre	-10048
▁tossed	-10049
▁Majesty	-10050
▁drowned	-10051
▁instructions	-10052
赛的	-10053
Doe	-10054
IEN	-10055
geon	-10056
icket	-10057
tewel	-10058
▁Loek	-10059
▁Maud	-10060
▁Turn	-10061
▁Video	-10062
▁XVIII	-10063
▁dijken	-10064
▁immense	-10065
▁ventured	-10066
了对	-10067
悠悠	-10068
提着	-10069
ein	-10070
▁姊姊	-10071
allo	-10072
emin	-10073
ilen	-10074
lige	-10075
pjes	-10076
orven	-10077
▁summon	-10078
▁Gervaise	-10079
有不	-10080
的种	-10081
▁才能	-10082
想不到	-10083
emse	-10084
ksel	-10085
tast	-10086
▁Tak	-10087
▁vla	-10088
inner	-10089
}}={{	-10090
▁vacc	-10091
bellen	-10092
ijssel	-10093
ometer	-10094
▁Offic	-10095
allieerden	-10096
▁Bulgarije	-10097
pm	-10098
出自	-10099
iak	-10100
nei	-10101
▁-\	-10102
▁UIT	-10103
raden	-10104
▁HIER	-10105
▁Lane	-10106
▁Scot	-10107
▁raft	-10108
rollen	-10109
▁10.000	-10110
▁Naties	-10111
▁Winnie	-10112
▁confir	-10113
▁rubber	-10114
▁Stephen	-10115
▁gezeten	-10116
▁Barcelona	-10117
stil	-10118
▁Edi	-10119
▁Exc	-10120
phere	-10121
▁Bell	-10122
▁lens	-10123
▁tort	-10124
▁Febru	-10125
▁Kevin	-10126
▁exclus	-10127
▁Russisch	-10128
▁railroad	-10129
▁financial	-10130
▁suspected	-10131
▁intelligent	-10132
▁communistische	-10133
在不	-10134
的全	-10135
team	-10136
▁Bin	-10137
abled	-10138
grens	-10139
liest	-10140
▁1993	-10141
Engels	-10142
buiten	-10143
gangsp	-10144
▁bloss	-10145
▁limit	-10146
aurants	-10147
分泌	-10148
的个	-10149
ais	-10150
kjes	-10151
▁nit	-10152
neden	-10153
onturen	-10154
▁subsid	-10155
ologisch	-10156
▁buffalo	-10157
▁Oekraïense	-10158
▁meegemaakt	-10159
就给	-10160
讲了	-10161
▁$(	-10162
以为是	-10163
看了吗	-10164
akte	-10165
snog	-10166
ulse	-10167
▁Gib	-10168
▁rud	-10169
enton	-10170
▁accomplished	-10171
!_	-10172
才行	-10173
hit	-10174
ïne	-10175
kome	-10176
mest	-10177
wikke	-10178
leiden	-10179
▁Mummy	-10180
▁Brabant	-10181
▁bescherm	-10182
样做	-10183
▁||	-10184
uize	-10185
▁Blok	-10186
▁reflected	-10187
的都	-10188
突出	-10189
ipe	-10190
iër	-10191
是我国	-10192
democ	-10193
▁dure	-10194
inated	-10195
▁Spain	-10196
pressed	-10197
▁Twente	-10198
▁behold	-10199
▁quarrel	-10200
▁koloniën	-10201
▁schaatsen	-10202
▁Atlantische	-10203
喳喳	-10204
aul	-10205
yao	-10206
etts	-10207
vrie	-10208
▁Sub	-10209
▁buck	-10210
▁tore	-10211
egraph	-10212
museum	-10213
netjes	-10214
▁venture	-10215
▁Inmiddels	-10216
ju	-10217
lg	-10218
代替	-10219
找个	-10220
voc	-10221
地上的	-10222
▁Tan	-10223
appar	-10224
grace	-10225
▁Deck	-10226
▁Iran	-10227
▁visie	-10228
fulness	-10229
▁Sultan	-10230
▁uncomfortable	-10231
制定	-10232
nts	-10233
tion	-10234
▁Pam	-10235
▁Row	-10236
▁foe	-10237
ousin	-10238
ernooi	-10239
tronaut	-10240
▁Advent	-10241
▁rubbed	-10242
}$$,$${{	-10243
veelheden	-10244
}-	-10245
▁受	-10246
▁早	-10247
之处	-10248
合力	-10249
在下	-10250
ache	-10251
iour	-10252
▁Nur	-10253
icker	-10254
▁Dirk	-10255
▁relax	-10256
▁wissel	-10257
丽的	-10258
掉的	-10259
cli	-10260
ikel	-10261
▁Dog	-10262
▁dao	-10263
swaard	-10264
▁dynam	-10265
▁buurman	-10266
▁unconscious	-10267
所得	-10268
立的	-10269
里很	-10270
haha	-10271
▁kal	-10272
▁rav	-10273
shirt	-10274
▁Golf	-10275
entjes	-10276
▁repar	-10277
▁schrok	-10278
▁Instead	-10279
▁pursuit	-10280
各国	-10281
走啦	-10282
cim	-10283
90-1	-10284
▁DAN	-10285
▁vor	-10286
▁pudd	-10287
▁Welsh	-10288
▁Verschille	-10289
化了	-10290
观的	-10291
39)	-10292
ulk	-10293
yle	-10294
rane	-10295
toor	-10296
tumn	-10297
▁oef	-10298
alyse	-10299
erste	-10300
force	-10301
▁Irak	-10302
utions	-10303
▁bevor	-10304
periode	-10305
▁retire	-10306
8,	-10307
▁oo	-10308
不等式	-10309
良好的	-10310
▁\\\	-10311
▁sob	-10312
dicht	-10313
emony	-10314
jawel	-10315
otion	-10316
tegen	-10317
▁boze	-10318
togdom	-10319
▁Scout	-10320
▁scrap	-10321
oppervlak	-10322
▁toerisme	-10323
▁gisteravond	-10324
drie	-10325
fash	-10326
}}_4	-10327
▁bat	-10328
akers	-10329
estic	-10330
opher	-10331
▁Blan	-10332
rische	-10333
▁Zaken	-10334
▁squad	-10335
▁Hundred	-10336
▁Brandaan	-10337
▁scholieren	-10338
EM	-10339
伙儿	-10340
姿势	-10341
之所以	-10342
race	-10343
rock	-10344
▁Hof	-10345
▁Por	-10346
▁Tor	-10347
▁1972	-10348
natured	-10349
▁Angela	-10350
▁Roosmar	-10351
▁glimpse	-10352
▁struiken	-10353
要想	-10354
▁Ak	-10355
▁嗨喽	-10356
show	-10357
▁18.	-10358
▁Gor	-10359
▁voerde	-10360
▁opzicht	-10361
▁accommod	-10362
不安	-10363
情的	-10364
我们是	-10365
Laat	-10366
vina	-10367
▁fli	-10368
▁viv	-10369
arent	-10370
▁Acade	-10371
sluitend	-10372
▁elegant	-10373
schriften	-10374
上是	-10375
▁刚刚	-10376
umes	-10377
▁ALS	-10378
▁emb	-10379
names	-10380
Please	-10381
woners	-10382
▁squee	-10383
▁Roland	-10384
lamitische	-10385
Ho	-10386
▁喂	-10387
再看	-10388
叹了	-10389
子是	-10390
溶于	-10391
▁Pit	-10392
▁Heal	-10393
▁lend	-10394
▁可不是吗	-10395
▁$${{{	-10396
▁Brits	-10397
▁sigar	-10398
▁Stuart	-10399
.000.000	-10400
▁violent	-10401
▁unpleasant	-10402
?,	-10403
▁第	-10404
不已	-10405
出行	-10406
则是	-10407
jas	-10408
plic	-10409
blauw	-10410
▁Girl	-10411
▁muts	-10412
▁sfeer	-10413
▁rommel	-10414
▁committed	-10415
▁schreeuwde	-10416
备的	-10417
换了	-10418
-94	-10419
etus	-10420
▁Pot	-10421
▁Rid	-10422
▁bod	-10423
utely	-10424
▁prim	-10425
▁Among	-10426
▁December	-10427
▁bijdrage	-10428
▁relations	-10429
LY	-10430
~{	-10431
我刚	-10432
RNA	-10433
毕竟是	-10434
lace	-10435
▁Vlak	-10436
▁prom	-10437
schema	-10438
▁Alpen	-10439
得有	-10440
:$$1	-10441
odox	-10442
▁BEN	-10443
inaas	-10444
orton	-10445
▁Hunt	-10446
▁stor	-10447
▁Crown	-10448
▁keerde	-10449
gumenteer	-10450
▁ceremony	-10451
▁complain	-10452
▁examination	-10453
住的	-10454
得知	-10455
想把	-10456
遭遇	-10457
Dus	-10458
pri	-10459
▁到了	-10460
▁Tes	-10461
.$${{	-10462
iable	-10463
▁Vincent	-10464
▁advised	-10465
个个	-10466
^{2	-10467
cha	-10468
lev	-10469
我们去	-10470
所以我	-10471
ronk	-10472
winn	-10473
▁wei	-10474
keten	-10475
▁Cook	-10476
▁Eric	-10477
▁Roose	-10478
▁resumed	-10479
▁variety	-10480
▁chuckled	-10481
▁Spaniards	-10482
哼哼	-10483
▁+\	-10484
▁并且	-10485
eros	-10486
fond	-10487
▁cou	-10488
spoor	-10489
▁Maid	-10490
plicht	-10491
▁islam	-10492
▁wages	-10493
▁Instit	-10494
▁trommel	-10495
▁adviezen	-10496
▁acquainted	-10497
做事	-10498
技巧	-10499
杂交	-10500
▁Kas	-10501
fgoed	-10502
▁sway	-10503
▁teen	-10504
▁Since	-10505
▁bacterie	-10506
▁protested	-10507
)、	-10508
就到	-10509
装置	-10510
记载	-10511
16)	-10512
gat	-10513
vak	-10514
▁AM	-10515
我们来	-10516
bels	-10517
inte	-10518
unes	-10519
wijd	-10520
▁Dolf	-10521
▁rasc	-10522
parted	-10523
pelijk	-10524
▁Hallo	-10525
▁Wenen	-10526
isschop	-10527
▁arrows	-10528
▁Lettice	-10529
nationaal	-10530
▁criminaliteit	-10531
,1	-10532
之情	-10533
抑郁	-10534
芯片	-10535
pal	-10536
▁hm	-10537
不得了	-10538
▁Bou	-10539
▁Stop	-10540
igence	-10541
▁Nelson	-10542
▁remind	-10543
▁Solomon	-10544
BE	-10545
为的	-10546
▁Ee	-10547
▁TR	-10548
的爸爸	-10549
Dear	-10550
oper	-10551
▁0,0	-10552
▁bil	-10553
achus	-10554
efits	-10555
werker	-10556
▁pesten	-10557
▁clasped	-10558
▁comments	-10559
▁establish	-10560
不就	-10561
10)	-10562
apa	-10563
ankt	-10564
meld	-10565
wand	-10566
▁Kir	-10567
▁XXI	-10568
▁beho	-10569
▁inkt	-10570
▁Mamma	-10571
positie	-10572
▁Brenda	-10573
▁Goedemorgen	-10574
个好	-10575
会给	-10576
我用	-10577
ski	-10578
就不能	-10579
born	-10580
itan	-10581
▁Tod	-10582
▁moss	-10583
▁roep	-10584
achten	-10585
bieden	-10586
▁dalen	-10587
▁vehic	-10588
concent	-10589
ulation	-10590
▁Jochem	-10591
▁treden	-10592
▁stromen	-10593
央行	-10594
就越	-10595
才有	-10596
OOD	-10597
boe	-10598
cte	-10599
什么都	-10600
lyde	-10601
▁sho	-10602
▁接下来	-10603
挺好看的	-10604
▁(130	-10605
▁Mans	-10606
▁Beieren	-10607
▁abandon	-10608
▁朵	-10609
55)	-10610
Bel	-10611
fil	-10612
nut	-10613
pit	-10614
roy	-10615
▁Od	-10616
▁不会	-10617
▁(129	-10618
rennen	-10619
▁viool	-10620
diagram	-10621
▁Friend	-10622
▁polite	-10623
▁gezamen	-10624
▁podcast	-10625
▁spijker	-10626
AA	-10627
噜噜	-10628
有害	-10629
瞧瞧	-10630
$$30	-10631
brek	-10632
▁Job	-10633
▁Rat	-10634
ocrat	-10635
zaken	-10636
▁Rect	-10637
▁blaas	-10638
klimaat	-10639
stadion	-10640
▁strips	-10641
▁Probeer	-10642
▁klooster	-10643
▁commenced	-10644
bijvoorbeeld	-10645
py	-10646
技能	-10647
eet	-10648
▁DO	-10649
agel	-10650
moon	-10651
}$$。	-10652
▁000	-10653
▁Hey	-10654
▁Imp	-10655
▁Mod	-10656
▁Tri	-10657
▁qua	-10658
疫情防控	-10659
ollen	-10660
ption	-10661
fijnen	-10662
malige	-10663
stairs	-10664
▁Beste	-10665
▁Brook	-10666
▁cigar	-10667
etische	-10668
▁plunged	-10669
▁scheids	-10670
▁scratch	-10671
▁sprookjes	-10672
▁preparations	-10673
Qu	-10674
交往	-10675
务院	-10676
cur	-10677
leuk	-10678
▁Aar	-10679
ifest	-10680
▁MOET	-10681
▁Moet	-10682
plaatst	-10683
smiddelen	-10684
400	-10685
ACE	-10686
▁06	-10687
omie	-10688
model	-10689
sseur	-10690
▁Buck	-10691
▁Miri	-10692
▁luxe	-10693
▁Tomas	-10694
▁Streep	-10695
▁ticket	-10696
controle	-10697
▁Tsjechië	-10698
▁protesten	-10699
uv	-10700
▁楼	-10701
▁记	-10702
。}	-10703
岁了	-10704
着呢	-10705
Only	-10706
iënt	-10707
▁cust	-10708
proces	-10709
▁Nesta	-10710
▁schro	-10711
▁contri	-10712
▁Kartoni	-10713
mf	-10714
App	-10715
his	-10716
lukt	-10717
roog	-10718
sman	-10719
about	-10720
▁shud	-10721
▁snor	-10722
▁klimt	-10723
▁sober	-10724
▁Jeroen	-10725
▁Saksen	-10726
▁orkaan	-10727
▁vloeib	-10728
truction	-10729
▁horloge	-10730
▁{{10}^{	-10731
▁contrast	-10732
▁Beargumenteer	-10733
▁International	-10734
望去	-10735
Her	-10736
我们都	-10737
16-1	-10738
cket	-10739
ilda	-10740
waren	-10741
▁meek	-10742
▁Extra	-10743
▁Media	-10744
▁rails	-10745
▁react	-10746
borhood	-10747
gestaan	-10748
izigers	-10749
▁Tucker	-10750
▁roared	-10751
▁strijk	-10752
▁filosoof	-10753
gl	-10754
虫的	-10755
▁sj	-10756
妈妈在	-10757
来不及	-10758
▁Bus	-10759
▁Kos	-10760
Alexa	-10761
rable	-10762
▁Ball	-10763
zakelijk	-10764
▁administ	-10765
spronkelijk	-10766
▁Montenegro	-10767
儿了	-10768
预防	-10769
54)	-10770
▁47	-10771
}_{\	-10772
▁Afg	-10773
▁fen	-10774
Links	-10775
▁Chin	-10776
▁Joan	-10777
ediate	-10778
▁tribes	-10779
lessness	-10780
▁Angeles	-10781
▁vruchten	-10782
▁咱	-10783
仅仅	-10784
同伴	-10785
ifer	-10786
▁Kal	-10787
beest	-10788
▁Fish	-10789
▁knot	-10790
monade	-10791
▁walvis	-10792
Gu	-10793
LL	-10794
不止	-10795
友谊	-10796
预测	-10797
▁吵架	-10798
eres	-10799
▁1).	-10800
▁prob	-10801
alleen	-10802
dreven	-10803
eratuur	-10804
▁poison	-10805
▁confused	-10806
▁profession	-10807
▁internationaal	-10808
9-	-10809
}/	-10810
临时	-10811
快快	-10812
自治	-10813
融合	-10814
蟑螂	-10815
Ach	-10816
Isn	-10817
dog	-10818
sge	-10819
lets	-10820
▁KOM	-10821
Sorry	-10822
raaid	-10823
▁$$=\	-10824
▁Dank	-10825
▁Inst	-10826
▁Jake	-10827
agraph	-10828
zoekers	-10829
▁strugg	-10830
▁Kasteel	-10831
ziatische	-10832
▁Roosmarijn	-10833
fs	-10834
就用	-10835
注的	-10836
的密	-10837
我要去	-10838
uced	-10839
▁Lem	-10840
就是我们	-10841
antie	-10842
ewikk	-10843
▁Jess	-10844
▁Rood	-10845
▁WAAR	-10846
burger	-10847
gedrag	-10848
gewerkt	-10849
▁reluct	-10850
▁frequent	-10851
▁Roosevelt	-10852
gn	-10853
baas	-10854
code	-10855
meter	-10856
▁Afro	-10857
▁Back	-10858
▁Volg	-10859
▁griep	-10860
}^{2}}+	-10861
▁corrid	-10862
▁stroke	-10863
▁Committee	-10864
▁immediate	-10865
贝尔	-10866
loon	-10867
▁kerm	-10868
eavour	-10869
▁omvat	-10870
spiegel	-10871
▁Golden	-10872
▁amazed	-10873
▁specif	-10874
▁Central	-10875
▁October	-10876
共享	-10877
如下	-10878
想看	-10879
拇指	-10880
的行	-10881
▁SN	-10882
groe	-10883
▁item	-10884
▁Venet	-10885
▁bride	-10886
▁schaar	-10887
▁wortel	-10888
achtigen	-10889
▁commerc	-10890
▁gallant	-10891
▁savages	-10892
▁employment	-10893
rg	-10894
代谢	-10895
各位	-10896
相遇	-10897
▁Uh	-10898
adel	-10899
▁Its	-10900
▁Zui	-10901
$$7$$	-10902
ieter	-10903
telijke	-10904
▁Rabbit	-10905
▁beperkt	-10906
▁impressed	-10907
yu	-10908
善于	-10909
弄得	-10910
有几	-10911
dly	-10912
één	-10913
▁好好	-10914
70-1	-10915
spic	-10916
▁Mün	-10917
inate	-10918
ipped	-10919
pleeg	-10920
proef	-10921
▁Secr	-10922
▁Douglas	-10923
▁garments	-10924
Natuurlijk	-10925
,3	-10926
斯特	-10927
=10	-10928
ACK	-10929
▁(52	-10930
▁woe	-10931
velien	-10932
▁meren	-10933
▁Buster	-10934
▁Docent	-10935
▁scarlet	-10936
▁spinnen	-10937
▁Mountain	-10938
▁relatives	-10939
▁%	-10940
他好	-10941
参考	-10942
向他	-10943
找出	-10944
放着	-10945
bli	-10946
qui	-10947
▁kna	-10948
▁Apol	-10949
▁Kamp	-10950
▁zult	-10951
rongen	-10952
▁Delft	-10953
▁Turks	-10954
▁brisk	-10955
gevaard	-10956
▁Norman	-10957
▁opricht	-10958
举起	-10959
事啊	-10960
他去	-10961
的可	-10962
除去	-10963
▁Mun	-10964
roval	-10965
▁Pete	-10966
▁isol	-10967
▁root	-10968
▁rosy	-10969
ductie	-10970
▁}^{2}}	-10971
▁Politie	-10972
▁Service	-10973
▁Through	-10974
▁conscience	-10975
,,	-10976
Ca	-10977
乘客	-10978
37)	-10979
drin	-10980
▁20.	-10981
▁Hur	-10982
parte	-10983
▁1964	-10984
▁Cock	-10985
▁Juan	-10986
ctions	-10987
▁gorge	-10988
▁Accord	-10989
▁absent	-10990
schoenen	-10991
▁compass	-10992
Eh	-10993
的倍	-10994
aux	-10995
dis	-10996
他觉得	-10997
来就是	-10998
lane	-10999
▁sar	-11000
nodig	-11001
▁Graaf	-11002
▁Miles	-11003
▁grinn	-11004
iteiten	-11005
▁vision	-11006
▁rubbish	-11007
▁Harrison	-11008
不不	-11009
得快	-11010
找来	-11011
立了	-11012
irs	-11013
▁1-	-11014
asie	-11015
jaja	-11016
ylvan	-11017
▁Greek	-11018
▁amino	-11019
▁pupil	-11020
geboden	-11021
▁Gerald	-11022
▁Vrouwen	-11023
▁Buurtschappen	-11024
5{	-11025
他用	-11026
IRL	-11027
kol	-11028
▁要是	-11029
的叫声	-11030
prus	-11031
▁wer	-11032
bours	-11033
oured	-11034
prins	-11035
storm	-11036
pecial	-11037
▁arche	-11038
▁daalt	-11039
▁wolves	-11040
争取	-11041
落的	-11042
ROW	-11043
kok	-11044
arms	-11045
▁XIX	-11046
Phone	-11047
geerd	-11048
gevoel	-11049
wintig	-11050
▁Apple	-11051
▁instel	-11052
▁wisdom	-11053
界的	-11054
AAT	-11055
num	-11056
▁OR	-11057
▁SL	-11058
我不会	-11059
peeld	-11060
▁Kent	-11061
▁Team	-11062
▁Frits	-11063
▁Cornel	-11064
▁TikTok	-11065
▁critic	-11066
▁January	-11067
▁reserve	-11068
AF	-11069
参观	-11070
cied	-11071
▁(150	-11072
▁Lion	-11073
▁Pict	-11074
▁Rush	-11075
▁Spir	-11076
▁diff	-11077
▁klet	-11078
▁knal	-11079
▁leis	-11080
mensen	-11081
quired	-11082
velope	-11083
▁Bully	-11084
schijnt	-11085
▁Sticht	-11086
▁omzett	-11087
▁snavel	-11088
▁connection	-11089
例题	-11090
在此	-11091
cut	-11092
▁51	-11093
引起的	-11094
iale	-11095
▁waa	-11096
▁opst	-11097
volgen	-11098
vellous	-11099
▁Jersey	-11100
▁congrat	-11101
▁diamond	-11102
▁industri	-11103
▁concurrentie	-11104
▁É	-11105
愉快	-11106
知乎	-11107
LES	-11108
örd	-11109
在哪儿	-11110
bate	-11111
▁cult	-11112
▁可不可以	-11113
arbeid	-11114
▁contrary	-11115
▁tropische	-11116
▁inspiratie	-11117
▁够	-11118
爸妈	-11119
等差	-11120
衣裳	-11121
sap	-11122
▁SC	-11123
▁过了	-11124
怎么看	-11125
92-1	-11126
oedd	-11127
▁Beg	-11128
▁HER	-11129
▁Weg	-11130
▁boe	-11131
▁我们的	-11132
faced	-11133
petje	-11134
▁Leop	-11135
[...]
