[PAD]	0
[CLS]	0
[SEP]	0
[UNK]	0
[MASK]	0
<0x00>	0
<0x01>	0
<0x02>	0
<0x03>	0
<0x04>	0
<0x05>	0
<0x06>	0
<0x07>	0
<0x08>	0
<0x09>	0
<0x0A>	0
<0x0B>	0
<0x0C>	0
<0x0D>	0
<0x0E>	0
<0x0F>	0
<0x10>	0
<0x11>	0
<0x12>	0
<0x13>	0
<0x14>	0
<0x15>	0
<0x16>	0
<0x17>	0
<0x18>	0
<0x19>	0
<0x1A>	0
<0x1B>	0
<0x1C>	0
<0x1D>	0
<0x1E>	0
<0x1F>	0
<0x20>	0
<0x21>	0
<0x22>	0
<0x23>	0
<0x24>	0
<0x25>	0
<0x26>	0
<0x27>	0
<0x28>	0
<0x29>	0
<0x2A>	0
<0x2B>	0
<0x2C>	0
<0x2D>	0
<0x2E>	0
<0x2F>	0
<0x30>	0
<0x31>	0
<0x32>	0
<0x33>	0
<0x34>	0
<0x35>	0
<0x36>	0
<0x37>	0
<0x38>	0
<0x39>	0
<0x3A>	0
<0x3B>	0
<0x3C>	0
<0x3D>	0
<0x3E>	0
<0x3F>	0
<0x40>	0
<0x41>	0
<0x42>	0
<0x43>	0
<0x44>	0
<0x45>	0
<0x46>	0
<0x47>	0
<0x48>	0
<0x49>	0
<0x4A>	0
<0x4B>	0
<0x4C>	0
<0x4D>	0
<0x4E>	0
<0x4F>	0
<0x50>	0
<0x51>	0
<0x52>	0
<0x53>	0
<0x54>	0
<0x55>	0
<0x56>	0
<0x57>	0
<0x58>	0
<0x59>	0
<0x5A>	0
<0x5B>	0
<0x5C>	0
<0x5D>	0
<0x5E>	0
<0x5F>	0
<0x60>	0
<0x61>	0
<0x62>	0
<0x63>	0
<0x64>	0
<0x65>	0
<0x66>	0
<0x67>	0
<0x68>	0
<0x69>	0
<0x6A>	0
<0x6B>	0
<0x6C>	0
<0x6D>	0
<0x6E>	0
<0x6F>	0
<0x70>	0
<0x71>	0
<0x72>	0
<0x73>	0
<0x74>	0
<0x75>	0
<0x76>	0
<0x77>	0
<0x78>	0
<0x79>	0
<0x7A>	0
<0x7B>	0
<0x7C>	0
<0x7D>	0
<0x7E>	0
<0x7F>	0
<0x80>	0
<0x81>	0
<0x82>	0
<0x83>	0
<0x84>	0
<0x85>	0
<0x86>	0
<0x87>	0
<0x88>	0
<0x89>	0
<0x8A>	0
<0x8B>	0
<0x8C>	0
<0x8D>	0
<0x8E>	0
<0x8F>	0
<0x90>	0
<0x91>	0
<0x92>	0
<0x93>	0
<0x94>	0
<0x95>	0
<0x96>	0
<0x97>	0
<0x98>	0
<0x99>	0
<0x9A>	0
<0x9B>	0
<0x9C>	0
<0x9D>	0
<0x9E>	0
<0x9F>	0
<0xA0>	0
<0xA1>	0
<0xA2>	0
<0xA3>	0
<0xA4>	0
<0xA5>	0
<0xA6>	0
<0xA7>	0
<0xA8>	0
<0xA9>	0
<0xAA>	0
<0xAB>	0
<0xAC>	0
<0xAD>	0
<0xAE>	0
<0xAF>	0
<0xB0>	0
<0xB1>	0
<0xB2>	0
<0xB3>	0
<0xB4>	0
<0xB5>	0
<0xB6>	0
<0xB7>	0
<0xB8>	0
<0xB9>	0
<0xBA>	0
<0xBB>	0
<0xBC>	0
<0xBD>	0
<0xBE>	0
<0xBF>	0
<0xC0>	0
<0xC1>	0
<0xC2>	0
<0xC3>	0
<0xC4>	0
<0xC5>	0
<0xC6>	0
<0xC7>	0
<0xC8>	0
<0xC9>	0
<0xCA>	0
<0xCB>	0
<0xCC>	0
<0xCD>	0
<0xCE>	0
<0xCF>	0
<0xD0>	0
<0xD1>	0
<0xD2>	0
<0xD3>	0
<0xD4>	0
<0xD5>	0
<0xD6>	0
<0xD7>	0
<0xD8>	0
<0xD9>	0
<0xDA>	0
<0xDB>	0
<0xDC>	0
<0xDD>	0
<0xDE>	0
<0xDF>	0
<0xE0>	0
<0xE1>	0
<0xE2>	0
<0xE3>	0
<0xE4>	0
<0xE5>	0
<0xE6>	0
<0xE7>	0
<0xE8>	0
<0xE9>	0
<0xEA>	0
<0xEB>	0
<0xEC>	0
<0xED>	0
<0xEE>	0
<0xEF>	0
<0xF0>	0
<0xF1>	0
<0xF2>	0
<0xF3>	0
<0xF4>	0
<0xF5>	0
<0xF6>	0
<0xF7>	0
<0xF8>	0
<0xF9>	0
<0xFA>	0
<0xFB>	0
<0xFC>	0
<0xFD>	0
<0xFE>	0
<0xFF>	0
en	-0
er	-1
▁t	-2
an	-3
he	-4
in	-5
▁d	-6
▁w	-7
▁o	-8
▁s	-9
▁a	-10
▁b	-11
at	-12
▁m	-13
▁h	-14
or	-15
▁v	-16
el	-17
▁the	-18
ar	-19
is	-20
ou	-21
it	-22
▁g	-23
ed	-24
et	-25
▁de	-26
ij	-27
on	-28
and	-29
es	-30
▁he	-31
ing	-32
▁n	-33
▁*	-34
▁e	-35
ch	-36
▁l	-37
▁in	-38
▁f	-39
▁p	-40
▁to	-41
▁z	-42
▁th	-43
as	-44
▁c	-45
▁k	-46
re	-47
al	-48
▁and	-49
ie	-50
▁I	-51
om	-52
▁of	-53
st	-54
le	-55
aar	-56
▁een	-57
ot	-58
il	-59
oor	-60
ad	-61
id	-62
▁van	-63
▁en	-64
ig	-65
CH	-66
▁het	-67
▁is	-68
▁D	-69
ro	-70
▁be	-71
▁y	-72
▁A	-73
IL	-74
▁j	-75
▁st	-76
ILD	-77
CHILD	-78
▁on	-79
▁B	-80
AR	-81
ET	-82
GET	-83
TAR	-84
TARGET	-85
▁u	-86
▁"	-87
ut	-88
ra	-89
ere	-90
▁T	-91
▁H	-92
▁al	-93
▁you	-94
▁was	-95
oo	-96
ur	-97
ER	-98
ent	-99
am	-100
$$	-101
ve	-102
ow	-103
ver	-104
▁S	-105
▁wh	-106
im	-107
▁M	-108
ee	-109
▁it	-110
ak	-111
ik	-112
▁that	-113
▁ge	-114
▁op	-115
ol	-116
de	-117
▁r	-118
TH	-119
den	-120
THER	-121
▁ver	-122
der	-123
se	-124
ly	-125
▁W	-126
un	-127
ijn	-128
ter	-129
ay	-130
OTHER	-131
MOTHER	-132
ic	-133
ag	-134
▁te	-135
ir	-136
▁we	-137
▁E	-138
est	-139
ijk	-140
▁er	-141
▁C	-142
gen	-143
▁me	-144
iet	-145
ht	-146
ld	-147
oe	-148
us	-149
▁N	-150
▁re	-151
cht	-152
▁for	-153
▁je	-154
▁O	-155
ant	-156
▁'	-157
ken	-158
ion	-159
▁dat	-160
▁1	-161
ac	-162
ith	-163
▁De	-164
▁had	-165
▁as	-166
ven	-167
ge	-168
ers	-169
▁(	-170
▁met	-171
ul	-172
ap	-173
▁wor	-174
▁voor	-175
▁ze	-176
ok	-177
▁zijn	-178
..	-179
ell	-180
▁G	-181
ight	-182
ft	-183
▁with	-184
ill	-185
▁P	-186
▁do	-187
AT	-188
IN	-189
ST	-190
op	-191
OR	-192
▁ha	-193
VE	-194
IG	-195
ould	-196
▁L	-197
STIG	-198
ATOR	-199
VESTIG	-200
INVESTIG	-201
INVESTIGATOR	-202
▁an	-203
xx	-204
ct	-205
▁his	-206
eel	-207
aat	-208
▁J	-209
▁V	-210
ier	-211
th	-212
▁die	-213
je	-214
nd	-215
▁niet	-216
og	-217
te	-218
▁uit	-219
if	-220
▁not	-221
▁her	-222
▁R	-223
▁at	-224
▁they	-225
▁le	-226
ce	-227
▁aan	-228
ru	-229
▁go	-230
ri	-231
▁sa	-232
▁sp	-233
ind	-234
▁over	-235
."	-236
ome	-237
▁sh	-238
,"	-239
ten	-240
▁F	-241
▁mo	-242
▁2	-243
▁K	-244
▁she	-245
ess	-246
▁have	-247
ust	-248
aan	-249
▁ne	-250
▁Z	-251
▁kn	-252
▁so	-253
▁The	-254
▁all	-255
all	-256
ast	-257
▁om	-258
ich	-259
sen	-260
▁·	-261
▁wer	-262
os	-263
um	-264
ze	-265
▁af	-266
ang	-267
▁In	-268
ard	-269
ond	-270
art	-271
▁pl	-272
ain	-273
▁tw	-274
▁ook	-275
ine	-276
oug	-277
▁but	-278
▁Y	-279
▁him	-280
aal	-281
▁up	-282
rij	-283
--	-284
▁sch	-285
▁said	-286
her	-287
▁bij	-288
rom	-289
ink	-290
▁wat	-291
▁door	-292
ab	-293
out	-294
end	-295
ore	-296
▁als	-297
we	-298
▁naar	-299
elijk	-300
▁hij	-301
qu	-302
▁one	-303
▁were	-304
ong	-305
▁su	-306
▁or	-307
▁我	-308
ood	-309
▁ch	-310
em	-311
▁there	-312
nen	-313
▁this	-314
ien	-315
▁Het	-316
ist	-317
che	-318
▁dan	-319
eer	-320
land	-321
ep	-322
▁zo	-323
▁Th	-324
...	-325
▁maar	-326
一个	-327
!"	-328
▁ex	-329
▁pro	-330
▁them	-331
00	-332
au	-333
▁know	-334
▁bl	-335
▁bo	-336
eld	-337
ip	-338
▁ab	-339
?"	-340
sch	-341
elf	-342
ort	-343
ah	-344
什么	-345
▁man	-346
▁out	-347
▁word	-348
xxx	-349
▁gr	-350
ies	-351
ll	-352
our	-353
ke	-354
▁-	-355
▁would	-356
▁no	-357
ook	-358
▁heb	-359
▁from	-360
▁ro	-361
▁geb	-362
▁ik	-363
▁con	-364
ste	-365
▁my	-366
ation	-367
▁are	-368
▁waar	-369
▁你	-370
ck	-371
ack	-372
ingen	-373
ame	-374
uur	-375
▁men	-376
ound	-377
itt	-378
▁wel	-379
▁what	-380
aak	-381
▁br	-382
▁com	-383
▁by	-384
ide	-385
▁see	-386
one	-387
ry	-388
ike	-389
▁can	-390
pen	-391
▁un	-392
▁se	-393
▁if	-394
▁pr	-395
eder	-396
就是	-397
ake	-398
▁这	-399
eft	-400
▁nog	-401
▁wordt	-402
ite	-403
eren	-404
▁when	-405
。"	-406
▁get	-407
ouw	-408
pp	-409
ja	-410
▁是	-411
:"	-412
orm	-413
▁will	-414
ough	-415
▁onder	-416
▁heeft	-417
to	-418
jes	-419
▁ar	-420
ous	-421
ied	-422
ank	-423
▁kun	-424
ele	-425
▁who	-426
}$$	-427
eah	-428
▁He	-429
没有	-430
iv	-431
ive	-432
ff	-433
ree	-434
▁worden	-435
▁their	-436
▁which	-437
▁kan	-438
▁like	-439
▁been	-440
ber	-441
▁about	-442
我们	-443
$$\	-444
▁did	-445
ally	-446
{{	-447
ia	-448
oord	-449
uit	-450
▁some	-451
▁了	-452
pl	-453
▁any	-454
▁could	-455
od	-456
▁qu	-457
▁Al	-458
▁sl	-459
▁think	-460
ittle	-461
ost	-462
▁bet	-463
▁your	-464
▁tim	-465
▁meer	-466
ings	-467
▁It	-468
gt	-469
men	-470
▁gro	-471
acht	-472
▁moet	-473
wer	-474
▁deze	-475
per	-476
ool	-477
own	-478
▁19	-479
▁don	-480
▁werd	-481
可以	-482
eeld	-483
oek	-484
▁little	-485
▁And	-486
mer	-487
然后	-488
▁then	-489
icht	-490
}}	-491
▁3	-492
▁kom	-493
zen	-494
way	-495
▁very	-496
▁daar	-497
elen	-498
ben	-499
uis	-500
ug	-501
ne	-502
▁hand	-503
ijd	-504
▁just	-505
▁Wh	-506
atie	-507
▁alle	-508
▁us	-509
▁look	-510
ate	-511
▁\	-512
▁的	-513
els	-514
ige	-515
▁dit	-516
▁haar	-517
▁ag	-518
▁hun	-519
uw	-520
▁St	-521
他们	-522
▁el	-523
pt	-524
aken	-525
▁...	-526
自己	-527
ice	-528
▁veel	-529
eden	-530
ther	-531
uk	-532
▁个	-533
hing	-534
这个	-535
-1	-536
▁beg	-537
be	-538
ear	-539
▁got	-540
▁一	-541
▁En	-542
oon	-543
▁time	-544
▁say	-545
ach	-546
een	-547
av	-548
ose	-549
ass	-550
other	-551
▁vol	-552
aten	-553
▁cl	-554
ick	-555
aren	-556
▁mu	-557
▁hebben	-558
▁best	-559
TE	-560
▁Ze	-561
▁goed	-562
▁now	-563
妈妈	-564
▁down	-565
▁Een	-566
▁off	-567
▁tot	-568
bl	-569
▁wil	-570
ment	-571
不是	-572
ull	-573
ruik	-574
▁Er	-575
wn	-576
ely	-577
▁Hij	-578
▁per	-579
dat	-580
inder	-581
iek	-582
ade	-583
▁want	-584
▁more	-585
ederland	-586
pe	-587
ace	-588
▁into	-589
,'	-590
ACH	-591
▁land	-592
▁even	-593
▁(1	-594
▁bel	-595
ud	-596
▁Nederland	-597
ark	-598
▁hier	-599
ACHER	-600
TEACHER	-601
onder	-602
eg	-603
.'	-604
ble	-605
知道	-606
amen	-607
ert	-608
reat	-609
ew	-610
ought	-611
▁two	-612
elt	-613
▁ever	-614
时候	-615
ië	-616
▁But	-617
ker	-618
▁Mr	-619
af	-620
▁ont	-621
lijk	-622
▁twee	-623
▁Ch	-624
ek	-625
ire	-626
▁那	-627
oud	-628
▁kl	-629
oun	-630
▁Fr	-631
答案	-632
▁ter	-633
▁fl	-634
▁good	-635
oh	-636
rac	-637
ty	-638
▁weer	-639
sp	-640
▁na	-641
怎么	-642
▁am	-643
▁vo	-644
▁well	-645
▁小	-646
▁U	-647
int	-648
▁back	-649
are	-650
ure	-651
▁20	-652
ale	-653
{2	-654
urn	-655
ische	-656
age	-657
beeld	-658
oen	-659
na	-660
heid	-661
▁ra	-662
uid	-663
eten	-664
▁gaat	-665
iss	-666
▁som	-667
me	-668
▁Yeah	-669
cent	-670
▁sn	-671
▁dr	-672
哈哈	-673
▁water	-674
ater	-675
▁zich	-676
kt	-677
▁mensen	-678
ans	-679
▁tr	-680
▁eer	-681
ote	-682
▁不	-683
▁gev	-684
▁part	-685
ish	-686
ob	-687
ave	-688
fore	-689
hed	-690
ful	-691
▁day	-692
▁好	-693
ather	-694
▁对	-695
cl	-696
▁You	-697
▁4	-698
als	-699
喜欢	-700
old	-701
▁way	-702
igen	-703
ile	-704
▁bed	-705
ath	-706
▁Op	-707
▁pe	-708
▁ad	-709
▁other	-710
▁他	-711
ance	-712
esch	-713
FA	-714
▁has	-715
▁jaar	-716
▁在	-717
▁有	-718
▁geen	-719
现在	-720
▁kunnen	-721
▁come	-722
of	-723
▁after	-724
AD	-725
ity	-726
▁how	-727
▁hem	-728
▁andere	-729
▁sm	-730
▁again	-731
act	-732
air	-733
dr	-734
ger	-735
▁嗯	-736
FATHER	-737
▁hoe	-738
frac	-739
▁gen	-740
▁going	-741
chter	-742
ning	-743
▁hoo	-744
ord	-745
raag	-746
right	-747
UL	-748
▁much	-749
▁tegen	-750
▁right	-751
▁gl	-752
▁here	-753
▁kon	-754
over	-755
line	-756
voor	-757
▁gebruik	-758
rijk	-759
alk	-760
ief	-761
ende	-762
▁啊	-763
▁where	-764
ci	-765
因为	-766
pr	-767
▁our	-768
了一	-769
▁An	-770
▁kle	-771
▁than	-772
▁only	-773
▁gaan	-774
ULT	-775
ADULT	-776
▁Je	-777
▁5	-778
cc	-779
▁str	-780
▁zit	-781
▁bec	-782
omen	-783
▁came	-784
▁let	-785
eek	-786
还是	-787
▁题	-788
▁We	-789
aakt	-790
▁•	-791
gel	-792
ussen	-793
ause	-794
▁long	-795
▁答案	-796
▁Sch	-797
oed	-798
self	-799
▁dis	-800
那个	-801
的是	-802
▁app	-803
oem	-804
▁before	-805
▁.	-806
▁就	-807
▁min	-808
▁$$	-809
▁lo	-810
innen	-811
▁erm	-812
觉得	-813
▁staat	-814
app	-815
▁fir	-816
▁went	-817
).	-818
▁Ik	-819
▁Oh	-820
▁doen	-821
oot	-822
▁nie	-823
oll	-824
起来	-825
▁xxx	-826
▁nu	-827
▁She	-828
ople	-829
▁kw	-830
▁Mar	-831
▁made	-832
▁boy	-833
▁maken	-834
able	-835
▁im	-836
▁sc	-837
▁题干	-838
alen	-839
II	-840
eed	-841
还有	-842
▁zou	-843
▁heel	-844
▁zegt	-845
iz	-846
oren	-847
▁put	-848
▁work	-849
▁Maar	-850
iets	-851
▁看	-852
▁So	-853
▁old	-854
▁No	-855
ried	-856
man	-857
▁hel	-858
▁vl	-859
▁car	-860
▁ask	-861
▁Dat	-862
▁every	-863
选项	-864
ron	-865
▁thought	-866
rm	-867
ving	-868
gens	-869
woord	-870
▁tra	-871
▁people	-872
row	-873
▁ben	-874
▁should	-875
▁hou	-876
▁great	-877
▁They	-878
ieren	-879
ting	-880
▁act	-881
▁gew	-882
amp	-883
ue	-884
但是	-885
ward	-886
正确	-887
这样	-888
vol	-889
form	-890
racht	-891
idd	-892
ons	-893
ma	-894
▁make	-895
到了	-896
erd	-897
▁school	-898
▁解	-899
▁Als	-900
ix	-901
▁too	-902
?'	-903
irl	-904
▁ple	-905
▁beh	-906
▁komt	-907
▁elk	-908
ian	-909
▁must	-910
▁Daar	-911
ann	-912
▁lang	-913
$$,	-914
▁什么	-915
▁inter	-916
maal	-917
▁ged	-918
ount	-919
▁somet	-920
▁kinder	-921
oorden	-922
▁take	-923
▁ma	-924
▁_	-925
▁away	-926
▁versch	-927
uro	-928
arm	-929
▁mee	-930
▁gem	-931
▁open	-932
hat	-933
ious	-934
▁never	-935
sl	-936
nee	-937
所以	-938
ved	-939
▁zelf	-940
▁gel	-941
riend	-942
▁hele	-943
▁thr	-944
▁$$\	-945
▁rem	-946
ult	-947
▁first	-948
sel	-949
▁waren	-950
▁tijd	-951
▁tell	-952
▁gez	-953
▁mean	-954
▁last	-955
oort	-956
▁res	-957
ise	-958
▁6	-959
du	-960
onden	-961
{1	-962
▁解析	-963
▁Dit	-964
mand	-965
ijden	-966
rouw	-967
▁cont	-968
aug	-969
}_	-970
朋友	-971
▁year	-972
rijf	-973
也是	-974
▁pol	-975
ens	-976
▁call	-977
▁kijk	-978
的时候	-979
▁might	-980
▁Wat	-981
oy	-982
▁bro	-983
中国	-984
ady	-985
oss	-986
ub	-987
kst	-988
▁weg	-989
ock	-990
▁pre	-991
EN	-992
▁won	-993
▁toen	-994
AN	-995
▁nat	-996
▁girl	-997
ai	-998
▁tre	-999
fd	-1000
▁mijn	-1001
▁Le	-1002
▁seem	-1003
▁plaat	-1004
ase	-1005
▁comp	-1006
unt	-1007
▁under	-1008
▁jij	-1009
我的	-1010
iff	-1011
▁fe	-1012
▁grote	-1013
▁through	-1014
rit	-1015
▁Well	-1016
▁vind	-1017
ily	-1018
én	-1019
sh	-1020
▁because	-1021
爸爸	-1022
▁alleen	-1023
open	-1024
▁uh	-1025
ius	-1026
bij	-1027
▁要	-1028
▁chil	-1029
ict	-1030
▁ie	-1031
door	-1032
wij	-1033
▁kinderen	-1034
▁tussen	-1035
▁three	-1036
led	-1037
ated	-1038
kend	-1039
ife	-1040
▁krij	-1041
▁these	-1042
▁bu	-1043
ram	-1044
}{	-1045
▁groot	-1046
stand	-1047
▁hal	-1048
出来	-1049
▁verk	-1050
▁dag	-1051
▁mag	-1052
▁zien	-1053
enn	-1054
}^	-1055
eep	-1056
▁ant	-1057
▁really	-1058
▁aut	-1059
etje	-1060
ions	-1061
thing	-1062
都是	-1063
ters	-1064
▁may	-1065
ders	-1066
▁iets	-1067
的小	-1068
▁201	-1069
anc	-1070
▁spe	-1071
▁Sp	-1072
ift	-1073
20	-1074
io	-1075
▁werk	-1076
可能	-1077
▁There	-1078
▁mil	-1079
▁kind	-1080
elijke	-1081
▁200	-1082
appen	-1083
的人	-1084
▁something	-1085
allen	-1086
▁eigen	-1087
▁That	-1088
eur	-1089
▁head	-1090
eef	-1091
omm	-1092
▁komen	-1093
▁On	-1094
▁Ook	-1095
esl	-1096
aag	-1097
▁zei	-1098
▁turn	-1099
▁18	-1100
iver	-1101
▁tekst	-1102
▁eens	-1103
▁things	-1104
ins	-1105
ange	-1106
▁mom	-1107
get	-1108
▁pres	-1109
▁hard	-1110
▁own	-1111
▁What	-1112
▁ey	-1113
▁pers	-1114
真的	-1115
ader	-1116
▁thing	-1117
▁home	-1118
ory	-1119
▁eerste	-1120
▁lig	-1121
ss	-1122
▁dra	-1123
▁大	-1124
oth	-1125
可是	-1126
时间	-1127
▁,	-1128
▁你好	-1129
mo	-1130
他的	-1131
isch	-1132
erk	-1133
孩子	-1134
aart	-1135
ars	-1136
!'	-1137
oos	-1138
ped	-1139
▁po	-1140
▁选项	-1141
▁stad	-1142
▁$	-1143
ph	-1144
vo	-1145
▁those	-1146
的一	-1147
oog	-1148
ellen	-1149
东西	-1150
eter	-1151
▁staan	-1152
▁)	-1153
ucht	-1154
▁X	-1155
▁Wik	-1156
▁upon	-1157
▁such	-1158
▁moment	-1159
▁reg	-1160
uwe	-1161
aking	-1162
apt	-1163
也不	-1164
ever	-1165
▁é	-1166
▁Af	-1167
),	-1168
ary	-1169
▁samen	-1170
▁inform	-1171
▁elkaar	-1172
▁many	-1173
有一	-1174
van	-1175
xt	-1176
▁vert	-1177
▁asked	-1178
▁Bij	-1179
ib	-1180
ged	-1181
▁den	-1182
▁7	-1183
ester	-1184
▁sle	-1185
▁ging	-1186
▁keer	-1187
▁Ge	-1188
▁ser	-1189
ilm	-1190
▁stra	-1191
▁gra	-1192
▁呢	-1193
▁Voor	-1194
▁gek	-1195
已经	-1196
▁quite	-1197
▁Deze	-1198
▁new	-1199
▁vraag	-1200
pect	-1201
----	-1202
▁toe	-1203
▁één	-1204
ign	-1205
hu	-1206
▁cour	-1207
▁while	-1208
▁mor	-1209
igh	-1210
▁=	-1211
▁achter	-1212
▁8	-1213
pro	-1214
day	-1215
▁week	-1216
▁its	-1217
ng	-1218
▁laat	-1219
Oh	-1220
▁still	-1221
这么	-1222
ident	-1223
ect	-1224
▁supp	-1225
bo	-1226
▁drie	-1227
比赛	-1228
imes	-1229
▁verschill	-1230
▁Be	-1231
故事	-1232
ets	-1233
left	-1234
▁huis	-1235
▁house	-1236
▁half	-1237
itie	-1238
▁does	-1239
▁Then	-1240
uiten	-1241
isten	-1242
▁hoofd	-1243
ner	-1244
▁dus	-1245
geven	-1246
▁find	-1247
aas	-1248
▁Mm	-1249
▁toch	-1250
如果	-1251
off	-1252
amer	-1253
▁werden	-1254
zo	-1255
▁friend	-1256
aam	-1257
aard	-1258
▁didn	-1259
atter	-1260
▁pap	-1261
fl	-1262
▁meest	-1263
ail	-1264
▁saw	-1265
▁Gr	-1266
▁though	-1267
You	-1268
kken	-1269
▁zoals	-1270
▁night	-1271
▁being	-1272
zelf	-1273
▁ga	-1274
ors	-1275
▁Hier	-1276
▁start	-1277
▁looked	-1278
一定	-1279
▁ten	-1280
▁give	-1281
▁rest	-1282
▁place	-1283
▁mother	-1284
▁Joh	-1285
aut	-1286
▁belang	-1287
需要	-1288
ijf	-1289
ister	-1290
veel	-1291
▁zw	-1292
oop	-1293
▁Mrs	-1294
开始	-1295
▁Amer	-1296
ait	-1297
▁far	-1298
▁Hoe	-1299
ways	-1300
很多	-1301
vent	-1302
▁ru	-1303
ness	-1304
▁Euro	-1305
under	-1306
▁Cl	-1307
▁Yes	-1308
▁done	-1309
▁found	-1310
geb	-1311
▁another	-1312
▁arm	-1313
▁near	-1314
iden	-1315
▁gu	-1316
▁num	-1317
000	-1318
▁到	-1319
inden	-1320
▁terug	-1321
ina	-1322
les	-1323
eng	-1324
▁himself	-1325
vel	-1326
▁bit	-1327
▁wind	-1328
eeds	-1329
▁talk	-1330
The	-1331
▁nieuwe	-1332
center	-1333
wat	-1334
▁sec	-1335
erg	-1336
▁eyes	-1337
▁verh	-1338
▁che	-1339
▁need	-1340
log	-1341
Ik	-1342
port	-1343
▁young	-1344
ragen	-1345
centerline	-1346
自己的	-1347
错误	-1348
一起	-1349
这些	-1350
eeft	-1351
▁leven	-1352
ves	-1353
▁Ar	-1354
▁Is	-1355
▁steeds	-1356
不能	-1357
应该	-1358
aw	-1359
▁moeten	-1360
It	-1361
▁verb	-1362
▁prob	-1363
ef	-1364
▁zie	-1365
大家	-1366
感觉	-1367
▁big	-1368
▁我们	-1369
Th	-1370
▁blij	-1371
{2}}	-1372
▁des	-1373
▁pass	-1374
anden	-1375
▁stop	-1376
▁father	-1377
oeken	-1378
▁vaak	-1379
▁说	-1380
▁Van	-1381
▁10	-1382
oten	-1383
▁took	-1384
▁later	-1385
▁ac	-1386
uren	-1387
uck	-1388
运动	-1389
▁most	-1390
▁下	-1391
▁然后	-1392
▁diff	-1393
▁vis	-1394
ggen	-1395
▁ret	-1396
iel	-1397
▁dro	-1398
一样	-1399
ually	-1400
▁belangrijk	-1401
▁set	-1402
edia	-1403
alt	-1404
▁always	-1405
▁course	-1406
.$$	-1407
aanse	-1408
▁Bl	-1409
up	-1410
gr	-1411
▁once	-1412
▁shall	-1413
▁zitten	-1414
the	-1415
▁four	-1416
▁told	-1417
▁net	-1418
▁omdat	-1419
zoek	-1420
▁fam	-1421
ks	-1422
We	-1423
生活	-1424
ody	-1425
▁cons	-1426
来了	-1427
里面	-1428
▁gemaakt	-1429
▁sur	-1430
▁lot	-1431
因此	-1432
▁minut	-1433
▁bus	-1434
▁end	-1435
▁keep	-1436
▁嗯嗯	-1437
gende	-1438
▁哈哈	-1439
▁ja	-1440
▁oor	-1441
agen	-1442
▁bre	-1443
eling	-1444
ijdens	-1445
▁yeah	-1446
▁gebruikt	-1447
▁erg	-1448
▁来	-1449
▁informatie	-1450
▁jon	-1451
etty	-1452
▁left	-1453
▁fig	-1454
▁rec	-1455
▁它	-1456
▁fell	-1457
▁ear	-1458
好的	-1459
▁echt	-1460
▁ou	-1461
大的	-1462
▁feel	-1463
ijs	-1464
▁verd	-1465
▁room	-1466
its	-1467
▁same	-1468
▁wereld	-1469
▁soon	-1470
▁rel	-1471
elde	-1472
zet	-1473
tijd	-1474
▁acc	-1475
不过	-1476
ubl	-1477
▁better	-1478
其实	-1479
▁fin	-1480
ster	-1481
▁上	-1482
And	-1483
▁Wel	-1484
▁bron	-1485
▁sort	-1486
▁ans	-1487
org	-1488
voorbeeld	-1489
比较	-1490
aps	-1491
ont	-1492
▁heard	-1493
vl	-1494
red	-1495
ustr	-1496
上的	-1497
▁binnen	-1498
rew	-1499
▁face	-1500
ept	-1501
▁weet	-1502
▁ind	-1503
▁nou	-1504
kom	-1505
▁enough	-1506
mp	-1507
今天	-1508
iep	-1509
{2}	-1510
发现	-1511
=\	-1512
看到	-1513
▁deel	-1514
4.	-1515
▁stand	-1516
ids	-1517
▁aant	-1518
而且	-1519
▁mon	-1520
▁ob	-1521
你们	-1522
▁kwam	-1523
▁run	-1524
1.	-1525
res	-1526
▁verl	-1527
▁snel	-1528
{{{	-1529
▁antwoord	-1530
nie	-1531
▁去	-1532
非常	-1533
▁side	-1534
▁plaats	-1535
▁x	-1536
▁Ver	-1537
inc	-1538
▁gebeur	-1539
▁9	-1540
ikk	-1541
▁answer	-1542
▁sche	-1543
世界	-1544
owed	-1545
▁few	-1546
orn	-1547
▁sw	-1548
▁stuk	-1549
elling	-1550
的话	-1551
▁try	-1552
oeg	-1553
▁film	-1554
▁col	-1555
▁Zo	-1556
ction	-1557
电影	-1558
▁wr	-1559
▁nam	-1560
▁As	-1561
▁Frank	-1562
是一	-1563
▁故	-1564
▁vro	-1565
▁next	-1566
Yes	-1567
那么	-1568
▁round	-1569
▁Na	-1570
▁Met	-1571
}$$,	-1572
iteit	-1573
ition	-1574
▁也	-1575
▁moest	-1576
tra	-1577
▁life	-1578
▁mis	-1579
人的	-1580
▁par	-1581
enten	-1582
▁sure	-1583
dred	-1584
▁morning	-1585
body	-1586
ieve	-1587
anten	-1588
but	-1589
▁hop	-1590
▁seemed	-1591
▁besch	-1592
underline	-1593
dren	-1594
ling	-1595
ullie	-1596
vis	-1597
▁vrouw	-1598
king	-1599
▁woorden	-1600
▁Schrijf	-1601
Well	-1602
▁called	-1603
▁years	-1604
assen	-1605
两个	-1606
▁zij	-1607
oney	-1608
▁II	-1609
不会	-1610
一下	-1611
tje	-1612
ple	-1613
▁knew	-1614
▁呀	-1615
▁anything	-1616
▁play	-1617
动物	-1618
▁used	-1619
izen	-1620
▁fun	-1621
一点	-1622
▁When	-1623
",	-1624
中的	-1625
eerd	-1626
die	-1627
▁six	-1628
走了	-1629
werp	-1630
esp	-1631
这种	-1632
ross	-1633
eth	-1634
▁natuur	-1635
▁doet	-1636
ched	-1637
aring	-1638
10	-1639
by	-1640
▁boek	-1641
▁dist	-1642
▁sk	-1643
ama	-1644
▁without	-1645
ander	-1646
▁Dan	-1647
▁If	-1648
▁Br	-1649
▁Duit	-1650
enty	-1651
拜拜	-1652
▁help	-1653
urg	-1654
▁geh	-1655
ao	-1656
gg	-1657
▁plan	-1658
▁mind	-1659
国家	-1660
▁就是	-1661
{}$$	-1662
▁inst	-1663
til	-1664
mber	-1665
▁wonder	-1666
▁ligt	-1667
特别	-1668
▁hoor	-1669
▁vinden	-1670
▁boys	-1671
No	-1672
▁five	-1673
▁This	-1674
ations	-1675
最近	-1676
▁ju	-1677
▁Beeld	-1678
uss	-1679
iding	-1680
room	-1681
▁Chr	-1682
ern	-1683
▁是啊	-1684
auw	-1685
eem	-1686
▁groep	-1687
再见	-1688
▁nothing	-1689
▁zet	-1690
▁tru	-1691
▁To	-1692
▁children	-1693
青蛙	-1694
uin	-1695
老师	-1696
Uh	-1697
▁co	-1698
▁eerst	-1699
ott	-1700
▁geld	-1701
Wh	-1702
akken	-1703
▁point	-1704
它们	-1705
ieden	-1706
▁altijd	-1707
▁seen	-1708
ared	-1709
ese	-1710
▁Miss	-1711
问题	-1712
▁zal	-1713
▁cle	-1714
▁boven	-1715
▁hundred	-1716
▁Now	-1717
▁buiten	-1718
▁[	-1719
▁vader	-1720
▁ke	-1721
2.	-1722
ren	-1723
发展	-1724
ouden	-1725
ots	-1726
▁vier	-1727
▁em	-1728
▁moeder	-1729
ertain	-1730
新闻	-1731
▁ontst	-1732
ject	-1733
50	-1734
ari	-1735
通过	-1736
▁Geef	-1737
▁grond	-1738
▁吃	-1739
▁hu	-1740
▁ste	-1741
ower	-1742
▁comm	-1743
ows	-1744
▁dire	-1745
▁light	-1746
wh	-1747
▁auto	-1748
oke	-1749
▁Om	-1750
▁vast	-1751
▁Die	-1752
▁Am	-1753
▁0	-1754
But	-1755
▁kijken	-1756
主要	-1757
▁nod	-1758
▁welke	-1759
▁win	-1760
不好	-1761
▁bas	-1762
地方	-1763
▁naam	-1764
▁Re	-1765
less	-1766
▁woord	-1767
▁foll	-1768
▁sat	-1769
▁Waar	-1770
▁El	-1771
con	-1772
oemd	-1773
▁vorm	-1774
▁Amerik	-1775
ible	-1776
▁stem	-1777
▁along	-1778
ider	-1779
chten	-1780
▁aantal	-1781
▁给	-1782
▁hebt	-1783
▁Europ	-1784
▁weten	-1785
▁until	-1786
▁yes	-1787
▁pop	-1788
arn	-1789
baar	-1790
ereen	-1791
▁care	-1792
▁Ind	-1793
▁yet	-1794
▁Me	-1795
▁At	-1796
▁walk	-1797
▁volgende	-1798
kker	-1799
▁Tom	-1800
▁moo	-1801
▁disc	-1802
▁money	-1803
▁ele	-1804
▁around	-1805
这是	-1806
▁laug	-1807
ently	-1808
▁Jack	-1809
▁heart	-1810
dy	-1811
ably	-1812
ede	-1813
▁kunt	-1814
most	-1815
为什么	-1816
▁produ	-1817
▁landen	-1818
ded	-1819
▁helemaal	-1820
▁form	-1821
ton	-1822
oel	-1823
ctie	-1824
▁count	-1825
▁bad	-1826
ield	-1827
▁dear	-1828
▁cent	-1829
▁vrij	-1830
▁gesch	-1831
▁hour	-1832
▁doing	-1833
▁eten	-1834
下来	-1835
▁each	-1836
▁paar	-1837
▁Ben	-1838
▁verder	-1839
net	-1840
ished	-1841
狐狸	-1842
4)	-1843
▁maak	-1844
▁oh	-1845
▁TH	-1846
发生	-1847
▁bekend	-1848
▁allemaal	-1849
Yeah	-1850
你的	-1851
nou	-1852
ging	-1853
▁hoog	-1854
▁person	-1855
▁ons	-1856
▁also	-1857
▁mar	-1858
以后	-1859
▁bev	-1860
▁del	-1861
ullen	-1862
▁klein	-1863
▁hers	-1864
▁Bel	-1865
▁red	-1866
▁happen	-1867
▁还	-1868
2)	-1869
az	-1870
看看	-1871
ence	-1872
▁Eng	-1873
▁jullie	-1874
cept	-1875
▁vragen	-1876
▁afbeeld	-1877
为了	-1878
ruk	-1879
aald	-1880
hes	-1881
▁vroeg	-1882
▁Bob	-1883
30	-1884
▁rond	-1885
▁small	-1886
ijkt	-1887
▁coming	-1888
▁proble	-1889
ined	-1890
这里	-1891
▁koning	-1892
▁Un	-1893
▁hor	-1894
huh	-1895
太阳	-1896
▁Nederlandse	-1897
▁gave	-1898
unten	-1899
▁把	-1900
▁hands	-1901
▁Wil	-1902
oto	-1903
What	-1904
▁Har	-1905
▁dieren	-1906
anger	-1907
sten	-1908
▁pra	-1909
▁return	-1910
erde	-1911
第一	-1912
▁All	-1913
bed	-1914
erm	-1915
▁real	-1916
▁midd	-1917
3.	-1918
▁Sh	-1919
ats	-1920
att	-1921
▁began	-1922
▁15	-1923
去了	-1924
的大	-1925
rik	-1926
▁wait	-1927
▁name	-1928
times	-1929
▁gone	-1930
}_{	-1931
▁&	-1932
▁begin	-1933
ced	-1934
ereken	-1935
ooit	-1936
▁liv	-1937
影响	-1938
百分	-1939
▁goede	-1940
▁why	-1941
▁cried	-1942
rag	-1943
ring	-1944
▁hadden	-1945
▁sy	-1946
▁krijgen	-1947
▁Vol	-1948
zelfde	-1949
▁verg	-1950
▁iemand	-1951
komen	-1952
老鼠	-1953
▁stre	-1954
aster	-1955
ijna	-1956
▁fact	-1957
ips	-1958
arge	-1959
▁turned	-1960
olen	-1961
▁sit	-1962
▁laten	-1963
▁vlie	-1964
▁read	-1965
ash	-1966
ium	-1967
好像	-1968
haps	-1969
osten	-1970
▁Gel	-1971
事情	-1972
最后	-1973
▁use	-1974
aden	-1975
-2	-1976
▁days	-1977
▁Q	-1978
物体	-1979
一直	-1980
aptain	-1981
schap	-1982
side	-1983
▁lucht	-1984
一只	-1985
ween	-1986
▁mij	-1987
oes	-1988
ny	-1989
▁Te	-1990
▁looking	-1991
ps	-1992
oman	-1993
▁certain	-1994
▁speel	-1995
▁dec	-1996
▁John	-1997
igde	-1998
val	-1999
aim	-2000
waar	-2001
▁minder	-2002
▁cor	-2003
dot	-2004
▁Pr	-2005
▁12	-2006
▁Jan	-2007
▁girls	-2008
▁199	-2009
ical	-2010
That	-2011
▁没	-2012
ents	-2013
wel	-2014
ular	-2015
ennis	-2016
▁THE	-2017
社会	-2018
kijk	-2019
苹果	-2020
fully	-2021
ziek	-2022
▁ass	-2023
▁offic	-2024
}\	-2025
ince	-2026
▁both	-2027
rijven	-2028
进行	-2029
▁Leg	-2030
ember	-2031
▁tro	-2032
▁repl	-2033
ither	-2034
oopt	-2035
▁interest	-2036
oc	-2037
▁gest	-2038
▁16	-2039
▁beetje	-2040
▁妈妈	-2041
irc	-2042
一些	-2043
公司	-2044
我就	-2045
不同	-2046
$${	-2047
百分之	-2048
▁war	-2049
▁alles	-2050
$$1	-2051
ird	-2052
▁eff	-2053
aid	-2054
▁ziet	-2055
▁having	-2056
▁child	-2057
ley	-2058
euw	-2059
pos	-2060
作用	-2061
▁haven	-2062
und	-2063
原来	-2064
ised	-2065
}^{2}}	-2066
▁geeft	-2067
关系	-2068
▁讲	-2069
uff	-2070
于是	-2071
▁felt	-2072
▁sub	-2073
▁ing	-2074
▁poss	-2075
▁哦	-2076
aven	-2077
▁leuk	-2078
▁anders	-2079
▁against	-2080
▁Car	-2081
▁jaren	-2082
5)	-2083
▁bestaat	-2084
第二	-2085
眼睛	-2086
rijd	-2087
▁almost	-2088
▁会	-2089
那种	-2090
▁wilde	-2091
工作	-2092
▁fire	-2093
ouwen	-2094
▁meis	-2095
▁pleas	-2096
▁17	-2097
iven	-2098
▁都	-2099
ures	-2100
▁eight	-2101
▁zin	-2102
AND	-2103
▁politie	-2104
urt	-2105
▁maakt	-2106
ating	-2107
▁对啊	-2108
AP	-2109
▁att	-2110
▁isn	-2111
▁怎么	-2112
▁bep	-2113
▁afbeelding	-2114
▁tijdens	-2115
etb	-2116
ired	-2117
▁tele	-2118
不知道	-2119
▁zeggen	-2120
ces	-2121
▁dou	-2122
▁taken	-2123
▁rather	-2124
▁Ste	-2125
出了	-2126
▁nodig	-2127
色的	-2128
▁cr	-2129
▁How	-2130
▁uur	-2131
▁Erm	-2132
▁wij	-2133
▁kleine	-2134
肯定	-2135
▁mog	-2136
之前	-2137
高兴	-2138
▁toward	-2139
希望	-2140
▁actually	-2141
▁poor	-2142
ild	-2143
ork	-2144
▁ber	-2145
▁past	-2146
ax	-2147
essed	-2148
▁nieuw	-2149
aad	-2150
▁till	-2151
ates	-2152
▁Christ	-2153
▁吗	-2154
▁他们	-2155
iness	-2156
ente	-2157
▁recht	-2158
▁laatste	-2159
▁vooral	-2160
kl	-2161
inds	-2162
▁故选	-2163
ained	-2164
▁onderwerp	-2165
▁quest	-2166
▁onge	-2167
▁teken	-2168
mb	-2169
reg	-2170
厉害	-2171
▁III	-2172
hm	-2173
▁figuur	-2174
1)	-2175
▁between	-2176
▁+	-2177
bruik	-2178
▁aange	-2179
思考	-2180
▁eeuw	-2181
▁Veren	-2182
▁dog	-2183
▁sil	-2184
我觉得	-2185
关注	-2186
ret	-2187
▁du	-2188
▁gener	-2189
3)	-2190
▁remember	-2191
▁soort	-2192
▁letter	-2193
看见	-2194
▁white	-2195
速度	-2196
▁Toen	-2197
▁Fl	-2198
▁exc	-2199
▁For	-2200
ctor	-2201
igd	-2202
▁lad	-2203
He	-2204
▁zon	-2205
▁nooit	-2206
rown	-2207
ulp	-2208
ime	-2209
▁whole	-2210
40	-2211
这一	-2212
▁says	-2213
▁Or	-2214
▁bijna	-2215
▁whe	-2216
▁Welke	-2217
二十	-2218
虽然	-2219
▁brought	-2220
▁geven	-2221
▁twenty	-2222
▁hear	-2223
math	-2224
▁hond	-2225
▁bent	-2226
▁ho	-2227
▁ve	-2228
▁begon	-2229
anis	-2230
▁partij	-2231
▁ied	-2232
▁1.	-2233
▁int	-2234
selves	-2235
urs	-2236
▁ref	-2237
outh	-2238
schien	-2239
▁art	-2240
arrow	-2241
告诉	-2242
kay	-2243
rt	-2244
根据	-2245
子的	-2246
▁heet	-2247
▁besl	-2248
▁Lees	-2249
里的	-2250
ys	-2251
akt	-2252
aint	-2253
▁replied	-2254
▁warm	-2255
angen	-2256
won	-2257
▁high	-2258
▁只	-2259
gd	-2260
之后	-2261
enen	-2262
有的	-2263
▁Right	-2264
erent	-2265
▁full	-2266
▁vak	-2267
▁Ro	-2268
▁less	-2269
▁es	-2270
ikt	-2271
stof	-2272
▁God	-2273
uc	-2274
▁verhaal	-2275
ett	-2276
▁feet	-2277
ual	-2278
▁stood	-2279
umm	-2280
▁aw	-2281
▁ble	-2282
▁Door	-2283
7)	-2284
werk	-2285
声音	-2286
▁getting	-2287
手机	-2288
地说	-2289
dag	-2290
ON	-2291
akes	-2292
▁Don	-2293
▁Do	-2294
▁nice	-2295
olf	-2296
▁onderzoek	-2297
veer	-2298
看了	-2299
▁matter	-2300
▁leg	-2301
▁meet	-2302
br	-2303
ager	-2304
▁present	-2305
idden	-2306
▁book	-2307
erv	-2308
▁Pro	-2309
▁当	-2310
$${{	-2311
▁Comm	-2312
lem	-2313
burg	-2314
aand	-2315
{\	-2316
不要	-2317
▁vindt	-2318
▁dri	-2319
▁top	-2320
IE	-2321
会儿	-2322
确实	-2323
我也	-2324
aus	-2325
ounds	-2326
uurt	-2327
▁glad	-2328
▁bur	-2329
fect	-2330
het	-2331
成了	-2332
▁人	-2333
▁answered	-2334
▁吧	-2335
eeuw	-2336
▁ide	-2337
houd	-2338
tre	-2339
ited	-2340
ijnen	-2341
▁voice	-2342
▁toget	-2343
▁together	-2344
▁pretty	-2345
ove	-2346
重要	-2347
▁show	-2348
▁genoemd	-2349
结果	-2350
▁famil	-2351
▁i	-2352
orgen	-2353
▁love	-2354
▁compan	-2355
▁Duits	-2356
▁没有	-2357
aul	-2358
.000	-2359
mee	-2360
▁tri	-2361
aby	-2362
gro	-2363
过来	-2364
▁Meer	-2365
▁else	-2366
▁world	-2367
▁dre	-2368
oep	-2369
oul	-2370
▁willen	-2371
atuur	-2372
▁New	-2373
▁milj	-2374
ason	-2375
cial	-2376
vers	-2377
▁wouldn	-2378
▁gewoon	-2379
▁country	-2380
inet	-2381
18	-2382
ines	-2383
sq	-2384
▁excl	-2385
▁bez	-2386
abel	-2387
意思	-2388
▁watch	-2389
植物	-2390
rab	-2391
▁mogelijk	-2392
▁org	-2393
▁hope	-2394
60	-2395
bank	-2396
yy	-2397
▁很	-2398
▁Of	-2399
$$.	-2400
▁Gebruik	-2401
▁fair	-2402
olog	-2403
sqrt	-2404
▁fift	-2405
▁想	-2406
▁mer	-2407
esten	-2408
gram	-2409
▁School	-2410
▁玩	-2411
▁sun	-2412
▁conf	-2413
no	-2414
▁pay	-2415
▁happ	-2416
flag	-2417
好了	-2418
▁Pl	-2419
achten	-2420
ney	-2421
▁spelen	-2422
▁gre	-2423
▁sent	-2424
▁Brit	-2425
reeg	-2426
akk	-2427
那些	-2428
▁quick	-2429
▁拿	-2430
▁Tw	-2431
atch	-2432
▁所以	-2433
▁zee	-2434
▁Ph	-2435
▁air	-2436
回家	-2437
▁但是	-2438
▁ander	-2439
bert	-2440
endflag	-2441
ement	-2442
▁di	-2443
GR	-2444
onna	-2445
indelijk	-2446
环境	-2447
▁foto	-2448
▁beaut	-2449
▁cos	-2450
▁mark	-2451
不错	-2452
▁herself	-2453
经济	-2454
▁vand	-2455
▁expl	-2456
▁hoeveel	-2457
▁kop	-2458
▁kreeg	-2459
▁gar	-2460
19	-2461
▁leave	-2462
part	-2463
▁gedaan	-2464
▁wie	-2465
▁believe	-2466
{3	-2467
每天	-2468
anen	-2469
▁direct	-2470
▁pos	-2471
imm	-2472
▁eas	-2473
▁stud	-2474
突然	-2475
▁words	-2476
▁saying	-2477
表示	-2478
bel	-2479
ush	-2480
有点	-2481
dracht	-2482
▁Sc	-2483
ric	-2484
▁moe	-2485
orth	-2486
ured	-2487
▁sign	-2488
兔子	-2489
▁waarom	-2490
ants	-2491
ison	-2492
▁Par	-2493
▁werken	-2494
▁verz	-2495
▁hold	-2496
▁从	-2497
后来	-2498
deed	-2499
6)	-2500
EL	-2501
游戏	-2502
出现	-2503
ached	-2504
▁stay	-2505
cle	-2506
lo	-2507
▁prov	-2508
▁里	-2509
▁jongen	-2510
ube	-2511
apen	-2512
▁rep	-2513
ages	-2514
▁zelfs	-2515
oemen	-2516
▁verw	-2517
edst	-2518
▁krijgt	-2519
你好	-2520
▁oud	-2521
一天	-2522
▁dark	-2523
woorden	-2524
▁/	-2525
▁hot	-2526
▁bra	-2527
isme	-2528
▁ontw	-2529
ocht	-2530
ekst	-2531
PO	-2532
▁Her	-2533
mathrm	-2534
▁reden	-2535
aught	-2536
▁different	-2537
▁lik	-2538
▁mot	-2539
ones	-2540
reven	-2541
▁hoort	-2542
人们	-2543
▁jong	-2544
orry	-2545
huis	-2546
ession	-2547
plaat	-2548
▁appear	-2549
▁可以	-2550
nem	-2551
iew	-2552
▁ready	-2553
{1}	-2554
哪里	-2555
lex	-2556
以前	-2557
gave	-2558
▁beter	-2559
▁zonder	-2560
eert	-2561
arde	-2562
▁bal	-2563
mon	-2564
▁kr	-2565
ering	-2566
▁gonna	-2567
▁这个	-2568
▁His	-2569
oof	-2570
▁CH	-2571
▁dingen	-2572
变化	-2573
bt	-2574
wijl	-2575
eerde	-2576
▁woman	-2577
同学	-2578
▁elke	-2579
--------	-2580
ham	-2581
▁black	-2582
▁着	-2583
GRAND	-2584
▁friends	-2585
▁adv	-2586
ial	-2587
▁leer	-2588
▁order	-2589
▁prom	-2590
足球	-2591
▁contin	-2592
lijke	-2593
▁pat	-2594
▁trou	-2595
就会	-2596
▁waardoor	-2597
▁Will	-2598
▁road	-2599
▁Tekst	-2600
▁Ad	-2601
先生	-2602
反应	-2603
TER	-2604
heden	-2605
▁bring	-2606
tered	-2607
leg	-2608
weg	-2609
fort	-2610
boek	-2611
▁Not	-2612
▁cur	-2613
▁bew	-2614
只有	-2615
细胞	-2616
▁Zij	-2617
学生	-2618
▁opge	-2619
iful	-2620
▁licht	-2621
De	-2622
llustr	-2623
▁meeste	-2624
gest	-2625
ying	-2626
▁occ	-2627
▁ongeveer	-2628
▁second	-2629
▁Zijn	-2630
ately	-2631
▁lay	-2632
▁Can	-2633
ilt	-2634
方面	-2635
kende	-2636
过程	-2637
ific	-2638
▁punten	-2639
▁id	-2640
▁202	-2641
▁ed	-2642
thers	-2643
▁inc	-2644
not	-2645
▁grot	-2646
▁vraagt	-2647
ided	-2648
真是	-2649
▁examen	-2650
▁serv	-2651
▁behind	-2652
▁One	-2653
▁dicht	-2654
▁cut	-2655
dden	-2656
森林	-2657
▁woon	-2658
zie	-2659
▁short	-2660
rijs	-2661
ousand	-2662
ene	-2663
▁houden	-2664
▁able	-2665
▁sold	-2666
rek	-2667
▁bes	-2668
moet	-2669
ekent	-2670
▁step	-2671
材料	-2672
aimed	-2673
爷爷	-2674
olly	-2675
▁aard	-2676
漂亮	-2677
▁ruim	-2678
15	-2679
midd	-2680
zicht	-2681
ront	-2682
anje	-2683
▁kijkt	-2684
市场	-2685
stad	-2686
▁inv	-2687
uring	-2688
▁probably	-2689
▁dood	-2690
▁stru	-2691
▁lie	-2692
▁Staten	-2693
}{{{	-2694
▁med	-2695
▁ran	-2696
姐姐	-2697
▁Noord	-2698
ches	-2699
▁groe	-2700
说法	-2701
uister	-2702
oorten	-2703
▁Over	-2704
fe	-2705
▁lekker	-2706
iously	-2707
▁Belg	-2708
▁wanted	-2709
gaan	-2710
▁namelijk	-2711
身体	-2712
ilder	-2713
ummer	-2714
▁betekent	-2715
▁times	-2716
属于	-2717
▁sudden	-2718
aties	-2719
▁voetb	-2720
zien	-2721
▁given	-2722
▁among	-2723
▁sleep	-2724
▁bloed	-2725
regen	-2726
▁vijf	-2727
"。	-2728
听说	-2729
生物	-2730
▁doesn	-2731
▁gegeven	-2732
▁wit	-2733
▁sim	-2734
晚上	-2735
办法	-2736
▁stond	-2737
▁story	-2738
iez	-2739
部分	-2740
▁heen	-2741
weet	-2742
美国	-2743
▁others	-2744
conom	-2745
▁YouT	-2746
▁thousand	-2747
学习	-2748
orrow	-2749
了一个	-2750
▁extra	-2751
▁muziek	-2752
oogle	-2753
▁Daarna	-2754
▁wish	-2755
▁since	-2756
you	-2757
ention	-2758
rum	-2759
▁everything	-2760
▁gewe	-2761
咱们	-2762
2$$	-2763
▁vers	-2764
▁train	-2765
XX	-2766
▁uitge	-2767
rug	-2768
其他	-2769
▁Bon	-2770
iks	-2771
▁brand	-2772
它的	-2773
▁bank	-2774
▁pri	-2775
▁grootste	-2776
来的	-2777
▁gebouw	-2778
谢谢	-2779
▁deed	-2780
▁gezien	-2781
|$$\	-2782
情况	-2783
能够	-2784
99	-2785
son	-2786
▁camp	-2787
▁kant	-2788
▁Zuid	-2789
▁Google	-2790
▁gebruiken	-2791
ames	-2792
▁Onder	-2793
deel	-2794
▁fear	-2795
▁succ	-2796
▁oorlog	-2797
▁YouTube	-2798
▁$\	-2799
▁ol	-2800
▁ball	-2801
▁NPO	-2802
70	-2803
给我	-2804
▁本	-2805
▁sing	-2806
omp	-2807
▁perhaps	-2808
▁Verenigde	-2809
▁gebied	-2810
▁large	-2811
▁manier	-2812
aur	-2813
电视	-2814
▁prec	-2815
eens	-2816
正在	-2817
一次	-2818
▁started	-2819
▁soms	-2820
ara	-2821
▁Fran	-2822
▁juist	-2823
inn	-2824
信息	-2825
..."	-2826
▁tweed	-2827
▁publ	-2828
▁across	-2829
▁val	-2830
▁sir	-2831
use	-2832
▁因为	-2833
▁Paul	-2834
奶奶	-2835
▁11	-2836
▁slecht	-2837
sk	-2838
inde	-2839
▁making	-2840
gy	-2841
▁iedereen	-2842
▁可	-2843
ald	-2844
anneer	-2845
▁blijven	-2846
▁miljoen	-2847
▁meisje	-2848
ude	-2849
▁kaart	-2850
ouse	-2851
▁kept	-2852
ën	-2853
▁boat	-2854
mat	-2855
ments	-2856
▁By	-2857
▁compl	-2858
▁conc	-2859
▁daarna	-2860
▁Veel	-2861
▁198	-2862
▁Con	-2863
▁held	-2864
▁Joe	-2865
+\	-2866
▁Ed	-2867
▁Per	-2868
都不	-2869
▁react	-2870
我是	-2871
▁expect	-2872
▁14	-2873
▁Clip	-2874
有一个	-2875
别人	-2876
二零	-2877
▁ken	-2878
▁Engel	-2879
▁eigenlijk	-2880
▁Kl	-2881
▁现在	-2882
tv	-2883
▁ster	-2884
▁onze	-2885
▁exclaimed	-2886
▁喔	-2887
▁bar	-2888
▁suppose	-2889
方向	-2890
ijst	-2891
▁volgens	-2892
▁pie	-2893
woners	-2894
▁Twe	-2895
ities	-2896
▁知道	-2897
▁Wiki	-2898
篮球	-2899
准备	-2900
▁cou	-2901
▁ger	-2902
Kids	-2903
空气	-2904
ards	-2905
iled	-2906
ape	-2907
▁Afbeeld	-2908
▁town	-2909
▁dor	-2910
▁close	-2911
uz	-2912
质量	-2913
▁themselves	-2914
ung	-2915
▁WikiKids	-2916
▁爸爸	-2917
▁liggen	-2918
yl	-2919
▁myself	-2920
▁ogen	-2921
▁klas	-2922
▁lost	-2923
▁geme	-2924
▁tweede	-2925
inks	-2926
样子	-2927
▁jou	-2928
oven	-2929
▁13	-2930
ives	-2931
}}_	-2932
▁vond	-2933
当时	-2934
▁oude	-2935
▁Amerikaanse	-2936
▁speak	-2937
▁Tweede	-2938
▁question	-2939
uig	-2940
▁IV	-2941
illy	-2942
ient	-2943
Dat	-2944
ipedia	-2945
直接	-2946
只是	-2947
illed	-2948
itch	-2949
▁Sam	-2950
之间	-2951
68	-2952
III	-2953
▁还有	-2954
▁number	-2955
ready	-2956
▁Wikipedia	-2957
▁vog	-2958
▁ground	-2959
个人	-2960
▁pas	-2961
上了	-2962
▁Geluid	-2963
▁loopt	-2964
▁often	-2965
▁eil	-2966
▁niets	-2967
过去	-2968
▁sound	-2969
一边	-2970
rift	-2971
▁Se	-2972
▁mus	-2973
▁Den	-2974
▁riv	-2975
iën	-2976
睡觉	-2977
看着	-2978
▁sight	-2979
▁Kennis	-2980
▁enk	-2981
ued	-2982
ane	-2983
▁With	-2984
▁ton	-2985
▁Commons	-2986
▁ev	-2987
学校	-2988
▁euro	-2989
▁however	-2990
▁polit	-2991
hel	-2992
容易	-2993
▁gele	-2994
▁pick	-2995
aap	-2996
关于	-2997
▁plac	-2998
maar	-2999
▁wood	-3000
▁Uit	-3001
▁thir	-3002
▁Vl	-3003
▁Kon	-3004
spra	-3005
▁live	-3006
▁couldn	-3007
ument	-3008
▁dier	-3009
使用	-3010
bouw	-3011
▁front	-3012
衣服	-3013
这次	-3014
airs	-3015
ping	-3016
En	-3017
▁whether	-3018
▁lich	-3019
▁ty	-3020
Wat	-3021
▁lopen	-3022
▁foot	-3023
▁geweest	-3024
where	-3025
▁passed	-3026
▁好的	-3027
IJ	-3028
产生	-3029
▁waarin	-3030
ourn	-3031
▁baby	-3032
不到	-3033
cess	-3034
mm	-3035
imedia	-3036
uth	-3037
▁reger	-3038
▁Schooltv	-3039
▁month	-3040
▁gas	-3041
终于	-3042
▁Som	-3043
▁break	-3044
表现	-3045
▁tem	-3046
▁Wikimedia	-3047
▁strong	-3048
能力	-3049
ivers	-3050
▁din	-3051
ruis	-3052
▁Beeldbank	-3053
aalde	-3054
ries	-3055
▁natuurlijk	-3056
▁Clipjes	-3057
inig	-3058
了解	-3059
▁miss	-3060
ides	-3061
▁ph	-3062
▁minutes	-3063
▁thank	-3064
0.	-3065
子里	-3066
▁learn	-3067
▁Maak	-3068
▁pot	-3069
▁wasn	-3070
schapp	-3071
出去	-3072
▁hon	-3073
ta	-3074
▁understand	-3075
▁voed	-3076
▁ontwikk	-3077
▁2.	-3078
▁Frankrijk	-3079
▁fur	-3080
,--	-3081
▁beautiful	-3082
▁vriend	-3083
▁zag	-3084
▁stemmen	-3085
'.	-3086
来到	-3087
▁imp	-3088
▁lijkt	-3089
许多	-3090
▁roept	-3091
ator	-3092
oorlog	-3093
地球	-3094
▁verm	-3095
实验	-3096
osed	-3097
arte	-3098
▁gelijk	-3099
▁consider	-3100
itting	-3101
▁horen	-3102
回来	-3103
▁啦	-3104
是不是	-3105
ught	-3106
▁Wer	-3107
▁ges	-3108
▁term	-3109
▁Rome	-3110
▁hen	-3111
▁Ah	-3112
APTER	-3113
akte	-3114
▁super	-3115
▁eng	-3116
▁kwamen	-3117
▁ə	-3118
▁ill	-3119
▁indeed	-3120
▁wonen	-3121
',	-3122
▁Aan	-3123
ford	-3124
gele	-3125
▁My	-3126
ience	-3127
▁kunst	-3128
cr	-3129
▁av	-3130
是一个	-3131
-9	-3132
▁eind	-3133
▁ins	-3134
▁talking	-3135
地上	-3136
▁clear	-3137
▁already	-3138
let	-3139
overed	-3140
▁partic	-3141
head	-3142
▁fine	-3143
▁Ger	-3144
▁follow	-3145
真的是	-3146
▁grand	-3147
ox	-3148
▁listen	-3149
inea	-3150
▁surpr	-3151
▁mooi	-3152
ieke	-3153
$$,$$	-3154
▁post	-3155
water	-3156
宝宝	-3157
▁Nie	-3158
▁Men	-3159
Illustr	-3160
▁$${	-3161
▁sea	-3162
cted	-3163
▁terwijl	-3164
技术	-3165
wing	-3166
▁happy	-3167
uld	-3168
25	-3169
▁Ital	-3170
vorm	-3171
▁CHAPTER	-3172
reek	-3173
eltje	-3174
▁zom	-3175
▁Duitsland	-3176
▁Phil	-3177
▁meter	-3178
▁meestal	-3179
sterd	-3180
好多	-3181
Het	-3182
erst	-3183
▁Bereken	-3184
▁least	-3185
▁sever	-3186
我要	-3187
文化	-3188
▁maakte	-3189
co	-3190
hij	-3191
▁ship	-3192
▁langs	-3193
offen	-3194
物质	-3195
▁true	-3196
=1	-3197
▁band	-3198
▁gun	-3199
rip	-3200
hier	-3201
▁winter	-3202
▁gehe	-3203
▁business	-3204
▁president	-3205
▁squ	-3206
vely	-3207
▁da	-3208
▁adm	-3209
lish	-3210
▁def	-3211
自然	-3212
▁via	-3213
ijl	-3214
orden	-3215
一般	-3216
心里	-3217
▁zouden	-3218
aling	-3219
▁circ	-3220
str	-3221
▁Gro	-3222
决定	-3223
▁1,	-3224
ams	-3225
▁gesl	-3226
Illustration	-3227
▁hur	-3228
da	-3229
slag	-3230
▁青蛙	-3231
或者	-3232
▁dagen	-3233
▁打	-3234
▁wild	-3235
▁Europa	-3236
▁Zw	-3237
▁ziek	-3238
▁exper	-3239
▁guess	-3240
55	-3241
的故事	-3242
bs	-3243
▁party	-3244
ule	-3245
tem	-3246
ony	-3247
ized	-3248
▁elekt	-3249
aire	-3250
▁situ	-3251
▁effect	-3252
▁zat	-3253
▁verkl	-3254
▁bere	-3255
met	-3256
that	-3257
▁Man	-3258
▁taking	-3259
▁trying	-3260
▁goes	-3261
▁家	-3262
band	-3263
▁houd	-3264
▁genoeg	-3265
▁weinig	-3266
▁lezen	-3267
▁var	-3268
ciale	-3269
▁Let	-3270
▁West	-3271
美丽	-3272
人家	-3273
方法	-3274
-10	-3275
}$$.	-3276
▁zeker	-3277
kant	-3278
▁econom	-3279
国王	-3280
她的	-3281
▁fellow	-3282
成为	-3283
iling	-3284
▁Alle	-3285
sterdam	-3286
人民	-3287
antie	-3288
我们的	-3289
▁哈哈哈	-3290
认为	-3291
▁Bar	-3292
▁Volgens	-3293
▁mama	-3294
▁(9	-3295
▁King	-3296
▁再	-3297
nam	-3298
▁quiet	-3299
越来	-3300
ica	-3301
▁son	-3302
▁cra	-3303
▁eh	-3304
平时	-3305
▁coun	-3306
▁middel	-3307
uidelijk	-3308
其中	-3309
▁jo	-3310
才能	-3311
▁又	-3312
iving	-3313
▁idea	-3314
▁rece	-3315
▁either	-3316
rie	-3317
▁Qu	-3318
有人	-3319
▁但	-3320
▁beste	-3321
越来越	-3322
▁begint	-3323
▁verand	-3324
▁ijs	-3325
回答	-3326
▁放	-3327
继续	-3328
▁comes	-3329
妖怪	-3330
选择	-3331
cten	-3332
答案是	-3333
▁Col	-3334
reden	-3335
stelling	-3336
annes	-3337
ole	-3338
保护	-3339
16	-3340
▁los	-3341
三个	-3342
▁forward	-3343
条件	-3344
anus	-3345
▁spel	-3346
▁Europese	-3347
一个人	-3348
▁niks	-3349
下列	-3350
wijk	-3351
▁rij	-3352
▁case	-3353
▁hum	-3354
▁denk	-3355
▁doll	-3356
igheid	-3357
▁如果	-3358
▁ouders	-3359
▁tried	-3360
▁spr	-3361
ga	-3362
▁rock	-3363
▁opdracht	-3364
▁whom	-3365
▁doe	-3366
▁doubt	-3367
▁station	-3368
14	-3369
▁Char	-3370
gar	-3371
▁pur	-3372
▁move	-3373
颜色	-3374
▁vandaag	-3375
▁Just	-3376
▁happened	-3377
▁hang	-3378
▁regering	-3379
uh	-3380
想到	-3381
变成	-3382
▁狗	-3383
▁appro	-3384
▁ent	-3385
▁echter	-3386
▁rol	-3387
oom	-3388
哥哥	-3389
多的	-3390
iter	-3391
▁(10	-3392
▁within	-3393
goed	-3394
▁family	-3395
▁horse	-3396
▁York	-3397
▁eat	-3398
这样的	-3399
▁carry	-3400
▁deur	-3401
ery	-3402
▁gevol	-3403
▁reason	-3404
▁gent	-3405
▁wife	-3406
同时	-3407
▁konden	-3408
elk	-3409
研究	-3410
▁Why	-3411
aving	-3412
▁Kar	-3413
▁gingen	-3414
cy	-3415
年的	-3416
开心	-3417
▁energ	-3418
▁reached	-3419
vert	-3420
▁ontstaan	-3421
ize	-3422
▁下列	-3423
▁cre	-3424
▁30	-3425
▁vi	-3426
though	-3427
bb	-3428
edstrijd	-3429
▁thuis	-3430
▁nemen	-3431
--"	-3432
▁DE	-3433
活动	-3434
▁les	-3435
具有	-3436
volgens	-3437
dem	-3438
▁sorry	-3439
▁lichaam	-3440
了吗	-3441
▁25	-3442
▁水	-3443
▁mens	-3444
▁idee	-3445
ances	-3446
ength	-3447
aars	-3448
阿姨	-3449
▁valt	-3450
iers	-3451
▁Amsterdam	-3452
说的	-3453
Why	-3454
▁trein	-3455
符合	-3456
小熊	-3457
ains	-3458
▁bos	-3459
8)	-3460
▁和	-3461
▁fort	-3462
后面	-3463
hand	-3464
GRANDMOTHER	-3465
▁wink	-3466
tend	-3467
▁popul	-3468
ered	-3469
快乐	-3470
好看	-3471
reken	-3472
▁trouble	-3473
kk	-3474
▁har	-3475
▁kap	-3476
▁opl	-3477
▁Wereld	-3478
▁vliegt	-3479
▁Johannes	-3480
▁boom	-3481
食物	-3482
ugd	-3483
▁lange	-3484
▁norm	-3485
▁means	-3486
▁returned	-3487
There	-3488
▁kil	-3489
▁schrij	-3490
-8	-3491
老虎	-3492
主人	-3493
▁seven	-3494
12	-3495
iezen	-3496
▁aand	-3497
▁anim	-3498
raid	-3499
▁dead	-3500
▁keek	-3501
存在	-3502
vern	-3503
毕竟	-3504
ending	-3505
▁misschien	-3506
▁colle	-3507
▁猫	-3508
▁100	-3509
▁fight	-3510
▁Captain	-3511
-\	-3512
▁chance	-3513
▁added	-3514
只要	-3515
▁Rob	-3516
▁zeg	-3517
genomen	-3518
▁brief	-3519
ress	-3520
gramma	-3521
{1}{	-3522
▁Tijdens	-3523
aande	-3524
raf	-3525
▁import	-3526
▁是的	-3527
ilijk	-3528
▁deep	-3529
▁ninet	-3530
▁gesp	-3531
gem	-3532
daar	-3533
▁basis	-3534
开了	-3535
▁plek	-3536
▁做	-3537
med	-3538
我还	-3539
姑娘	-3540
▁fall	-3541
▁der	-3542
▁zinnen	-3543
rol	-3544
▁vle	-3545
▁nummer	-3546
woordig	-3547
基本	-3548
}$	-3549
▁persoon	-3550
一看	-3551
▁其实	-3552
▁daarom	-3553
3$$	-3554
▁kat	-3555
▁blijft	-3556
由于	-3557
▁ago	-3558
猴子	-3559
▁plant	-3560
▁Alex	-3561
方式	-3562
飞机	-3563
起了	-3564
zaam	-3565
▁fifty	-3566
▁English	-3567
sche	-3568
9)	-3569
知识	-3570
▁跟	-3571
▁precies	-3572
ense	-3573
zer	-3574
▁vide	-3575
家里	-3576
ges	-3577
kan	-3578
▁waarbij	-3579
▁Mart	-3580
让我	-3581
▁nee	-3582
▁Waarom	-3583
rightarrow	-3584
要求	-3585
▁followed	-3586
▁writ	-3587
▁3.	-3588
先走了	-3589
这时	-3590
▁lady	-3591
▁familie	-3592
现象	-3593
zij	-3594
▁evening	-3595
▁several	-3596
ES	-3597
stuk	-3598
▁今天	-3599
hter	-3600
▁ang	-3601
人类	-3602
▁arg	-3603
▁heav	-3604
▁cold	-3605
一种	-3606
观察	-3607
▁Ber	-3608
房子	-3609
给你	-3610
▁掉	-3611
bare	-3612
▁const	-3613
记得	-3614
schijn	-3615
Al	-3616
ler	-3617
▁loc	-3618
elden	-3619
安全	-3620
▁Sl	-3621
▁Nu	-3622
wijs	-3623
得到	-3624
aien	-3625
▁完	-3626
▁Harry	-3627
▁shout	-3628
▁alone	-3629
▁rijk	-3630
▁Hierdoor	-3631
ray	-3632
▁certainly	-3633
▁deal	-3634
▁Tim	-3635
▁mist	-3636
iedenis	-3637
▁afraid	-3638
BL	-3639
So	-3640
▁moeilijk	-3641
cause	-3642
▁wall	-3643
▁wist	-3644
溶液	-3645
正确答案是	-3646
▁Dav	-3647
reed	-3648
▁prof	-3649
▁Opgave	-3650
说明	-3651
▁sugg	-3652
▁wet	-3653
▁vanaf	-3654
▁table	-3655
▁pull	-3656
▁fav	-3657
▁slow	-3658
▁gentle	-3659
▁zorgen	-3660
形成	-3661
。""	-3662
▁druk	-3663
▁minute	-3664
acter	-3665
ye	-3666
▁rust	-3667
90	-3668
▁kleur	-3669
got	-3670
▁tree	-3671
▁vill	-3672
▁soorten	-3673
▁哎	-3674
▁blad	-3675
▁soft	-3676
▁geluid	-3677
▁ought	-3678
eelden	-3679
▁nor	-3680
▁laughed	-3681
在看	-3682
有什么	-3683
▁zwe	-3684
系统	-3685
▁mount	-3686
▁bright	-3687
ris	-3688
▁brother	-3689
▁Daarom	-3690
▁organis	-3691
的地方	-3692
找到	-3693
urk	-3694
orte	-3695
dan	-3696
以为	-3697
▁lief	-3698
''	-3699
▁macht	-3700
aff	-3701
▁line	-3702
儿子	-3703
lingen	-3704
▁comput	-3705
bled	-3706
▁ones	-3707
▁remark	-3708
noon	-3709
科学	-3710
▁suggest	-3711
▁inwoners	-3712
▁多	-3713
▁{	-3714
▁谁	-3715
▁huid	-3716
▁干	-3717
▁ontde	-3718
▁Noem	-3719
▁schilder	-3720
▁doel	-3721
▁blood	-3722
▁而	-3723
▁thinking	-3724
UN	-3725
几个	-3726
▁beide	-3727
▁commun	-3728
▁Peter	-3729
▁helpen	-3730
▁diffic	-3731
sn	-3732
▁char	-3733
}=	-3734
aves	-3735
ba	-3736
iber	-3737
▁det	-3738
▁rad	-3739
帮助	-3740
一会儿	-3741
慢慢	-3742
so	-3743
ump	-3744
nieuw	-3745
▁roll	-3746
▁Betty	-3747
▁用	-3748
▁decl	-3749
▁After	-3750
▁seems	-3751
ichting	-3752
27	-3753
▁三	-3754
▁sometimes	-3755
注意	-3756
▁hart	-3757
增加	-3758
▁|	-3759
sin	-3760
▁nine	-3761
▁ris	-3762
▁拜拜	-3763
pped	-3764
企业	-3765
ode	-3766
afel	-3767
ived	-3768
▁hair	-3769
Ja	-3770
历史	-3771
cil	-3772
ceed	-3773
▁suff	-3774
▁meteen	-3775
▁letters	-3776
▁problem	-3777
利用	-3778
▁result	-3779
irt	-3780
anged	-3781
ians	-3782
作为	-3783
▁bedo	-3784
▁spoke	-3785
▁expr	-3786
▁gevonden	-3787
▁afternoon	-3788
▁belangrijke	-3789
了吧	-3790
▁window	-3791
有个	-3792
essie	-3793
种子	-3794
▁papa	-3795
▁她	-3796
orst	-3797
▁neem	-3798
▁dezelfde	-3799
▁particular	-3800
▁你好啊	-3801
ov	-3802
▁geleden	-3803
判断	-3804
▁command	-3805
If	-3806
经常	-3807
都会	-3808
▁mam	-3809
小的	-3810
只能	-3811
▁please	-3812
不得	-3813
▁abs	-3814
▁low	-3815
ieten	-3816
▁过	-3817
ench	-3818
pi	-3819
gev	-3820
▁delight	-3821
iging	-3822
▁gebeurt	-3823
▁sep	-3824
▁hol	-3825
▁carried	-3826
joy	-3827
▁Was	-3828
蚂蚁	-3829
▁verst	-3830
They	-3831
▁box	-3832
▁东西	-3833
不对	-3834
ser	-3835
bu	-3836
长的	-3837
▁这样	-3838
▁speelt	-3839
▁job	-3840
▁denken	-3841
▁197	-3842
▁god	-3843
▁mod	-3844
不了	-3845
ije	-3846
xim	-3847
AL	-3848
opt	-3849
▁vertellen	-3850
▁sport	-3851
▁wrong	-3852
▁naast	-3853
▁听	-3854
▁temper	-3855
▁sinds	-3856
▁death	-3857
▁visit	-3858
▁194	-3859
正确的是	-3860
▁fa	-3861
氧化	-3862
▁aarde	-3863
公主	-3864
oet	-3865
▁Mag	-3866
ational	-3867
▁power	-3868
▁cross	-3869
必须	-3870
身边	-3871
▁garden	-3872
松鼠	-3873
▁caught	-3874
hei	-3875
▁captain	-3876
iger	-3877
▁tas	-3878
看过	-3879
▁(8	-3880
▁jouw	-3881
raagd	-3882
相同	-3883
▁mass	-3884
▁Ma	-3885
▁welk	-3886
aged	-3887
unch	-3888
▁somm	-3889
▁Willem	-3890
▁pounds	-3891
▁above	-3892
▁possible	-3893
oint	-3894
▁cap	-3895
▁thee	-3896
▁kast	-3897
▁nearly	-3898
eken	-3899
▁rode	-3900
._	-3901
▁mogen	-3902
总是	-3903
▁klaar	-3904
iode	-3905
着一	-3906
▁drink	-3907
ukk	-3908
▁hours	-3909
▁bi	-3910
leur	-3911
▁gere	-3912
24	-3913
arch	-3914
导致	-3915
▁Toch	-3916
城市	-3917
的事	-3918
▁halen	-3919
▁suddenly	-3920
包括	-3921
▁bren	-3922
chn	-3923
▁maat	-3924
▁bird	-3925
very	-3926
结构	-3927
身上	-3928
orge	-3929
▁game	-3930
▁mond	-3931
ante	-3932
▁cal	-3933
是个	-3934
分析	-3935
▁vrouwen	-3936
相关	-3937
月亮	-3938
uli	-3939
有些	-3940
ankelijk	-3941
beelden	-3942
进了	-3943
ushed	-3944
▁Russ	-3945
▁park	-3946
wegen	-3947
▁ren	-3948
▁nieuws	-3949
▁?	-3950
dien	-3951
▁boeken	-3952
In	-3953
▁cry	-3954
iezingen	-3955
名字	-3956
anks	-3957
▁Mary	-3958
▁cannot	-3959
▁zodat	-3960
考查	-3961
▁mei	-3962
▁thirty	-3963
▁eiland	-3964
主义	-3965
ury	-3966
▁quar	-3967
▁{{	-3968
▁acht	-3969
原因	-3970
▁tou	-3971
vrouw	-3972
▁city	-3973
▁enjoy	-3974
▁straight	-3975
ikke	-3976
lement	-3977
nog	-3978
▁enkele	-3979
ooi	-3980
ID	-3981
ship	-3982
ices	-3983
▁arms	-3984
une	-3985
▁paper	-3986
▁uite	-3987
▁vallen	-3988
经过	-3989
▁bang	-3990
cri	-3991
IS	-3992
▁early	-3993
▁stap	-3994
▁Kamer	-3995
▁handen	-3996
▁zoek	-3997
▁alinea	-3998
ha	-3999
▁这里	-4000
▁klim	-4001
住了	-4002
▁Zet	-4003
▁bereken	-4004
stem	-4005
▁stroom	-4006
ANK	-4007
三十	-4008
yn	-4009
▁天	-4010
▁Jap	-4011
▁嗨	-4012
amb	-4013
▁leren	-4014
马上	-4015
▁known	-4016
▁la	-4017
努力	-4018
▁0,	-4019
▁report	-4020
▁whis	-4021
内容	-4022
▁能	-4023
▁voetbal	-4024
▁duidelijk	-4025
▁esc	-4026
▁Inhoud	-4027
我不	-4028
▁planten	-4029
今年	-4030
▁tien	-4031
▁sett	-4032
▁lead	-4033
foon	-4034
alth	-4035
olut	-4036
▁bouw	-4037
的东西	-4038
pje	-4039
▁België	-4040
How	-4041
blad	-4042
▁sister	-4043
▁arri	-4044
▁Bun	-4045
反正	-4046
▁Billy	-4047
ically	-4048
gegeven	-4049
▁长	-4050
iken	-4051
ital	-4052
ingly	-4053
的一个	-4054
▁cond	-4055
▁ervoor	-4056
要是	-4057
小白	-4058
akkelijk	-4059
也没有	-4060
▁minister	-4061
▁late	-4062
▁anx	-4063
▁prep	-4064
-4	-4065
iment	-4066
▁bevol	-4067
▁build	-4068
==	-4069
▁prot	-4070
inus	-4071
▁club	-4072
▁graag	-4073
▁change	-4074
▁spring	-4075
▁Nederlands	-4076
▁teach	-4077
weer	-4078
▁Franse	-4079
leiding	-4080
▁hetzelfde	-4081
都有	-4082
▁leger	-4083
尾巴	-4084
了起来	-4085
▁zullen	-4086
▁regen	-4087
以及	-4088
▁kamer	-4089
ille	-4090
inken	-4091
bro	-4092
我国	-4093
▁里面	-4094
▁whose	-4095
题意	-4096
▁妖怪	-4097
▁yourself	-4098
oup	-4099
inter	-4100
  	-4101
otter	-4102
▁gevraagd	-4103
健康	-4104
▁taal	-4105
生气	-4106
▁Kijk	-4107
ozen	-4108
Now	-4109
▁bear	-4110
▁gezicht	-4111
▁sail	-4112
医生	-4113
▁得	-4114
▁Mad	-4115
▁fast	-4116
▁steden	-4117
▁miles	-4118
▁board	-4119
▁led	-4120
▁river	-4121
tjes	-4122
night	-4123
▁quickly	-4124
IT	-4125
onde	-4126
▁provinc	-4127
ased	-4128
oer	-4129
ni	-4130
教育	-4131
5$$	-4132
▁zuid	-4133
▁mm	-4134
epen	-4135
▁mater	-4136
▁perfect	-4137
▁50	-4138
参加	-4139
汽车	-4140
▁mach	-4141
▁women	-4142
认识	-4143
所有	-4144
改变	-4145
▁jan	-4146
.$$\	-4147
ilen	-4148
17	-4149
ope	-4150
▁Brown	-4151
for	-4152
▁Ke	-4153
很好	-4154
ING	-4155
▁Aunt	-4156
▁send	-4157
▁zetten	-4158
多少	-4159
▁appar	-4160
▁moesten	-4161
▁vergelijk	-4162
▁during	-4163
onnen	-4164
owel	-4165
antly	-4166
▁meester	-4167
erence	-4168
▁einde	-4169
28	-4170
oger	-4171
十分	-4172
▁dress	-4173
orius	-4174
就像	-4175
▁geworden	-4176
vangen	-4177
是在	-4178
uni	-4179
温度	-4180
kens	-4181
▁beeld	-4182
▁houdt	-4183
vloed	-4184
ED	-4185
对于	-4186
▁VI	-4187
▁tuin	-4188
▁strange	-4189
位置	-4190
垃圾	-4191
rijden	-4192
▁"'	-4193
36	-4194
▁sommige	-4195
有关	-4196
亿元	-4197
▁Ex	-4198
rokken	-4199
各种	-4200
他们的	-4201
生产	-4202
▁mine	-4203
▁ba	-4204
niet	-4205
▁gep	-4206
▁是不是	-4207
▁port	-4208
com	-4209
是什么	-4210
▁wee	-4211
▁French	-4212
▁bott	-4213
oken	-4214
我想	-4215
▁gemeente	-4216
完全	-4217
iao	-4218
▁danger	-4219
▁Gu	-4220
▁blue	-4221
▁comfort	-4222
上面	-4223
▁punt	-4224
▁televis	-4225
dam	-4226
lijn	-4227
idge	-4228
大象	-4229
mocr	-4230
▁mat	-4231
}_{1	-4232
你知道	-4233
morrow	-4234
iest	-4235
▁pict	-4236
▁Duitse	-4237
比如	-4238
▁denkt	-4239
▁schrijven	-4240
▁clot	-4241
▁running	-4242
狮子	-4243
听到	-4244
▁cult	-4245
▁trees	-4246
▁mannen	-4247
mers	-4248
▁zes	-4249
zit	-4250
▁Hol	-4251
▁Gl	-4252
▁noem	-4253
可知	-4254
etjes	-4255
▁oma	-4256
测量	-4257
▁Wie	-4258
弟弟	-4259
▁disapp	-4260
clus	-4261
hor	-4262
▁class	-4263
▁body	-4264
▁leerlingen	-4265
werpen	-4266
设计	-4267
▁spl	-4268
▁towards	-4269
▁ir	-4270
ijken	-4271
▁kort	-4272
▁Ne	-4273
▁dep	-4274
▁sweet	-4275
▁kans	-4276
orie	-4277
▁opened	-4278
+1	-4279
▁dacht	-4280
分别	-4281
▁maxim	-4282
pel	-4283
▁enorm	-4284
▁lach	-4285
▁verwij	-4286
▁instru	-4287
▁politieke	-4288
▁stof	-4289
▁nad	-4290
▁proper	-4291
就在	-4292
▁kopen	-4293
▁voedsel	-4294
▁became	-4295
进入	-4296
小猪	-4297
▁Mhm	-4298
▁hist	-4299
精神	-4300
▁stuff	-4301
▁对呀	-4302
▁Okay	-4303
▁hill	-4304
▁keu	-4305
▁aller	-4306
komst	-4307
那里	-4308
▁walked	-4309
▁arr	-4310
▁food	-4311
一条	-4312
▁continued	-4313
.)	-4314
Je	-4315
受到	-4316
▁spir	-4317
stead	-4318
无法	-4319
▁lied	-4320
▁stopped	-4321
▁duur	-4322
外面	-4323
pers	-4324
就不	-4325
▁Lu	-4326
4$$	-4327
▁video	-4328
▁veil	-4329
OM	-4330
▁tit	-4331
▁view	-4332
▁longer	-4333
▁Ab	-4334
edict	-4335
how	-4336
▁bedrijf	-4337
ieken	-4338
状态	-4339
▁company	-4340
新的	-4341
▁Part	-4342
gebied	-4343
sy	-4344
ales	-4345
issen	-4346
▁pakken	-4347
▁ni	-4348
ico	-4349
▁fiets	-4350
▁resp	-4351
▁green	-4352
下的	-4353
ukkig	-4354
atten	-4355
▁stick	-4356
▁doctor	-4357
uari	-4358
▁midden	-4359
▁werkt	-4360
在一起	-4361
出的	-4362
BLANK	-4363
ikker	-4364
实现	-4365
ete	-4366
▁那个	-4367
下了	-4368
▁ring	-4369
achte	-4370
▁Rep	-4371
获得	-4372
▁bot	-4373
▁maand	-4374
数据	-4375
▁Mer	-4376
▁两	-4377
▁nacht	-4378
▁树	-4379
过了	-4380
▁groter	-4381
也有	-4382
▁Where	-4383
usland	-4384
来说	-4385
▁stukje	-4386
ENT	-4387
kel	-4388
▁Su	-4389
▁Cle	-4390
itted	-4391
▁边	-4392
IST	-4393
▁geboren	-4394
▁schree	-4395
▁breat	-4396
生命	-4397
▁shop	-4398
schijnlijk	-4399
▁走	-4400
大了	-4401
▁Did	-4402
recht	-4403
schappen	-4404
▁AN	-4405
onen	-4406
▁energie	-4407
64	-4408
▁moder	-4409
▁stil	-4410
▁rivier	-4411
▁China	-4412
▁enige	-4413
▁riep	-4414
▁feeling	-4415
dom	-4416
ancy	-4417
▁24	-4418
ened	-4419
inen	-4420
ugust	-4421
gelopen	-4422
根本	-4423
read	-4424
▁news	-4425
当然	-4426
arp	-4427
▁voorbeeld	-4428
消息	-4429
▁pen	-4430
吃的	-4431
▁whatever	-4432
▁Here	-4433
▁meant	-4434
▁rug	-4435
▁dece	-4436
也很	-4437
害怕	-4438
▁although	-4439
ining	-4440
isf	-4441
▁storm	-4442
BA	-4443
▁Somm	-4444
▁field	-4445
▁sitting	-4446
well	-4447
▁grow	-4448
ding	-4449
▁standing	-4450
坐在	-4451
▁bepaalde	-4452
▁anyway	-4453
▁event	-4454
urch	-4455
Maar	-4456
▁rijden	-4457
你说	-4458
cos	-4459
rible	-4460
不起	-4461
▁januari	-4462
都在	-4463
▁meneer	-4464
▁redenen	-4465
3-1	-4466
▁mess	-4467
▁outside	-4468
▁gemidd	-4469
▁distance	-4470
▁bijz	-4471
▁ruimte	-4472
erste	-4473
what	-4474
11	-4475
▁delen	-4476
▁XI	-4477
raat	-4478
▁Ol	-4479
▁hy	-4480
▁crow	-4481
▁shoul	-4482
▁omge	-4483
▁Some	-4484
▁master	-4485
▁object	-4486
▁snow	-4487
▁Mijn	-4488
gie	-4489
▁boot	-4490
▁working	-4491
▁except	-4492
▁lived	-4493
-3	-4494
▁worth	-4495
okken	-4496
▁vij	-4497
▁leeft	-4498
52	-4499
赶紧	-4500
uiste	-4501
▁easy	-4502
▁Haar	-4503
bru	-4504
rent	-4505
▁lag	-4506
inger	-4507
▁mooie	-4508
▁et	-4509
▁Ag	-4510
oose	-4511
kn	-4512
▁overheid	-4513
isc	-4514
▁gaf	-4515
▁wedstrijd	-4516
投资	-4517
▁praten	-4518
▁straat	-4519
even	-4520
▁Niet	-4521
▁lid	-4522
▁hung	-4523
▁zoeken	-4524
lei	-4525
▁sad	-4526
▁Europe	-4527
▁behulp	-4528
houden	-4529
▁Jim	-4530
▁Jul	-4531
带着	-4532
▁fac	-4533
▁lift	-4534
上去	-4535
样的	-4536
▁gevaar	-4537
▁cost	-4538
▁tafel	-4539
这部	-4540
▁那么	-4541
▁zorg	-4542
▁geze	-4543
mas	-4544
oit	-4545
ket	-4546
ility	-4547
oenen	-4548
}=\	-4549
放在	-4550
?""	-4551
▁Greg	-4552
oost	-4553
▁rose	-4554
67	-4555
▁4.	-4556
▁buy	-4557
▁account	-4558
▁daug	-4559
owers	-4560
▁liep	-4561
▁IN	-4562
wards	-4563
我看	-4564
相信	-4565
▁floor	-4566
你看	-4567
dit	-4568
sc	-4569
▁exact	-4570
▁jongens	-4571
进去	-4572
▁Blue	-4573
▁team	-4574
▁Kies	-4575
_,	-4576
proken	-4577
和小	-4578
明白	-4579
▁boos	-4580
▁Bek	-4581
肚子	-4582
▁um	-4583
▁juiste	-4584
▁waiting	-4585
多了	-4586
可爱	-4587
▁George	-4588
".	-4589
▁koff	-4590
▁dinner	-4591
▁(19	-4592
▁periode	-4593
也没	-4594
理解	-4595
▁king	-4596
冠军	-4597
▁law	-4598
gaat	-4599
komt	-4600
OO	-4601
政府	-4602
▁feest	-4603
▁hus	-4604
}_{1}}	-4605
▁spra	-4606
▁tent	-4607
提供	-4608
volut	-4609
▁ok	-4610
aans	-4611
▁cab	-4612
科技	-4613
▁Uncle	-4614
▁namen	-4615
回到	-4616
punt	-4617
全国	-4618
▁minuten	-4619
▁Welk	-4620
key	-4621
力的	-4622
男孩	-4623
voer	-4624
▁earth	-4625
▁schoon	-4626
好好	-4627
akker	-4628
▁free	-4629
gra	-4630
极了	-4631
的电	-4632
ossing	-4633
成功	-4634
kun	-4635
▁graf	-4636
veren	-4637
▁中	-4638
hoe	-4639
pril	-4640
▁oog	-4641
▁stro	-4642
inkrijk	-4643
▁alright	-4644
▁!	-4645
▁necess	-4646
▁gebouwd	-4647
BC	-4648
▁让	-4649
▁Ter	-4650
=2	-4651
ïn	-4652
▁somebody	-4653
heb	-4654
izer	-4655
▁Black	-4656
NA	-4657
ues	-4658
下去	-4659
}^{	-4660
▁vroeger	-4661
▁Benedict	-4662
是否	-4663
星星	-4664
hal	-4665
▁hoge	-4666
说话	-4667
▁voort	-4668
iam	-4669
喜欢看	-4670
▁故事	-4671
vat	-4672
▁David	-4673
erecht	-4674
旁边	-4675
Right	-4676
▁Nieuw	-4677
$,	-4678
ases	-4679
teen	-4680
▁further	-4681
_{	-4682
如何	-4683
rel	-4684
成的	-4685
▁equ	-4686
▁thou	-4687
阳光	-4688
1-1	-4689
▁(2	-4690
ijen	-4691
▁forgot	-4692
提高	-4693
▁pan	-4694
ories	-4695
oofd	-4696
▁hulp	-4697
ubliek	-4698
▁heavy	-4699
gin	-4700
▁我觉得	-4701
▁trad	-4702
tember	-4703
ationale	-4704
4-1	-4705
▁Lord	-4706
▁important	-4707
几天	-4708
听了	-4709
▁attra	-4710
不行	-4711
▁bru	-4712
▁slip	-4713
年轻	-4714
bron	-4715
▁decided	-4716
▁Bobby	-4717
▁forget	-4718
hankelijk	-4719
▁neemt	-4720
Then	-4721
attle	-4722
▁eye	-4723
▁Japan	-4724
istische	-4725
nel	-4726
▁whisper	-4727
女孩	-4728
▁的时候	-4729
▁bleef	-4730
deren	-4731
ative	-4732
▁hit	-4733
▁looks	-4734
机会	-4735
减少	-4736
▁Benedictus	-4737
.①	-4738
▁today	-4739
水平	-4740
yyy	-4741
iety	-4742
▁哪	-4743
就要	-4744
▁bestaan	-4745
服务	-4746
▁wo	-4747
elingen	-4748
▁kol	-4749
nocent	-4750
▁Port	-4751
你是	-4752
cdot	-4753
▁gras	-4754
▁Mil	-4755
▁volg	-4756
距离	-4757
ored	-4758
ometer	-4759
▁enter	-4760
▁noemen	-4761
OU	-4762
▁我是	-4763
▁become	-4764
▁Bert	-4765
▁makes	-4766
)$$	-4767
▁Even	-4768
produ	-4769
ieu	-4770
isschien	-4771
Do	-4772
▁regel	-4773
▁Oost	-4774
▁起来	-4775
iday	-4776
▁zowel	-4777
不断	-4778
gang	-4779
orses	-4780
▁vervolgens	-4781
国际	-4782
eless	-4783
▁Bunny	-4784
eeg	-4785
AK	-4786
▁hardly	-4787
朋友们	-4788
▁position	-4789
▁neg	-4790
▁opt	-4791
▁fly	-4792
spraak	-4793
▁catch	-4794
▁forty	-4795
路上	-4796
还要	-4797
▁enem	-4798
wege	-4799
▁Bekijk	-4800
kw	-4801
!""	-4802
▁Hun	-4803
▁May	-4804
▁requ	-4805
mens	-4806
▁eager	-4807
pres	-4808
ruit	-4809
▁sol	-4810
▁service	-4811
体育	-4812
▁ann	-4813
▁Spanje	-4814
▁Lou	-4815
▁Bart	-4816
▁mouth	-4817
女儿	-4818
▁fol	-4819
▁Jimm	-4820
▁leid	-4821
ics	-4822
min	-4823
▁buurt	-4824
▁public	-4825
bor	-4826
mark	-4827
aker	-4828
▁Dick	-4829
▁pale	-4830
有没有	-4831
riek	-4832
▁months	-4833
ei	-4834
▁verander	-4835
▁Sun	-4836
▁log	-4837
▁(18	-4838
不见	-4839
▁div	-4840
▁Rusland	-4841
直线	-4842
resh	-4843
uigen	-4844
的啊	-4845
▁summer	-4846
有一天	-4847
▁OF	-4848
我都	-4849
otte	-4850
▁dien	-4851
▁跑	-4852
▁21	-4853
▁blijkt	-4854
▁kerk	-4855
▁overle	-4856
48	-4857
▁juni	-4858
▁slapen	-4859
▁找	-4860
imin	-4861
▁eerder	-4862
▁Jo	-4863
▁vor	-4864
raal	-4865
▁slowly	-4866
刚才	-4867
球员	-4868
来看	-4869
▁berekening	-4870
▁大象	-4871
pose	-4872
▁general	-4873
▁gevangen	-4874
蝴蝶	-4875
voerd	-4876
ouder	-4877
▁hoofdstad	-4878
▁sus	-4879
▁satisf	-4880
▁cat	-4881
▁Omdat	-4882
▁prison	-4883
妹妹	-4884
▁liter	-4885
▁lovely	-4886
▁vlucht	-4887
任何	-4888
▁echte	-4889
▁fab	-4890
jar	-4891
journ	-4892
▁Bill	-4893
pa	-4894
小心	-4895
▁trans	-4896
▁Tr	-4897
▁Dor	-4898
jor	-4899
▁wis	-4900
▁Hen	-4901
▁而且	-4902
rika	-4903
loop	-4904
父亲	-4905
▁vakantie	-4906
uo	-4907
▁laag	-4908
▁appeared	-4909
▁gebieden	-4910
北京	-4911
十二	-4912
变得	-4913
房间	-4914
死了	-4915
▁liet	-4916
▁tel	-4917
▁cook	-4918
iële	-4919
ym	-4920
▁computer	-4921
▁scar	-4922
▁ST	-4923
▁dut	-4924
achter	-4925
▁sterk	-4926
75	-4927
高的	-4928
▁okay	-4929
▁prijs	-4930
ogen	-4931
▁rood	-4932
▁vormen	-4933
▁Sommige	-4934
▁Em	-4935
▁Oosten	-4936
▁declared	-4937
家的	-4938
▁waarop	-4939
▁kregen	-4940
▁zak	-4941
cially	-4942
auto	-4943
▁wilt	-4944
▁sal	-4945
enden	-4946
回去	-4947
奇怪	-4948
berg	-4949
asting	-4950
不仅	-4951
:$$	-4952
ival	-4953
▁tired	-4954
vember	-4955
甚至	-4956
▁vanuit	-4957
hoog	-4958
zi	-4959
是一种	-4960
目前	-4961
二零一	-4962
tern	-4963
产品	-4964
rand	-4965
▁哪里	-4966
reekt	-4967
▁叫	-4968
▁zwaar	-4969
ils	-4970
▁clim	-4971
St	-4972
delen	-4973
▁respect	-4974
每次	-4975
▁dorp	-4976
分子	-4977
▁Ros	-4978
▁Mark	-4979
used	-4980
▁Engeland	-4981
clock	-4982
Is	-4983
rage	-4984
▁Coun	-4985
▁husband	-4986
65	-4987
乌龟	-4988
▁wanneer	-4989
做的	-4990
▁burn	-4991
ukt	-4992
很快	-4993
兄弟	-4994
日本	-4995
▁horses	-4996
▁Gregorius	-4997
▁Americ	-4998
alle	-4999
下面	-5000
▁本题	-5001
▁ain	-5002
▁opa	-5003
▁govern	-5004
-5	-5005
耳朵	-5006
Don	-5007
▁gehouden	-5008
▁不过	-5009
过程中	-5010
▁joy	-5011
说了	-5012
ended	-5013
uil	-5014
就可以	-5015
▁sharp	-5016
ww	-5017
avond	-5018
忽然	-5019
▁grew	-5020
zel	-5021
结合	-5022
▁Hoeveel	-5023
传播	-5024
ummie	-5025
My	-5026
▁2,	-5027
tw	-5028
▁Zie	-5029
+2	-5030
发布	-5031
▁wol	-5032
▁discuss	-5033
▁Pol	-5034
okk	-5035
▁corner	-5036
▁rid	-5037
▁smile	-5038
▁pack	-5039
▁vuur	-5040
▁Mon	-5041
▁shi	-5042
▁schrijf	-5043
▁最	-5044
功能	-5045
▁bevolking	-5046
▁zand	-5047
beid	-5048
清楚	-5049
▁Anne	-5050
▁maybe	-5051
▁fle	-5052
AAR	-5053
▁真	-5054
▁afge	-5055
gesch	-5056
mar	-5057
cks	-5058
也会	-5059
▁village	-5060
ously	-5061
ror	-5062
toen	-5063
行为	-5064
▁krijg	-5065
分钟	-5066
▁40	-5067
▁zoveel	-5068
的声音	-5069
愿意	-5070
▁twel	-5071
▁geval	-5072
▁opnieuw	-5073
~~	-5074
▁bag	-5075
▁couple	-5076
▁不是	-5077
增长	-5078
isted	-5079
ston	-5080
▁viel	-5081
哈哈哈	-5082
量的	-5083
▁imag	-5084
▁Min	-5085
▁princ	-5086
▁vogel	-5087
排除	-5088
▁pract	-5089
She	-5090
▁可是	-5091
▁manner	-5092
▁niemand	-5093
▁reis	-5094
▁Rijk	-5095
▁record	-5096
▁verklaring	-5097
时代	-5098
▁zoon	-5099
ural	-5100
大学	-5101
veld	-5102
▁哇	-5103
▁fright	-5104
生长	-5105
▁creat	-5106
ragment	-5107
▁antwoorden	-5108
▁老	-5109
是因为	-5110
▁alsof	-5111
▁zen	-5112
▁Tot	-5113
ts	-5114
消费	-5115
▁papier	-5116
IF	-5117
萝卜	-5118
unk	-5119
▁Sue	-5120
第二天	-5121
staande	-5122
▁beteken	-5123
▁快	-5124
▁Alexander	-5125
石头	-5126
▁再见	-5127
▁gang	-5128
聪明	-5129
▁kenmer	-5130
▁Daarnaast	-5131
一步	-5132
▁everybody	-5133
▁fr	-5134
▁difficult	-5135
jaar	-5136
▁Gra	-5137
▁spot	-5138
schrift	-5139
▁Dis	-5140
▁brengen	-5141
一定要	-5142
eltjes	-5143
刚刚	-5144
▁trap	-5145
cul	-5146
▁test	-5147
LE	-5148
▁maanden	-5149
+{{	-5150
▁gather	-5151
▁reach	-5152
stru	-5153
▁boer	-5154
▁save	-5155
▁ye	-5156
ciaal	-5157
▁techn	-5158
▁instead	-5159
方程	-5160
eller	-5161
▁drew	-5162
气体	-5163
arts	-5164
▁Good	-5165
▁finished	-5166
▁success	-5167
地区	-5168
整个	-5169
鼻子	-5170
reem	-5171
▁kracht	-5172
▁lim	-5173
▁shore	-5174
▁Luc	-5175
asion	-5176
▁bouwen	-5177
▁below	-5178
▁laid	-5179
怎么样	-5180
都没有	-5181
▁plat	-5182
ounded	-5183
接着	-5184
}_{2}}	-5185
站在	-5186
illa	-5187
你也	-5188
tempt	-5189
▁provincie	-5190
显示	-5191
一块	-5192
实力	-5193
第三	-5194
antwoord	-5195
▁clothes	-5196
▁totaal	-5197
▁luck	-5198
▁piece	-5199
▁eet	-5200
天气	-5201
▁knows	-5202
vallen	-5203
▁Oostenrijk	-5204
▁weergegeven	-5205
一百	-5206
欢迎	-5207
管理	-5208
^{2}	-5209
不可	-5210
保持	-5211
▁23	-5212
▁gold	-5213
▁zeer	-5214
▁main	-5215
▁december	-5216
▁Egy	-5217
▁mill	-5218
Nee	-5219
rust	-5220
▁weeks	-5221
天空	-5222
生态	-5223
yond	-5224
▁itself	-5225
▁veroor	-5226
▁shot	-5227
▁betalen	-5228
astic	-5229
▁priv	-5230
▁tabel	-5231
还没	-5232
▁oper	-5233
▁Fred	-5234
▁forth	-5235
▁beneden	-5236
▁safe	-5237
▁daughter	-5238
只好	-5239
iced	-5240
kort	-5241
tober	-5242
ume	-5243
film	-5244
▁tea	-5245
heen	-5246
▁ontstaat	-5247
▁22	-5248
▁verdw	-5249
▁ut	-5250
13	-5251
arr	-5252
很有	-5253
aded	-5254
inse	-5255
▁passen	-5256
价格	-5257
▁fre	-5258
sm	-5259
只小	-5260
除了	-5261
不知	-5262
完了	-5263
稳定	-5264
民族	-5265
美丽的	-5266
▁Bra	-5267
十五	-5268
journaal	-5269
orgt	-5270
▁ban	-5271
▁Leo	-5272
▁出来	-5273
ioen	-5274
▁write	-5275
▁wan	-5276
▁geschreven	-5277
RO	-5278
有了	-5279
小白兔	-5280
verk	-5281
▁(15	-5282
▁afstand	-5283
45	-5284
▁juf	-5285
▁Indian	-5286
▁subject	-5287
▁是呀	-5288
oemde	-5289
▁reactie	-5290
▁ooit	-5291
▁stelling	-5292
▁ya	-5293
ISTER	-5294
aste	-5295
▁).	-5296
政策	-5297
ijt	-5298
steem	-5299
自由	-5300
▁entered	-5301
成绩	-5302
他说	-5303
打开	-5304
吃饭	-5305
嘴巴	-5306
用的	-5307
▁XV	-5308
▁28	-5309
让人	-5310
▁①	-5311
轻轻	-5312
iende	-5313
▁先	-5314
小时	-5315
▁Gen	-5316
▁luister	-5317
▁beginnen	-5318
控制	-5319
电话	-5320
▁neer	-5321
▁vliegtuig	-5322
正常	-5323
hee	-5324
▁saf	-5325
ively	-5326
▁mid	-5327
fast	-5328
▁weken	-5329
▁neus	-5330
更加	-5331
▁Who	-5332
▁cover	-5333
▁direction	-5334
感到	-5335
grond	-5336
mama	-5337
▁mut	-5338
▁allerlei	-5339
ino	-5340
come	-5341
ikte	-5342
▁trouw	-5343
▁lu	-5344
▁volk	-5345
▁Sinds	-5346
▁street	-5347
资源	-5348
ingers	-5349
zaak	-5350
▁Pat	-5351
刺猬	-5352
...'	-5353
circ	-5354
翅膀	-5355
▁derde	-5356
春天	-5357
▁onderdeel	-5358
▁Sir	-5359
▁chief	-5360
oppen	-5361
▁winkel	-5362
▁Cal	-5363
最大	-5364
▁clean	-5365
▁\\	-5366
基础	-5367
plaats	-5368
▁zichzelf	-5369
函数	-5370
支持	-5371
nest	-5372
▁shut	-5373
幸福	-5374
rodu	-5375
view	-5376
▁dad	-5377
小兔	-5378
()	-5379
▁孩	-5380
答案为	-5381
gesl	-5382
▁Jer	-5383
▁Soms	-5384
▁treat	-5385
que	-5386
ana	-5387
ippen	-5388
▁verschil	-5389
▁hurt	-5390
▁好不好	-5391
▁German	-5392
前面	-5393
wit	-5394
div	-5395
▁krant	-5396
Not	-5397
▁Heb	-5398
▁Grand	-5399
▁secret	-5400
66	-5401
▁Come	-5402
▁Ga	-5403
▁VIII	-5404
dere	-5405
▁Christmas	-5406
▁wonderful	-5407
EE	-5408
坚持	-5409
Amer	-5410
ming	-5411
随着	-5412
▁tekening	-5413
在这	-5414
▁geloof	-5415
ieel	-5416
▁plaatsen	-5417
球队	-5418
的好	-5419
▁est	-5420
▁moved	-5421
ified	-5422
▁inge	-5423
▁gezegd	-5424
▁seeing	-5425
eding	-5426
▁看看	-5427
▁type	-5428
▁living	-5429
ball	-5430
maken	-5431
▁likely	-5432
▁problemen	-5433
的那个	-5434
▁chair	-5435
posed	-5436
▁vertelt	-5437
▁一下	-5438
▁vlak	-5439
▁prins	-5440
▁telefoon	-5441
vang	-5442
asten	-5443
▁England	-5444
遇到	-5445
pte	-5446
▁Eerste	-5447
▁Sim	-5448
▁yell	-5449
▁fresh	-5450
▁invloed	-5451
wez	-5452
▁5.	-5453
▁showed	-5454
所有的	-5455
▁根据	-5456
▁fil	-5457
▁muse	-5458
▁clos	-5459
▁kost	-5460
▁reken	-5461
通常	-5462
▁Jeugd	-5463
▁aren	-5464
▁zuur	-5465
▁group	-5466
▁有没有	-5467
▁kilometer	-5468
29	-5469
▁stat	-5470
▁dun	-5471
gelijk	-5472
igin	-5473
适合	-5474
▁succes	-5475
▁populair	-5476
▁②	-5477
基因	-5478
去看	-5479
把它	-5480
▁oktober	-5481
inderen	-5482
▁regels	-5483
▁Ant	-5484
▁wilden	-5485
▁fail	-5486
▁Bonnet	-5487
树上	-5488
iny	-5489
▁lijn	-5490
▁waarmee	-5491
gl	-5492
nes	-5493
▁hout	-5494
▁accept	-5495
ka	-5496
bum	-5497
▁Have	-5498
▁drinken	-5499
▁Nor	-5500
叶子	-5501
velop	-5502
▁repe	-5503
▁laugh	-5504
gend	-5505
deze	-5506
▁places	-5507
▁therefore	-5508
长得	-5509
ersch	-5510
▁slag	-5511
▁slight	-5512
一片	-5513
All	-5514
▁age	-5515
▁neigh	-5516
▁pain	-5517
▁giving	-5518
AM	-5519
的比赛	-5520
▁single	-5521
完成	-5522
宝贝	-5523
▁bezoek	-5524
的事情	-5525
▁hall	-5526
▁beside	-5527
了个	-5528
oute	-5529
illen	-5530
▁broken	-5531
▁internet	-5532
AC	-5533
▁苹果	-5534
▁none	-5535
▁twelve	-5536
centr	-5537
Een	-5538
anced	-5539
idence	-5540
昨天	-5541
▁sevent	-5542
全部	-5543
▁paard	-5544
iu	-5545
▁incl	-5546
▁voorkomen	-5547
▁Bessie	-5548
▁aff	-5549
、$$	-5550
桌子	-5551
igr	-5552
▁surprise	-5553
▁vess	-5554
ho	-5555
冬天	-5556
▁books	-5557
▁poes	-5558
▁verzam	-5559
▁melk	-5560
医院	-5561
yed	-5562
jet	-5563
▁witte	-5564
▁ergens	-5565
▁喜欢	-5566
▁193	-5567
▁ongel	-5568
▁Clemens	-5569
▁sense	-5570
▁received	-5571
形状	-5572
▁手	-5573
▁Du	-5574
doen	-5575
▁Are	-5576
他就	-5577
▁ei	-5578
▁mention	-5579
bra	-5580
ieved	-5581
▁attack	-5582
)=	-5583
80	-5584
她们	-5585
SISTER	-5586
给他	-5587
电视剧	-5588
ologie	-5589
rienden	-5590
,$$	-5591
▁anderen	-5592
▁hat	-5593
▁reag	-5594
BR	-5595
▁Goos	-5596
▁Turk	-5597
agina	-5598
▁VII	-5599
建设	-5600
思想	-5601
6$$	-5602
▁hous	-5603
大小	-5604
ette	-5605
▁overl	-5606
▁Sm	-5607
的样子	-5608
▁inside	-5609
▁km	-5610
▁Frans	-5611
▁officer	-5612
onds	-5613
alph	-5614
deeld	-5615
tog	-5616
▁Cos	-5617
▁Every	-5618
▁beyond	-5619
简直	-5620
▁dream	-5621
实际	-5622
▁sla	-5623
▁afgelopen	-5624
▁195	-5625
▁paid	-5626
werken	-5627
▁wants	-5628
▁rap	-5629
▁motor	-5630
简单	-5631
一声	-5632
▁ur	-5633
▁Robert	-5634
▁€	-5635
还在	-5636
pecially	-5637
▁april	-5638
▁pleasant	-5639
omb	-5640
▁island	-5641
ashed	-5642
▁gegevens	-5643
UR	-5644
句话	-5645
▁korte	-5646
22	-5647
看来	-5648
▁probleem	-5649
的那	-5650
edenk	-5651
erland	-5652
▁Fe	-5653
满了	-5654
verd	-5655
▁memb	-5656
▁太	-5657
▁Wanneer	-5658
▁呃	-5659
▁dru	-5660
genwoordig	-5661
▁你也	-5662
cious	-5663
伙伴	-5664
zing	-5665
▁sneeuw	-5666
已知	-5667
正确的	-5668
特点	-5669
▁Span	-5670
lymp	-5671
每个	-5672
都很	-5673
▁truth	-5674
.(	-5675
▁27	-5676
▁zorgt	-5677
▁tall	-5678
▁kiezen	-5679
uut	-5680
▁programma	-5681
▁attention	-5682
▁为	-5683
▁ij	-5684
▁bezig	-5685
▁球	-5686
▁Mich	-5687
更多	-5688
▁state	-5689
▁percent	-5690
▁cup	-5691
groep	-5692
父母	-5693
那你	-5694
wassen	-5695
▁uitz	-5696
报道	-5697
颈鹿	-5698
体现	-5699
▁area	-5700
▁pock	-5701
▁bestuur	-5702
▁died	-5703
▁Grote	-5704
▁begonnen	-5705
ronk	-5706
ops	-5707
▁fra	-5708
▁uitleg	-5709
jij	-5710
▁evident	-5711
▁maart	-5712
▁inf	-5713
ute	-5714
代表	-5715
处理	-5716
Amerik	-5717
▁partijen	-5718
吃了	-5719
▁spoor	-5720
▁doordat	-5721
mag	-5722
▁belong	-5723
▁materi	-5724
▁leef	-5725
▁star	-5726
▁ahead	-5727
▁schip	-5728
▁pad	-5729
▁dev	-5730
AS	-5731
▁你们	-5732
▁hotel	-5733
ichten	-5734
▁plaatje	-5735
}}$$	-5736
▁Arab	-5737
▁dochter	-5738
▁bronnen	-5739
kijken	-5740
▁protest	-5741
都要	-5742
▁zwem	-5743
▁grass	-5744
▁interesting	-5745
不住	-5746
1,	-5747
▁gets	-5748
▁terecht	-5749
▁Ann	-5750
slant	-5751
蜜蜂	-5752
▁fro	-5753
qslant	-5754
▁fiet	-5755
▁gekregen	-5756
结束	-5757
▁IX	-5758
druk	-5759
ex	-5760
oorn	-5761
▁self	-5762
▁beginning	-5763
▁自己	-5764
ustom	-5765
rook	-5766
▁anybody	-5767
meester	-5768
uwen	-5769
国的	-5770
是我	-5771
▁bow	-5772
▁voorbeelden	-5773
jo	-5774
▁rub	-5775
▁wide	-5776
▁argument	-5777
ada	-5778
▁∴	-5779
etch	-5780
iant	-5781
▁Dr	-5782
▁length	-5783
▁exactly	-5784
▁oplossing	-5785
心的	-5786
orde	-5787
▁Charl	-5788
ffen	-5789
▁fish	-5790
他在	-5791
▁plain	-5792
▁点	-5793
ades	-5794
school	-5795
▁zomer	-5796
▁dropped	-5797
athol	-5798
离开	-5799
iker	-5800
▁breath	-5801
kund	-5802
休息	-5803
▁paus	-5804
▁speed	-5805
▁breakfast	-5806
ists	-5807
▁Go	-5808
angle	-5809
zijn	-5810
▁bekende	-5811
▁gesloten	-5812
▁deck	-5813
▁bepaald	-5814
▁following	-5815
▁花	-5816
note	-5817
▁lamp	-5818
▁throw	-5819
asc	-5820
otterdam	-5821
不然	-5822
想要	-5823
▁Red	-5824
▁worked	-5825
▁gevallen	-5826
▁gevolg	-5827
▁gekozen	-5828
▁koe	-5829
atische	-5830
▁song	-5831
▁jonge	-5832
▁figure	-5833
▁formule	-5834
▁maximaal	-5835
▁ov	-5836
▁Bur	-5837
▁sick	-5838
▁juli	-5839
mond	-5840
▁rechts	-5841
面前	-5842
▁ervan	-5843
▁ap	-5844
▁pleased	-5845
因素	-5846
▁meisjes	-5847
能量	-5848
ising	-5849
▁incre	-5850
▁cru	-5851
5-1	-5852
工具	-5853
▁26	-5854
▁pak	-5855
▁eruit	-5856
娃娃	-5857
▁supposed	-5858
▁Hieronder	-5859
▁Dummie	-5860
▁dom	-5861
▁brood	-5862
我说	-5863
▁special	-5864
▁watched	-5865
就能	-5866
▁Mother	-5867
▁IJ	-5868
▁These	-5869
单位	-5870
▁zeven	-5871
reen	-5872
▁Pres	-5873
▁thus	-5874
▁gezond	-5875
母亲	-5876
▁mamma	-5877
▁cast	-5878
元素	-5879
▁ieder	-5880
▁hieronder	-5881
▁那你	-5882
▁september	-5883
bre	-5884
▁ene	-5885
▁terrible	-5886
▁像	-5887
eh	-5888
▁wa	-5889
▁stone	-5890
go	-5891
全球	-5892
▁我也	-5893
▁Sov	-5894
▁Rich	-5895
▁woont	-5896
跟着	-5897
atief	-5898
house	-5899
elijks	-5900
pervl	-5901
▁Val	-5902
如此	-5903
▁haal	-5904
▁fellows	-5905
▁agreed	-5906
▁Sy	-5907
▁telling	-5908
osp	-5909
▁(17	-5910
▁Sat	-5911
ici	-5912
inkt	-5913
like	-5914
▁Rotterdam	-5915
elle	-5916
▁Italië	-5917
▁tone	-5918
uten	-5919
▁excit	-5920
▁thy	-5921
▁Stan	-5922
ikel	-5923
ploy	-5924
▁hom	-5925
eelte	-5926
$$(	-5927
▁bottom	-5928
▁Maggie	-5929
toe	-5930
▁support	-5931
▁(5	-5932
ivid	-5933
▁november	-5934
iversiteit	-5935
并不	-5936
othe	-5937
▁stam	-5938
▁milit	-5939
▁langer	-5940
▁Innocent	-5941
▁飞机	-5942
medi	-5943
▁Cor	-5944
▁lijst	-5945
zuur	-5946
满足	-5947
▁dw	-5948
bling	-5949
▁War	-5950
▁dur	-5951
▁aanwez	-5952
▁meeting	-5953
人员	-5954
ior	-5955
pap	-5956
dra	-5957
▁jud	-5958
ootnote	-5959
▁intern	-5960
_2	-5961
▁busy	-5962
leep	-5963
▁pal	-5964
▁corre	-5965
▁trem	-5966
▁rechter	-5967
▁AND	-5968
▁add	-5969
▁mening	-5970
▁Innocentius	-5971
制度	-5972
onderd	-5973
▁洗	-5974
▁Two	-5975
▁chr	-5976
▁sand	-5977
▁Ur	-5978
▁thick	-5979
疫情	-5980
voud	-5981
解决	-5982
ugustus	-5983
▁speciale	-5984
大声	-5985
omas	-5986
rupt	-5987
▁哈	-5988
早上	-5989
▁中国	-5990
体的	-5991
jarige	-5992
▁Steph	-5993
▁woods	-5994
▁waarde	-5995
价值	-5996
aped	-5997
电流	-5998
▁Mc	-5999
light	-6000
▁comb	-6001
▁boeren	-6002
▁wachten	-6003
▁Mos	-6004
实在	-6005
▁wear	-6006
▁makkelijk	-6007
achtig	-6008
▁inten	-6009
▁oorsp	-6010
▁fat	-6011
▁nest	-6012
▁CO	-6013
▁farm	-6014
▁hoger	-6015
行业	-6016
▁touch	-6017
Ch	-6018
十一	-6019
din	-6020
isteren	-6021
▁occasion	-6022
段时间	-6023
▁Hoewel	-6024
题目	-6025
▁radio	-6026
▁struck	-6027
▁buitenland	-6028
就把	-6029
weging	-6030
▁gehad	-6031
▁mocht	-6032
▁IK	-6033
笑着	-6034
▁sens	-6035
▁Gem	-6036
山羊	-6037
的水	-6038
▁charge	-6039
▁jour	-6040
▁hoogte	-6041
▁Sar	-6042
▁vrienden	-6043
组织	-6044
ella	-6045
▁toer	-6046
▁temperatuur	-6047
ictor	-6048
▁koffie	-6049
他是	-6050
▁broke	-6051
小猴	-6052
▁Mal	-6053
▁obser	-6054
木头	-6055
▁Marc	-6056
▁Toon	-6057
▁changed	-6058
ulk	-6059
是指	-6060
期待	-6061
▁Mex	-6062
omst	-6063
▁huizen	-6064
▁baas	-6065
▁pakt	-6066
▁本题考查	-6067
▁funny	-6068
▁teksten	-6069
▁meerdere	-6070
▁dam	-6071
trecht	-6072
standig	-6073
▁capt	-6074
▁third	-6075
▁③	-6076
▁被	-6077
▁filled	-6078
lor	-6079
}}^	-6080
▁relig	-6081
日子	-6082
场比赛	-6083
▁neck	-6084
▁bound	-6085
▁music	-6086
给了	-6087
spre	-6088
▁2000	-6089
▁erbij	-6090
▁demand	-6091
本题	-6092
keur	-6093
richt	-6094
▁Britse	-6095
小花	-6096
▁dar	-6097
▁Want	-6098
▁kool	-6099
inding	-6100
的时间	-6101
Cl	-6102
呼吸	-6103
vin	-6104
▁link	-6105
▁overt	-6106
▁enemy	-6107
别的	-6108
▁tears	-6109
▁regard	-6110
],	-6111
▁links	-6112
不太	-6113
raï	-6114
▁mur	-6115
IED	-6116
▁covered	-6117
▁以	-6118
▁fruit	-6119
――	-6120
▁inqu	-6121
▁Net	-6122
▁turning	-6123
去找	-6124
▁rent	-6125
aalt	-6126
werkt	-6127
▁Jane	-6128
▁attempt	-6129
▁vele	-6130
aining	-6131
▁cheer	-6132
▁allowed	-6133
▁yi	-6134
不同的	-6135
ustral	-6136
▁members	-6137
was	-6138
▁path	-6139
▁serie	-6140
▁voordat	-6141
▁Ted	-6142
▁一个	-6143
reep	-6144
auwe	-6145
ikken	-6146
there	-6147
▁gekomen	-6148
▁expected	-6149
明天	-6150
▁bedacht	-6151
▁berg	-6152
▁knock	-6153
▁descri	-6154
ondon	-6155
▁system	-6156
wo	-6157
▁二	-6158
▁Ied	-6159
符合题意	-6160
▁Ham	-6161
▁spell	-6162
羽毛	-6163
-19	-6164
lin	-6165
This	-6166
▁immedi	-6167
ipe	-6168
▁middle	-6169
▁kolon	-6170
玻璃	-6171
▁trekken	-6172
nummer	-6173
rict	-6174
1$$	-6175
电子	-6176
▁IS	-6177
ertje	-6178
bie	-6179
best	-6180
▁omhoog	-6181
会有	-6182
▁Any	-6183
怎么办	-6184
Waar	-6185
bers	-6186
ogn	-6187
▁American	-6188
▁Vanaf	-6189
▁试	-6190
▁Koninkrijk	-6191
动物们	-6192
ully	-6193
▁waarvan	-6194
▁daarbij	-6195
▁proberen	-6196
bles	-6197
▁Later	-6198
▁Reg	-6199
▁rough	-6200
▁nummers	-6201
cked	-6202
▁lar	-6203
▁volled	-6204
▁koningin	-6205
onk	-6206
umenten	-6207
面上	-6208
▁watching	-6209
azen	-6210
▁India	-6211
▁Amerika	-6212
▁amb	-6213
▁cijf	-6214
Hij	-6215
▁infl	-6216
mu	-6217
在水	-6218
共同	-6219
▁klimaat	-6220
天天	-6221
演的	-6222
▁29	-6223
▁ta	-6224
▁leaving	-6225
▁kro	-6226
vaart	-6227
▁ninety	-6228
▁等	-6229
▁trust	-6230
ël	-6231
▁bele	-6232
▁马	-6233
一阵	-6234
illing	-6235
▁polic	-6236
zz	-6237
喜欢的	-6238
▁blow	-6239
▁aangezien	-6240
▁rob	-6241
▁origin	-6242
之间的	-6243
spel	-6244
▁jum	-6245
正好	-6246
说是	-6247
▁Bas	-6248
▁gift	-6249
▁bevat	-6250
▁concern	-6251
▁Olymp	-6252
▁hoop	-6253
▁zuiden	-6254
35	-6255
▁stoel	-6256
▁London	-6257
▁televisie	-6258
那样	-6259
kamer	-6260
▁autom	-6261
▁geweld	-6262
▁pound	-6263
一刻	-6264
我在	-6265
▁placed	-6266
▁absolut	-6267
▁dollars	-6268
▁product	-6269
▁smiled	-6270
性的	-6271
▁pijn	-6272
ishing	-6273
2,	-6274
▁Max	-6275
oris	-6276
▁:	-6277
▁kiss	-6278
▁office	-6279
rs	-6280
▁author	-6281
一位	-6282
}}_2	-6283
▁James	-6284
▁Mensen	-6285
▁stoffen	-6286
$$2	-6287
运动员	-6288
不停	-6289
▁pet	-6290
▁kikker	-6291
▁flowers	-6292
▁画	-6293
▁muur	-6294
▁activ	-6295
▁Utrecht	-6296
▁bought	-6297
▁zus	-6298
▁pleasure	-6299
indt	-6300
▁deter	-6301
土壤	-6302
计算	-6303
▁pil	-6304
▁brown	-6305
▁convers	-6306
ona	-6307
IDENT	-6308
▁fix	-6309
▁AL	-6310
▁Austral	-6311
压力	-6312
▁Com	-6313
▁enc	-6314
▁Wal	-6315
▁开	-6316
▁Mo	-6317
▁learned	-6318
不用	-6319
制作	-6320
好吧	-6321
竟然	-6322
▁Pius	-6323
▁whispered	-6324
▁apart	-6325
▁张	-6326
▁shouted	-6327
,$$\	-6328
board	-6329
▁church	-6330
掉了	-6331
▁fut	-6332
▁local	-6333
▁glass	-6334
▁project	-6335
▁favor	-6336
eral	-6337
zocht	-6338
▁leggen	-6339
▁zacht	-6340
ima	-6341
▁dest	-6342
森林里	-6343
▁puz	-6344
aarten	-6345
不多	-6346
本来	-6347
可能是	-6348
▁Kat	-6349
▁bek	-6350
▁duty	-6351
严重	-6352
▁zieken	-6353
▁li	-6354
ooien	-6355
▁keizer	-6356
ola	-6357
▁出	-6358
▁rich	-6359
▁kleuren	-6360
一年	-6361
哎呀	-6362
cing	-6363
▁vanwege	-6364
IFIED	-6365
时期	-6366
wet	-6367
▁Ju	-6368
▁gebracht	-6369
▁government	-6370
化学	-6371
悄悄	-6372
stel	-6373
小鸟	-6374
▁fit	-6375
ashion	-6376
▁medic	-6377
cely	-6378
▁tong	-6379
哪儿	-6380
▁toek	-6381
UNIDENT	-6382
UNIDENTIFIED	-6383
▁killed	-6384
▁museum	-6385
▁journey	-6386
▁drive	-6387
▁kosten	-6388
▁mann	-6389
▁lives	-6390
▁zwarte	-6391
▁fore	-6392
▁prem	-6393
6.	-6394
政治	-6395
▁titel	-6396
intig	-6397
▁gebeurd	-6398
▁extre	-6399
▁hield	-6400
▁kruis	-6401
▁putting	-6402
▁usual	-6403
▁弄	-6404
数的	-6405
真正	-6406
▁gentleman	-6407
很喜欢	-6408
▁还是	-6409
ijdt	-6410
▁broer	-6411
▁noorden	-6412
▁information	-6413
bour	-6414
annen	-6415
▁Nap	-6416
▁questions	-6417
78	-6418
▁wand	-6419
anning	-6420
▁Thank	-6421
特征	-6422
hoek	-6423
▁sky	-6424
dd	-6425
我去	-6426
用于	-6427
▁opger	-6428
的花	-6429
naar	-6430
▁mad	-6431
听见	-6432
脑袋	-6433
▁shook	-6434
▁koek	-6435
▁由	-6436
兴趣	-6437
oelen	-6438
▁race	-6439
▁opening	-6440
▁spirit	-6441
riage	-6442
达到	-6443
▁bomen	-6444
出来了	-6445
▁human	-6446
▁toneel	-6447
事儿	-6448
走到	-6449
类的	-6450
西瓜	-6451
分享	-6452
不变	-6453
▁vonden	-6454
my	-6455
ening	-6456
哪个	-6457
▁North	-6458
▁kapot	-6459
文章	-6460
▁Laat	-6461
▁Karel	-6462
改革	-6463
llen	-6464
Come	-6465
ampioen	-6466
演员	-6467
美元	-6468
ekraï	-6469
▁temp	-6470
▁necessary	-6471
光的	-6472
▁Cent	-6473
49	-6474
▁Tru	-6475
▁dig	-6476
▁男	-6477
▁EEN	-6478
▁cloud	-6479
▁stellen	-6480
ii	-6481
公鸡	-6482
icked	-6483
▁liked	-6484
▁social	-6485
▁somewhere	-6486
说完	-6487
▁kust	-6488
不想	-6489
mal	-6490
▁machine	-6491
可惜	-6492
AB	-6493
考虑	-6494
▁meth	-6495
▁swe	-6496
▁stij	-6497
anny	-6498
▁exam	-6499
▁ziekte	-6500
的家	-6501
iod	-6502
▁effort	-6503
▁nature	-6504
没想到	-6505
esterday	-6506
礼物	-6507
▁especially	-6508
▁Fort	-6509
第一次	-6510
▁politiek	-6511
▁四	-6512
专业	-6513
wagen	-6514
Let	-6515
▁Little	-6516
▁British	-6517
明星	-6518
▁threw	-6519
▁tail	-6520
roeg	-6521
▁veld	-6522
▁steen	-6523
▁Chin	-6524
estival	-6525
▁easily	-6526
▁同	-6527
国内	-6528
五十	-6529
了啊	-6530
水的	-6531
▁为什么	-6532
ism	-6533
viously	-6534
▁roof	-6535
▁guard	-6536
▁producten	-6537
▁Boy	-6538
银行	-6539
{1}{2}	-6540
▁versl	-6541
▁scholen	-6542
合作	-6543
教练	-6544
kracht	-6545
IC	-6546
▁Parijs	-6547
▁并	-6548
▁remarked	-6549
IR	-6550
zetten	-6551
▁worse	-6552
定的	-6553
▁Sn	-6554
▁坐	-6555
ees	-6556
应该是	-6557
▁(13	-6558
▁fles	-6559
▁legs	-6560
还挺	-6561
▁这么	-6562
▁obl	-6563
▁usually	-6564
金属	-6565
▁Hal	-6566
rid	-6567
意义	-6568
阅读	-6569
▁dry	-6570
boden	-6571
标准	-6572
▁cool	-6573
wood	-6574
Als	-6575
▁agree	-6576
raagt	-6577
▁unless	-6578
▁Pas	-6579
▁Water	-6580
▁loved	-6581
▁真的	-6582
接受	-6583
▁60	-6584
▁officers	-6585
表达	-6586
▁milk	-6587
▁Samen	-6588
▁daardoor	-6589
▁cho	-6590
BROTHER	-6591
相互	-6592
lop	-6593
▁common	-6594
▁verkocht	-6595
了呢	-6596
ctuur	-6597
▁sixty	-6598
▁nauw	-6599
spraken	-6600
urse	-6601
▁Misschien	-6602
raad	-6603
▁ice	-6604
ograf	-6605
▁hoeveelheid	-6606
,5	-6607
是谁	-6608
▁strength	-6609
hol	-6610
stoffen	-6611
▁search	-6612
▁functie	-6613
zak	-6614
▁force	-6615
▁laughing	-6616
▁crew	-6617
▁("	-6618
▁Pe	-6619
▁Sunday	-6620
▁lachen	-6621
▁notice	-6622
nemen	-6623
计划	-6624
▁lab	-6625
▁proud	-6626
中心	-6627
▁strip	-6628
网络	-6629
节目	-6630
bet	-6631
▁seiz	-6632
平衡	-6633
baan	-6634
▁erop	-6635
sw	-6636
lai	-6637
entie	-6638
▁。	-6639
▁EN	-6640
ented	-6641
▁reply	-6642
超过	-6643
大家都	-6644
小老鼠	-6645
oede	-6646
▁wag	-6647
▁lower	-6648
OL	-6649
bei	-6650
▁lying	-6651
▁written	-6652
▁dozen	-6653
▁groepen	-6654
▁q	-6655
▁brug	-6656
▁eighty	-6657
yi	-6658
我知道	-6659
ision	-6660
7.	-6661
▁fool	-6662
enk	-6663
▁chap	-6664
▁anxious	-6665
huizen	-6666
▁birds	-6667
▁advent	-6668
rey	-6669
▁From	-6670
▁hurried	-6671
ores	-6672
▁suggested	-6673
9.	-6674
游泳	-6675
oef	-6676
▁Ten	-6677
ract	-6678
老人	-6679
igt	-6680
▁glas	-6681
▁Engelse	-6682
▁Ned	-6683
sport	-6684
;"	-6685
小猫	-6686
爱的	-6687
▁nineteen	-6688
zy	-6689
▁kasteel	-6690
▁situation	-6691
▁verv	-6692
andid	-6693
▁rain	-6694
▁helft	-6695
▁building	-6696
 ·	-6697
▁draw	-6698
=0	-6699
▁飞	-6700
uts	-6701
▁aspect	-6702
不少	-6703
灰狼	-6704
ills	-6705
▁hig	-6706
▁quarter	-6707
▁ce	-6708
▁built	-6709
南方	-6710
面积	-6711
主要是	-6712
$$1$$	-6713
▁onaf	-6714
organis	-6715
▁weather	-6716
▁mevrouw	-6717
_.	-6718
红色	-6719
▁Bos	-6720
▁行	-6721
esse	-6722
▁spullen	-6723
▁则	-6724
bal	-6725
唱歌	-6726
stairs	-6727
zoeken	-6728
va	-6729
itchen	-6730
▁donker	-6731
有很多	-6732
▁Jimmie	-6733
▁leeftijd	-6734
▁interested	-6735
原子	-6736
▁pray	-6737
▁Tussen	-6738
eters	-6739
5.	-6740
吸引	-6741
derd	-6742
▁ding	-6743
永远	-6744
▁keuken	-6745
不管	-6746
华为	-6747
笑了	-6748
▁Oekraï	-6749
关键	-6750
哪些	-6751
对对	-6752
出来的	-6753
▁arrived	-6754
都没	-6755
▁Sand	-6756
▁Victor	-6757
▁inn	-6758
▁erin	-6759
loos	-6760
▁Hel	-6761
markt	-6762
▁detail	-6763
▁spent	-6764
▁toekomst	-6765
role	-6766
▁surprised	-6767
▁raised	-6768
▁crowd	-6769
到底	-6770
物体的	-6771
▁stonden	-6772
▁maan	-6773
▁bedoeld	-6774
音乐	-6775
▁oppos	-6776
▁affect	-6777
itude	-6778
▁leden	-6779
ixt	-6780
▁spec	-6781
fer	-6782
zee	-6783
bruari	-6784
▁duurt	-6785
▁Sovjet	-6786
住在	-6787
项目	-6788
field	-6789
▁Piet	-6790
gers	-6791
▁kru	-6792
cties	-6793
ongen	-6794
tussen	-6795
▁health	-6796
担心	-6797
▁Bedenk	-6798
▁pir	-6799
▁possib	-6800
▁groeien	-6801
▁Che	-6802
▁kar	-6803
▁develop	-6804
ctions	-6805
▁augustus	-6806
▁cow	-6807
▁Dus	-6808
▁geg	-6809
An	-6810
▁Fil	-6811
▁Oor	-6812
▁gebruikte	-6813
elled	-6814
▁simp	-6815
▁schrijver	-6816
▁caus	-6817
点儿	-6818
col	-6819
hood	-6820
▁grens	-6821
味道	-6822
▁Jac	-6823
▁hoeft	-6824
学会	-6825
irth	-6826
▁190	-6827
ribut	-6828
ination	-6829
isters	-6830
▁vogels	-6831
▁veroorz	-6832
▁cause	-6833
▁④	-6834
wise	-6835
▁loud	-6836
▁diep	-6837
还能	-6838
▁faith	-6839
▁Disney	-6840
都能	-6841
▁army	-6842
rekken	-6843
▁steps	-6844
▁album	-6845
▁plenty	-6846
anne	-6847
keken	-6848
ogra	-6849
▁yesterday	-6850
ledge	-6851
62	-6852
▁对不对	-6853
cel	-6854
▁tax	-6855
▁firm	-6856
▁verwacht	-6857
生的	-6858
,0	-6859
件事	-6860
▁maakten	-6861
▁书	-6862
win	-6863
立刻	-6864
▁opport	-6865
▁La	-6866
▁kra	-6867
的影响	-6868
▁employ	-6869
▁gespeeld	-6870
▁mum	-6871
▁头	-6872
▁hadn	-6873
▁Alleen	-6874
加入	-6875
▁tie	-6876
▁bran	-6877
▁recogn	-6878
▁schrift	-6879
▁jongeren	-6880
nu	-6881
▁fijn	-6882
▁harm	-6883
▁peace	-6884
▁shoulder	-6885
项是	-6886
中国的	-6887
▁kab	-6888
aming	-6889
▁ears	-6890
▁slaap	-6891
▁spread	-6892
,[	-6893
▁Engels	-6894
▁kitchen	-6895
▁哦哦	-6896
▁Joost	-6897
两只	-6898
roep	-6899
▁arch	-6900
▁supper	-6901
▁playing	-6902
▁conclus	-6903
居然	-6904
aft	-6905
▁impr	-6906
▁press	-6907
▁uitgeb	-6908
仔细	-6909
▁Ru	-6910
▁escape	-6911
▁Isra	-6912
▁talked	-6913
▁bak	-6914
ellig	-6915
▁north	-6916
▁bedrijven	-6917
一个小	-6918
▁buik	-6919
▁goud	-6920
cellen	-6921
▁character	-6922
▁Sw	-6923
▁cm	-6924
ends	-6925
AG	-6926
▁睡觉	-6927
rop	-6928
gemeen	-6929
训练	-6930
engte	-6931
▁Bo	-6932
2-	-6933
▁ways	-6934
eeuwen	-6935
▁procent	-6936
:20	-6937
▁Lat	-6938
▁rapid	-6939
▁vissen	-6940
范围	-6941
▁Ken	-6942
ompan	-6943
孩子们	-6944
stellen	-6945
▁soul	-6946
变成了	-6947
reet	-6948
建立	-6949
漂亮的	-6950
▁gol	-6951
▁iss	-6952
▁地	-6953
跑到	-6954
▁Ja	-6955
▁loop	-6956
▁带	-6957
▁XX	-6958
▁Maria	-6959
▁verhalen	-6960
▁6.	-6961
▁alarm	-6962
aura	-6963
▁Look	-6964
aliteit	-6965
▁picture	-6966
之一	-6967
▁row	-6968
▁opportun	-6969
▁题目	-6970
▁Land	-6971
▁pagina	-6972
▁bread	-6973
▁reacties	-6974
面包	-6975
iste	-6976
adem	-6977
下次	-6978
▁proceed	-6979
平均	-6980
▁Kn	-6981
▁Gesch	-6982
▁gewonnen	-6983
▁weren	-6984
在了	-6985
▁future	-6986
组成	-6987
▁确实	-6988
▁carefully	-6989
oph	-6990
的生活	-6991
▁hoorde	-6992
动的	-6993
▁straf	-6994
bus	-6995
▁Twee	-6996
▁suit	-6997
▁strand	-6998
▁kam	-6999
▁vreem	-7000
▁houses	-7001
▁complet	-7002
▁unc	-7003
▁februari	-7004
▁Bron	-7005
▁bijzonder	-7006
▁control	-7007
vinc	-7008
▁hurry	-7009
▁snelheid	-7010
力量	-7011
▁hao	-7012
▁slechts	-7013
▁mol	-7014
▁trekt	-7015
21	-7016
}+\	-7017
▁阿姨	-7018
▁Des	-7019
▁Pal	-7020
▁gram	-7021
▁raam	-7022
▁schreef	-7023
▁seat	-7024
▁finally	-7025
体积	-7026
让他	-7027
月二十	-7028
谢谢你	-7029
▁dread	-7030
▁vlees	-7031
Of	-7032
工程	-7033
▁animals	-7034
▁Old	-7035
▁filmpje	-7036
erve	-7037
do	-7038
得很	-7039
ouwd	-7040
▁Sil	-7041
▁huidige	-7042
ted	-7043
ample	-7044
▁note	-7045
▁noise	-7046
发挥	-7047
rat	-7048
▁koud	-7049
▁silence	-7050
介绍	-7051
好朋友	-7052
pens	-7053
▁bloody	-7054
oured	-7055
▁kleding	-7056
▁uncle	-7057
▁诶	-7058
门口	-7059
7-1	-7060
vall	-7061
▁west	-7062
▁lips	-7063
gelegd	-7064
▁ineens	-7065
▁See	-7066
▁Vul	-7067
▁level	-7068
▁stoppen	-7069
电脑	-7070
▁vliegen	-7071
▁Roos	-7072
▁actie	-7073
▁fifteen	-7074
.,	-7075
,-	-7076
kle	-7077
▁asleep	-7078
氧气	-7079
▁Noor	-7080
▁verschillen	-7081
▁individ	-7082
优秀	-7083
相对	-7084
▁straks	-7085
Be	-7086
▁cabin	-7087
▁Grieken	-7088
寻找	-7089
▁2010	-7090
含有	-7091
▁CD	-7092
oude	-7093
▁shel	-7094
▁Holland	-7095
爸爸妈妈	-7096
ouders	-7097
了一下	-7098
》,	-7099
这儿	-7100
maat	-7101
ipp	-7102
▁Nic	-7103
▁desp	-7104
▁droog	-7105
▁situatie	-7106
▁hierdoor	-7107
只见	-7108
abeth	-7109
▁drop	-7110
▁various	-7111
▁gebeurde	-7112
▁Ts	-7113
▁krit	-7114
▁cultuur	-7115
""	-7116
▁dikke	-7117
▁onderwijs	-7118
方便	-7119
▁dak	-7120
9-1	-7121
▁regio	-7122
▁wacht	-7123
▁somewhat	-7124
▁tab	-7125
▁2020	-7126
▁stom	-7127
▁每	-7128
zijde	-7129
危险	-7130
得了	-7131
无论	-7132
▁Az	-7133
▁aandacht	-7134
发出	-7135
▁觉得	-7136
▁mountain	-7137
▁bescherm	-7138
▁大家	-7139
▁choc	-7140
▁Republiek	-7141
的吗	-7142
▁Nat	-7143
资讯	-7144
eds	-7145
▁bord	-7146
▁contact	-7147
ael	-7148
bit	-7149
staat	-7150
}}=	-7151
{4	-7152
bar	-7153
ruim	-7154
▁reck	-7155
▁grat	-7156
▁试题	-7157
▁fairly	-7158
习惯	-7159
绿色	-7160
ads	-7161
▁pocket	-7162
▁pulled	-7163
▁parents	-7164
▁landbouw	-7165
edstrijden	-7166
▁blauw	-7167
精彩	-7168
▁depart	-7169
蜗牛	-7170
onel	-7171
arken	-7172
▁dogs	-7173
aa	-7174
eph	-7175
aardig	-7176
mol	-7177
▁acqu	-7178
▁lees	-7179
▁amount	-7180
坏了	-7181
▁allow	-7182
▁jongetje	-7183
动了	-7184
的心	-7185
ationaal	-7186
经历	-7187
▁picked	-7188
▁weekend	-7189
不敢	-7190
▁据	-7191
你就	-7192
你要	-7193
超级	-7194
Hoe	-7195
wil	-7196
下降	-7197
▁Haag	-7198
▁试题信息	-7199
▁Links	-7200
{5	-7201
一家	-7202
难道	-7203
Where	-7204
▁toeg	-7205
▁spend	-7206
▁histor	-7207
▁probeert	-7208
8.	-7209
▁wished	-7210
小朋友	-7211
alpha	-7212
传统	-7213
▁walking	-7214
▁倒	-7215
▁Vaak	-7216
▁熊	-7217
past	-7218
▁liber	-7219
三角	-7220
▁vlag	-7221
others	-7222
皇帝	-7223
▁awful	-7224
舒服	-7225
资金	-7226
▁doos	-7227
▁gevoel	-7228
看到了	-7229
▁waaronder	-7230
道理	-7231
王子	-7232
▁begrij	-7233
▁schrijft	-7234
▁disappear	-7235
▁iedere	-7236
}{3	-7237
▁bloemen	-7238
▁appl	-7239
▁Thomas	-7240
▁bor	-7241
▁verover	-7242
ests	-7243
▁Park	-7244
▁grafiek	-7245
还不	-7246
8$$	-7247
▁gotta	-7248
是啊	-7249
agram	-7250
gemaakt	-7251
OE	-7252
▁glim	-7253
▁cop	-7254
▁gedeelte	-7255
面的	-7256
▁当然	-7257
zhei	-7258
▁Because	-7259
▁跳	-7260
▁高	-7261
▁颜色	-7262
▁educ	-7263
▁avond	-7264
▁introdu	-7265
乌鸦	-7266
▁ko	-7267
▁ongeluk	-7268
▁Fin	-7269
▁overal	-7270
▁这些	-7271
halen	-7272
roken	-7273
▁addr	-7274
actie	-7275
星期	-7276
▁explained	-7277
boven	-7278
dieren	-7279
什么的	-7280
▁新	-7281
teken	-7282
▁huilen	-7283
▁staart	-7284
鸭子	-7285
▁这是	-7286
▁oppervl	-7287
生日	-7288
▁sav	-7289
teren	-7290
蘑菇	-7291
▁wolf	-7292
look	-7293
▁voet	-7294
▁prote	-7295
▁gebeuren	-7296
怎样	-7297
gesteld	-7298
ielen	-7299
▁Alice	-7300
▁cheek	-7301
AY	-7302
尤其	-7303
葡萄	-7304
▁heads	-7305
bon	-7306
ague	-7307
▁takes	-7308
▁closed	-7309
urday	-7310
▁perm	-7311
iaanse	-7312
▁deden	-7313
那边	-7314
世界上	-7315
▁edge	-7316
▁31	-7317
▁gebeurten	-7318
▁vet	-7319
▁period	-7320
▁(14	-7321
明显	-7322
的主要	-7323
irst	-7324
▁(20	-7325
▁brave	-7326
出一	-7327
蛋白	-7328
ogel	-7329
▁hole	-7330
▁battle	-7331
▁totale	-7332
▁egg	-7333
essor	-7334
▁engine	-7335
天上	-7336
▁gemiddelde	-7337
Af	-7338
▁WE	-7339
首先	-7340
asure	-7341
▁gate	-7342
▁simply	-7343
▁moon	-7344
▁someone	-7345
▁Tex	-7346
heids	-7347
Dan	-7348
volutie	-7349
▁holding	-7350
▁vent	-7351
▁猪	-7352
恢复	-7353
原来是	-7354
形式	-7355
看的	-7356
▁batter	-7357
lang	-7358
▁Zee	-7359
▁kids	-7360
▁cir	-7361
▁youth	-7362
四个	-7363
NBA	-7364
▁Mac	-7365
▁Mor	-7366
似的	-7367
数字	-7368
hem	-7369
▁burg	-7370
按照	-7371
mogen	-7372
▁HE	-7373
妈妈说	-7374
▁immediately	-7375
▁noord	-7376
▁older	-7377
▁bacter	-7378
▁noticed	-7379
mother	-7380
uel	-7381
matig	-7382
普通	-7383
还没有	-7384
▁ride	-7385
▁bell	-7386
▁myster	-7387
叔叔	-7388
▁Kenn	-7389
ulf	-7390
现在的	-7391
革命	-7392
▁voorbij	-7393
▁我的	-7394
▁verband	-7395
心想	-7396
▁promised	-7397
选手	-7398
they	-7399
▁Sal	-7400
▁terms	-7401
未来	-7402
meer	-7403
▁blik	-7404
voeren	-7405
▁parlement	-7406
iend	-7407
▁Griek	-7408
▁Sarah	-7409
▁ontstond	-7410
▁volwassen	-7411
\%	-7412
▁approach	-7413
不错的	-7414
▁occup	-7415
sluit	-7416
▁major	-7417
▁Anna	-7418
Ze	-7419
▁睡	-7420
四十	-7421
等于	-7422
▁guns	-7423
oegd	-7424
视频	-7425
一下子	-7426
▁Had	-7427
▁toren	-7428
she	-7429
kr	-7430
树叶	-7431
sit	-7432
真的很	-7433
▁smoke	-7434
▁leek	-7435
▁vorige	-7436
也可以	-7437
▁trok	-7438
^2	-7439
我也是	-7440
▁artikel	-7441
▁判断	-7442
▁Wij	-7443
网球	-7444
gew	-7445
▁lake	-7446
▁HET	-7447
▁pun	-7448
▁adem	-7449
▁故答案为	-7450
以来	-7451
需求	-7452
▁Hall	-7453
拿着	-7454
的最	-7455
▁Ha	-7456
▁孩儿	-7457
▁winnen	-7458
▁kleiner	-7459
▁Oranje	-7460
从来	-7461
ita	-7462
izenden	-7463
▁rot	-7464
▁kunsten	-7465
▁restaur	-7466
iana	-7467
ousin	-7468
▁instrument	-7469
▁daarmee	-7470
ju	-7471
rukt	-7472
▁enth	-7473
▁没错	-7474
ermen	-7475
▁2019	-7476
▁inse	-7477
▁remained	-7478
aris	-7479
小狗	-7480
▁viol	-7481
▁angry	-7482
▁purpose	-7483
▁companion	-7484
我和	-7485
len	-7486
▁behand	-7487
▁daarvan	-7488
kte	-7489
GRANDFATHER	-7490
还会	-7491
▁hoek	-7492
▁married	-7493
值得	-7494
essen	-7495
ission	-7496
▁ladies	-7497
描述	-7498
▁vaker	-7499
▁latter	-7500
▁needed	-7501
cer	-7502
估计	-7503
才是	-7504
物理	-7505
)\	-7506
▁nose	-7507
不一样	-7508
▁Saturday	-7509
点点	-7510
'''	-7511
伤心	-7512
蛋糕	-7513
6-1	-7514
▁repeated	-7515
地问	-7516
cut	-7517
las	-7518
▁geef	-7519
受伤	-7520
数量	-7521
中医	-7522
污染	-7523
起来了	-7524
说着	-7525
▁Ir	-7526
leven	-7527
▁flat	-7528
▁===	-7529
▁Sint	-7530
begin	-7531
▁normaal	-7532
▁speaking	-7533
接触	-7534
▁flink	-7535
▁Richard	-7536
▁Romeinse	-7537
▁richting	-7538
▁program	-7539
▁training	-7540
ral	-7541
▁Bet	-7542
▁Lang	-7543
atieve	-7544
▁stories	-7545
▁Pep	-7546
CO	-7547
▁需要	-7548
▁Midd	-7549
是吧	-7550
$$2$$	-7551
▁Koning	-7552
▁played	-7553
▁vessel	-7554
ida	-7555
ère	-7556
▁gesproken	-7557
bi	-7558
▁leaves	-7559
ugen	-7560
▁sprake	-7561
▁frightened	-7562
▁hell	-7563
▁Partij	-7564
头上	-7565
aaf	-7566
nis	-7567
小松鼠	-7568
▁legt	-7569
rijving	-7570
boy	-7571
▁Franc	-7572
iteindelijk	-7573
ureau	-7574
▁hosp	-7575
▁defin	-7576
▁Verenigd	-7577
▁coll	-7578
▁Great	-7579
▁yours	-7580
③④	-7581
▁fot	-7582
▁lose	-7583
▁mate	-7584
▁suiker	-7585
ini	-7586
▁und	-7587
▁travel	-7588
▁Prins	-7589
▁ontdekt	-7590
programma	-7591
eech	-7592
▁South	-7593
rijzen	-7594
▁broad	-7595
开放	-7596
▁Peg	-7597
rische	-7598
▁discovered	-7599
很久	-7600
财经	-7601
2-1	-7602
▁Sur	-7603
▁organ	-7604
ello	-7605
▁shoot	-7606
▁stock	-7607
太太	-7608
▁morgen	-7609
▁Perhaps	-7610
hi	-7611
不容易	-7612
este	-7613
▁Afrika	-7614
atius	-7615
▁films	-7616
▁volgt	-7617
▁zaten	-7618
▁verspre	-7619
周期	-7620
工业	-7621
▁gall	-7622
可能会	-7623
人都	-7624
夏天	-7625
读书	-7626
▁yellow	-7627
▁perform	-7628
准确	-7629
ustrie	-7630
▁bloem	-7631
▁queer	-7632
▁neither	-7633
▁difference	-7634
的新闻	-7635
▁dok	-7636
▁Hend	-7637
werking	-7638
▁prepared	-7639
ety	-7640
▁purs	-7641
妻子	-7642
ellingen	-7643
▁aunt	-7644
▁assist	-7645
▁plekken	-7646
▁Win	-7647
▁personen	-7648
▁remain	-7649
▁verdeeld	-7650
zichtig	-7651
认真	-7652
icro	-7653
ilde	-7654
挺好的	-7655
middels	-7656
说不	-7657
park	-7658
▁strugg	-7659
▁veranderen	-7660
ibr	-7661
pic	-7662
▁geldt	-7663
▁haalt	-7664
小姐	-7665
美的	-7666
▁oef	-7667
九年	-7668
英雄	-7669
sey	-7670
▁mel	-7671
cd	-7672
动作	-7673
bing	-7674
大树	-7675
▁serious	-7676
▁volgorde	-7677
▁experience	-7678
ky	-7679
例如	-7680
{3}	-7681
▁GE	-7682
比如说	-7683
▁beat	-7684
病毒	-7685
Euro	-7686
oved	-7687
▁publiek	-7688
▁与	-7689
▁Lady	-7690
▁symb	-7691
▁quietly	-7692
▁langzaam	-7693
的手	-7694
uct	-7695
还可以	-7696
▁example	-7697
hao	-7698
▁burst	-7699
plant	-7700
▁model	-7701
▁offer	-7702
▁hangt	-7703
▁gevaarlijk	-7704
蜘蛛	-7705
▁Daardoor	-7706
生成	-7707
▁speelde	-7708
▁即	-7709
我感觉	-7710
▁Napole	-7711
▁klinkt	-7712
建议	-7713
▁waited	-7714
吓得	-7715
oft	-7716
▁Mat	-7717
▁moving	-7718
帽子	-7719
空间	-7720
而是	-7721
想着	-7722
ula	-7723
小兔子	-7724
.]	-7725
rein	-7726
▁Doe	-7727
空中	-7728
elsel	-7729
▁zhei	-7730
鸡蛋	-7731
amera	-7732
▁indust	-7733
▁soldiers	-7734
▁oorspronk	-7735
一千	-7736
曾经	-7737
▁boats	-7738
▁hungry	-7739
▁Pers	-7740
▁gauw	-7741
▁needs	-7742
▁请	-7743
ims	-7744
itten	-7745
▁soldaten	-7746
ji	-7747
面对	-7748
机构	-7749
roat	-7750
▁instant	-7751
▁(3	-7752
▁nobody	-7753
制造	-7754
资本	-7755
▁City	-7756
▁economische	-7757
你在	-7758
upp	-7759
▁pracht	-7760
orten	-7761
的发展	-7762
名的	-7763
一定会	-7764
outs	-7765
▁inkomen	-7766
ammer	-7767
▁markt	-7768
eet	-7769
基金	-7770
Unie	-7771
▁feit	-7772
机器	-7773
▁bood	-7774
▁wegen	-7775
▁besluit	-7776
出门	-7777
阶段	-7778
}^\	-7779
▁也是	-7780
▁Serv	-7781
是有	-7782
是由	-7783
▁Gal	-7784
▁Kle	-7785
▁manieren	-7786
重新	-7787
▁Hong	-7788
▁leest	-7789
▁worst	-7790
▁draait	-7791
到处	-7792
iev	-7793
重要的	-7794
▁XII	-7795
打球	-7796
答应	-7797
fab	-7798
itions	-7799
gemeester	-7800
▁Unie	-7801
▁vracht	-7802
最大的	-7803
躺在	-7804
社会主义	-7805
▁animal	-7806
▁hoogste	-7807
▁honden	-7808
着急	-7809
elijkheid	-7810
▁Gar	-7811
▁impro	-7812
▁narrow	-7813
ios	-7814
▁fond	-7815
▁beden	-7816
▁besloot	-7817
▁economie	-7818
za	-7819
多么	-7820
OOR	-7821
▁sig	-7822
左右	-7823
uurd	-7824
ui	-7825
这么多	-7826
Die	-7827
▁35	-7828
regel	-7829
▁crit	-7830
vatting	-7831
树林	-7832
punten	-7833
▁stream	-7834
事件	-7835
调整	-7836
▁Vand	-7837
elta	-7838
▁mem	-7839
▁uitspraak	-7840
要去	-7841
nemers	-7842
吸收	-7843
度的	-7844
西安	-7845
ira	-7846
▁Wor	-7847
thern	-7848
▁worry	-7849
▁reading	-7850
▁zuurstof	-7851
乒乓	-7852
周围	-7853
naam	-7854
namelijk	-7855
从而	-7856
▁beer	-7857
▁scarcely	-7858
利于	-7859
▁zingen	-7860
作者	-7861
玩儿	-7862
▁Eén	-7863
▁gewone	-7864
▁帮	-7865
▁fietsen	-7866
gress	-7867
▁Sus	-7868
▁motion	-7869
▁spreken	-7870
▁honest	-7871
▁blok	-7872
用了	-7873
智能	-7874
物的	-7875
▁kill	-7876
gesloten	-7877
中间	-7878
▁Eliz	-7879
▁schu	-7880
有时候	-7881
▁betekenis	-7882
▁hasn	-7883
▁regular	-7884
▁7.	-7885
▁gebouwen	-7886
的高	-7887
第一个	-7888
▁Chinese	-7889
岩石	-7890
▁bleek	-7891
具体	-7892
头发	-7893
好啊	-7894
▁Les	-7895
▁south	-7896
han	-7897
▁rac	-7898
▁2014	-7899
▁colour	-7900
一把	-7901
故选	-7902
▁scene	-7903
23	-7904
持续	-7905
laat	-7906
▁Louis	-7907
一切	-7908
交通	-7909
▁coat	-7910
▁Russische	-7911
后的	-7912
很大	-7913
eil	-7914
▁qual	-7915
▁Laura	-7916
▁keeping	-7917
无聊	-7918
确定	-7919
一定是	-7920
oepen	-7921
▁kern	-7922
▁nadat	-7923
▁好像	-7924
▁trav	-7925
▁好吧	-7926
ules	-7927
一口	-7928
▁invol	-7929
▁Spaanse	-7930
▁aanwezig	-7931
逐渐	-7932
$$3$$	-7933
rucht	-7934
▁leiden	-7935
▁Paulus	-7936
▁circum	-7937
▁Arn	-7938
▁kwart	-7939
▁七	-7940
女排	-7941
平台	-7942
odewijk	-7943
boom	-7944
▁ker	-7945
hington	-7946
的老	-7947
▁orders	-7948
作业	-7949
的一项是	-7950
▁afval	-7951
▁shad	-7952
itty	-7953
umph	-7954
▁gezet	-7955
▁growing	-7956
让你	-7957
那儿	-7958
▁Jos	-7959
100	-7960
aled	-7961
▁herken	-7962
▁college	-7963
▁ziekenhuis	-7964
▁五	-7965
tes	-7966
ban	-7967
rix	-7968
▁Charles	-7969
营养	-7970
调查	-7971
oms	-7972
stal	-7973
(\	-7974
▁白	-7975
的呢	-7976
▁uw	-7977
▁Napoleon	-7978
bak	-7979
▁ON	-7980
▁Wit	-7981
▁illustr	-7982
▁probeerde	-7983
enny	-7984
▁determ	-7985
▁Lodewijk	-7986
rem	-7987
▁voelt	-7988
▁forgotten	-7989
作品	-7990
我还是	-7991
erij	-7992
锻炼	-7993
降低	-7994
ounced	-7995
▁lines	-7996
▁council	-7997
▁pair	-7998
▁Portug	-7999
可怜	-8000
过的	-8001
▁Queen	-8002
十八	-8003
iefd	-8004
▁arbeid	-8005
引起	-8006
玉米	-8007
▁sell	-8008
▁pieces	-8009
entuin	-8010
▁offered	-8011
▁别	-8012
Here	-8013
chtend	-8014
▁gelukkig	-8015
▁2017	-8016
▁leeg	-8017
▁media	-8018
▁opgericht	-8019
.②	-8020
越大	-8021
▁(7	-8022
▁plastic	-8023
▁ah	-8024
你怎么	-8025
▁Rad	-8026
▁draaien	-8027
证明	-8028
▁finale	-8029
▁Iedereen	-8030
▁accord	-8031
▁fashion	-8032
▁grown	-8033
▁fragment	-8034
▁hoef	-8035
▁zwart	-8036
▁favour	-8037
▁excited	-8038
河马	-8039
的重要	-8040
Good	-8041
考试	-8042
▁Stephanus	-8043
kop	-8044
▁--	-8045
▁TO	-8046
▁hast	-8047
▁productie	-8048
▁veilig	-8049
战争	-8050
▁rang	-8051
▁positie	-8052
▁evidently	-8053
▁recl	-8054
oordat	-8055
▁opportunity	-8056
▁Lee	-8057
▁hut	-8058
▁kies	-8059
▁kerst	-8060
▁speciaal	-8061
▁prop	-8062
▁rustig	-8063
放大	-8064
").	-8065
▁希望	-8066
isse	-8067
ieven	-8068
▁smiling	-8069
▁Spe	-8070
▁Indians	-8071
▁expression	-8072
▁Fa	-8073
ekend	-8074
ushing	-8075
▁Naast	-8076
▁store	-8077
▁dressed	-8078
Nou	-8079
▁interview	-8080
收入	-8081
gehe	-8082
▁sele	-8083
▁daarvoor	-8084
感谢	-8085
▁vloe	-8086
▁bestond	-8087
OH	-8088
▁Arm	-8089
▁opin	-8090
▁Angel	-8091
▁inhoud	-8092
中央	-8093
效果	-8094
▁Nog	-8095
也不知道	-8096
▁action	-8097
▁milieu	-8098
▁anyone	-8099
家庭	-8100
▁silent	-8101
▁bull	-8102
▁toege	-8103
几年	-8104
ijnt	-8105
重力	-8106
)$$,	-8107
erlijk	-8108
▁William	-8109
32	-8110
izend	-8111
▁join	-8112
的一些	-8113
geld	-8114
▁Albert	-8115
就是说	-8116
utenant	-8117
差不多	-8118
▁Ooh	-8119
▁enorme	-8120
FT	-8121
。(	-8122
曲线	-8123
amma	-8124
▁organisatie	-8125
cont	-8126
▁steun	-8127
规模	-8128
uke	-8129
▁aangegeven	-8130
▁IJs	-8131
▁wakker	-8132
▁将	-8133
▁Co	-8134
▁回	-8135
英国	-8136
entje	-8137
▁kent	-8138
}_{2}	-8139
▁Footnote	-8140
劳动	-8141
叫做	-8142
相等	-8143
ilar	-8144
▁bodem	-8145
▁stelt	-8146
▁schrik	-8147
▁Washington	-8148
并且	-8149
把我	-8150
lag	-8151
set	-8152
{}^\	-8153
▁Vooral	-8154
培养	-8155
此时	-8156
▁rope	-8157
▁recent	-8158
反映	-8159
zed	-8160
▁dragen	-8161
来到了	-8162
▁Eerst	-8163
0,	-8164
红的	-8165
妈妈的	-8166
类型	-8167
▁bon	-8168
▁wra	-8169
▁vlieg	-8170
▁wrote	-8171
Amerika	-8172
旅游	-8173
▁Your	-8174
roeger	-8175
▁chang	-8176
69	-8177
规定	-8178
▁repres	-8179
▁simple	-8180
果然	-8181
▁tv	-8182
▁Achter	-8183
▁zwemmen	-8184
sem	-8185
icus	-8186
shire	-8187
▁spite	-8188
zil	-8189
▁其中	-8190
▁Somet	-8191
▁helped	-8192
▁Hendrik	-8193
▁excitement	-8194
目的	-8195
▁groen	-8196
能源	-8197
▁langu	-8198
▁Martin	-8199
▁gedrag	-8200
▁careful	-8201
pop	-8202
▁我也是	-8203
▁Rose	-8204
▁handel	-8205
▁market	-8206
▁settled	-8207
记录	-8208
▁nurse	-8209
On	-8210
提升	-8211
▁iron	-8212
渐渐	-8213
称为	-8214
Did	-8215
▁ouder	-8216
国家的	-8217
ennie	-8218
▁vict	-8219
ffic	-8220
sequ	-8221
艺术	-8222
就这样	-8223
▁tran	-8224
▁allebei	-8225
▁benef	-8226
-7	-8227
▁唉	-8228
气球	-8229
ardon	-8230
▁birth	-8231
▁France	-8232
▁blauwe	-8233
操作	-8234
▁(4	-8235
▁perfectly	-8236
ipper	-8237
▁rate	-8238
ossible	-8239
▁Mel	-8240
▁Boven	-8241
▁share	-8242
ums	-8243
61	-8244
电路	-8245
tering	-8246
▁appearance	-8247
ls	-8248
干净	-8249
是不	-8250
beer	-8251
ienen	-8252
▁Olympische	-8253
ays	-8254
aval	-8255
▁2018	-8256
▁Gron	-8257
▁tomorrow	-8258
▁disappoint	-8259
▁glance	-8260
▁obviously	-8261
▁concentr	-8262
▁Jon	-8263
ollen	-8264
不是很	-8265
rede	-8266
▁Kun	-8267
}^{2}	-8268
▁names	-8269
▁natural	-8270
▁national	-8271
▁ruzie	-8272
▁welcome	-8273
▁bracht	-8274
▁shouldn	-8275
▁schud	-8276
意识	-8277
▁ident	-8278
上海	-8279
火车	-8280
▁8.	-8281
ijns	-8282
▁zout	-8283
▁stappen	-8284
天下	-8285
dro	-8286
我现在	-8287
estig	-8288
▁space	-8289
▁prevent	-8290
温暖	-8291
见到	-8292
兴奋	-8293
cdots	-8294
tri	-8295
▁Natuur	-8296
法律	-8297
otion	-8298
▁centrum	-8299
▁afterwards	-8300
常常	-8301
植物的	-8302
▁Pap	-8303
▁Peggy	-8304
wie	-8305
▁最近	-8306
▁sen	-8307
小狐狸	-8308
ateg	-8309
▁bewer	-8310
很大的	-8311
▁mile	-8312
▁Carol	-8313
▁sociale	-8314
pak	-8315
▁democr	-8316
▁opgave	-8317
la	-8318
的主	-8319
aud	-8320
▁已知	-8321
ampen	-8322
▁verte	-8323
▁gathered	-8324
▁generally	-8325
▁2015	-8326
联系	-8327
worth	-8328
▁baan	-8329
▁broek	-8330
课标	-8331
▁blind	-8332
▁separ	-8333
erie	-8334
▁Nee	-8335
财经资讯	-8336
网上	-8337
▁Bro	-8338
▁vac	-8339
▁plot	-8340
▁webs	-8341
▁eilanden	-8342
▁gisteren	-8343
措施	-8344
▁aud	-8345
ether	-8346
▁Zoek	-8347
了我	-8348
rad	-8349
▁vern	-8350
▁sounds	-8351
▁strijd	-8352
▁twintig	-8353
ya	-8354
▁Elke	-8355
ias	-8356
▁Israël	-8357
▁voldoen	-8358
▁地方	-8359
▁fluister	-8360
-17	-8361
▁Bonif	-8362
▁Kinderen	-8363
alie	-8364
▁Naar	-8365
▁trip	-8366
几乎	-8367
责任	-8368
▁(2)	-8369
目标	-8370
的那种	-8371
急忙	-8372
alis	-8373
▁page	-8374
积极	-8375
sters	-8376
跟我	-8377
▁sneller	-8378
uch	-8379
▁chem	-8380
▁slim	-8381
name	-8382
▁typ	-8383
▁overst	-8384
▁princip	-8385
金融	-8386
合理	-8387
增大	-8388
数列	-8389
二氧化	-8390
oopp	-8391
▁pret	-8392
▁rail	-8393
▁dorpen	-8394
▁wetenschapp	-8395
不在	-8396
▁cott	-8397
▁strom	-8398
▁oorzaak	-8399
----"	-8400
▁observed	-8401
下一	-8402
边的	-8403
nst	-8404
▁EU	-8405
aide	-8406
▁buur	-8407
▁While	-8408
inct	-8409
▁ourselves	-8410
iem	-8411
3,	-8412
身子	-8413
ites	-8414
ukte	-8415
▁Bear	-8416
▁Const	-8417
▁Bonifatius	-8418
困难	-8419
婆婆	-8420
cient	-8421
▁refer	-8422
▁fier	-8423
▁fallen	-8424
百姓	-8425
▁Andere	-8426
▁beelden	-8427
中华	-8428
产业	-8429
▁JE	-8430
etched	-8431
▁comment	-8432
带来	-8433
ises	-8434
▁bol	-8435
iegel	-8436
▁vari	-8437
▁tanden	-8438
创新	-8439
▁Michael	-8440
▁holiday	-8441
▁overeen	-8442
waarde	-8443
▁genomen	-8444
ream	-8445
▁thoughts	-8446
做了	-8447
转化	-8448
via	-8449
▁Jeff	-8450
▁faint	-8451
▁besloten	-8452
促进	-8453
▁lijken	-8454
成立	-8455
▁Ca	-8456
▁faces	-8457
▁才	-8458
国足	-8459
说道	-8460
▁summ	-8461
最终	-8462
▁gevolgen	-8463
kast	-8464
ires	-8465
▁Roy	-8466
▁kennen	-8467
hy	-8468
▁NO	-8469
▁levens	-8470
电荷	-8471
算是	-8472
▁后来	-8473
▁嗯呢	-8474
▁Syl	-8475
▁2011	-8476
▁80	-8477
你可以	-8478
want	-8479
▁saved	-8480
▁tekenen	-8481
▁fout	-8482
▁Mexico	-8483
并没有	-8484
的问题	-8485
RE	-8486
▁Nicol	-8487
▁Klaas	-8488
▁tender	-8489
那是	-8490
useum	-8491
▁forest	-8492
▁afle	-8493
▁lots	-8494
ichter	-8495
▁vaste	-8496
更多的	-8497
ville	-8498
▁Stel	-8499
angers	-8500
▁nearer	-8501
▁history	-8502
现代	-8503
steen	-8504
▁charm	-8505
▁frequ	-8506
麻烦	-8507
tain	-8508
▁2012	-8509
▁2016	-8510
Who	-8511
▁Hug	-8512
▁size	-8513
▁zorgde	-8514
▁Council	-8515
▁listened	-8516
也要	-8517
土地	-8518
报告	-8519
▁sides	-8520
▁seventy	-8521
附近	-8522
▁pit	-8523
▁tiny	-8524
▁Aye	-8525
▁koop	-8526
▁schilderij	-8527
▁list	-8528
▁site	-8529
▁splend	-8530
池塘	-8531
▁dokter	-8532
schappij	-8533
▁promise	-8534
club	-8535
▁Neem	-8536
▁Father	-8537
▁kleren	-8538
▁willing	-8539
参与	-8540
▁symp	-8541
▁eentje	-8542
不及	-8543
发展的	-8544
让我们	-8545
▁trick	-8546
▁presently	-8547
aai	-8548
过去了	-8549
erden	-8550
orter	-8551
▁delic	-8552
▁pitch	-8553
世纪	-8554
▁occur	-8555
▁toest	-8556
▁General	-8557
zin	-8558
▁Nad	-8559
▁tight	-8560
▁imagine	-8561
月份	-8562
▁Urb	-8563
▁ordered	-8564
▁gemiddeld	-8565
送给	-8566
造成	-8567
▁exp	-8568
▁meal	-8569
▁wise	-8570
果实	-8571
▁surf	-8572
▁tegelijk	-8573
嘴里	-8574
规律	-8575
ulty	-8576
▁Verk	-8577
▁hate	-8578
▁reckon	-8579
PL	-8580
保证	-8581
cast	-8582
▁皮	-8583
长大	-8584
▁moderne	-8585
▁optreden	-8586
IET	-8587
avel	-8588
▁armen	-8589
▁XIII	-8590
把他	-8591
▁dik	-8592
▁elect	-8593
▁custom	-8594
▁non	-8595
theta	-8596
▁haalde	-8597
▁managed	-8598
ciety	-8599
while	-8600
▁时	-8601
▁Verder	-8602
▁advert	-8603
▁begrip	-8604
▁absolutely	-8605
现实	-8606
etten	-8607
▁lean	-8608
乒乓球	-8609
thur	-8610
▁schat	-8611
好吃	-8612
ederen	-8613
▁corn	-8614
了好	-8615
解释	-8616
▁asking	-8617
▁kenmerken	-8618
忘记	-8619
磁铁	-8620
eerden	-8621
▁erachter	-8622
外的	-8623
点的	-8624
▁上面	-8625
错误的	-8626
▁虽然	-8627
▁Canada	-8628
Ah	-8629
玩具	-8630
coh	-8631
新课标	-8632
plaatst	-8633
▁darkness	-8634
▁Polen	-8635
▁afford	-8636
▁onbe	-8637
▁paint	-8638
▁earnest	-8639
uits	-8640
见了	-8641
进来	-8642
随便	-8643
$$3	-8644
▁bene	-8645
▁rand	-8646
▁crimin	-8647
上一	-8648
▁喝	-8649
从小	-8650
女生	-8651
提出	-8652
数学	-8653
▁Ele	-8654
▁opzicht	-8655
mel	-8656
▁Adri	-8657
▁Christian	-8658
母鸡	-8659
eeland	-8660
▁spann	-8661
▁verdr	-8662
▁zanger	-8663
{{\	-8664
▁Their	-8665
▁vandaan	-8666
连忙	-8667
▁schepen	-8668
▁stranger	-8669
▁jeugd	-8670
▁wondered	-8671
▁impossible	-8672
rok	-8673
▁2008	-8674
▁claim	-8675
▁groene	-8676
▁lifted	-8677
的作用	-8678
▁Ser	-8679
opend	-8680
▁drug	-8681
▁empt	-8682
上来	-8683
睡着	-8684
ucking	-8685
▁omgeving	-8686
生存	-8687
▁chocol	-8688
的意思	-8689
▁Bram	-8690
▁Brazil	-8691
对方	-8692
▁Bru	-8693
▁Groot	-8694
▁hiervoor	-8695
▁huge	-8696
▁lunch	-8697
▁stier	-8698
▁Urbanus	-8699
▁knowledge	-8700
▁一起	-8701
issie	-8702
▁hong	-8703
古代	-8704
▁vergeten	-8705
大王	-8706
表面	-8707
▁voeren	-8708
▁discover	-8709
▁买	-8710
忘了	-8711
适应	-8712
▁是吗	-8713
月球	-8714
着小	-8715
bren	-8716
xide	-8717
▁paleis	-8718
ipt	-8719
rec	-8720
▁insp	-8721
▁geheim	-8722
创造	-8723
wan	-8724
▁problems	-8725
▁verboden	-8726
▁graden	-8727
▁surely	-8728
▁车	-8729
▁flying	-8730
▁knowing	-8731
▁该	-8732
ixtus	-8733
▁Three	-8734
▁demon	-8735
cohol	-8736
▁Jacob	-8737
▁considered	-8738
▁zware	-8739
▁Ni	-8740
▁kg	-8741
aalf	-8742
同学们	-8743
▁stir	-8744
▁route	-8745
▁seizoen	-8746
.①②	-8747
iar	-8748
{3}}	-8749
▁stev	-8750
▁pointed	-8751
▁cijfers	-8752
lec	-8753
回来了	-8754
▁lengte	-8755
▁stukken	-8756
上课	-8757
发现了	-8758
▁jas	-8759
▁2004	-8760
▁posit	-8761
▁verkopen	-8762
树枝	-8763
▁gegaan	-8764
iveau	-8765
▁geïn	-8766
rouwen	-8767
题干	-8768
▁种	-8769
用来	-8770
这部电影	-8771
▁finding	-8772
你不	-8773
▁believed	-8774
对了	-8775
程度	-8776
▁2005	-8777
boeken	-8778
▁eagerly	-8779
▁process	-8780
▁onderste	-8781
▁twice	-8782
▁下来	-8783
▁olie	-8784
纷纷	-8785
▁check	-8786
óó	-8787
很难	-8788
▁besp	-8789
的新	-8790
▁oblig	-8791
ijm	-8792
pad	-8793
▁loss	-8794
▁price	-8795
▁christen	-8796
▁BO	-8797
▁Scott	-8798
卫生	-8799
ena	-8800
uster	-8801
▁Before	-8802
▁Belgische	-8803
Br	-8804
▁2006	-8805
▁kritiek	-8806
▁communic	-8807
的情况	-8808
▁flew	-8809
▁attend	-8810
跑了	-8811
▁gei	-8812
▁meed	-8813
▁欢迎	-8814
stra	-8815
akers	-8816
▁circumst	-8817
可怕	-8818
性质	-8819
bele	-8820
▁richt	-8821
ca	-8822
▁见	-8823
绝对	-8824
bly	-8825
▁Cr	-8826
ittee	-8827
▁opgenomen	-8828
丰富	-8829
少年	-8830
床上	-8831
大灰狼	-8832
▁fancy	-8833
uded	-8834
▁erv	-8835
▁sterren	-8836
▁concerned	-8837
一听	-8838
另外	-8839
文学	-8840
orough	-8841
赛季	-8842
yle	-8843
我可以	-8844
▁deg	-8845
▁Hans	-8846
assing	-8847
ishment	-8848
牙齿	-8849
▁老师	-8850
有一次	-8851
▁caused	-8852
▁fighting	-8853
oura	-8854
▁tum	-8855
▁hesit	-8856
oegen	-8857
▁coast	-8858
▁zomaar	-8859
DE	-8860
▁设	-8861
▁mix	-8862
▁police	-8863
无关	-8864
职业	-8865
▁9.	-8866
一点儿	-8867
!!	-8868
ATI	-8869
ala	-8870
umber	-8871
▁pros	-8872
leqslant	-8873
▁OP	-8874
▁tap	-8875
▁stenen	-8876
\{	-8877
iles	-8878
▁188	-8879
▁study	-8880
▁higher	-8881
▁tegenstand	-8882
人物	-8883
▁carrying	-8884
▁writing	-8885
到的	-8886
uai	-8887
▁proef	-8888
▁beoord	-8889
▁veranderd	-8890
Er	-8891
ipl	-8892
▁3,	-8893
lopen	-8894
▁weight	-8895
▁behaald	-8896
rees	-8897
▁Kim	-8898
▁born	-8899
▁hero	-8900
father	-8901
▁demanded	-8902
mach	-8903
▁financ	-8904
▁tante	-8905
▁Romeinen	-8906
▁beweging	-8907
▁爬	-8908
队伍	-8909
▁App	-8910
ublic	-8911
▁furn	-8912
orence	-8913
▁Vroeger	-8914
魔法	-8915
boot	-8916
vious	-8917
▁bekendste	-8918
▁Ot	-8919
▁meat	-8920
▁behalen	-8921
▁verloren	-8922
▁determined	-8923
erc	-8924
▁inj	-8925
▁dare	-8926
▁beast	-8927
▁Gelukkig	-8928
▁greater	-8929
▁plaatjes	-8930
▁告诉	-8931
▁Jud	-8932
▁heaven	-8933
▁mentioned	-8934
也就	-8935
不久	-8936
遗传	-8937
▁Act	-8938
▁Tony	-8939
gevoegd	-8940
▁harder	-8941
不再	-8942
▁Del	-8943
▁oce	-8944
偷偷	-8945
的对	-8946
▁AB	-8947
eekt	-8948
yeah	-8949
▁joined	-8950
进一步	-8951
▁odd	-8952
▁suc	-8953
emand	-8954
▁Zelf	-8955
▁bother	-8956
▁Oekraïne	-8957
▁sac	-8958
▁staten	-8959
rië	-8960
bes	-8961
▁key	-8962
▁opposite	-8963
uf	-8964
▁Lot	-8965
▁stuur	-8966
▁tar	-8967
▁helpt	-8968
▁algemeen	-8969
apped	-8970
▁spoken	-8971
ns	-8972
▁teeth	-8973
直到	-8974
接下来	-8975
▁stage	-8976
▁bitter	-8977
羡慕	-8978
bye	-8979
▁schoenen	-8980
po	-8981
▁对于	-8982
oted	-8983
▁zagen	-8984
在一	-8985
▁VAN	-8986
pping	-8987
▁...-	-8988
▁Australië	-8989
没事	-8990
行的	-8991
▁puzz	-8992
▁Which	-8993
▁wander	-8994
我有	-8995
▁哈喽	-8996
vens	-8997
进步	-8998
vlie	-8999
发生了	-9000
dier	-9001
▁dub	-9002
▁blank	-9003
▁ast	-9004
58	-9005
千万	-9006
在这里	-9007
▁host	-9008
连续	-9009
也不是	-9010
▁succeed	-9011
从此	-9012
staan	-9013
▁veren	-9014
十三	-9015
▁enkel	-9016
Daar	-9017
▁thrown	-9018
▁pi	-9019
▁respons	-9020
最好的	-9021
▁America	-9022
heel	-9023
▁tun	-9024
▁你好呀	-9025
pol	-9026
▁lod	-9027
▁Anton	-9028
▁liever	-9029
利益	-9030
时的	-9031
▁eleven	-9032
底下	-9033
真实	-9034
eland	-9035
▁2009	-9036
▁surr	-9037
▁getekend	-9038
负责	-9039
▁Londen	-9040
▁kennis	-9041
▁remembered	-9042
幼儿	-9043
haven	-9044
▁base	-9045
▁ontb	-9046
▁dierentuin	-9047
毛毛	-9048
这就是	-9049
kaart	-9050
▁vrije	-9051
▁hangen	-9052
▁speech	-9053
▁volgen	-9054
▁windows	-9055
▁Florence	-9056
我会	-9057
▁influ	-9058
▁Street	-9059
精灵	-9060
▁git	-9061
▁earl	-9062
机械	-9063
igg	-9064
▁Pink	-9065
▁Turkije	-9066
任务	-9067
子上	-9068
ftig	-9069
▁Mond	-9070
▁coff	-9071
▁minim	-9072
oi	-9073
verb	-9074
▁drag	-9075
▁pens	-9076
▁zogen	-9077
ago	-9078
icken	-9079
iform	-9080
▁matters	-9081
回事	-9082
▁gives	-9083
频率	-9084
▁Dad	-9085
▁rijdt	-9086
▁jumped	-9087
gere	-9088
▁500	-9089
▁wal	-9090
二零一九年	-9091
▁Democr	-9092
xy	-9093
主意	-9094
嘿嘿	-9095
will	-9096
我先	-9097
▁using	-9098
并不是	-9099
▁红	-9100
河边	-9101
▁189	-9102
▁proved	-9103
él	-9104
全面	-9105
梦想	-9106
irty	-9107
▁cit	-9108
ption	-9109
▁diam	-9110
▁behal	-9111
chel	-9112
▁tur	-9113
三角形	-9114
也不会	-9115
▁taak	-9116
▁admir	-9117
▁shoes	-9118
▁express	-9119
仍然	-9120
Hol	-9121
小刺猬	-9122
When	-9123
irely	-9124
ondere	-9125
▁language	-9126
小孩	-9127
▁etc	-9128
▁rom	-9129
imburg	-9130
▁rushed	-9131
不上	-9132
hold	-9133
▁Cas	-9134
▁San	-9135
▁stepped	-9136
▁bereiken	-9137
▁satisfact	-9138
▁comfortable	-9139
▁papers	-9140
不动	-9141
othy	-9142
▁trail	-9143
=3	-9144
见过	-9145
▁我想	-9146
▁Air	-9147
zeker	-9148
▁beauty	-9149
derij	-9150
estijn	-9151
干什么	-9152
▁ler	-9153
▁Gord	-9154
▁named	-9155
我了	-9156
打的	-9157
aasd	-9158
▁thin	-9159
gent	-9160
▁Denk	-9161
▁Arthur	-9162
队的	-9163
▁tal	-9164
▁Jones	-9165
▁finish	-9166
www	-9167
▁Ruth	-9168
▁verteld	-9169
▁若	-9170
以上	-9171
所学	-9172
风险	-9173
zeg	-9174
seling	-9175
▁zaken	-9176
▁beschermen	-9177
望着	-9178
pakt	-9179
▁parts	-9180
▁rocks	-9181
早就	-9182
kunde	-9183
▁mede	-9184
ura	-9185
▁tijdje	-9186
梅西	-9187
小猴子	-9188
▁Huis	-9189
▁fault	-9190
了很多	-9191
dfrac	-9192
▁Once	-9193
▁Rond	-9194
磁场	-9195
licht	-9196
▁Maarten	-9197
▁difficulty	-9198
XXXX	-9199
zitter	-9200
▁shoulders	-9201
爱情	-9202
秋天	-9203
▁hospital	-9204
比例	-9205
▁keuze	-9206
▁bewegen	-9207
owing	-9208
▁indic	-9209
▁yards	-9210
一场	-9211
有趣	-9212
-{{	-9213
▁schade	-9214
没错	-9215
olle	-9216
▁哈哈哈哈	-9217
▁Groningen	-9218
行了	-9219
aamd	-9220
▁Mus	-9221
pected	-9222
▁points	-9223
lant	-9224
▁circus	-9225
▁sprang	-9226
emen	-9227
▁bab	-9228
▁ere	-9229
似乎	-9230
▁WK	-9231
▁Pen	-9232
▁Polly	-9233
推荐	-9234
看起来	-9235
▁honderd	-9236
▁几	-9237
▁耶	-9238
▁bud	-9239
▁fixed	-9240
achtige	-9241
▁rennen	-9242
▁drawing	-9243
▁Elizabeth	-9244
▁muis	-9245
▁deliver	-9246
verkiezingen	-9247
就说	-9248
相当	-9249
pjes	-9250
dienst	-9251
公公	-9252
神奇	-9253
▁Yet	-9254
▁breed	-9255
欧洲	-9256
oma	-9257
▁zil	-9258
▁gods	-9259
▁Griekse	-9260
▁volledig	-9261
pet	-9262
▁hog	-9263
▁nood	-9264
▁dienst	-9265
▁entirely	-9266
一样的	-9267
了下来	-9268
▁Tur	-9269
▁hide	-9270
▁fingers	-9271
}+	-9272
三百	-9273
有效	-9274
粉丝	-9275
igs	-9276
otland	-9277
▁vervangen	-9278
31	-9279
农民	-9280
▁yard	-9281
▁Friday	-9282
▁former	-9283
wacht	-9284
▁olif	-9285
plicht	-9286
anda	-9287
work	-9288
▁fant	-9289
▁lacht	-9290
十四	-9291
给我们	-9292
▁United	-9293
小时候	-9294
▁doc	-9295
▁jar	-9296
▁rele	-9297
抓住	-9298
现场	-9299
▁Cra	-9300
▁你知道	-9301
▁passing	-9302
▁toeristen	-9303
就有	-9304
是的	-9305
什么时候	-9306
加强	-9307
ano	-9308
laag	-9309
▁zette	-9310
eelt	-9311
▁ner	-9312
haald	-9313
▁desper	-9314
叙述	-9315
▁dim	-9316
stood	-9317
▁kaas	-9318
▁weak	-9319
xi	-9320
长颈鹿	-9321
▁VER	-9322
▁schuld	-9323
orp	-9324
▁Green	-9325
▁carriage	-9326
▁uitspraken	-9327
▁dust	-9328
▁leuke	-9329
▁Spelen	-9330
▁2013	-9331
▁stok	-9332
▁Kleur	-9333
▁Zwits	-9334
▁aston	-9335
▁pakte	-9336
▁vertelde	-9337
交易	-9338
人体	-9339
osaur	-9340
▁grave	-9341
▁groei	-9342
egen	-9343
ights	-9344
yr	-9345
证券	-9346
▁chi	-9347
▁ships	-9348
▁track	-9349
▁黄	-9350
圆的	-9351
定义	-9352
ify	-9353
那么多	-9354
ologische	-9355
伯伯	-9356
ionen	-9357
▁Donald	-9358
▁greatly	-9359
▁oppervlakte	-9360
勇敢	-9361
原理	-9362
善良	-9363
▁gh	-9364
了出来	-9365
看见了	-9366
▁2007	-9367
▁tand	-9368
▁verr	-9369
▁court	-9370
▁sheep	-9371
▁plannen	-9372
Fr	-9373
眼前	-9374
▁于是	-9375
ierd	-9376
▁sin	-9377
▁rooms	-9378
▁square	-9379
▁rapidly	-9380
▁district	-9381
一大	-9382
Are	-9383
ifle	-9384
▁luisteren	-9385
▁发生	-9386
ementen	-9387
▁nurs	-9388
治疗	-9389
fin	-9390
▁seconden	-9391
微信	-9392
还好	-9393
0$$	-9394
▁Rh	-9395
▁Rem	-9396
▁Rock	-9397
▁touw	-9398
cases	-9399
▁lever	-9400
等等	-9401
▁presence	-9402
他想	-9403
▁Art	-9404
▁Lie	-9405
下列说法	-9406
▁koolstof	-9407
▁谢谢	-9408
svorm	-9409
▁Would	-9410
▁talen	-9411
▁walls	-9412
▁alive	-9413
▁70	-9414
▁merk	-9415
▁plans	-9416
▁listening	-9417
▁阿	-9418
don	-9419
ature	-9420
▁Werk	-9421
geheten	-9422
47	-9423
isie	-9424
▁Hon	-9425
▁skin	-9426
▁butter	-9427
▁calm	-9428
也在	-9429
嘟嘟	-9430
最高	-9431
dle	-9432
不如	-9433
长度	-9434
oned	-9435
pot	-9436
asing	-9437
▁Bern	-9438
▁Still	-9439
▁beneath	-9440
智慧	-9441
和我	-9442
▁due	-9443
middag	-9444
▁camera	-9445
▁cousin	-9446
▁modern	-9447
▁voelde	-9448
▁possibly	-9449
▁becom	-9450
▁praat	-9451
▁refle	-9452
▁thorough	-9453
语言	-9454
的质量	-9455
▁fan	-9456
不好意思	-9457
▁此	-9458
当中	-9459
然而	-9460
aly	-9461
uele	-9462
triangle	-9463
To	-9464
好奇	-9465
▁BE	-9466
alley	-9467
▁double	-9468
▁voeten	-9469
▁gehaald	-9470
)$	-9471
▁safety	-9472
CAR	-9473
▁ijzer	-9474
打算	-9475
XXXXX	-9476
期间	-9477
邀请	-9478
with	-9479
▁slot	-9480
fortun	-9481
▁oudste	-9482
感情	-9483
明的	-9484
洞里	-9485
消失	-9486
记者	-9487
鳄鱼	-9488
力气	-9489
移动	-9490
辛苦	-9491
▁我看	-9492
aper	-9493
▁flag	-9494
▁sake	-9495
▁drawn	-9496
▁wanna	-9497
▁liedje	-9498
▁hierbij	-9499
也能	-9500
你有	-9501
在地	-9502
早晨	-9503
iti	-9504
leving	-9505
▁games	-9506
▁geheel	-9507
观点	-9508
的一种	-9509
▁oom	-9510
▁craft	-9511
together	-9512
▁directly	-9513
赶快	-9514
ipped	-9515
reeks	-9516
▁cel	-9517
▁slipped	-9518
▁zogeheten	-9519
至少	-9520
ora	-9521
▁Daan	-9522
63	-9523
来自	-9524
ero	-9525
▁respond	-9526
▁interrupt	-9527
▁【	-9528
业务	-9529
十六	-9530
民主	-9531
白的	-9532
outer	-9533
leggen	-9534
▁werkte	-9535
blij	-9536
▁wore	-9537
▁zucht	-9538
▁systeem	-9539
头鹰	-9540
▁Kom	-9541
cture	-9542
▁vermogen	-9543
了几	-9544
依然	-9545
elly	-9546
▁dism	-9547
▁officieel	-9548
▁Zweden	-9549
▁courage	-9550
年龄	-9551
行动	-9552
▁Jij	-9553
▁fully	-9554
数为	-9555
ooid	-9556
▁Haw	-9557
igers	-9558
▁shen	-9559
明确	-9560
▁cake	-9561
▁toon	-9562
▁advant	-9563
59	-9564
iërs	-9565
▁Bom	-9566
▁lat	-9567
klaas	-9568
▁arrange	-9569
▁veroorzaakt	-9570
就被	-9571
▁bedre	-9572
▁silver	-9573
厨房	-9574
regels	-9575
▁Texas	-9576
▁splendid	-9577
▁elektrische	-9578
眼泪	-9579
▁最后	-9580
高兴地	-9581
ournal	-9582
▁oosten	-9583
本身	-9584
▁Eef	-9585
的原因	-9586
▁lads	-9587
▁House	-9588
▁南	-9589
表明	-9590
▁beper	-9591
▁opgel	-9592
▁westen	-9593
▁accident	-9594
刺激	-9595
水分	-9596
这只	-9597
.--	-9598
▁Norm	-9599
▁happens	-9600
US	-9601
}{4	-9602
AKER	-9603
haal	-9604
▁bekijken	-9605
脸上	-9606
尤其是	-9607
▁feed	-9608
也不能	-9609
胡萝卜	-9610
▁vinger	-9611
▁Charlie	-9612
专门	-9613
put	-9614
都可以	-9615
▁Corn	-9616
▁versie	-9617
▁burgers	-9618
的歌	-9619
500	-9620
的大小	-9621
arted	-9622
ertijd	-9623
iteiten	-9624
▁分	-9625
time	-9626
▁2022	-9627
▁micro	-9628
▁pictures	-9629
Na	-9630
伤害	-9631
塑料	-9632
它是	-9633
数是	-9634
▁Est	-9635
▁hiervan	-9636
▁stukjes	-9637
实施	-9638
水中	-9639
}{1	-9640
$$10	-9641
上学	-9642
唯一	-9643
}{2}	-9644
▁bom	-9645
landen	-9646
▁confl	-9647
▁shell	-9648
▁grotere	-9649
}}\	-9650
▁Ap	-9651
▁bijzondere	-9652
besch	-9653
▁Martine	-9654
大于	-9655
强的	-9656
了一会儿	-9657
aterdag	-9658
▁Midden	-9659
▁archite	-9660
▁mochten	-9661
▁accompan	-9662
演技	-9663
经验	-9664
资产	-9665
ava	-9666
其他的	-9667
▁kandid	-9668
教室	-9669
200	-9670
▁imm	-9671
▁Margar	-9672
▁Nieuws	-9673
▁Indones	-9674
▁disappeared	-9675
我把	-9676
}{\	-9677
▁tradition	-9678
竞争	-9679
了一只	-9680
▁materiaal	-9681
▁tegenover	-9682
ds	-9683
大海	-9684
▁wou	-9685
▁stern	-9686
▁liefst	-9687
▁touched	-9688
▁10.	-9689
ilige	-9690
▁2002	-9691
▁bladzijde	-9692
泡泡	-9693
镜子	-9694
▁ochtend	-9695
运会	-9696
销售	-9697
ograph	-9698
领导	-9699
▁cred	-9700
▁explain	-9701
出现了	-9702
ested	-9703
▁tonight	-9704
也许	-9705
将军	-9706
播报	-9707
▁Dag	-9708
ching	-9709
▁darling	-9710
胡子	-9711
hall	-9712
▁Besch	-9713
▁season	-9714
▁Vandaag	-9715
句子	-9716
▁anywhere	-9717
二氧化碳	-9718
▁dans	-9719
▁Vlaam	-9720
▁White	-9721
▁thanks	-9722
▁onderzoeken	-9723
的方法	-9724
itut	-9725
▁lok	-9726
ernooi	-9727
rabant	-9728
▁minst	-9729
▁Griekenland	-9730
▁Tra	-9731
▁ond	-9732
dered	-9733
▁Helen	-9734
▁appre	-9735
▁beurt	-9736
▁错误	-9737
▁DAT	-9738
lands	-9739
▁Drie	-9740
▁curious	-9741
)。	-9742
十九	-9743
amil	-9744
▁Only	-9745
▁taught	-9746
▁thinks	-9747
▁website	-9748
▁completely	-9749
▁kindly	-9750
▁verandert	-9751
▁apparently	-9752
农业	-9753
影子	-9754
schuw	-9755
▁aanv	-9756
▁reizen	-9757
▁Nicolaas	-9758
overn	-9759
▁geel	-9760
▁region	-9761
内的	-9762
▁DNA	-9763
elaar	-9764
摇头	-9765
的就是	-9766
atholieke	-9767
紧张	-9768
▁hiel	-9769
▁事	-9770
▁proces	-9771
▁Kerk	-9772
cm	-9773
}{2	-9774
▁以后	-9775
▁rit	-9776
▁rejo	-9777
得意	-9778
统一	-9779
-20	-9780
7$$	-9781
▁Nick	-9782
▁cell	-9783
▁dance	-9784
▁folks	-9785
▁Oorlog	-9786
▁一点	-9787
▁Our	-9788
▁gren	-9789
▁farther	-9790
▁spo	-9791
比较喜欢	-9792
▁terr	-9793
achtoff	-9794
混合	-9795
kap	-9796
▁basket	-9797
▁opinion	-9798
▁emb	-9799
▁cloth	-9800
▁kaarten	-9801
▁mountains	-9802
微博	-9803
邻居	-9804
isis	-9805
volg	-9806
▁sturen	-9807
OP	-9808
bao	-9809
好不好	-9810
▁tick	-9811
▁schaal	-9812
▁paarden	-9813
上市	-9814
人在	-9815
又是	-9816
打篮球	-9817
▁Fel	-9818
▁Get	-9819
brand	-9820
outen	-9821
▁Egypt	-9822
▁alcohol	-9823
▁饭	-9824
很厉害	-9825
▁mighty	-9826
小鱼	-9827
部门	-9828
我还有	-9829
找到了	-9830
▁gle	-9831
▁oren	-9832
▁acquaint	-9833
嘻嘻	-9834
mes	-9835
▁Rijn	-9836
▁massa	-9837
▁suspic	-9838
▁delighted	-9839
▁verdienen	-9840
集团	-9841
▁bark	-9842
ellent	-9843
▁showing	-9844
▁爱	-9845
aseerd	-9846
▁hearing	-9847
▁rivieren	-9848
必要	-9849
VER	-9850
imeter	-9851
▁eieren	-9852
▁calling	-9853
▁Geen	-9854
Um	-9855
分布	-9856
▁Four	-9857
▁kwijt	-9858
▁elektric	-9859
一会	-9860
多久	-9861
零点	-9862
去看看	-9863
▁Mic	-9864
}}$$,	-9865
想法	-9866
atic	-9867
oning	-9868
避免	-9869
▁World	-9870
gebruik	-9871
VD	-9872
▁por	-9873
▁Mount	-9874
一根	-9875
外婆	-9876
知道了	-9877
▁message	-9878
▁controle	-9879
46	-9880
一张	-9881
再次	-9882
▁sword	-9883
交流	-9884
eeper	-9885
hond	-9886
estal	-9887
▁2021	-9888
的呀	-9889
}_{3	-9890
公园	-9891
▁一样	-9892
.$${	-9893
▁pijl	-9894
▁bless	-9895
interklaas	-9896
OC	-9897
观众	-9898
▁桌子	-9899
幼儿园	-9900
▁waters	-9901
溶解	-9902
▁"_	-9903
ommel	-9904
lu	-9905
不着	-9906
处于	-9907
Kom	-9908
ask	-9909
vle	-9910
▁Up	-9911
▁cd	-9912
▁宝宝	-9913
▁aanb	-9914
▁gezin	-9915
▁boekje	-9916
▁private	-9917
bos	-9918
好像是	-9919
pool	-9920
▁Bud	-9921
▁twaalf	-9922
km	-9923
uls	-9924
领域	-9925
zame	-9926
ocks	-9927
▁Kitty	-9928
ache	-9929
inned	-9930
▁conne	-9931
▁smoot	-9932
attered	-9933
ondag	-9934
▁gevorm	-9935
=4	-9936
分为	-9937
娱乐	-9938
jaard	-9939
▁beschreven	-9940
▁hok	-9941
▁gray	-9942
orgd	-9943
▁XIV	-9944
▁ham	-9945
▁tied	-9946
▁policy	-9947
▁ondersche	-9948
互相	-9949
互联	-9950
联合	-9951
eremon	-9952
▁friendly	-9953
▁verf	-9954
▁Master	-9955
▁inmiddels	-9956
重点	-9957
hai	-9958
aved	-9959
itor	-9960
▁Jaap	-9961
▁grapp	-9962
▁bepalen	-9963
对不起	-9964
▁swift	-9965
▁Freder	-9966
▁soldier	-9967
▁verliefd	-9968
哎哟	-9969
自身	-9970
lage	-9971
▁youn	-9972
urende	-9973
▁afgele	-9974
不停地	-9975
它们的	-9976
最喜欢	-9977
gaven	-9978
▁appel	-9979
▁leider	-9980
▁fabriek	-9981
主任	-9982
很少	-9983
jax	-9984
book	-9985
▁wed	-9986
好吗	-9987
小说	-9988
建筑	-9989
推动	-9990
▁whist	-9991
导体	-9992
▁Stad	-9993
▁concl	-9994
想想	-9995
螃蟹	-9996
▁ernst	-9997
▁enjoyed	-9998
▁complete	-9999
IJN	-10000
生活中	-10001
▁correct	-10002
▁leading	-10003
▁understood	-10004
是真的	-10005
▁However	-10006
ms	-10007
乖乖	-10008
然后就	-10009
rice	-10010
}_{0	-10011
▁Alright	-10012
inkel	-10013
▁comr	-10014
▁Iemand	-10015
▁rising	-10016
formatie	-10017
par	-10018
的速度	-10019
▁Nou	-10020
▁opeens	-10021
角度	-10022
prijs	-10023
stein	-10024
▁filos	-10025
▁vraagnummer	-10026
有多	-10027
结婚	-10028
aced	-10029
▁gat	-10030
kings	-10031
▁beest	-10032
▁desire	-10033
▁toegevoegd	-10034
减小	-10035
▁Jes	-10036
oking	-10037
▁cart	-10038
ETAKER	-10039
▁manage	-10040
▁experiment	-10041
▁drove	-10042
CARETAKER	-10043
支付	-10044
▁Goed	-10045
保障	-10046
iënt	-10047
upid	-10048
arily	-10049
▁Never	-10050
▁Hierbij	-10051
OW	-10052
▁下面	-10053
text	-10054
▁Iris	-10055
▁grad	-10056
indingen	-10057
巫婆	-10058
迅速	-10059
的孩子	-10060
ned	-10061
▁可能	-10062
▁geloven	-10063
vd	-10064
▁works	-10065
derdaad	-10066
▁figures	-10067
DER	-10068
aine	-10069
ares	-10070
▁NIET	-10071
▁inde	-10072
▁vulk	-10073
▁gaten	-10074
▁halve	-10075
▁teacher	-10076
▁satisfied	-10077
ueel	-10078
▁aardbe	-10079
两种	-10080
▁(1)	-10081
▁prim	-10082
middel	-10083
▁conce	-10084
▁Bal	-10085
▁Geme	-10086
ashing	-10087
▁magic	-10088
▁ordin	-10089
▁samenleving	-10090
▁creature	-10091
我得	-10092
    	-10093
ament	-10094
▁lager	-10095
老板	-10096
▁First	-10097
▁detect	-10098
▁geschikt	-10099
使劲	-10100
商品	-10101
远处	-10102
不喜欢	-10103
▁pity	-10104
▁poet	-10105
▁greet	-10106
仿佛	-10107
穿着	-10108
ummy	-10109
▁deb	-10110
agers	-10111
▁Cong	-10112
athers	-10113
▁negen	-10114
▁relief	-10115
▁million	-10116
▁鱼	-10117
去吧	-10118
本领	-10119
▁dank	-10120
▁Julia	-10121
宣布	-10122
tent	-10123
▁phone	-10124
警察	-10125
的关系	-10126
▁Carl	-10127
inging	-10128
▁gemeen	-10129
▁empty	-10130
▁wester	-10131
聊天	-10132
raft	-10133
▁shr	-10134
▁Stef	-10135
▁verantwoord	-10136
可得	-10137
▁ABC	-10138
▁vic	-10139
有时	-10140
May	-10141
▁aside	-10142
▁brill	-10143
▁eraan	-10144
▁condition	-10145
vey	-10146
▁你说	-10147
▁$$,	-10148
▁Oce	-10149
▁Gordon	-10150
▁seated	-10151
▁geopend	-10152
▁eindelijk	-10153
▁altogether	-10154
个子	-10155
原则	-10156
VEN	-10157
不可能	-10158
▁Dar	-10159
▁gasten	-10160
▁progress	-10161
地位	-10162
形象	-10163
olk	-10164
放弃	-10165
等着	-10166
umb	-10167
▁thema	-10168
▁trade	-10169
下午	-10170
可真	-10171
▁hè	-10172
▁Cel	-10173
vering	-10174
Holland	-10175
▁bedrag	-10176
▁sorrow	-10177
now	-10178
▁bringing	-10179
▁Like	-10180
rieken	-10181
▁element	-10182
▁房间	-10183
vere	-10184
rong	-10185
▁Kan	-10186
aarde	-10187
▁wijst	-10188
▁rekening	-10189
▁朋友	-10190
的这个	-10191
ners	-10192
looking	-10193
▁voelen	-10194
往往	-10195
▁Kr	-10196
▁Ron	-10197
▁fairy	-10198
▁wheel	-10199
▁nodded	-10200
▁dichter	-10201
]。	-10202
你能	-10203
▁terror	-10204
gebracht	-10205
▁education	-10206
37	-10207
jam	-10208
▁Dra	-10209
▁address	-10210
▁stroomt	-10211
不足	-10212
utel	-10213
▁bacteriën	-10214
都市	-10215
很多人	-10216
antal	-10217
itter	-10218
▁centre	-10219
▁driving	-10220
}$$、	-10221
▁Binnen	-10222
表演	-10223
到这里	-10224
otted	-10225
muziek	-10226
气的	-10227
▁native	-10228
▁stairs	-10229
▁younger	-10230
▁companions	-10231
▁✿	-10232
▁flo	-10233
我来	-10234
▁hills	-10235
▁gehoord	-10236
▁黑	-10237
晚安	-10238
oci	-10239
▁bits	-10240
▁staats	-10241
公交	-10242
appy	-10243
▁hoped	-10244
+3	-10245
▁Ven	-10246
wezen	-10247
▁aardig	-10248
▁liepen	-10249
▁personal	-10250
上涨	-10251
取得	-10252
地的	-10253
强调	-10254
练习	-10255
aws	-10256
ivil	-10257
▁Marokk	-10258
-18	-10259
▁jump	-10260
▁Diana	-10261
花儿	-10262
▁zicht	-10263
成分	-10264
doe	-10265
roy	-10266
▁Sec	-10267
▁plus	-10268
▁raad	-10269
▁scher	-10270
▁softly	-10271
▁gemakkelijk	-10272
▁rabb	-10273
FF	-10274
会议	-10275
位于	-10276
球迷	-10277
▁River	-10278
▁gebaseerd	-10279
▁regelmatig	-10280
一件	-10281
正是	-10282
长期	-10283
opp	-10284
▁obe	-10285
▁pod	-10286
▁Nina	-10287
▁passage	-10288
rick	-10289
oeien	-10290
▁Nancy	-10291
▁Roger	-10292
▁Sylvia	-10293
▁explos	-10294
热点	-10295
高中	-10296
▁今年	-10297
▁2003	-10298
▁card	-10299
▁mistake	-10300
涉及	-10301
▁Ac	-10302
koop	-10303
▁pony	-10304
▁resc	-10305
▁angst	-10306
▁exerc	-10307
▁rende	-10308
十七	-10309
una	-10310
▁gouden	-10311
▁wounded	-10312
不出	-10313
▁doden	-10314
CD	-10315
kent	-10316
▁Lux	-10317
▁Faith	-10318
照片	-10319
geving	-10320
▁Kruis	-10321
▁schol	-10322
▁zwemb	-10323
▁kranten	-10324
好玩	-10325
安静	-10326
sych	-10327
stelsel	-10328
▁Filips	-10329
▁dollar	-10330
两天	-10331
inda	-10332
▁murm	-10333
▁schad	-10334
adering	-10335
▁eating	-10336
Per	-10337
▁lux	-10338
centrum	-10339
komsten	-10340
▁Sk	-10341
▁fee	-10342
▁gay	-10343
▁orde	-10344
▁consequ	-10345
点评	-10346
鞋子	-10347
▁Hit	-10348
▁stars	-10349
▁vocht	-10350
-0	-10351
▁菜	-10352
一颗	-10353
▁Weet	-10354
▁rare	-10355
会不会	-10356
▁slechte	-10357
发了	-10358
óór	-10359
inner	-10360
▁hek	-10361
▁ontsn	-10362
▁Egypte	-10363
▁bridge	-10364
▁Nederlanden	-10365
Zo	-10366
成长	-10367
我先走了	-10368
▁grij	-10369
▁stri	-10370
▁desert	-10371
五百	-10372
▁afkomst	-10373
--_	-10374
好看的	-10375
▁arbe	-10376
▁fortune	-10377
快地	-10378
ading	-10379
▁Illustr	-10380
电池	-10381
就没有	-10382
▁behoor	-10383
充分	-10384
▁doors	-10385
▁ballon	-10386
▁从前	-10387
▁konijn	-10388
场上	-10389
矛盾	-10390
▁45	-10391
▁sorts	-10392
▁familiar	-10393
▁前	-10394
▁木头	-10395
33	-10396
这位	-10397
▁cand	-10398
Europa	-10399
▁heette	-10400
▁jaarlijk	-10401
Delta	-10402
▁clever	-10403
▁Paris	-10404
▁Volks	-10405
动力	-10406
oring	-10407
▁Groen	-10408
lam	-10409
▁AD	-10410
▁开始	-10411
一个大	-10412
▁wondering	-10413
有所	-10414
▁ign	-10415
▁nei	-10416
ukken	-10417
▁mult	-10418
▁trots	-10419
▁zetels	-10420
▁(6	-10421
一个个	-10422
笑着说	-10423
讨厌	-10424
ppen	-10425
atisch	-10426
▁verded	-10427
人生	-10428
gas	-10429
itation	-10430
▁advice	-10431
▁Portugal	-10432
小小的	-10433
还是很	-10434
▁bezet	-10435
▁prinses	-10436
wa	-10437
海洋	-10438
back	-10439
▁east	-10440
vreden	-10441
▁leader	-10442
▁kabinet	-10443
▁吓	-10444
麻雀	-10445
▁Pan	-10446
独立	-10447
▁trom	-10448
▁sympath	-10449
▁Ajax	-10450
▁Ellen	-10451
▁Teken	-10452
上升	-10453
慢慢地	-10454
▁clearly	-10455
▁overleed	-10456
和你	-10457
▁rook	-10458
▁stout	-10459
Om	-10460
热闹	-10461
立即	-10462
juist	-10463
▁pink	-10464
slagen	-10465
加上	-10466
合适	-10467
对手	-10468
rose	-10469
broek	-10470
▁task	-10471
▁coffee	-10472
▁appoint	-10473
▁contract	-10474
词语	-10475
▁pian	-10476
▁risk	-10477
▁Licht	-10478
▁shirt	-10479
▁utter	-10480
▁坏	-10481
opl	-10482
世界杯	-10483
▁对对对	-10484
inson	-10485
▁verwijzen	-10486
另一	-10487
edy	-10488
▁小朋友	-10489
同一	-10490
整体	-10491
花的	-10492
▁pin	-10493
icient	-10494
▁sterke	-10495
▁overleden	-10496
远远	-10497
$$4$$	-10498
▁East	-10499
▁middag	-10500
理想	-10501
▁drank	-10502
而不是	-10503
elings	-10504
▁Dorothy	-10505
▁verbrand	-10506
▁vrijheid	-10507
才会	-10508
电阻	-10509
▁Bomba	-10510
▁bevindt	-10511
这天	-10512
aks	-10513
▁Koen	-10514
▁Pier	-10515
uwelijk	-10516
小蚂蚁	-10517
eeping	-10518
▁vierde	-10519
car	-10520
tha	-10521
$$5$$	-10522
erable	-10523
ografie	-10524
▁Jullie	-10525
▁《	-10526
软件	-10527
▁Simon	-10528
▁Pepijn	-10529
▁Christus	-10530
口气	-10531
想象	-10532
▁反正	-10533
在您	-10534
正式	-10535
alo	-10536
不小心	-10537
家人	-10538
方案	-10539
▁目前	-10540
▁2023	-10541
▁keen	-10542
▁Zoals	-10543
▁leidde	-10544
▁dangerous	-10545
})	-10546
▁嘛	-10547
这个人	-10548
avië	-10549
▁rule	-10550
▁Govern	-10551
▁脚	-10552
者的	-10553
prime	-10554
▁benen	-10555
▁opstand	-10556
不开	-10557
ili	-10558
在地上	-10559
ianus	-10560
▁diver	-10561
▁excellent	-10562
流动	-10563
跟你	-10564
▁感觉	-10565
erende	-10566
屁股	-10567
拥有	-10568
感兴趣	-10569
有利于	-10570
regelen	-10571
▁Duitsers	-10572
窗户	-10573
▁raken	-10574
▁falling	-10575
▁slachtoff	-10576
怪物	-10577
▁snap	-10578
▁slaat	-10579
▁afloop	-10580
▁theater	-10581
▁beoordeling	-10582
液体	-10583
eps	-10584
lijst	-10585
帮忙	-10586
广州	-10587
整天	-10588
两个人	-10589
road	-10590
▁rolled	-10591
▁bladeren	-10592
▁inquired	-10593
▁晚上	-10594
▁长颈鹿	-10595
hop	-10596
oest	-10597
▁pant	-10598
▁ronde	-10599
呵呵	-10600
拿起	-10601
malige	-10602
▁Amerikanen	-10603
白色	-10604
互联网	-10605
Goed	-10606
Look	-10607
just	-10608
▁Bat	-10609
▁wapen	-10610
▁gooien	-10611
▁relatie	-10612
▁vechten	-10613
▁verleden	-10614
▁vuil	-10615
心情	-10616
▁Hand	-10617
▁eggs	-10618
▁kwaad	-10619
▁officiële	-10620
▁抓	-10621
传递	-10622
▁2001	-10623
▁value	-10624
festival	-10625
▁geleerd	-10626
▁hersenen	-10627
▁十	-10628
安排	-10629
ols	-10630
▁咱们	-10631
▁哥哥	-10632
aked	-10633
▁Barb	-10634
▁aware	-10635
▁staff	-10636
▁member	-10637
季度	-10638
破坏	-10639
伙伴们	-10640
gebieden	-10641
▁gewicht	-10642
▁reclame	-10643
▁belasting	-10644
都被	-10645
风吹	-10646
▁wid	-10647
hoven	-10648
走着	-10649
▁Far	-10650
▁schiet	-10651
39	-10652
振动	-10653
文明	-10654
iforn	-10655
▁Brand	-10656
▁Chair	-10657
▁noemt	-10658
_1	-10659
▁150	-10660
geteld	-10661
▁brengt	-10662
▁schoot	-10663
▁seized	-10664
▁glanced	-10665
▁toneelstuk	-10666
rows	-10667
▁duw	-10668
▁elf	-10669
▁fill	-10670
Waarom	-10671
共有	-10672
综合	-10673
▁cong	-10674
性和	-10675
检查	-10676
▁avo	-10677
genda	-10678
▁Beck	-10679
▁tale	-10680
▁knikt	-10681
▁omzet	-10682
▁golden	-10683
▁useful	-10684
▁Provinc	-10685
IM	-10686
椅子	-10687
▁Terwijl	-10688
▁demonstr	-10689
▁自	-10690
shi	-10691
isen	-10692
▁hyp	-10693
▁rib	-10694
▁beach	-10695
▁ceased	-10696
你这	-10697
居民	-10698
生病	-10699
轨道	-10700
是一只	-10701
▁Edu	-10702
▁vel	-10703
▁wint	-10704
▁raakte	-10705
▁Beg	-10706
▁Cour	-10707
▁caut	-10708
tended	-10709
▁Henry	-10710
▁distur	-10711
拿出	-10712
了一些	-10713
里面的	-10714
eman	-10715
▁pup	-10716
▁Eind	-10717
▁winst	-10718
▁ideeën	-10719
^{	-10720
家伙	-10721
▁avail	-10722
▁merry	-10723
▁schema	-10724
▁society	-10725
生态系统	-10726
▁shown	-10727
▁lights	-10728
而已	-10729
▁crying	-10730
▁restaurant	-10731
是怎么	-10732
volution	-10733
▁numbers	-10734
gu	-10735
蓝色	-10736
omet	-10737
▁woo	-10738
▁Best	-10739
▁stijl	-10740
▁Monday	-10741
▁burger	-10742
standigheden	-10743
他把	-10744
ato	-10745
再也不	-10746
我就是	-10747
▁High	-10748
▁Chris	-10749
▁spect	-10750
▁Marie	-10751
emarken	-10752
▁gegeten	-10753
既然	-10754
的光	-10755
press	-10756
▁lock	-10757
▁slaan	-10758
▁Oliver	-10759
▁actief	-10760
▁bedenken	-10761
sa	-10762
什么呢	-10763
▁Med	-10764
▁ess	-10765
terne	-10766
▁Dave	-10767
▁soep	-10768
▁医生	-10769
▁rise	-10770
▁wijze	-10771
▁houten	-10772
▁roepen	-10773
▁tongue	-10774
▁这次	-10775
▁zul	-10776
▁volume	-10777
▁90	-10778
▁Dun	-10779
▁Fair	-10780
▁bill	-10781
stikke	-10782
▁Anders	-10783
▁receive	-10784
Go	-10785
跳舞	-10786
高度	-10787
ieur	-10788
▁180	-10789
▁singing	-10790
顺序	-10791
itz	-10792
yal	-10793
ergie	-10794
▁disg	-10795
我家	-10796
ental	-10797
▁Eefie	-10798
▁struik	-10799
GEN	-10800
运动的	-10801
▁env	-10802
▁neighbour	-10803
uv	-10804
▁学	-10805
▁tip	-10806
▁voren	-10807
▁stones	-10808
▁voorzichtig	-10809
aze	-10810
或者是	-10811
izing	-10812
▁popular	-10813
▁similar	-10814
DEN	-10815
▁事情	-10816
▁ate	-10817
▁evil	-10818
▁missed	-10819
不懂	-10820
大笑	-10821
我一	-10822
▁zhe	-10823
eloos	-10824
▁intended	-10825
这边	-10826
00$$	-10827
otheek	-10828
▁leert	-10829
▁stopt	-10830
快点	-10831
▁TE	-10832
这件事	-10833
▁hap	-10834
▁groeit	-10835
向前	-10836
Just	-10837
▁Thijs	-10838
▁Steden	-10839
▁besides	-10840
▁everyone	-10841
▁voedings	-10842
对着	-10843
30)	-10844
kere	-10845
▁Dam	-10846
ianen	-10847
态度	-10848
来源	-10849
那天	-10850
▁Johan	-10851
▁slaven	-10852
口袋	-10853
情绪	-10854
股份	-10855
▁bod	-10856
▁vies	-10857
分类	-10858
加油	-10859
果子	-10860
▁voices	-10861
▁schreeuw	-10862
-"	-10863
旅行	-10864
boel	-10865
▁Nadat	-10866
▁海	-10867
失望	-10868
水果	-10869
▁)。	-10870
导演	-10871
秘密	-10872
ois	-10873
▁streep	-10874
▁ontwerp	-10875
▁inderdaad	-10876
文字	-10877
找不到	-10878
▁opv	-10879
在您身边	-10880
▁obliged	-10881
di	-10882
三年	-10883
规则	-10884
赢了	-10885
▁哎呀	-10886
heer	-10887
▁Sant	-10888
▁toil	-10889
▁onver	-10890
▁formed	-10891
qi	-10892
也太	-10893
▁特别	-10894
oorte	-10895
▁Beth	-10896
▁Kees	-10897
▁vleug	-10898
72	-10899
▁ca	-10900
▁zoekt	-10901
彩虹	-10902
模型	-10903
鼹鼠	-10904
ables	-10905
▁horiz	-10906
▁premier	-10907
pie	-10908
chen	-10909
iction	-10910
▁desc	-10911
istisch	-10912
▁aardapp	-10913
▁telkens	-10914
▁Heel	-10915
▁Jose	-10916
▁Mabel	-10917
▁Philip	-10918
▁bergen	-10919
▁design	-10920
▁failed	-10921
依据	-10922
▁300	-10923
▁aft	-10924
▁prisoner	-10925
wl	-10926
想去	-10927
▁practice	-10928
虫子	-10929
▁原来	-10930
▁raar	-10931
▁States	-10932
▁journal	-10933
▁zaterdag	-10934
我们要	-10935
~~~~	-10936
place	-10937
上映	-10938
发育	-10939
想起	-10940
火箭	-10941
logen	-10942
▁mort	-10943
inatie	-10944
▁hearts	-10945
unde	-10946
▁pushed	-10947
▁穿	-10948
pakken	-10949
▁schools	-10950
▁wedstrijden	-10951
▁→	-10952
▁肯定	-10953
▁Sen	-10954
azing	-10955
rance	-10956
▁lukt	-10957
▁uitv	-10958
▁resol	-10959
▁Adrianus	-10960
SE	-10961
蔬菜	-10962
olie	-10963
orpen	-10964
▁ended	-10965
agement	-10966
▁warmte	-10967
▁spelers	-10968
时刻	-10969
▁families	-10970
pper	-10971
umed	-10972
because	-10973
▁万	-10974
感受	-10975
产生的	-10976
▁WAT	-10977
▁acteur	-10978
▁这种	-10979
▁nic	-10980
▁handig	-10981
▁Sara	-10982
▁beroemde	-10983
▁insecten	-10984
▁represent	-10985
传来	-10986
描写	-10987
▁ME	-10988
▁听说	-10989
▁Jesus	-10990
▁announced	-10991
<{	-10992
亮的	-10993
增强	-10994
玫瑰	-10995
科学家	-10996
▁Belle	-10997
▁Georg	-10998
▁borst	-10999
):	-11000
公式	-11001
zaken	-11002
▁klap	-11003
▁myth	-11004
▁smart	-11005
zw	-11006
平常	-11007
那只	-11008
没办法	-11009
▁mand	-11010
▁spirits	-11011
优势	-11012
区域	-11013
白天	-11014
fty	-11015
ators	-11016
wedstrijd	-11017
▁stu	-11018
▁可不是	-11019
usion	-11020
▁slept	-11021
▁reageren	-11022
bf	-11023
令人	-11024
ceerd	-11025
ology	-11026
cheiden	-11027
▁honger	-11028
▁prefer	-11029
▁起	-11030
传说	-11031
kind	-11032
▁Jean	-11033
▁cheeks	-11034
▁engaged	-11035
▁gekocht	-11036
一棵	-11037
摩擦	-11038
▁tak	-11039
▁dansen	-11040
▁verbaasd	-11041
▁otherwise	-11042
用手	-11043
▁hob	-11044
voering	-11045
▁musical	-11046
▁starting	-11047
▁Aha	-11048
asius	-11049
▁paying	-11050
▁spreekt	-11051
▁involved	-11052
▁哭	-11053
绳子	-11054
另一个	-11055
enter	-11056
▁Cast	-11057
电场	-11058
▁应该	-11059
inst	-11060
uzen	-11061
▁wort	-11062
▁crack	-11063
▁miljard	-11064
▁成	-11065
牛奶	-11066
▁kip	-11067
▁print	-11068
▁uniform	-11069
两人	-11070
▁dreadful	-11071
▁kleinere	-11072
不说	-11073
在家	-11074
▁Bes	-11075
achel	-11076
▁dert	-11077
▁opzichte	-11078
错了	-11079
▁harde	-11080
▁总	-11081
掌握	-11082
电动	-11083
▁tor	-11084
▁wen	-11085
38	-11086
心理	-11087
脖子	-11088
诗人	-11089
醒了	-11090
elig	-11091
vuld	-11092
▁Sol	-11093
▁Sud	-11094
▁neat	-11095
▁ordinary	-11096
▁Mont	-11097
▁Eigen	-11098
▁score	-11099
尽管	-11100
就开始	-11101
bere	-11102
▁Open	-11103
▁migr	-11104
▁vingers	-11105
▁Californ	-11106
▁Denemarken	-11107
▁tekeningen	-11108
决赛	-11109
检测	-11110
照顾	-11111
相比	-11112
我喜欢	-11113
明白了	-11114
romen	-11115
▁Does	-11116
▁pill	-11117
▁memory	-11118
98	-11119
维持	-11120
utt	-11121
每个人	-11122
▁yao	-11123
boekje	-11124
▁Noteer	-11125
zh	-11126
大叫	-11127
iot	-11128
非常的	-11129
▁jiu	-11130
▁wijk	-11131
unning	-11132
wekker	-11133
▁plate	-11134
▁warme	-11135
brengen	-11136
呼呼	-11137
花园	-11138
就是这些	-11139
▁duizenden	-11140
▁voldoende	-11141
的说	-11142
osc	-11143
▁Sto	-11144
▁draaide	-11145
他又	-11146
佩奇	-11147
小鸡	-11148
▁rat	-11149
▁Again	-11150
▁arbeids	-11151
▁bijlage	-11152
手里	-11153
▁sigh	-11154
▁gelegen	-11155
ln	-11156
享受	-11157
那就	-11158
香港	-11159
five	-11160
neke	-11161
▁Pet	-11162
▁aid	-11163
▁klok	-11164
▁gently	-11165
gesproken	-11166
▁Brazilië	-11167
▁verandering	-11168
irk	-11169
▁已经	-11170
忍不住	-11171
▁shock	-11172
▁wings	-11173
▁voorsp	-11174
▁Limburg	-11175
otel	-11176
papa	-11177
$$、$$	-11178
▁rush	-11179
▁jezelf	-11180
middelen	-11181
▁diagram	-11182
的电影	-11183
▁Jas	-11184
▁bedoel	-11185
▁moments	-11186
▁vermoord	-11187
▁Ox	-11188
不可以	-11189
▁摔	-11190
rub	-11191
▁rijke	-11192
▁compet	-11193
▁hondje	-11194
▁Station	-11195
▁distant	-11196
▁birthday	-11197
这下	-11198
dus	-11199
▁spin	-11200
▁surface	-11201
▁realized	-11202
燕子	-11203
umn	-11204
▁Tomm	-11205
▁lord	-11206
kosten	-11207
▁agent	-11208
▁bellen	-11209
▁Meester	-11210
▁betaald	-11211
▁collect	-11212
▁gedicht	-11213
VV	-11214
草地上	-11215
▁Prof	-11216
▁hath	-11217
▁onderdelen	-11218
▁躲	-11219
广东	-11220
指数	-11221
▁winkels	-11222
án	-11223
▁grace	-11224
▁ladder	-11225
Nederland	-11226
外国	-11227
悄悄地	-11228
▁verbet	-11229
▁produce	-11230
大会	-11231
激动	-11232
胜利	-11233
▁daarin	-11234
rr	-11235
▁为了	-11236
▁cars	-11237
瓶子	-11238
_{1}	-11239
▁moed	-11240
machine	-11241
化的	-11242
十年	-11243
飞到	-11244
▁innit	-11245
1-	-11246
皮肤	-11247
anken	-11248
asant	-11249
istan	-11250
▁vain	-11251
▁credit	-11252
▁moeite	-11253
山上	-11254
▁关于	-11255
轻轻地	-11256
▁cellen	-11257
▁advantage	-11258
卫星	-11259
染色	-11260
can	-11261
riv	-11262
▁bath	-11263
▁rechten	-11264
印度	-11265
大量	-11266
▁32	-11267
chant	-11268
▁zaal	-11269
▁verslag	-11270
▁翻	-11271
大概	-11272
队员	-11273
▁Dom	-11274
▁Ear	-11275
▁Super	-11276
kundigen	-11277
▁brandweer	-11278
▁gevangenis	-11279
▁写	-11280
他一	-11281
▁bomb	-11282
▁kick	-11283
▁attract	-11284
▁Gemeenten	-11285
帮我	-11286
年纪	-11287
▁redu	-11288
▁Kinder	-11289
▁vangen	-11290
therefore	-11291
95	-11292
上班	-11293
甜甜	-11294
▁bekeken	-11295
▁profession	-11296
买了	-11297
动能	-11298
roll	-11299
二零二零	-11300
istof	-11301
▁scra	-11302
眼镜	-11303
▁我要	-11304
▁过来	-11305
不见了	-11306
play	-11307
wiss	-11308
asons	-11309
▁scen	-11310
▁grate	-11311
▁misch	-11312
▁forced	-11313
▁verjaard	-11314
TS	-11315
食品	-11316
Okay	-11317
spelen	-11318
▁stupid	-11319
地面	-11320
广播	-11321
hip	-11322
▁tij	-11323
▁match	-11324
▁psych	-11325
▁series	-11326
▁eighteen	-11327
▁veiligheid	-11328
▁voetballen	-11329
运用	-11330
▁4,	-11331
▁zu	-11332
是为了	-11333
▁Inter	-11334
▁loose	-11335
▁spreek	-11336
▁onderzocht	-11337
开发	-11338
ATE	-11339
▁Brad	-11340
▁final	-11341
▁geleid	-11342
倒是	-11343
内部	-11344
韩国	-11345
方面的	-11346
▁Elk	-11347
▁Six	-11348
▁pist	-11349
▁nauwelijks	-11350
踢球	-11351
▁Major	-11352
▁shows	-11353
▁gratis	-11354
▁earlier	-11355
▁verdriet	-11356
做好	-11357
把小	-11358
更好	-11359
香蕉	-11360
▁1:	-11361
还不错	-11362
▁geve	-11363
▁betre	-11364
▁herkennen	-11365
▁verdwenen	-11366
意见	-11367
说他	-11368
长长的	-11369
quad	-11370
▁lai	-11371
▁boter	-11372
▁meaning	-11373
放心	-11374
的基本	-11375
▁veg	-11376
▁tape	-11377
▁propos	-11378
▁beroemd	-11379
▁somehow	-11380
核心	-11381
燃烧	-11382
Dit	-11383
有一些	-11384
没什么	-11385
rels	-11386
▁Susan	-11387
▁streets	-11388
蛋白质	-11389
▁Very	-11390
▁voorzien	-11391
▁conclusie	-11392
就好了	-11393
的说法	-11394
ieft	-11395
plaatsen	-11396
刚好	-11397
鸟儿	-11398
aha	-11399
别人的	-11400
oond	-11401
umin	-11402
▁Mir	-11403
▁八	-11404
在小	-11405
坐标	-11406
amber	-11407
▁Wolf	-11408
▁Luxem	-11409
4,	-11410
ih	-11411
理论	-11412
groe	-11413
▁Has	-11414
▁有一天	-11415
▁Jerry	-11416
▁shame	-11417
▁alweer	-11418
▁property	-11419
都市报	-11420
▁ash	-11421
▁Madame	-11422
哭了	-11423
▁jack	-11424
emming	-11425
▁knees	-11426
▁Sinterklaas	-11427
$$4	-11428
▁kopje	-11429
▁Dieren	-11430
了嘛	-11431
helm	-11432
gelaten	-11433
▁signal	-11434
▁vooruit	-11435
▁woonden	-11436
▁transport	-11437
uy	-11438
mos	-11439
▁mud	-11440
otten	-11441
南方都市报	-11442
▁taart	-11443
▁Provincies	-11444
tan	-11445
▁pool	-11446
▁choice	-11447
体系	-11448
应用	-11449
系列	-11450
uter	-11451
▁1000	-11452
▁knife	-11453
aanderen	-11454
96	-11455
As	-11456
直播	-11457
骄傲	-11458
ses	-11459
▁luid	-11460
menten	-11461
straat	-11462
▁Boris	-11463
▁prove	-11464
▁住	-11465
间的	-11466
▁erf	-11467
onely	-11468
不够	-11469
从前	-11470
地里	-11471
离子	-11472
Can	-11473
}{5	-11474
▁同比	-11475
Afrika	-11476
▁Nieuwe	-11477
▁ceremon	-11478
▁gevormd	-11479
▁droom	-11480
▁stayed	-11481
▁constru	-11482
▁theorie	-11483
▁brothers	-11484
▁空	-11485
媒体	-11486
▁Day	-11487
▁Saint	-11488
▁actual	-11489
▁smooth	-11490
▁vriendin	-11491
▁prisoners	-11492
▁werkwoord	-11493
走去	-11494
▁lage	-11495
▁apparaat	-11496
▁opdrachten	-11497
▁截	-11498
大哥	-11499
doet	-11500
▁greatest	-11501
▁incident	-11502
-6	-11503
半天	-11504
反射	-11505
满意	-11506
▁美国	-11507
irus	-11508
▁ven	-11509
▁advance	-11510
往前	-11511
特殊	-11512
ega	-11513
你好啊	-11514
▁elder	-11515
▁shadow	-11516
硫酸	-11517
acy	-11518
tocht	-11519
▁brut	-11520
vingen	-11521
▁溶液	-11522
▁coal	-11523
▁verspreid	-11524
多种	-11525
▁那里	-11526
▁magn	-11527
▁onth	-11528
▁decor	-11529
以下	-11530
小姐姐	-11531
amed	-11532
▁geluk	-11533
▁cirkel	-11534
▁crossed	-11535
三点	-11536
▁你看	-11537
▁stads	-11538
▁stuck	-11539
▁Kenneth	-11540
▁shining	-11541
亿美元	-11542
oston	-11543
▁gevo	-11544
▁chest	-11545
▁industrie	-11546
在我	-11547
感染	-11548
洗澡	-11549
的能力	-11550
▁wash	-11551
▁Vervolgens	-11552
心中	-11553
没看	-11554
)=\	-11555
在这个	-11556
▁web	-11557
▁opeten	-11558
ctievoor	-11559
今晚	-11560
女人	-11561
河里	-11562
mene	-11563
sdag	-11564
lease	-11565
▁床	-11566
笨笨	-11567
Mijn	-11568
zonden	-11569
▁meegeteld	-11570
的感觉	-11571
▁Cons	-11572
erslag	-11573
bedrijf	-11574
▁Ierland	-11575
▁leiding	-11576
▁handsome	-11577
99)	-11578
▁delay	-11579
▁shape	-11580
▁hidden	-11581
即使	-11582
扩大	-11583
湖人	-11584
问道	-11585
aats	-11586
maak	-11587
uous	-11588
▁Lab	-11589
ioxide	-11590
▁decision	-11591
一座	-11592
rog	-11593
vec	-11594
zal	-11595
看了看	-11596
pend	-11597
▁ork	-11598
▁overw	-11599
▁draagt	-11600
全身	-11601
校园	-11602
Have	-11603
bury	-11604
oper	-11605
▁Vrij	-11606
▁Britt	-11607
▁Es	-11608
▁wijn	-11609
▁zondag	-11610
tr	-11611
▁bijd	-11612
▁Could	-11613
▁Island	-11614
城堡	-11615
成熟	-11616
9$$	-11617
zus	-11618
▁吃饭	-11619
ftal	-11620
▁Put	-11621
增长百分之	-11622
▁lastig	-11623
84	-11624
特性	-11625
▁主人	-11626
▁mail	-11627
ietnam	-11628
▁ijsje	-11629
▁behalve	-11630
▁verbonden	-11631
商业	-11632
在大	-11633
dad	-11634
ieën	-11635
▁ech	-11636
ultuur	-11637
▁lucky	-11638
▁voorwerp	-11639
▁geplaatst	-11640
年轻人	-11641
gezet	-11642
▁leidt	-11643
geqslant	-11644
▁lessons	-11645
▁aspecten	-11646
▁更	-11647
定律	-11648
紧紧	-11649
rale	-11650
▁fortun	-11651
▁verjaardag	-11652
▁比	-11653
值为	-11654
板块	-11655
重量	-11656
ado	-11657
asp	-11658
▁SP	-11659
▁nag	-11660
apens	-11661
ogels	-11662
▁text	-11663
▁contr	-11664
rechten	-11665
iversity	-11666
去年	-11667
▁37	-11668
▁Da	-11669
▁eend	-11670
▁budget	-11671
▁feelings	-11672
▁spanning	-11673
我记得	-11674
▁Emma	-11675
▁uitgevoerd	-11676
4!	-11677
经营	-11678
走路	-11679
▁36	-11680
睡着了	-11681
ecut	-11682
▁12.	-11683
▁beïn	-11684
▁Smith	-11685
}^{2}}+{{	-11686
▁bewoners	-11687
▁antwoordt	-11688
快速	-11689
这篇	-11690
▁artic	-11691
▁judge	-11692
RI	-11693
asy	-11694
▁==	-11695
iland	-11696
▁wiss	-11697
nat	-11698
▁它们	-11699
的变化	-11700
剧情	-11701
我对	-11702
那时候	-11703
▁Big	-11704
▁Isa	-11705
▁kor	-11706
▁omsch	-11707
▁Robbie	-11708
下车	-11709
确保	-11710
▁看来	-11711
听说过	-11712
红色的	-11713
lemn	-11714
是最	-11715
▁Bre	-11716
▁flight	-11717
▁bree	-11718
▁drum	-11719
▁canoe	-11720
▁taste	-11721
▁liedjes	-11722
密度	-11723
因为他	-11724
▁unf	-11725
体验	-11726
重大	-11727
▁Sid	-11728
leden	-11729
▁Sorry	-11730
成本	-11731
概念	-11732
ERS	-11733
▁Beat	-11734
kundige	-11735
▁prompt	-11736
▁gedacht	-11737
草丛	-11738
wag	-11739
▁一天	-11740
▁warn	-11741
▁badly	-11742
▁Gelder	-11743
▁hunting	-11744
▁verloor	-11745
用力	-11746
istr	-11747
▁trop	-11748
▁prijzen	-11749
对的	-11750
cher	-11751
▁cro	-11752
▁Prisc	-11753
▁koeien	-11754
▁eenvoud	-11755
举行	-11756
▁Steven	-11757
2\	-11758
限制	-11759
▁种子	-11760
▁bat	-11761
groepen	-11762
▁machines	-11763
下雨	-11764
我很	-11765
▁Bay	-11766
▁Spanish	-11767
);	-11768
大人	-11769
▁Bed	-11770
rijft	-11771
▁meedoen	-11772
▁Stra	-11773
▁valley	-11774
化合	-11775
reid	-11776
▁5,	-11777
rian	-11778
▁More	-11779
▁expens	-11780
▁fields	-11781
▁schild	-11782
▁supply	-11783
▁Zwitserland	-11784
={{	-11785
doek	-11786
▁11.	-11787
iënten	-11788
urance	-11789
▁monster	-11790
▁verhuis	-11791
▁Europees	-11792
轻松	-11793
▁Res	-11794
irect	-11795
▁heat	-11796
▁chuck	-11797
跑步	-11798
▁Ont	-11799
14)	-11800
gsel	-11801
vest	-11802
▁homes	-11803
▁burning	-11804
▁plaatsv	-11805
▁branches	-11806
▁ontvangen	-11807
树下	-11808
马拉	-11809
kes	-11810
ours	-11811
kkers	-11812
▁(115	-11813
▁kamp	-11814
▁Jimmy	-11815
▁fasten	-11816
▁bezoekers	-11817
li	-11818
半径	-11819
TEN	-11820
krant	-11821
▁larger	-11822
},	-11823
介质	-11824
小黑	-11825
差异	-11826
一直在	-11827
kwam	-11828
▁las	-11829
annel	-11830
▁solemn	-11831
▁Priscilla	-11832
也挺	-11833
回了	-11834
zaal	-11835
▁Long	-11836
▁varen	-11837
▁Louise	-11838
▁strike	-11839
▁vreemd	-11840
▁后	-11841
▁handed	-11842
加速度	-11843
▁phys	-11844
▁plein	-11845
▁geboorte	-11846
▁directeur	-11847
白兔	-11848
▁0.	-11849
intje	-11850
shine	-11851
▁Inst	-11852
▁forg	-11853
人口	-11854
恐龙	-11855
bur	-11856
▁cy	-11857
是这样	-11858
▁kal	-11859
▁Joden	-11860
你想	-11861
和平	-11862
抱着	-11863
▁这儿	-11864
▁Top	-11865
▁stadion	-11866
▁衣服	-11867
▁bond	-11868
ublike	-11869
▁legde	-11870
▁ontmoet	-11871
▁function	-11872
太好了	-11873
table	-11874
▁enthus	-11875
▁Berlijn	-11876
▁normale	-11877
netjes	-11878
▁klass	-11879
▁afhankelijk	-11880
丈夫	-11881
ancing	-11882
reaten	-11883
▁eiwit	-11884
▁Margaret	-11885
▁President	-11886
laar	-11887
▁salt	-11888
▁easier	-11889
▁services	-11890
小球	-11891
▁FC	-11892
▁NE	-11893
etter	-11894
paard	-11895
▁golf	-11896
▁kindje	-11897
▁refused	-11898
▁变	-11899
名叫	-11900
roe	-11901
▁Ly	-11902
▁正确	-11903
▁sang	-11904
▁equal	-11905
▁ermee	-11906
主动	-11907
孔雀	-11908
提醒	-11909
评价	-11910
回家了	-11911
在一个	-11912
▁怎么样	-11913
▁cases	-11914
▁schak	-11915
▁vrolijk	-11916
▁entrance	-11917
44	-11918
hof	-11919
我朋友	-11920
大地	-11921
测试	-11922
▁Conf	-11923
▁tempt	-11924
▁content	-11925
行星	-11926
▁aye	-11927
▁Azië	-11928
▁spannend	-11929
用户	-11930
货币	-11931
}$,	-11932
▁Hitler	-11933
▁capital	-11934
▁affection	-11935
▁beantwoord	-11936
▁basisschool	-11937
夜晚	-11938
▁Oude	-11939
▁peer	-11940
imming	-11941
▁altern	-11942
▁steamer	-11943
▁Onderzoek	-11944
好久	-11945
的吧	-11946
集中	-11947
▁county	-11948
▁upstairs	-11949
▁responded	-11950
▁Italiaanse	-11951
草莓	-11952
讨论	-11953
▁bay	-11954
▁lit	-11955
vraag	-11956
▁spare	-11957
季节	-11958
累了	-11959
▁Cat	-11960
▁vul	-11961
anned	-11962
▁Irish	-11963
▁bushes	-11964
▁served	-11965
▁attractie	-11966
▁percentage	-11967
广告	-11968
halve	-11969
eeling	-11970
▁smaller	-11971
▁unfortun	-11972
schappelijke	-11973
";	-11974
一头	-11975
圆形	-11976
留下	-11977
自行	-11978
解答	-11979
物质的	-11980
▁fem	-11981
itely	-11982
▁choose	-11983
▁sooner	-11984
▁Externe	-11985
▁consult	-11986
▁details	-11987
ko	-11988
REL	-11989
▁Hy	-11990
的表现	-11991
是错误的	-11992
▁weap	-11993
复杂	-11994
▁pig	-11995
▁1999	-11996
▁levert	-11997
▁trouwde	-11998
vi	-11999
女主	-12000
rob	-12001
▁75	-12002
aller	-12003
ussel	-12004
▁exped	-12005
离开了	-12006
arije	-12007
▁County	-12008
▁movement	-12009
▁vanavond	-12010
▁Luxemburg	-12011
分解	-12012
吃掉	-12013
大多	-12014
rak	-12015
uge	-12016
▁map	-12017
▁trek	-12018
▁sprook	-12019
▁minstens	-12020
stellingen	-12021
儿童	-12022
的美	-12023
box	-12024
▁BY	-12025
▁oil	-12026
▁cade	-12027
▁kilo	-12028
▁subst	-12029
▁fucking	-12030
和他	-12031
走进	-12032
▁nar	-12033
ommen	-12034
▁Sven	-12035
▁全	-12036
愿望	-12037
黄色	-12038
yes	-12039
▁platform	-12040
水里	-12041
assa	-12042
aries	-12043
▁August	-12044
▁finger	-12045
▁waaruit	-12046
公共	-12047
采取	-12048
▁Vir	-12049
▁civil	-12050
▁Walter	-12051
▁Francis	-12052
▁threaten	-12053
反而	-12054
毕业	-12055
老头	-12056
▁你是	-12057
▁amuse	-12058
剩下	-12059
▁coach	-12060
▁lonely	-12061
▁VS	-12062
长时间	-12063
▁advis	-12064
▁honor	-12065
▁zenuw	-12066
▁近	-12067
的不	-12068
这条	-12069
0$$,	-12070
ronen	-12071
▁impat	-12072
genoten	-12073
▁EK	-12074
▁tin	-12075
waard	-12076
▁arme	-12077
▁emer	-12078
▁keren	-12079
▁redden	-12080
▁hanging	-12081
中午	-12082
姐妹	-12083
▁2:	-12084
▁pec	-12085
orven	-12086
▁们	-12087
他俩	-12088
aatsen	-12089
Perhaps	-12090
redenen	-12091
▁nerv	-12092
▁waard	-12093
▁hogere	-12094
▁negent	-12095
▁Constant	-12096
▁boerderij	-12097
88	-12098
一群	-12099
粮食	-12100
群众	-12101
跳跳	-12102
koek	-12103
feest	-12104
▁extrem	-12105
▁bewering	-12106
我能	-12107
▁Those	-12108
▁climb	-12109
▁upper	-12110
你去	-12111
IJK	-12112
▁我就	-12113
▁smaak	-12114
▁duurde	-12115
▁admitted	-12116
Me	-12117
对啊	-12118
贡献	-12119
基本上	-12120
▁Hor	-12121
▁curt	-12122
▁stiff	-12123
▁driven	-12124
▁flower	-12125
▁minuut	-12126
▁zoiets	-12127
▁naartoe	-12128
▁Pinkeltje	-12129
▁六	-12130
我又	-12131
奥运会	-12132
▁waves	-12133
▁zonne	-12134
▁events	-12135
▁provis	-12136
▁mannetje	-12137
▁delightful	-12138
惊讶	-12139
维护	-12140
}}{	-12141
大部分	-12142
array	-12143
▁appe	-12144
▁bedroom	-12145
▁slightly	-12146
▁approached	-12147
▁thoroughly	-12148
熟悉	-12149
▁一定	-12150
tens	-12151
onken	-12152
▁resultaat	-12153
▁不知道	-12154
oging	-12155
vogel	-12156
▁却	-12157
利润	-12158
feer	-12159
kamp	-12160
{1}{3	-12161
ground	-12162
小于	-12163
释放	-12164
abl	-12165
我之前	-12166
here	-12167
▁shuo	-12168
▁breast	-12169
▁gesprek	-12170
▁neighbor	-12171
》。	-12172
客人	-12173
指出	-12174
联赛	-12175
:$$\	-12176
▁hoed	-12177
▁stak	-12178
▁wolken	-12179
▁climbed	-12180
▁gentlemen	-12181
merk	-12182
▁Alf	-12183
apping	-12184
esters	-12185
▁streng	-12186
破了	-12187
肺炎	-12188
had	-12189
amel	-12190
▁unh	-12191
Thank	-12192
▁Flor	-12193
▁getal	-12194
oln	-12195
▁concert	-12196
▁genaamd	-12197
79	-12198
▁其	-12199
他还	-12200
osl	-12201
▁Bul	-12202
▁gym	-12203
illes	-12204
imaat	-12205
▁date	-12206
▁grou	-12207
▁Boston	-12208
你会	-12209
同意	-12210
毛毛虫	-12211
▁wiel	-12212
效率	-12213
▁snoep	-12214
▁kissed	-12215
▁required	-12216
怎么会	-12217
▁maag	-12218
onderden	-12219
▁sluiten	-12220
地对	-12221
香味	-12222
mit	-12223
巨大的	-12224
▁riding	-12225
因此正确答案是	-12226
▁dancing	-12227
失败	-12228
我这	-12229
▁bold	-12230
▁vrucht	-12231
▁Amerikaans	-12232
热量	-12233
}}=\	-12234
▁Suz	-12235
▁garage	-12236
▁bedoeling	-12237
台上	-12238
▁下去	-12239
▁生气	-12240
公司的	-12241
$$20	-12242
wijd	-12243
▁Ren	-12244
▁fal	-12245
entjes	-12246
▁Stone	-12247
▁sloot	-12248
欣赏	-12249
机器人	-12250
肯定是	-12251
roon	-12252
▁lesson	-12253
▁schouders	-12254
实践	-12255
阶级	-12256
一起去	-12257
istic	-12258
opper	-12259
▁drift	-12260
▁klopt	-12261
ization	-12262
▁棒	-12263
就很	-12264
IES	-12265
车来了	-12266
▁Zou	-12267
▁kinds	-12268
▁waste	-12269
▁arbeiders	-12270
光合	-12271
电压	-12272
▁33	-12273
oster	-12274
▁emmer	-12275
调节	-12276
▁Hi	-12277
长大了	-12278
▁Hard	-12279
▁steekt	-12280
▁wicked	-12281
▁foolish	-12282
草原	-12283
运输	-12284
难过	-12285
Duits	-12286
▁crept	-12287
▁indruk	-12288
▁Noorwegen	-12289
屋里	-12290
男生	-12291
gde	-12292
相同的	-12293
ertjes	-12294
▁Linc	-12295
▁appreci	-12296
▁resultaten	-12297
▁veranderde	-12298
难以	-12299
颗粒	-12300
体现了	-12301
真正的	-12302
▁sleeping	-12303
▁mogelijke	-12304
▁Britten	-12305
▁planning	-12306
OS	-12307
▁;	-12308
▁收	-12309
-104	-12310
zorg	-12311
不一会儿	-12312
instru	-12313
vragen	-12314
▁Colonel	-12315
▁sisters	-12316
▁studenten	-12317
为主	-12318
最好	-12319
死亡	-12320
股票	-12321
▁qi	-12322
▁unus	-12323
▁knocked	-12324
▁gepublic	-12325
▁grondwet	-12326
▁laughter	-12327
▁individual	-12328
85	-12329
口口	-12330
ompl	-12331
zier	-12332
▁bare	-12333
大气	-12334
oeh	-12335
你喜欢	-12336
▁aim	-12337
richting	-12338
▁ontbreekt	-12339
esc	-12340
我没有	-12341
orted	-12342
▁bund	-12343
urally	-12344
▁Fanny	-12345
▁range	-12346
▁serve	-12347
固体	-12348
飞行	-12349
▁goo	-12350
▁dawn	-12351
▁beleid	-12352
▁decide	-12353
▁recept	-12354
医疗	-12355
的路	-12356
的风	-12357
醒来	-12358
▁geest	-12359
▁suffer	-12360
▁Another	-12361
▁springt	-12362
▁evidence	-12363
▁Sometimes	-12364
}}_3	-12365
▁toet	-12366
▁stared	-12367
▁stierf	-12368
这时候	-12369
Your	-12370
▁Nob	-12371
▁weig	-12372
▁Celest	-12373
的前	-12374
▁aap	-12375
▁Thus	-12376
▁drugs	-12377
▁Indonesië	-12378
▁waterstof	-12379
▁wetenschap	-12380
.=	-12381
gh	-12382
是很	-12383
话说	-12384
ito	-12385
▁Hello	-12386
▁clouds	-12387
▁wooden	-12388
▁verlaten	-12389
▁structuur	-12390
角色	-12391
aya	-12392
开始了	-12393
这部剧	-12394
rich	-12395
uliar	-12396
{1}{2	-12397
▁2024	-12398
▁subs	-12399
尊重	-12400
之类的	-12401
▁Leon	-12402
▁darm	-12403
▁neut	-12404
▁escaped	-12405
▁commander	-12406
▁possession	-12407
▁正	-12408
呜呜	-12409
▁paused	-12410
▁sixteen	-12411
没了	-12412
▁LE	-12413
pleeg	-12414
▁komende	-12415
▁omgezet	-12416
▁verhoud	-12417
▁springen	-12418
块钱	-12419
vrij	-12420
▁ops	-12421
▁Mill	-12422
▁sloeg	-12423
▁throat	-12424
Re	-12425
eegt	-12426
oever	-12427
▁heks	-12428
▁vóór	-12429
▁Doctor	-12430
▁triumph	-12431
▁goederen	-12432
▁山	-12433
两千	-12434
▁只要	-12435
ibrary	-12436
▁Wester	-12437
▁bleven	-12438
▁versche	-12439
两位	-12440
▁Gil	-12441
▁Arch	-12442
▁marry	-12443
▁eerlijk	-12444
▁influence	-12445
保险	-12446
ijnse	-12447
▁miljoenen	-12448
看得	-12449
在关注	-12450
真的太	-12451
isting	-12452
▁cruel	-12453
▁pride	-12454
▁farmer	-12455
▁treated	-12456
▁zwembad	-12457
常见	-12458
当地	-12459
所谓	-12460
接近	-12461
agne	-12462
▁according	-12463
▁国	-12464
第四	-12465
老爷爷	-12466
vissen	-12467
▁nogal	-12468
▁silly	-12469
▁sprong	-12470
▁trouwens	-12471
▁computers	-12472
叫声	-12473
对他	-12474
青年	-12475
身上的	-12476
▁pressed	-12477
▁electric	-12478
贸易	-12479
Jij	-12480
到时候	-12481
hest	-12482
rikk	-12483
▁Dolly	-12484
▁Holly	-12485
▁closely	-12486
便宜	-12487
男主	-12488
是正确的	-12489
43	-12490
绿色的	-12491
▁Doordat	-12492
▁Meestal	-12493
Mr	-12494
重视	-12495
hang	-12496
breng	-12497
baarheid	-12498
▁everywhere	-12499
猎人	-12500
跑去	-12501
aches	-12502
▁1998	-12503
▁lagen	-12504
Ar	-12505
GE	-12506
▁外面	-12507
▁Germ	-12508
▁haren	-12509
▁steel	-12510
▁Lincoln	-12511
▁peculiar	-12512
抬头	-12513
试试	-12514
没有人	-12515
▁noble	-12516
▁conflict	-12517
IK	-12518
aces	-12519
▁strik	-12520
▁bigger	-12521
▁Beschrijf	-12522
使得	-12523
请问	-12524
gene	-12525
eraal	-12526
▁#	-12527
▁maatregelen	-12528
统计	-12529
▁ku	-12530
▁我知道	-12531
▁cord	-12532
▁Afrik	-12533
▁Tommy	-12534
▁beker	-12535
▁crown	-12536
▁bereikt	-12537
散步	-12538
模式	-12539
袋鼠	-12540
▁Cont	-12541
▁Prince	-12542
▁current	-12543
▁geprodu	-12544
arf	-12545
}-\	-12546
转化为	-12547
alled	-12548
gebouw	-12549
▁naught	-12550
▁voorkomt	-12551
▁voorwerpen	-12552
▁Ell	-12553
▁issue	-12554
▁Buiten	-12555
▁hierna	-12556
▁wisten	-12557
。[	-12558
恒大	-12559
的过程	-12560
auff	-12561
ATIVE	-12562
repen	-12563
▁addition	-12564
▁dull	-12565
omming	-12566
▁Fries	-12567
▁haast	-12568
▁oudere	-12569
▁vielen	-12570
▁confidence	-12571
再说	-12572
痛苦	-12573
vak	-12574
小青蛙	-12575
keers	-12576
temis	-12577
▁buff	-12578
▁heten	-12579
▁safely	-12580
▁nationale	-12581
上有	-12582
▁veget	-12583
▁provided	-12584
ulated	-12585
形容	-12586
记忆	-12587
▁én	-12588
▁Oud	-12589
你知道吗	-12590
▁Tsje	-12591
▁Roman	-12592
始终	-12593
家长	-12594
成就	-12595
手道	-12596
▁Amy	-12597
▁cave	-12598
landse	-12599
▁ideas	-12600
▁original	-12601
博士	-12602
回头	-12603
强度	-12604
着头	-12605
bord	-12606
▁Els	-12607
ulden	-12608
▁load	-12609
bergen	-12610
stenen	-12611
▁gehele	-12612
▁kampioen	-12613
▁leerling	-12614
SO	-12615
▁王	-12616
iaal	-12617
iaan	-12618
▁这样子	-12619
我们可以	-12620
▁juff	-12621
▁fired	-12622
▁poten	-12623
▁raakt	-12624
▁steam	-12625
▁prospect	-12626
▁committee	-12627
▁argumenten	-12628
▁、	-12629
怎么说	-12630
▁barn	-12631
wereld	-12632
▁wezen	-12633
42	-12634
太多	-12635
球赛	-12636
至于	-12637
▁Ev	-12638
uing	-12639
▁Edward	-12640
gestelde	-12641
▁centimeter	-12642
中有	-12643
创业	-12644
欺负	-12645
热情	-12646
veen	-12647
▁fer	-12648
▁worn	-12649
▁smell	-12650
▁voert	-12651
▁Pieter	-12652
法国	-12653
▁HI	-12654
▁姐姐	-12655
实验中	-12656
iron	-12657
anker	-12658
arden	-12659
▁Camp	-12660
二零二零年	-12661
▁voorlop	-12662
▁relation	-12663
4-	-12664
倍数	-12665
发明	-12666
帮你	-12667
拉着	-12668
落在	-12669
-89	-12670
▁太阳	-12671
Sure	-12672
Peter	-12673
▁sounded	-12674
▁brilliant	-12675
▁democratie	-12676
▁某	-12677
{10	-12678
▁回来	-12679
chem	-12680
▁gained	-12681
▁vieren	-12682
▁occurred	-12683
做法	-12684
半年	-12685
都说	-12686
▁au	-12687
▁Alles	-12688
▁merely	-12689
▁proceeded	-12690
▁interrupted	-12691
推进	-12692
气候	-12693
▁一直	-12694
ially	-12695
▁goat	-12696
▁Atlant	-12697
▁palace	-12698
▁prepar	-12699
▁uitgezonden	-12700
werkers	-12701
对吧	-12702
得好	-12703
罗斯	-12704
yer	-12705
."--_	-12706
ossen	-12707
▁Surin	-12708
▁slang	-12709
开展	-12710
For	-12711
uze	-12712
▁lap	-12713
▁nep	-12714
ambda	-12715
▁(127	-12716
▁Many	-12717
▁horn	-12718
auffeur	-12719
▁Sixtus	-12720
▁bottle	-12721
▁fishing	-12722
固定	-12723
我才	-12724
jest	-12725
▁commer	-12726
▁settle	-12727
▁camping	-12728
▁middelbare	-12729
不去	-12730
▁pa	-12731
anch	-12732
plein	-12733
▁grim	-12734
genoot	-12735
▁awake	-12736
▁senten	-12737
▁mistress	-12738
▁authority	-12739
At	-12740
▁derg	-12741
▁Julius	-12742
▁waarna	-12743
▁woonde	-12744
▁monarch	-12745
edt	-12746
itive	-12747
▁mast	-12748
▁begra	-12749
客气	-12750
bond	-12751
}$$(	-12752
uizen	-12753
▁swim	-12754
▁wound	-12755
▁whenever	-12756
效应	-12757
鼓励	-12758
对不对	-12759
我们就	-12760
▁Sport	-12761
▁gliml	-12762
▁Winter	-12763
▁rondje	-12764
▁Japanse	-12765
RA	-12766
情感	-12767
=$$	-12768
Mar	-12769
utch	-12770
▁likes	-12771
▁cottage	-12772
▁document	-12773
没关系	-12774
lied	-12775
▁geit	-12776
lambda	-12777
▁color	-12778
▁~	-12779
oei	-12780
ikki	-12781
▁mode	-12782
atives	-12783
▁draad	-12784
▁habit	-12785
▁Chairman	-12786
+4	-12787
一路	-12788
搞笑	-12789
疾病	-12790
Van	-12791
▁垃圾	-12792
▁进去	-12793
Very	-12794
▁Wood	-12795
orters	-12796
▁eaten	-12797
▁uitst	-12798
▁wassen	-12799
浑身	-12800
▁(68	-12801
▁anch	-12802
▁Niels	-12803
▁style	-12804
▁外	-12805
▁美	-12806
陕西	-12807
▁kid	-12808
}_{1}	-12809
▁lood	-12810
▁fence	-12811
▁sugar	-12812
ooppunt	-12813
▁aanval	-12814
▁Celestinus	-12815
一夜	-12816
公平	-12817
▁AC	-12818
生活的	-12819
▁Allah	-12820
印象	-12821
小学	-12822
pas	-12823
uim	-12824
leid	-12825
▁ooh	-12826
▁Bour	-12827
▁toss	-12828
▁fleet	-12829
▁wagon	-12830
▁hoewel	-12831
RELATIVE	-12832
▁servants	-12833
▁verhaaltje	-12834
多样	-12835
熊猫	-12836
厉害的	-12837
▁ours	-12838
▁indign	-12839
▁inspect	-12840
患者	-12841
可不是	-12842
▁begun	-12843
▁persu	-12844
▁zevent	-12845
icit	-12846
ollow	-12847
ikkers	-12848
▁succesvol	-12849
及时	-12850
rig	-12851
▁Ray	-12852
▁labor	-12853
▁ashore	-12854
之中	-12855
仙女	-12856
公开	-12857
形成的	-12858
▁Rand	-12859
▁lack	-12860
▁fourteen	-12861
一动	-12862
有限	-12863
uwd	-12864
^{2}}	-12865
ulous	-12866
arning	-12867
▁karak	-12868
▁landed	-12869
▁conduct	-12870
▁precious	-12871
ïs	-12872
感动	-12873
田鼠	-12874
线的	-12875
出现在	-12876
▁Colle	-12877
▁signs	-12878
万元	-12879
方的	-12880
ique	-12881
aartje	-12882
▁koopt	-12883
ibility	-12884
▁vernoemd	-12885
猫头鹰	-12886
elder	-12887
▁poot	-12888
▁toep	-12889
▁Intern	-12890
▁excuse	-12891
▁koninkrijk	-12892
57	-12893
多个	-12894
gez	-12895
▁Cam	-12896
▁leefde	-12897
▁tijden	-12898
您的	-12899
玩耍	-12900
▁Night	-12901
▁fabrieken	-12902
▁AT	-12903
还是挺	-12904
的故事点评	-12905
▁areas	-12906
▁swept	-12907
▁behoort	-12908
▁cheerful	-12909
▁properly	-12910
▁办	-12911
站了	-12912
▁brom	-12913
▁maid	-12914
▁munt	-12915
▁rear	-12916
▁gazed	-12917
▁realize	-12918
▁constant	-12919
▁experien	-12920
▁hartstikke	-12921
▁Ondertussen	-12922
小朋友们	-12923
known	-12924
verne	-12925
▁bore	-12926
▁metaal	-12927
▁verplicht	-12928
夜里	-12929
▁wees	-12930
estigd	-12931
inking	-12932
▁calls	-12933
▁accompl	-12934
退役	-12935
ila	-12936
▁Artemis	-12937
▁shelter	-12938
▁Minister	-12939
▁arranged	-12940
了他	-12941
▁vest	-12942
▁newsp	-12943
▁gemeenten	-12944
97	-12945
你了	-12946
dur	-12947
▁MO	-12948
实际上	-12949
▁viss	-12950
▁afkomstig	-12951
▁ontwikkeld	-12952
▁次	-12953
加快	-12954
如今	-12955
没人	-12956
胖胖	-12957
防止	-12958
▁由于	-12959
▁Fox	-12960
▁push	-12961
▁Oxford	-12962
▁gewond	-12963
▁previous	-12964
不怕	-12965
公布	-12966
即可	-12967
统治	-12968
▁出去	-12969
▁厉害	-12970
voeg	-12971
▁circle	-12972
▁thrust	-12973
▁juffrouw	-12974
想了	-12975
▁ach	-12976
▁bevatten	-12977
▁(16	-12978
▁dek	-12979
order	-12980
▁sunshine	-12981
多多	-12982
男人	-12983
怎么了	-12984
▁Nath	-12985
▁ramp	-12986
▁About	-12987
▁benefit	-12988
严格	-12989
事业	-12990
▁Cub	-12991
▁Out	-12992
kunst	-12993
nacht	-12994
▁1990	-12995
▁Lake	-12996
▁Tsjech	-12997
▁volledige	-12998
▁plotseling	-12999
CBA	-13000
rif	-13001
}^{\	-13002
▁Cap	-13003
光合作用	-13004
▁grant	-13005
▁prize	-13006
就算	-13007
顿时	-13008
zes	-13009
▁oranje	-13010
▁automob	-13011
▁adventures	-13012
综艺	-13013
采用	-13014
▁房子	-13015
▁Hoofd	-13016
▁vliegtuigen	-13017
▁怕	-13018
Kijk	-13019
▁mes	-13020
▁∴$$	-13021
▁Hill	-13022
▁wine	-13023
▁natives	-13024
▁servant	-13025
网友	-13026
stoel	-13027
▁brak	-13028
▁swung	-13029
▁aanget	-13030
▁opsomming	-13031
屋子	-13032
oused	-13033
▁Joseph	-13034
▁bureau	-13035
▁stretched	-13036
南瓜	-13037
ieuze	-13038
partij	-13039
▁cliff	-13040
▁Opdracht	-13041
▁Charlotte	-13042
北极	-13043
urd	-13044
什么事	-13045
adel	-13046
▁400	-13047
▁sum	-13048
▁guests	-13049
Chr	-13050
▁非常	-13051
▁Luci	-13052
▁straw	-13053
就去	-13054
怪兽	-13055
瞬间	-13056
gever	-13057
endous	-13058
▁stelde	-13059
偶尔	-13060
周末	-13061
懂得	-13062
糖果	-13063
low	-13064
有一只	-13065
lucht	-13066
▁fold	-13067
▁guide	-13068
▁marked	-13069
探究	-13070
Ind	-13071
▁Him	-13072
▁Poor	-13073
▁speler	-13074
▁meerder	-13075
资料	-13076
消费者	-13077
iast	-13078
▁owner	-13079
▁prett	-13080
▁Brussel	-13081
▁groepje	-13082
▁quality	-13083
▁vrijwel	-13084
利亚	-13085
好听	-13086
差点	-13087
比喻	-13088
rep	-13089
▁Ass	-13090
▁Felix	-13091
▁affair	-13092
▁knikte	-13093
▁olifant	-13094
▁Eh	-13095
大大的	-13096
特别的	-13097
▁Gol	-13098
▁bug	-13099
oting	-13100
▁partly	-13101
kg	-13102
小羊	-13103
盒子	-13104
▁scheme	-13105
▁Besides	-13106
不像	-13107
新闻啊	-13108
▁Tay	-13109
▁Star	-13110
▁loon	-13111
命运	-13112
干嘛	-13113
asted	-13114
▁Hoog	-13115
▁Quin	-13116
▁tour	-13117
tained	-13118
▁crisis	-13119
住着	-13120
做到	-13121
预计	-13122
▁inh	-13123
数据显示	-13124
amilie	-13125
▁flash	-13126
▁instance	-13127
叫着	-13128
$$5	-13129
▁Girl	-13130
▁Nell	-13131
▁blame	-13132
▁christ	-13133
▁gedragen	-13134
▁遍	-13135
有机	-13136
▁1)	-13137
▁reed	-13138
▁block	-13139
▁beschad	-13140
形态	-13141
icks	-13142
▁ancient	-13143
▁succeeded	-13144
之下	-13145
命令	-13146
▁BL	-13147
▁zai	-13148
▁stead	-13149
▁Hierna	-13150
▁associ	-13151
▁voordeel	-13152
▁development	-13153
▁拍	-13154
口水	-13155
挑战	-13156
告诉我	-13157
gesp	-13158
▁afd	-13159
▁caf	-13160
▁duck	-13161
anders	-13162
▁islam	-13163
ustomed	-13164
▁troops	-13165
同样	-13166
恐怖	-13167
▁volt	-13168
▁Grant	-13169
▁thunder	-13170
▁adventure	-13171
明明	-13172
▁vig	-13173
▁raak	-13174
iviteit	-13175
▁League	-13176
▁spiegel	-13177
otor	-13178
▁Han	-13179
这个电影	-13180
▁keken	-13181
▁opvol	-13182
▁zakken	-13183
▁vervoer	-13184
▁tevreden	-13185
黄金	-13186
oge	-13187
chief	-13188
▁Jord	-13189
▁twijf	-13190
▁vrede	-13191
▁invited	-13192
▁community	-13193
Le	-13194
年代	-13195
显得	-13196
的嘛	-13197
neem	-13198
▁torn	-13199
▁National	-13200
出生	-13201
本书	-13202
▁ram	-13203
▁truly	-13204
▁verkeer	-13205
▁muttered	-13206
▁∵	-13207
巴巴	-13208
背上	-13209
gly	-13210
▁38	-13211
▁RE	-13212
▁第二	-13213
zoals	-13214
▁1960	-13215
▁belt	-13216
oortje	-13217
({	-13218
这样子	-13219
▁misl	-13220
▁hasten	-13221
▁stevig	-13222
▁basically	-13223
vet	-13224
部电影	-13225
ints	-13226
erved	-13227
▁folk	-13228
▁tells	-13229
▁tramp	-13230
gedrukt	-13231
▁accepted	-13232
品牌	-13233
▁xi	-13234
_{2}	-13235
azed	-13236
▁Squ	-13237
▁beroep	-13238
▁concur	-13239
▁merken	-13240
▁Nothing	-13241
mei	-13242
把自己	-13243
▁telt	-13244
实行	-13245
密切	-13246
ideo	-13247
ingt	-13248
▁Eduard	-13249
▁fought	-13250
▁bericht	-13251
▁materialen	-13252
经典	-13253
亲爱的	-13254
▁mas	-13255
rison	-13256
▁famous	-13257
▁supermarkt	-13258
标志	-13259
回到家	-13260
iture	-13261
▁vote	-13262
▁Annie	-13263
▁troon	-13264
▁geslacht	-13265
deur	-13266
gedaan	-13267
▁undert	-13268
▁nearest	-13269
起床	-13270
boat	-13271
snel	-13272
arton	-13273
denly	-13274
公众	-13275
设备	-13276
贝贝	-13277
青春	-13278
▁Spr	-13279
▁piano	-13280
人了	-13281
员工	-13282
安慰	-13283
电器	-13284
▁当时	-13285
enth	-13286
oensdag	-13287
广泛	-13288
的身	-13289
追求	-13290
▁worried	-13291
▁football	-13292
▁learning	-13293
▁Jong	-13294
▁recomm	-13295
▁resist	-13296
kampioen	-13297
▁vulkaan	-13298
▁betrokken	-13299
不但	-13300
▁conv	-13301
▁joke	-13302
▁honour	-13303
▁warning	-13304
▁prachtige	-13305
人说	-13306
钢琴	-13307
vdA	-13308
了一条	-13309
issa	-13310
kers	-13311
ammed	-13312
▁fate	-13313
geboren	-13314
▁daarop	-13315
▁unable	-13316
个月	-13317
<{}	-13318
pat	-13319
oard	-13320
▁fox	-13321
说法错误	-13322
▁method	-13323
▁continue	-13324
▁intellig	-13325
▁vluchten	-13326
▁betekenen	-13327
▁楼	-13328
农村	-13329
呼噜	-13330
新鲜	-13331
,$${	-13332
four	-13333
uvel	-13334
▁MAAR	-13335
▁Sche	-13336
▁Princ	-13337
▁eeuwen	-13338
▁occupied	-13339
▁anxiously	-13340
一致	-13341
亚洲	-13342
发芽	-13343
神经	-13344
结论	-13345
花瓣	-13346
emel	-13347
▁Vor	-13348
▁Wed	-13349
▁anger	-13350
▁stamp	-13351
▁Burton	-13352
▁抱	-13353
三天	-13354
招呼	-13355
那一	-13356
▁fasc	-13357
▁prakt	-13358
▁vloer	-13359
▁regret	-13360
▁groeide	-13361
▁landing	-13362
CE	-13363
二百	-13364
的了	-13365
▁ZE	-13366
这么说	-13367
▁Wall	-13368
elende	-13369
▁arose	-13370
▁bewust	-13371
▁Janneke	-13372
▁proposed	-13373
▁quarters	-13374
▁那是	-13375
▁meen	-13376
▁zonn	-13377
▁Sandy	-13378
▁wetten	-13379
▁amongst	-13380
▁bearing	-13381
▁programme	-13382
aleis	-13383
ffect	-13384
lecul	-13385
▁buried	-13386
▁vertel	-13387
▁sleutel	-13388
师傅	-13389
serv	-13390
▁tunnel	-13391
▁powerful	-13392
▁volwassenen	-13393
熬夜	-13394
▁ep	-13395
最近的	-13396
▁bem	-13397
▁ket	-13398
▁mal	-13399
▁bril	-13400
▁李	-13401
蚯蚓	-13402
uding	-13403
▁hoeven	-13404
▁wealth	-13405
▁instantly	-13406
-25	-13407
▁Bep	-13408
▁Vert	-13409
moeten	-13410
▁Theod	-13411
▁extent	-13412
▁gebleven	-13413
▁produced	-13414
▁begrijpen	-13415
34	-13416
人工	-13417
前的	-13418
好几	-13419
uan	-13420
▁shed	-13421
▁avont	-13422
▁hoping	-13423
▁vrijdag	-13424
打了	-13425
oked	-13426
▁kou	-13427
▁Stud	-13428
▁medicine	-13429
▁increased	-13430
▁natuurlijke	-13431
、"	-13432
veil	-13433
▁Down	-13434
▁Take	-13435
▁Bijna	-13436
inklijke	-13437
▁reasons	-13438
▁netjes	-13439
▁Wilhelm	-13440
▁getallen	-13441
▁increase	-13442
关心	-13443
Heb	-13444
不需要	-13445
...-	-13446
rouwd	-13447
▁kring	-13448
▁stations	-13449
▁speelgoed	-13450
上下	-13451
消耗	-13452
的方式	-13453
的眼睛	-13454
ceren	-13455
igens	-13456
oorde	-13457
▁ziel	-13458
▁Sever	-13459
▁bijen	-13460
▁sought	-13461
▁section	-13462
▁Voorbeelden	-13463
等待	-13464
被子	-13465
购买	-13466
plan	-13467
▁Bol	-13468
▁maal	-13469
8-	-13470
▁无	-13471
年来	-13472
桃子	-13473
浓度	-13474
羽毛球	-13475
erous	-13476
▁digit	-13477
▁gloom	-13478
▁trouwen	-13479
▁standaard	-13480
▁uitzending	-13481
要不	-13482
bli	-13483
▁Vo	-13484
的工作	-13485
这两个	-13486
▁Jackson	-13487
1:	-13488
By	-13489
故意	-13490
绿的	-13491
fst	-13492
ianr	-13493
twee	-13494
▁rag	-13495
▁zol	-13496
heeft	-13497
▁behe	-13498
▁dolf	-13499
▁ende	-13500
▁loving	-13501
▁Suddenly	-13502
▁aanleiding	-13503
AV	-13504
充满	-13505
请你	-13506
的方向	-13507
aman	-13508
ples	-13509
▁STAP	-13510
▁anxiety	-13511
最多	-13512
英语	-13513
转身	-13514
▁Verd	-13515
▁wake	-13516
Malley	-13517
▁bruin	-13518
▁liefde	-13519
▁tijdschrift	-13520
乔治	-13521
出发	-13522
针对	-13523
▁(200	-13524
▁koel	-13525
▁trunk	-13526
▁happening	-13527
率为	-13528
这句话	-13529
zend	-13530
vernij	-13531
outhern	-13532
▁Oceaan	-13533
▁driver	-13534
▁populaire	-13535
54	-13536
停止	-13537
八年	-13538
势能	-13539
ankt	-13540
yard	-13541
▁HEB	-13542
blijf	-13543
▁mere	-13544
人才	-13545
▁Di	-13546
▁Ath	-13547
▁hemel	-13548
▁kippen	-13549
▁online	-13550
▁platte	-13551
▁steken	-13552
▁approaching	-13553
感冒	-13554
但是我	-13555
▁Enk	-13556
urele	-13557
▁xiao	-13558
▁Virgin	-13559
▁Vietnam	-13560
▁hastily	-13561
▁Presently	-13562
▁professor	-13563
姆斯	-13564
abs	-13565
这不是	-13566
▁June	-13567
▁Ster	-13568
▁veert	-13569
▁behoorlijk	-13570
NO	-13571
上次	-13572
沙发	-13573
状况	-13574
hamed	-13575
hoofd	-13576
▁Baby	-13577
▁Turn	-13578
▁fans	-13579
winkel	-13580
jaarden	-13581
▁kaartje	-13582
▁nergens	-13583
▁sufficient	-13584
▁各	-13585
两条	-13586
isa	-13587
地看着	-13588
▁gal	-13589
▁buis	-13590
▁gast	-13591
▁jury	-13592
▁setting	-13593
▁kunstenaar	-13594
ua	-13595
加热	-13596
贷款	-13597
靠近	-13598
zik	-13599
▁6,	-13600
能不能	-13601
volgd	-13602
▁Form	-13603
▁Clare	-13604
▁rifle	-13605
▁schouder	-13606
人士	-13607
地把	-13608
车的	-13609
雪花	-13610
女孩子	-13611
▁Sab	-13612
▁annoy	-13613
▁Dennis	-13614
▁manager	-13615
UT	-13616
你还	-13617
皮皮	-13618
调皮	-13619
▁zilver	-13620
▁removed	-13621
▁动	-13622
团队	-13623
或许	-13624
orea	-13625
▁zaad	-13626
▁Robin	-13627
▁ashamed	-13628
▁assured	-13629
▁patient	-13630
$$;	-13631
▁Guy	-13632
▁Sing	-13633
▁Tegen	-13634
ilities	-13635
▁volgde	-13636
▁diverse	-13637
26	-13638
是吗	-13639
eslie	-13640
▁heer	-13641
▁momp	-13642
▁graaf	-13643
fragment	-13644
▁leefden	-13645
▁uitdruk	-13646
▁exercise	-13647
Niet	-13648
elet	-13649
▁gekleur	-13650
▁hierboven	-13651
拼命	-13652
等式	-13653
rho	-13654
还是要	-13655
▁...'	-13656
▁lust	-13657
minste	-13658
zullen	-13659
▁midst	-13660
▁Antwerpen	-13661
▁available	-13662
圣诞	-13663
小姑娘	-13664
▁Duck	-13665
ogelijk	-13666
到达	-13667
▁bul	-13668
▁hai	-13669
▁desk	-13670
keurig	-13671
▁klonk	-13672
bericht	-13673
▁Fransen	-13674
▁signific	-13675
四百	-13676
深刻	-13677
男篮	-13678
Voor	-13679
▁Joy	-13680
▁hua	-13681
▁branch	-13682
▁gestolen	-13683
▁huwelijk	-13684
ekt	-13685
▁这时	-13686
}}^{	-13687
▁boots	-13688
的天	-13689
自我	-13690
输了	-13691
▁pep	-13692
▁von	-13693
inders	-13694
▁死	-13695
梅花	-13696
▁BR	-13697
asie	-13698
▁valu	-13699
分裂	-13700
采访	-13701
des	-13702
▁Moor	-13703
▁cock	-13704
▁Afric	-13705
偶像	-13706
发光	-13707
道路	-13708
68)	-13709
zine	-13710
}^{2	-13711
▁bid	-13712
▁lies	-13713
▁Jezus	-13714
ilanden	-13715
▁execut	-13716
▁maandag	-13717
我可	-13718
童话	-13719
组合	-13720
▁佩奇	-13721
bell	-13722
▁Dist	-13723
▁Most	-13724
▁stik	-13725
station	-13726
▁fierce	-13727
▁vijand	-13728
▁persons	-13729
救命	-13730
更是	-13731
老婆	-13732
pan	-13733
allas	-13734
▁Kath	-13735
▁Wind	-13736
▁exch	-13737
▁creatures	-13738
二点	-13739
决心	-13740
工资	-13741
给它	-13742
mus	-13743
▁Il	-13744
▁file	-13745
▁mobi	-13746
▁ugly	-13747
▁ruimt	-13748
他对	-13749
张开	-13750
IGH	-13751
voc	-13752
wen	-13753
每一个	-13754
prob	-13755
reis	-13756
为什么要	-13757
▁Andy	-13758
▁Puck	-13759
▁Eugen	-13760
▁Party	-13761
▁plane	-13762
▁rijst	-13763
▁hiermee	-13764
▁verscheen	-13765
伸出	-13766
小红	-13767
One	-13768
mann	-13769
iguur	-13770
maker	-13771
aarden	-13772
▁aboard	-13773
▁sighed	-13774
咪咪	-13775
新官	-13776
角落	-13777
74)	-13778
的位置	-13779
▁Ram	-13780
▁mob	-13781
▁Mars	-13782
▁await	-13783
。。	-13784
四点	-13785
▁huur	-13786
▁Zelfs	-13787
▁raket	-13788
Op	-13789
▁金	-13790
quar	-13791
▁Liber	-13792
▁flung	-13793
waarden	-13794
▁huisje	-13795
▁provincies	-13796
Bl	-13797
联盟	-13798
躲在	-13799
wicht	-13800
▁Argent	-13801
▁efforts	-13802
▁吵	-13803
了呀	-13804
学的	-13805
umper	-13806
电磁	-13807
Sch	-13808
▁Av	-13809
aagd	-13810
ijds	-13811
▁sem	-13812
▁(118	-13813
▁kruisje	-13814
重的	-13815
投资者	-13816
▁Zwe	-13817
▁第二天	-13818
▁pond	-13819
不符合题意	-13820
▁goden	-13821
▁treinen	-13822
四周	-13823
失去	-13824
(1)	-13825
antic	-13826
ongfestival	-13827
一日	-13828
亲自	-13829
公民	-13830
▁害怕	-13831
讲故事	-13832
Will	-13833
leen	-13834
oung	-13835
▁bade	-13836
▁dashed	-13837
▁onjuist	-13838
▁Verklaar	-13839
▁successful	-13840
听着	-13841
听过	-13842
拿到	-13843
▁Aut	-13844
uinen	-13845
▁Papa	-13846
▁domin	-13847
▁stretch	-13848
president	-13849
▁techniek	-13850
▁羊	-13851
我只	-13852
▁34	-13853
cles	-13854
oped	-13855
Britt	-13856
▁1980	-13857
▁Maur	-13858
ikbaar	-13859
▁clock	-13860
▁dunno	-13861
▁inspir	-13862
▁toernooi	-13863
▁vloeistof	-13864
办公	-13865
祖国	-13866
的一声	-13867
▁VOOR	-13868
chester	-13869
▁horrible	-13870
▁vergelijken	-13871
开门	-13872
▁小熊	-13873
▁Nij	-13874
▁lukte	-13875
▁wegge	-13876
▁woning	-13877
及其	-13878
▁Tele	-13879
steden	-13880
igingen	-13881
▁kolonie	-13882
▁breaking	-13883
教授	-13884
点头	-13885
35)	-13886
$$6$$	-13887
stijl	-13888
lekker	-13889
▁spark	-13890
▁Bernard	-13891
▁duizend	-13892
▁vessels	-13893
▁toegekend	-13894
▁问	-13895
soort	-13896
▁Gold	-13897
Because	-13898
▁remind	-13899
▁sailor	-13900
▁图	-13901
一朵	-13902
大叔	-13903
豆豆	-13904
这才	-13905
40)	-13906
分别为	-13907
▁kok	-13908
双手	-13909
蚊子	-13910
bol	-13911
aamde	-13912
▁boog	-13913
▁Trump	-13914
blijven	-13915
▁Bovendien	-13916
▁opleiding	-13917
特色	-13918
▁Mu	-13919
有意思	-13920
brug	-13921
itable	-13922
▁feared	-13923
▁verkoop	-13924
▁insisted	-13925
▁elementen	-13926
加速	-13927
口罩	-13928
详解	-13929
出一个	-13930
小女孩	-13931
▁keel	-13932
▁vres	-13933
▁grappig	-13934
▁planeet	-13935
▁vierkant	-13936
▁voorzitter	-13937
共产	-13938
向上	-13939
难受	-13940
poes	-13941
{1}{4	-13942
▁guid	-13943
versch	-13944
▁rollen	-13945
▁grandmother	-13946
收听	-13947
▁Kw	-13948
woud	-13949
▁nek	-13950
▁wre	-13951
▁Such	-13952
ekende	-13953
▁plezier	-13954
▁winnaar	-13955
▁resolved	-13956
▁grandfather	-13957
喜鹊	-13958
这两	-13959
▁65	-13960
厉害了	-13961
erson	-13962
▁Verg	-13963
▁kindness	-13964
▁pointing	-13965
KEN	-13966
leed	-13967
就是那个	-13968
▁drown	-13969
▁eleph	-13970
▁begged	-13971
▁lijnen	-13972
▁resolut	-13973
▁woestijn	-13974
^{\	-13975
▁anyhow	-13976
一号	-13977
喊道	-13978
特别是	-13979
etta	-13980
etbal	-13981
rière	-13982
▁union	-13983
▁height	-13984
▁passag	-13985
▁donkere	-13986
▁Vlaanderen	-13987
ae	-13988
脚步	-13989
ouwing	-13990
▁dirty	-13991
▁jacht	-13992
▁vreemde	-13993
▁neerslag	-13994
▁conscious	-13995
ugg	-13996
mijn	-13997
infty	-13998
▁uren	-13999
▁afgeb	-14000
▁behor	-14001
▁schimm	-14002
▁varken	-14003
▁Eigenlijk	-14004
小象	-14005
指着	-14006
配合	-14007
▁raise	-14008
▁shake	-14009
▁Meneer	-14010
▁degree	-14011
▁pardon	-14012
▁stopte	-14013
▁gericht	-14014
▁militair	-14015
专家	-14016
事实	-14017
完善	-14018
▁不要	-14019
gels	-14020
▁Rab	-14021
▁有一次	-14022
ockey	-14023
▁donder	-14024
南方都市报播报	-14025
▁声	-14026
不聊	-14027
她说	-14028
kou	-14029
玩游戏	-14030
白色的	-14031
▁Len	-14032
usted	-14033
▁Tell	-14034
▁zang	-14035
master	-14036
▁Wales	-14037
▁scout	-14038
zettend	-14039
▁dachten	-14040
6,	-14041
▁九	-14042
农夫	-14043
执行	-14044
深圳	-14045
脾气	-14046
动物的	-14047
如果你	-14048
就是一个	-14049
▁mech	-14050
▁vormt	-14051
Brabant	-14052
▁Zwarte	-14053
▁affairs	-14054
▁changes	-14055
女子	-14056
我没	-14057
Wie	-14058
▁Lo	-14059
确实是	-14060
oons	-14061
▁(25	-14062
▁Mur	-14063
▁XVI	-14064
igend	-14065
▁plun	-14066
▁gewerkt	-14067
▁helping	-14068
▁recover	-14069
▁advanced	-14070
▁troubles	-14071
▁happiness	-14072
▁进	-14073
相反	-14074
到站了	-14075
aver	-14076
▁SCH	-14077
▁lessen	-14078
▁discussie	-14079
五个	-14080
指导	-14081
看不	-14082
bas	-14083
每天都	-14084
的基础	-14085
stam	-14086
▁Lucy	-14087
houder	-14088
▁klank	-14089
▁hertog	-14090
▁arrival	-14091
▁handels	-14092
▁symbool	-14093
antwoorden	-14094
▁antwoordde	-14095
▁meerderheid	-14096
avan	-14097
omer	-14098
▁plank	-14099
▁Taylor	-14100
▁treasure	-14101
七点	-14102
ilst	-14103
▁nav	-14104
▁zoet	-14105
atoren	-14106
▁sailed	-14107
▁heleboel	-14108
▁presented	-14109
送到	-14110
bot	-14111
allie	-14112
iepen	-14113
iently	-14114
▁拼	-14115
发达	-14116
昆虫	-14117
每年	-14118
▁Bi	-14119
可爱的	-14120
小动物们	-14121
还有一个	-14122
▁Serg	-14123
▁glor	-14124
▁leeuw	-14125
▁revol	-14126
▁groups	-14127
▁katten	-14128
宇宙	-14129
辈子	-14130
comp	-14131
▁Eva	-14132
▁Hann	-14133
▁hunt	-14134
▁onto	-14135
▁Chief	-14136
▁Potter	-14137
▁karakter	-14138
▁overstrom	-14139
▁settlement	-14140
是你	-14141
男子	-14142
theless	-14143
▁glazen	-14144
▁extremely	-14145
UM	-14146
三千	-14147
▁fo	-14148
▁Law	-14149
▁zachtjes	-14150
初中	-14151
盯着	-14152
人民币	-14153
iance	-14154
▁Beide	-14155
▁regent	-14156
▁steady	-14157
▁sharply	-14158
之外	-14159
死的	-14160
▁猫咪	-14161
的结果	-14162
▁Rod	-14163
▁uns	-14164
▁Anast	-14165
▁betrek	-14166
▁wapens	-14167
▁Frances	-14168
▁metalen	-14169
▁lieutenant	-14170
快递	-14171
▁gru	-14172
▁就是啊	-14173
▁Edna	-14174
▁Post	-14175
▁ware	-14176
▁Church	-14177
▁Museum	-14178
geschreven	-14179
73	-14180
ti	-14181
{~	-14182
地产	-14183
▁甚至	-14184
▁Ald	-14185
▁Gew	-14186
▁tank	-14187
▁handle	-14188
▁filosof	-14189
▁politici	-14190
们都	-14191
贵的	-14192
跑得	-14193
风筝	-14194
再见吧	-14195
iner	-14196
▁Laur	-14197
alling	-14198
▁ocean	-14199
ankelijke	-14200
▁gedurende	-14201
处的	-14202
挂在	-14203
stan	-14204
▁Tel	-14205
▁gou	-14206
▁melod	-14207
▁contain	-14208
▁lighted	-14209
▁oefenen	-14210
▁verkeers	-14211
Or	-14212
分数	-14213
▁13.	-14214
▁Five	-14215
▁bush	-14216
▁Leslie	-14217
平方	-14218
背后	-14219
blok	-14220
ears	-14221
raak	-14222
▁seek	-14223
kering	-14224
oegosl	-14225
▁cheap	-14226
▁captured	-14227
▁material	-14228
买的	-14229
最小	-14230
浪费	-14231
被人	-14232
不一定	-14233
就不会	-14234
eeuwse	-14235
▁gezellig	-14236
pes	-14237
我怎么	-14238
自行车	-14239
▁dign	-14240
▁March	-14241
gekomen	-14242
}$$、$${	-14243
▁rekenen	-14244
▁kandidaat	-14245
举办	-14246
有一种	-14247
Hier	-14248
▁Sep	-14249
▁fel	-14250
straf	-14251
▁State	-14252
▁improve	-14253
▁ontstonden	-14254
写的	-14255
等到	-14256
non	-14257
▁kre	-14258
▁sto	-14259
iekem	-14260
▁chim	-14261
▁shift	-14262
各个	-14263
心地	-14264
把你	-14265
▁Mum	-14266
gemene	-14267
▁atmos	-14268
▁puzzel	-14269
▁Zeeland	-14270
▁cutting	-14271
▁sending	-14272
▁militaire	-14273
▁Informatie	-14274
允许	-14275
foto	-14276
grote	-14277
▁fris	-14278
▁pile	-14279
astern	-14280
▁mission	-14281
味的	-14282
跟他	-14283
onse	-14284
▁Nest	-14285
▁jarig	-14286
▁jolly	-14287
▁Republike	-14288
骨头	-14289
▁pH	-14290
▁时候	-14291
让他们	-14292
long	-14293
▁zun	-14294
▁buck	-14295
▁Schip	-14296
▁meiden	-14297
▁schuur	-14298
▁enemies	-14299
▁require	-14300
▁witness	-14301
▁returning	-14302
kin	-14303
▁Say	-14304
▁Wol	-14305
、$$\	-14306
▁miserable	-14307
▁gebeurtenis	-14308
循环	-14309
火星	-14310
给她	-14311
里边	-14312
▁ER	-14313
好吃的	-14314
早知道	-14315
▁taf	-14316
所学知识	-14317
▁chum	-14318
atures	-14319
▁perce	-14320
▁Joegosl	-14321
▁mengsel	-14322
▁shaking	-14323
▁vermeld	-14324
光线	-14325
利率	-14326
而不	-14327
▁Film	-14328
▁murder	-14329
▁interess	-14330
Nu	-14331
Sh	-14332
变为	-14333
地下	-14334
宣传	-14335
做什么	-14336
在那里	-14337
▁Heer	-14338
▁Hind	-14339
vester	-14340
▁Radio	-14341
▁Marokko	-14342
▁Vlaamse	-14343
▁startled	-14344
▁overzicht	-14345
▁Natuurlijk	-14346
五年	-14347
区别	-14348
国外	-14349
探索	-14350
里有	-14351
Never	-14352
using	-14353
▁oven	-14354
udeerde	-14355
▁stijgt	-14356
▁display	-14357
▁described	-14358
乐乐	-14359
自动	-14360
还得	-14361
▁sj	-14362
▁tu	-14363
▁Rom	-14364
▁kist	-14365
▁categ	-14366
▁zulke	-14367
▁Twenty	-14368
▁slaapt	-14369
▁Niemand	-14370
▁vervolg	-14371
▁slavernij	-14372
通知	-14373
8-1	-14374
说不定	-14375
pless	-14376
▁Stap	-14377
▁admit	-14378
Duitsland	-14379
▁recently	-14380
流浪	-14381
碰到	-14382
▁以前	-14383
aakte	-14384
▁Vier	-14385
▁grey	-14386
▁Professor	-14387
▁statement	-14388
一段	-14389
断了	-14390
也就是	-14391
odil	-14392
▁Maas	-14393
▁emot	-14394
▁knap	-14395
▁kwal	-14396
roffen	-14397
▁Mexic	-14398
ki	-14399
$$0.	-14400
rekt	-14401
▁dem	-14402
▁partner	-14403
hib	-14404
▁iv	-14405
▁弟弟	-14406
的特点	-14407
▁Jam	-14408
▁Pak	-14409
▁horror	-14410
▁uitvoeren	-14411
在于	-14412
背景	-14413
ros	-14414
广播剧	-14415
ellijk	-14416
▁schoen	-14417
▁Schotland	-14418
这不	-14419
.'"	-14420
zhe	-14421
▁Clara	-14422
▁Zonder	-14423
▁erover	-14424
九点	-14425
委员	-14426
突破	-14427
船的	-14428
icy	-14429
▁Book	-14430
▁traffic	-14431
▁suffered	-14432
▁honderden	-14433
▁accustomed	-14434
驾驶	-14435
在家里	-14436
选项中	-14437
▁dict	-14438
▁volle	-14439
▁gezondheid	-14440
▁第	-14441
语文	-14442
ILL	-14443
今年的	-14444
小男孩	-14445
ogram	-14446
beleid	-14447
▁teams	-14448
reactie	-14449
▁noemde	-14450
IV	-14451
真是太	-14452
▁Got	-14453
rijke	-14454
▁muren	-14455
▁borrow	-14456
提前	-14457
是从	-14458
▁VVD	-14459
▁Wink	-14460
matrix	-14461
▁march	-14462
▁sheet	-14463
▁Roemen	-14464
▁risico	-14465
▁bestaande	-14466
▁|$$\	-14467
▁cents	-14468
▁muzik	-14469
▁babies	-14470
▁locked	-14471
大臣	-14472
性格	-14473
▁unl	-14474
oxide	-14475
▁Both	-14476
▁ZIJN	-14477
▁murmured	-14478
过得	-14479
▁Next	-14480
erschap	-14481
▁puzzled	-14482
▁werking	-14483
培训	-14484
lamp	-14485
▁要不要	-14486
▁grootte	-14487
▁Kareltje	-14488
▁inclined	-14489
▁kaartjes	-14490
▁weerstand	-14491
OB	-14492
ée	-14493
▁Tit	-14494
$$,$$\	-14495
▁initi	-14496
▁eigenaar	-14497
▁desperate	-14498
▁圆	-14499
TLE	-14500
▁asc	-14501
annië	-14502
▁(155	-14503
▁weary	-14504
▁fourth	-14505
▁Daarmee	-14506
▁European	-14507
▁tremendous	-14508
各自	-14509
aise	-14510
asse	-14511
ucky	-14512
▁copy	-14513
▁dish	-14514
▁bezit	-14515
▁sluit	-14516
▁vorig	-14517
ertainly	-14518
▁uitgang	-14519
'-	-14520
▁河	-14521
据说	-14522
onn	-14523
▁Ob	-14524
yang	-14525
▁Lor	-14526
▁dod	-14527
▁pipe	-14528
▁koude	-14529
▁teleph	-14530
▁sympathy	-14531
▁landschap	-14532
内心	-14533
18)	-14534
是我们	-14535
plex	-14536
▁geë	-14537
▁Joep	-14538
▁unex	-14539
▁spaar	-14540
▁werkloos	-14541
▁naturally	-14542
不大	-14543
任意	-14544
▁voy	-14545
▁Club	-14546
▁Soph	-14547
▁rage	-14548
▁zeil	-14549
alisme	-14550
▁sailing	-14551
▁troepen	-14552
▁Robinson	-14553
很远	-14554
快要	-14555
皇马	-14556
▁39	-14557
oeden	-14558
▁gooit	-14559
▁negro	-14560
▁platen	-14561
▁uitgest	-14562
▁门	-14563
更好的	-14564
ffie	-14565
onne	-14566
ironment	-14567
▁impression	-14568
小鸭	-14569
wed	-14570
leculen	-14571
▁interf	-14572
Footnote	-14573
opdracht	-14574
▁struggle	-14575
▁werknemers	-14576
▁zelfstandig	-14577
▁您	-14578
发行	-14579
的山	-14580
eke	-14581
▁Via	-14582
isatie	-14583
▁library	-14584
▁behorende	-14585
▁bevolkings	-14586
▁woordenboek	-14587
.《	-14588
城里	-14589
静止	-14590
iere	-14591
▁geur	-14592
▁sour	-14593
▁wave	-14594
▁Drent	-14595
▁explan	-14596
▁prachtig	-14597
打着	-14598
拒绝	-14599
连接	-14600
del	-14601
▁只有	-14602
回答说	-14603
很多的	-14604
kuai	-14605
▁yyy	-14606
▁waarschuw	-14607
▁Gelderland	-14608
▁importance	-14609
功夫	-14610
巴萨	-14611
是对	-14612
期的	-14613
树木	-14614
老大	-14615
▁我在	-14616
告诉你	-14617
生物的	-14618
▁Rut	-14619
▁pau	-14620
▁Aust	-14621
▁Word	-14622
▁item	-14623
▁pure	-14624
▁reus	-14625
▁slap	-14626
▁stab	-14627
▁Indeed	-14628
▁plainly	-14629
▁kwaliteit	-14630
繁殖	-14631
▁yo	-14632
染色体	-14633
▁Cass	-14634
▁Chine	-14635
▁fever	-14636
▁recognized	-14637
器官	-14638
无人	-14639
太多了	-14640
▁Zsa	-14641
▁sier	-14642
▁kitten	-14643
▁ontworpen	-14644
一万	-14645
一名	-14646
上前	-14647
啥的	-14648
构成	-14649
13)	-14650
▁Cy	-14651
inton	-14652
tekst	-14653
▁tack	-14654
▁zeld	-14655
▁geraakt	-14656
他也	-14657
升高	-14658
完整	-14659
应的	-14660
微笑	-14661
模样	-14662
球星	-14663
透明	-14664
▁mi	-14665
▁这一	-14666
leet	-14667
▁mosl	-14668
▁minds	-14669
▁Middel	-14670
带领	-14671
悟空	-14672
爬到	-14673
-200	-14674
erse	-14675
▁Andrew	-14676
▁intend	-14677
▁boodschap	-14678
aj	-14679
明年	-14680
氯化	-14681
白云	-14682
▁那些	-14683
alys	-14684
▁120	-14685
vlees	-14686
▁knee	-14687
▁endeav	-14688
▁ridder	-14689
▁interpr	-14690
▁grateful	-14691
▁contribut	-14692
意味	-14693
是要	-14694
电源	-14695
盐酸	-14696
运行	-14697
▁都是	-14698
▁trial	-14699
▁broers	-14700
▁nachts	-14701
▁careless	-14702
厚的	-14703
定了	-14704
权利	-14705
什么东西	-14706
▁enqu	-14707
▁keeps	-14708
▁vorst	-14709
ochtend	-14710
的气	-14711
蜂蜜	-14712
any	-14713
▁同时	-14714
kool	-14715
▁就是说	-14716
arium	-14717
▁leveren	-14718
展开	-14719
很不	-14720
神秘	-14721
Huh	-14722
more	-14723
ooft	-14724
▁dying	-14725
▁Really	-14726
▁bossen	-14727
▁festival	-14728
▁teachers	-14729
▁vrachtwagen	-14730
玩的	-14731
詹姆斯	-14732
mans	-14733
▁Sea	-14734
itein	-14735
▁Play	-14736
▁adopt	-14737
bronnen	-14738
▁reward	-14739
▁missing	-14740
▁verzorg	-14741
▁becoming	-14742
穿过	-14743
▁WH	-14744
▁刚才	-14745
一段时间	-14746
▁1970	-14747
▁aloud	-14748
▁daily	-14749
▁purch	-14750
uul	-14751
▁GR	-14752
你说的	-14753
孩子的	-14754
▁virt	-14755
▁notes	-14756
▁patiënt	-14757
一说	-14758
放下	-14759
vels	-14760
▁creep	-14761
▁koper	-14762
▁washed	-14763
▁literatuur	-14764
▁verzamelen	-14765
他不	-14766
减肥	-14767
司机	-14768
集合	-14769
不正确	-14770
你们的	-14771
真的好	-14772
upon	-14773
这场比赛	-14774
▁Chic	-14775
esteld	-14776
▁kanten	-14777
一眼	-14778
走吧	-14779
▁Gh	-14780
▁每天	-14781
▁结果	-14782
刚开始	-14783
bevol	-14784
inary	-14785
mathbf	-14786
▁Stand	-14787
▁gitaar	-14788
82	-14789
Sp	-14790
足够	-14791
▁Moh	-14792
▁空手道	-14793
▁1997	-14794
▁gene	-14795
▁active	-14796
▁compar	-14797
▁string	-14798
Fe	-14799
▁ao	-14800
▁他的	-14801
在哪里	-14802
lies	-14803
umes	-14804
▁gig	-14805
▁boxes	-14806
▁volks	-14807
dioxide	-14808
▁inquir	-14809
▁protect	-14810
▁troubled	-14811
▁concluded	-14812
主播	-14813
的两	-14814
裙子	-14815
闪闪	-14816
AYM	-14817
eline	-14818
▁fled	-14819
▁foreign	-14820
▁overige	-14821
▁关	-14822
八点	-14823
战略	-14824
▁magaz	-14825
热点财经资讯	-14826
▁Barbara	-14827
15)	-14828
iete	-14829
▁HIJ	-14830
这个故事	-14831
▁jobs	-14832
▁nervous	-14833
▁helpless	-14834
奇妙	-14835
把握	-14836
pri	-14837
▁突然	-14838
stok	-14839
this	-14840
▁vit	-14841
▁exha	-14842
inguis	-14843
▁Jasper	-14844
▁jammer	-14845
▁cleared	-14846
▁bevinden	-14847
▁reageert	-14848
▁vleugels	-14849
▁hoofdstuk	-14850
▁kunstenaars	-14851
均匀	-14852
外界	-14853
记住	-14854
▁洗澡	-14855
稳定性	-14856
plic	-14857
▁Akk	-14858
▁portion	-14859
▁retreat	-14860
▁vanzelf	-14861
平面	-14862
▁这一刻	-14863
adden	-14864
▁grief	-14865
▁curios	-14866
▁wishes	-14867
▁Daarbij	-14868
▁thousands	-14869
2!	-14870
ux	-14871
出口	-14872
玩了	-14873
阻力	-14874
bad	-14875
▁男孩	-14876
oodse	-14877
▁gain	-14878
▁avoid	-14879
▁split	-14880
▁faithful	-14881
有钱	-14882
棉花	-14883
igned	-14884
stone	-14885
rukken	-14886
▁ghost	-14887
▁steep	-14888
▁hiding	-14889
▁nights	-14890
▁parties	-14891
▁innocent	-14892
▁distinguis	-14893
▁uitgebreid	-14894
收拾	-14895
收获	-14896
武汉	-14897
真好	-14898
ALL	-14899
▁看见	-14900
west	-14901
maakt	-14902
▁humor	-14903
▁stands	-14904
▁pirates	-14905
oonstelling	-14906
▁gezondheids	-14907
球的	-14908
Wel	-14909
▁(70	-14910
▁Zod	-14911
▁lan	-14912
agger	-14913
▁lieve	-14914
▁stikstof	-14915
▁throwing	-14916
▁opvatting	-14917
爪子	-14918
echt	-14919
inië	-14920
▁piep	-14921
▁zoog	-14922
▁daddy	-14923
▁Versch	-14924
▁betere	-14925
▁uitbre	-14926
EC	-14927
入了	-14928
就没	-14929
改善	-14930
▁7,	-14931
说什么	-14932
▁250	-14933
ursday	-14934
▁lodge	-14935
▁stren	-14936
gebouwd	-14937
▁Harold	-14938
▁bruine	-14939
▁burden	-14940
的长	-14941
首次	-14942
lood	-14943
▁zwa	-14944
ences	-14945
ender	-14946
▁helm	-14947
▁Enkele	-14948
▁astron	-14949
▁invent	-14950
位移	-14951
在他	-14952
种类	-14953
ijp	-14954
▁小心	-14955
打电话	-14956
beta	-14957
▁bao	-14958
▁Iets	-14959
moeder	-14960
▁Pierre	-14961
▁appels	-14962
▁gemeten	-14963
▁verdwijnen	-14964
六点	-14965
"--	-14966
▁发现	-14967
hist	-14968
▁1995	-14969
zitten	-14970
▁Lijst	-14971
▁conqu	-14972
▁goods	-14973
▁exceed	-14974
▁Frederik	-14975
▁afgeleid	-14976
▁vuurwerk	-14977
▁Revolutie	-14978
▁ontzettend	-14979
%.	-14980
学家	-14981
黑熊	-14982
获得了	-14983
acon	-14984
▁FOR	-14985
▁sank	-14986
▁tips	-14987
▁Story	-14988
▁dried	-14989
▁hopen	-14990
▁chosen	-14991
▁mounted	-14992
▁straten	-14993
▁surround	-14994
hankelijke	-14995
全是	-14996
危机	-14997
手指	-14998
的环境	-14999
rene	-15000
▁Lib	-15001
▁une	-15002
▁spier	-15003
▁tellen	-15004
▁combinatie	-15005
当年	-15006
dao	-15007
}=1	-15008
▁Sj	-15009
喜马拉	-15010
zers	-15011
喜马拉雅	-15012
▁Onze	-15013
ildren	-15014
▁groan	-15015
▁related	-15016
▁victory	-15017
organisatie	-15018
线上	-15019
骆驼	-15020
ani	-15021
olis	-15022
▁gef	-15023
hoorn	-15024
▁leaf	-15025
▁meas	-15026
▁diale	-15027
▁enthous	-15028
▁measure	-15029
否则	-15030
多次	-15031
容器	-15032
巧克	-15033
我最	-15034
▁ts	-15035
dney	-15036
▁hind	-15037
▁schel	-15038
▁gelukt	-15039
▁tennis	-15040
▁Although	-15041
▁Honorius	-15042
▁werkwoorden	-15043
天的	-15044
强大	-15045
整理	-15046
来着	-15047
你这个	-15048
atus	-15049
▁rules	-15050
▁muizen	-15051
▁scream	-15052
一句	-15053
显微	-15054
jebl	-15055
没有什么	-15056
iteits	-15057
nesday	-15058
▁gelezen	-15059
收集	-15060
aza	-15061
▁之前	-15062
▁Klaar	-15063
▁vijftig	-15064
▁comrades	-15065
杯子	-15066
黑色	-15067
}_{{	-15068
▁Los	-15069
oscoop	-15070
▁People	-15071
▁closer	-15072
▁Sergius	-15073
咚咚	-15074
德国	-15075
isy	-15076
▁absen	-15077
▁Dallas	-15078
▁Blackie	-15079
▁gesteld	-15080
▁mooiste	-15081
▁schieten	-15082
行政	-15083
Wij	-15084
▁玩具	-15085
出了一	-15086
Some	-15087
cium	-15088
tele	-15089
▁Ford	-15090
centen	-15091
▁afsche	-15092
7-	-15093
一起来	-15094
▁Mol	-15095
▁Matt	-15096
▁leap	-15097
▁Gouden	-15098
▁Though	-15099
▁savage	-15100
▁Eugenius	-15101
▁Thursday	-15102
▁gestuurd	-15103
▁Anastasius	-15104
▁uitgebracht	-15105
傍晚	-15106
军事	-15107
黄色的	-15108
aille	-15109
▁Hugo	-15110
▁durf	-15111
▁export	-15112
▁entertain	-15113
▁加	-15114
工厂	-15115
的理解	-15116
给大家	-15117
onge	-15118
verg	-15119
▁(12	-15120
▁dipl	-15121
▁zaak	-15122
▁Staat	-15123
▁concer	-15124
▁studie	-15125
▁verhouding	-15126
咖啡	-15127
就想	-15128
感应	-15129
有着	-15130
▁wc	-15131
生活在	-15132
iedt	-15133
▁hid	-15134
bomen	-15135
▁grin	-15136
▁pier	-15137
AYMATE	-15138
▁Kleine	-15139
▁prayer	-15140
▁werkst	-15141
▁dichtbij	-15142
要不然	-15143
onië	-15144
rest	-15145
lezen	-15146
honden	-15147
stalige	-15148
▁medicijnen	-15149
56	-15150
Ph	-15151
因为我	-15152
的世界	-15153
▁lun	-15154
▁vos	-15155
kelijk	-15156
▁chips	-15157
▁dwars	-15158
PLAYMATE	-15159
▁Roemenië	-15160
▁Wednesday	-15161
▁confident	-15162
▁politicus	-15163
失误	-15164
浮力	-15165
▁Pop	-15166
▁Tob	-15167
aders	-15168
velyn	-15169
▁dared	-15170
▁botten	-15171
peratuur	-15172
▁waarden	-15173
SV	-15174
全都	-15175
分离	-15176
▁第一	-15177
odes	-15178
▁(3)	-15179
▁brandstof	-15180
▁expressed	-15181
听听	-15182
放到	-15183
eks	-15184
▁wip	-15185
▁swall	-15186
▁advies	-15187
▁heavily	-15188
▁varkens	-15189
▁filmpjes	-15190
倒了	-15191
四处	-15192
夫妻	-15193
较大	-15194
manda	-15195
▁benzine	-15196
▁mischief	-15197
▁verwoest	-15198
▁dergelijke	-15199
后代	-15200
多年	-15201
拿了	-15202
有空	-15203
泥土	-15204
bow	-15205
▁onv	-15206
告诉我们	-15207
▁Life	-15208
▁pace	-15209
▁proc	-15210
▁decim	-15211
▁shone	-15212
gelegen	-15213
▁Arnold	-15214
▁vakant	-15215
助于	-15216
小鹿	-15217
舌头	-15218
geet	-15219
oeke	-15220
Frank	-15221
▁Mass	-15222
▁Raad	-15223
▁frame	-15224
▁haste	-15225
▁Labour	-15226
更新	-15227
iele	-15228
sense	-15229
▁runs	-15230
dering	-15231
wijzen	-15232
▁shang	-15233
hearted	-15234
▁Ineens	-15235
▁thirteen	-15236
▁seriously	-15237
▁zichtbaar	-15238
来得	-15239
橡皮	-15240
评论	-15241
week	-15242
vaten	-15243
ooster	-15244
▁Royal	-15245
▁tower	-15246
stappen	-15247
jeblieft	-15248
verander	-15249
▁provide	-15250
折射	-15251
▁干嘛	-15252
在这儿	-15253
▁slee	-15254
▁sons	-15255
▁veer	-15256
▁voel	-15257
▁turns	-15258
▁passion	-15259
形的	-15260
文中	-15261
满满	-15262
生意	-15263
说过	-15264
arson	-15265
▁Each	-15266
▁koken	-15267
趋势	-15268
raan	-15269
▁Rol	-15270
atory	-15271
ilton	-15272
imate	-15273
▁woensdag	-15274
树林里	-15275
▁Kor	-15276
isher	-15277
▁code	-15278
▁cream	-15279
▁produceren	-15280
▁makkelijker	-15281
家族	-15282
各种各	-15283
学生对	-15284
是中国	-15285
vast	-15286
▁Saar	-15287
▁Ruben	-15288
▁suffering	-15289
Ga	-15290
主席	-15291
会在	-15292
垂直	-15293
点了	-15294
下来了	-15295
fall	-15296
▁rig	-15297
bbing	-15298
▁ends	-15299
▁sore	-15300
arming	-15301
▁stoom	-15302
▁extreme	-15303
▁opgepakt	-15304
▁牛	-15305
合成	-15306
呈现	-15307
排名	-15308
葫芦	-15309
▁动物	-15310
ungle	-15311
▁tide	-15312
▁dunne	-15313
▁gered	-15314
▁patter	-15315
实在是	-15316
小花猫	-15317
显微镜	-15318
▁keur	-15319
iesten	-15320
▁skill	-15321
itution	-15322
▁breeze	-15323
▁firmly	-15324
▁swimming	-15325
|}	-15326
素质	-15327
组成的	-15328
}$$,$$	-15329
▁rondom	-15330
▁secure	-15331
aardigheden	-15332
▁verschrikk	-15333
又有	-15334
第二个	-15335
riet	-15336
▁Aud	-15337
可以通过	-15338
irkel	-15339
▁fluisterde	-15340
Ex	-15341
人间	-15342
信心	-15343
可见	-15344
并非	-15345
来找	-15346
黑暗	-15347
▁对了	-15348
了一大	-15349
kins	-15350
▁Town	-15351
▁prima	-15352
▁cijfer	-15353
geslagen	-15354
小米	-15355
表述	-15356
▁对对	-15357
▁截至	-15358
有可能	-15359
ipen	-15360
▁slave	-15361
atively	-15362
▁distinct	-15363
▁fastened	-15364
▁marriage	-15365
IP	-15366
晚饭	-15367
这首	-15368
▁bun	-15369
▁Road	-15370
▁heels	-15371
aringen	-15372
▁slaves	-15373
nl	-15374
▁西	-15375
动画	-15376
沙漠	-15377
爱好	-15378
Wil	-15379
我最近	-15380
velt	-15381
▁lip	-15382
▁scr	-15383
reedom	-15384
▁Joris	-15385
▁Reken	-15386
▁Union	-15387
▁aparte	-15388
▁poster	-15389
▁pulling	-15390
ification	-15391
2{	-15392
▁页	-15393
它就	-15394
老鹰	-15395
这可	-15396
See	-15397
ege	-15398
▁sap	-15399
itiek	-15400
▁bier	-15401
▁steek	-15402
▁despair	-15403
▁begraven	-15404
▁countries	-15405
▁verbeteren	-15406
女的	-15407
烈的	-15408
▁gij	-15409
▁这就是	-15410
▁Fire	-15411
▁Vers	-15412
▁exciting	-15413
▁household	-15414
千米	-15415
啦啦	-15416
gek	-15417
▁同学	-15418
很好的	-15419
▁DIE	-15420
geeft	-15421
▁deeply	-15422
▁ontdek	-15423
▁absence	-15424
▁reported	-15425
承认	-15426
▁Sa	-15427
uken	-15428
iting	-15429
▁stel	-15430
▁rested	-15431
▁branden	-15432
▁shouting	-15433
▁voormalige	-15434
后悔	-15435
塔台	-15436
巧克力	-15437
reef	-15438
觉得自己	-15439
pport	-15440
▁kook	-15441
leider	-15442
▁brain	-15443
▁fetch	-15444
▁messen	-15445
▁Galerij	-15446
▁wearing	-15447
▁goodness	-15448
Brittannië	-15449
▁meegenomen	-15450
▁achtergrond	-15451
▁站	-15452
的地	-15453
苍蝇	-15454
喜欢吃	-15455
boer	-15456
▁Fat	-15457
▁Mid	-15458
▁Mama	-15459
▁Vader	-15460
▁afsch	-15461
winning	-15462
▁kenmerk	-15463
杀了	-15464
花朵	-15465
蛤蟆	-15466
顺利	-15467
▁forms	-15468
▁frank	-15469
▁Evelyn	-15470
▁Johnson	-15471
-,	-15472
▁原	-15473
▁搭	-15474
勇士	-15475
究竟	-15476
xia	-15477
▁Wim	-15478
Maybe	-15479
▁tend	-15480
▁munten	-15481
▁armoede	-15482
▁belonged	-15483
▁centrale	-15484
▁voorbere	-15485
独自	-15486
走出	-15487
蹦蹦	-15488
fte	-15489
▁piz	-15490
▁rum	-15491
akket	-15492
▁Home	-15493
▁lijf	-15494
▁stal	-15495
▁hopes	-15496
▁solid	-15497
▁leaped	-15498
▁Prinses	-15499
▁stiekem	-15500
▁princess	-15501
▁Soon	-15502
ension	-15503
▁gehoor	-15504
▁immigr	-15505
一部	-15506
书包	-15507
厕所	-15508
武器	-15509
▁aanp	-15510
▁bask	-15511
▁pilot	-15512
▁Somers	-15513
深深	-15514
长了	-15515
law	-15516
lid	-15517
▁NS	-15518
共产党	-15519
▁fed	-15520
eldom	-15521
▁phot	-15522
▁stapte	-15523
▁teaching	-15524
▁georganis	-15525
▁unexpected	-15526
会的	-15527
汪汪	-15528
hew	-15529
▁漂亮	-15530
▁Noah	-15531
schuld	-15532
▁Cross	-15533
▁niveau	-15534
kerchief	-15535
▁conserv	-15536
▁eenmaal	-15537
姥姥	-15538
的外	-15539
美好	-15540
squ	-15541
得到了	-15542
是我的	-15543
▁1996	-15544
▁dief	-15545
▁hert	-15546
▁aandeel	-15547
▁gekeken	-15548
▁sailors	-15549
▁vrouwtje	-15550
做功	-15551
惊喜	-15552
累计	-15553
背着	-15554
.③④	-15555
▁后面	-15556
urely	-15557
▁Bang	-15558
▁bewe	-15559
▁chat	-15560
▁kiest	-15561
▁Thanks	-15562
▁cattle	-15563
▁crowded	-15564
▁aandelen	-15565
▁洞	-15566
引发	-15567
普遍	-15568
转移	-15569
acc	-15570
isk	-15571
这样啊	-15572
proble	-15573
▁tonen	-15574
▁dragged	-15575
▁afgebeeld	-15576
fa	-15577
信号	-15578
反对	-15579
▁PL	-15580
▁1900	-15581
▁Mike	-15582
▁hook	-15583
▁linker	-15584
一半	-15585
我我	-15586
身份	-15587
wind	-15588
▁tang	-15589
▁verse	-15590
▁science	-15591
▁expensive	-15592
▁Lieutenant	-15593
日常	-15594
顶上	-15595
gier	-15596
zingen	-15597
zonder	-15598
▁Groep	-15599
▁vloog	-15600
ability	-15601
▁Amanda	-15602
▁onderwerpen	-15603
少了	-15604
平行	-15605
▁Lil	-15606
▁Sle	-15607
▁Vin	-15608
laten	-15609
▁tram	-15610
elland	-15611
▁upset	-15612
▁uttered	-15613
▁gemeenter	-15614
Ok	-15615
喇叭	-15616
elo	-15617
sec	-15618
▁Tem	-15619
▁Nikki	-15620
▁armed	-15621
▁Gerard	-15622
▁calcul	-15623
▁spieren	-15624
▁passagiers	-15625
▁ 	-15626
五点	-15627
伙子	-15628
怀疑	-15629
早已	-15630
早餐	-15631
▁比较	-15632
belt	-15633
hout	-15634
nemer	-15635
▁staal	-15636
▁lately	-15637
▁rescue	-15638
▁complex	-15639
▁klimmen	-15640
▁management	-15641
")	-15642
一起玩	-15643
的小朋友	-15644
reerd	-15645
▁Tues	-15646
▁castle	-15647
▁modder	-15648
▁Afrikaanse	-15649
损失	-15650
onte	-15651
▁gan	-15652
unted	-15653
▁total	-15654
Zeeland	-15655
▁commen	-15656
▁Russian	-15657
▁unhappy	-15658
producten	-15659
#$	-15660
▁(99	-15661
▁Grace	-15662
▁graan	-15663
▁nationaal	-15664
▁voorstellen	-15665
三月	-15666
士兵	-15667
就好	-15668
道歉	-15669
agu	-15670
▁打翻	-15671
进行了	-15672
voort	-15673
oeding	-15674
▁entire	-15675
▁totdat	-15676
▁getrouwd	-15677
▁overleven	-15678
▁recovered	-15679
yen	-15680
▁sne	-15681
▁vas	-15682
▁    	-15683
lecuul	-15684
}}_2}{	-15685
▁imper	-15686
▁theat	-15687
▁belief	-15688
▁voorstel	-15689
▁dagelijks	-15690
事物	-15691
去的	-15692
财富	-15693
17)	-15694
▁48	-15695
的运动	-15696
▁chase	-15697
变异	-15698
说说	-15699
问题的	-15700
▁kus	-15701
▁popp	-15702
steken	-15703
waarom	-15704
▁Mario	-15705
▁sprak	-15706
意外	-15707
排列	-15708
礼貌	-15709
觉得很	-15710
odel	-15711
ucose	-15712
▁Bull	-15713
▁Hein	-15714
▁lest	-15715
▁Tuesday	-15716
▁verstopt	-15717
▁Hongarije	-15718
▁所以说	-15719
geant	-15720
▁oorzaken	-15721
▁passengers	-15722
▁踢	-15723
"、"	-15724
有机会	-15725
mate	-15726
▁Pool	-15727
▁pressure	-15728
▁godsdienst	-15729
光照	-15730
六百	-15731
引力	-15732
是他	-15733
▁人家	-15734
▁pow	-15735
▁Shak	-15736
▁小朋友们	-15737
mannen	-15738
ruimen	-15739
▁kanaal	-15740
▁namens	-15741
▁rabbit	-15742
▁Bronnen	-15743
▁unusual	-15744
▁verwijst	-15745
比为	-15746
犯罪	-15747
▁我还	-15748
acte	-15749
▁boord	-15750
▁queen	-15751
▁Esther	-15752
▁seconde	-15753
▁personages	-15754
▁风	-15755
你呢	-15756
去做	-15757
▁一些	-15758
▁孩子	-15759
▁或者	-15760
点点头	-15761
的日子	-15762
opte	-15763
▁Mean	-15764
▁overd	-15765
▁toilet	-15766
ientallen	-15767
▁stroming	-15768
▁beïnvloed	-15769
和尚	-15770
树的	-15771
ais	-15772
iqu	-15773
when	-15774
▁Tri	-15775
▁hing	-15776
hangen	-15777
}_{0}}	-15778
▁Berry	-15779
▁Pruis	-15780
▁stopping	-15781
▁intention	-15782
发表	-15783
整整	-15784
王国	-15785
面临	-15786
▁狐狸	-15787
带来的	-15788
onie	-15789
▁unt	-15790
▁earn	-15791
▁seldom	-15792
▁verdiep	-15793
▁suggestion	-15794
6-	-15795
呱呱	-15796
得多	-15797
狠狠	-15798
▁klei	-15799
formule	-15800
▁observ	-15801
▁Drenthe	-15802
▁sociaal	-15803
▁student	-15804
▁monument	-15805
▁zangeres	-15806
坐车	-15807
强盗	-15808
把这	-15809
敌人	-15810
$$.(	-15811
▁san	-15812
▁你也在看	-15813
一刻再见吧	-15814
▁Moses	-15815
▁bibli	-15816
▁territ	-15817
▁ernstig	-15818
▁companies	-15819
▁curiosity	-15820
▁Spanjaarden	-15821
!)	-15822
▁装	-15823
教师	-15824
▁3:	-15825
男朋友	-15826
kerk	-15827
zinn	-15828
▁Acc	-15829
ribly	-15830
▁mixed	-15831
▁stapt	-15832
▁gister	-15833
elichting	-15834
▁accompanied	-15835
北方	-15836
小明	-15837
山坡	-15838
摆动	-15839
治理	-15840
蓝色的	-15841
orus	-15842
letter	-15843
▁begele	-15844
▁legend	-15845
▁merchant	-15846
▁Friesland	-15847
▁chauffeur	-15848
也好	-15849
六十	-15850
放学	-15851
ras	-15852
叫什么	-15853
溶液中	-15854
食物链	-15855
▁hof	-15856
怎么办呢	-15857
▁knop	-15858
▁crime	-15859
)}^{2}}	-15860
▁Rosalie	-15861
▁chicken	-15862
寒冷	-15863
超市	-15864
ION	-15865
▁随着	-15866
带来了	-15867
▁eit	-15868
▁response	-15869
个体	-15870
他人	-15871
彼此	-15872
得出	-15873
积累	-15874
36)	-15875
elia	-15876
▁bin	-15877
▁Comp	-15878
▁graven	-15879
▁rolling	-15880
▁verliezen	-15881
▁Government	-15882
5\	-15883
▁<	-15884
飞来	-15885
条件下	-15886
▁1992	-15887
roepen	-15888
▁wagen	-15889
▁regarded	-15890
vy	-15891
想吃	-15892
老奶奶	-15893
verhaal	-15894
▁bodies	-15895
▁faster	-15896
▁bewaard	-15897
▁principal	-15898
身后	-15899
chi	-15900
哈哈大笑	-15901
arbeid	-15902
▁functies	-15903
两次	-15904
财政	-15905
叫起来	-15906
听到了	-15907
▁kroon	-15908
▁burned	-15909
干活	-15910
色彩	-15911
bbed	-15912
▁heap	-15913
更多财经资讯	-15914
▁staying	-15915
▁absolute	-15916
▁herinner	-15917
着的	-15918
schip	-15919
▁clubs	-15920
▁songs	-15921
▁steer	-15922
▁IJssel	-15923
▁valuable	-15924
机制	-15925
的笑	-15926
静静	-15927
por	-15928
了许多	-15929
onies	-15930
▁Gent	-15931
▁Reag	-15932
▁tones	-15933
hedraal	-15934
▁gasped	-15935
▁geweldig	-15936
▁ministers	-15937
▁questioned	-15938
▁zogenaamde	-15939
她就	-15940
火虫	-15941
覆盖	-15942
答应了	-15943
▁Pip	-15944
vlies	-15945
▁Michel	-15946
▁verniet	-15947
▁generaal	-15948
▁aangelegd	-15949
▁klassieke	-15950
▁assistance	-15951
露出	-15952
dank	-15953
▁haul	-15954
▁spijk	-15955
tenance	-15956
▁banden	-15957
▁spectac	-15958
▁schrijvers	-15959
Un	-15960
会上	-15961
监管	-15962
rot	-15963
rus	-15964
▁GA	-15965
▁ax	-15966
▁University	-15967
姚明	-15968
集体	-15969
▁来自	-15970
wiel	-15971
▁eth	-15972
▁Waal	-15973
▁duik	-15974
▁vervel	-15975
▁College	-15976
▁charming	-15977
▁evenwicht	-15978
去买	-15979
让它	-15980
:--	-15981
amine	-15982
▁Boys	-15983
▁Pear	-15984
▁Slow	-15985
▁fanc	-15986
▁roads	-15987
▁Sydney	-15988
▁intens	-15989
▁besliss	-15990
▁thankful	-15991
▁revolutie	-15992
▁financiële	-15993
▁往	-15994
涨停	-15995
烦恼	-15996
那我	-15997
铅笔	-15998
oloog	-15999
▁roar	-16000
ourage	-16001
▁normal	-16002
做出	-16003
喷嚏	-16004
大伙	-16005
emd	-16006
▁$#	-16007
▁眼睛	-16008
他就是	-16009
antje	-16010
▁krok	-16011
bureau	-16012
▁Keizer	-16013
▁retired	-16014
▁boterham	-16015
▁historische	-16016
5,	-16017
牡丹	-16018
病人	-16019
▁mug	-16020
▁PvdA	-16021
▁fase	-16022
▁noot	-16023
$$10$$	-16024
▁Hierin	-16025
▁verbeter	-16026
也都	-16027
症状	-16028
箱子	-16029
车上	-16030
相当于	-16031
rant	-16032
wijze	-16033
▁krab	-16034
▁Irene	-16035
▁cared	-16036
▁whilst	-16037
▁Centraal	-16038
▁hundreds	-16039
厘米	-16040
眼里	-16041
ARD	-16042
▁看到	-16043
回到了	-16044
}_{4	-16045
▁Off	-16046
▁aar	-16047
erder	-16048
▁spre	-16049
insdag	-16050
lessly	-16051
▁brush	-16052
▁naden	-16053
komende	-16054
▁monkey	-16055
▁invester	-16056
一人	-16057
投入	-16058
斯拉	-16059
在水中	-16060
oles	-16061
icing	-16062
opter	-16063
▁vlug	-16064
▁toets	-16065
▁twink	-16066
▁poured	-16067
▁beschouwd	-16068
▁betekende	-16069
mi	-16070
吃完	-16071
回聊	-16072
岁的	-16073
colm	-16074
grim	-16075
verse	-16076
▁roze	-16077
▁belast	-16078
▁tranen	-16079
▁picking	-16080
▁gradually	-16081
酒精	-16082
看不见	-16083
肯定会	-16084
▁porch	-16085
▁urged	-16086
sluiting	-16087
▁笑	-16088
主题	-16089
机关	-16090
温柔	-16091
病例	-16092
58)	-16093
▁zest	-16094
▁mostly	-16095
不来	-16096
田野	-16097
细菌	-16098
路过	-16099
遗憾	-16100
▁dy	-16101
不属于	-16102
我已经	-16103
icip	-16104
ieze	-16105
pense	-16106
▁1950	-16107
▁Hugh	-16108
▁Rick	-16109
▁Walt	-16110
ighter	-16111
▁ingen	-16112
▁tales	-16113
▁elektro	-16114
▁mystery	-16115
▁veroorzaken	-16116
很高	-16117
的有	-16118
hen	-16119
Weet	-16120
▁bite	-16121
▁vuilnis	-16122
国民	-16123
爆发	-16124
碳酸	-16125
他们在	-16126
告诉了	-16127
ounce	-16128
▁café	-16129
▁misd	-16130
▁Kroat	-16131
▁Trans	-16132
▁tribe	-16133
实话	-16134
曹操	-16135
issy	-16136
足球比赛	-16137
▁kalk	-16138
▁lege	-16139
morgen	-16140
ulance	-16141
▁Agnes	-16142
▁Vraag	-16143
illende	-16144
▁Leiden	-16145
▁Vanuit	-16146
▁gelegd	-16147
▁rights	-16148
▁opvolger	-16149
小黄	-16150
跟你说	-16151
▁ople	-16152
▁scram	-16153
▁leraar	-16154
▁Virginia	-16155
▁definitely	-16156
洋洋	-16157
-88	-16158
\%$$	-16159
geen	-16160
isje	-16161
▁feast	-16162
▁worthy	-16163
▁aandoen	-16164
▁Nationale	-16165
▁twintigste	-16166
双方	-16167
性状	-16168
打得	-16169
热的	-16170
饿了	-16171
ilty	-16172
▁guy	-16173
aagse	-16174
ailed	-16175
fabet	-16176
▁Rode	-16177
▁oost	-16178
▁marched	-16179
▁delicate	-16180
▁trembling	-16181
▁Joegoslavië	-16182
2+	-16183
87	-16184
儿的	-16185
曼联	-16186
▁兔子	-16187
▁记得	-16188
萤火虫	-16189
院子里	-16190
▁Pel	-16191
▁Deel	-16192
▁STOR	-16193
▁beet	-16194
▁hoof	-16195
▁plas	-16196
▁Leven	-16197
▁Merel	-16198
▁highly	-16199
▁promptly	-16200
BO	-16201
一道	-16202
商量	-16203
▁好多	-16204
▁比如	-16205
我一直	-16206
▁Alm	-16207
▁ens	-16208
▁ink	-16209
▁sta	-16210
▁gaven	-16211
▁sober	-16212
planten	-16213
▁Bumper	-16214
▁discip	-16215
▁invest	-16216
astricht	-16217
▁sporten	-16218
03	-16219
对象	-16220
展示	-16221
时光	-16222
ESS	-16223
要不要	-16224
iams	-16225
▁Son	-16226
alous	-16227
▁maint	-16228
▁shriek	-16229
再也	-16230
往下	-16231
问他	-16232
CHT	-16233
▁回家	-16234
▁14.	-16235
▁blaad	-16236
▁dining	-16237
▁koekje	-16238
▁suspect	-16239
industrie	-16240
▁jaarlijks	-16241
▁republiek	-16242
:-	-16243
▁汤	-16244
fly	-16245
ota	-16246
▁bedoelt	-16247
▁presentatie	-16248
▁光	-16249
两年	-16250
伟大	-16251
宝石	-16252
这场	-16253
vind	-16254
olpen	-16255
ridge	-16256
rukte	-16257
▁stek	-16258
▁wijs	-16259
stroom	-16260
▁apple	-16261
▁anchor	-16262
▁lieten	-16263
▁schapen	-16264
下列说法正确的是	-16265
▁military	-16266
就和	-16267
穿上	-16268
mmm	-16269
▁妹妹	-16270
可以用	-16271
小乌龟	-16272
▁Ond	-16273
那个时候	-16274
aging	-16275
staten	-16276
▁Nellie	-16277
▁Servië	-16278
▁leaned	-16279
wegingen	-16280
▁Malcolm	-16281
▁aanzien	-16282
▁possess	-16283
▁dinosaur	-16284
▁favourite	-16285
TA	-16286
依法	-16287
叶片	-16288
红了	-16289
-96	-16290
kon	-16291
▁mant	-16292
▁royal	-16293
想的	-16294
无数	-16295
}{{	-16296
ramp	-16297
▁Nig	-16298
ultan	-16299
▁pine	-16300
▁stim	-16301
cirkel	-16302
ysteem	-16303
▁Spani	-16304
▁honey	-16305
▁potje	-16306
▁poppen	-16307
ificatie	-16308
▁hesitated	-16309
OK	-16310
规范	-16311
适宜	-16312
一个月	-16313
aired	-16314
▁Coll	-16315
▁bakker	-16316
节奏	-16317
90)	-16318
▁KL	-16319
▁老鼠	-16320
okee	-16321
我还有事	-16322
▁(100	-16323
▁cash	-16324
▁Moeder	-16325
▁chairs	-16326
▁lagere	-16327
▁Hiermee	-16328
▁Suriname	-16329
▁luchthaven	-16330
由此	-16331
的头	-16332
蜻蜓	-16333
top	-16334
兔妈妈	-16335
bijt	-16336
mamma	-16337
▁marks	-16338
▁meten	-16339
▁zusje	-16340
▁energy	-16341
▁addressed	-16342
俱乐	-16343
到来	-16344
舞蹈	-16345
计时	-16346
鲜花	-16347
Say	-16348
nik	-16349
▁Os	-16350
都不会	-16351
ruchten	-16352
▁擦	-16353
小了	-16354
收益	-16355
顺着	-16356
ata	-16357
▁il	-16358
▁ox	-16359
▁昨天	-16360
怎么能	-16361
iaans	-16362
▁Gray	-16363
▁damp	-16364
ellers	-16365
ential	-16366
schoenen	-16367
▁throughout	-16368
▁>	-16369
依旧	-16370
再生	-16371
巨人	-16372
运营	-16373
进攻	-16374
▁生活	-16375
▁解得	-16376
我自己	-16377
down	-16378
mater	-16379
▁1994	-16380
▁Duke	-16381
▁tear	-16382
▁Econom	-16383
▁obtained	-16384
▁openbaar	-16385
缺乏	-16386
高考	-16387
pse	-16388
zië	-16389
俱乐部	-16390
zone	-16391
hallo	-16392
slaan	-16393
▁aanh	-16394
▁drupp	-16395
fteling	-16396
▁vertrouwen	-16397
▁°	-16398
▁这样啊	-16399
▁mood	-16400
▁pest	-16401
ements	-16402
▁cards	-16403
▁Jennie	-16404
▁colonel	-16405
▁request	-16406
▁schemat	-16407
咕噜	-16408
头的	-16409
线圈	-16410
摇摇头	-16411
▁diss	-16412
▁opzij	-16413
一旦	-16414
吃过	-16415
成果	-16416
ABC	-16417
post	-16418
▁Weer	-16419
▁guilty	-16420
▁ontwerpen	-16421
▁permission	-16422
maatschappij	-16423
▁ontwikkelen	-16424
▁摆	-16425
▁敢	-16426
道德	-16427
队友	-16428
预期	-16429
▁奶奶	-16430
wand	-16431
▁Str	-16432
▁Kort	-16433
▁Tijd	-16434
▁Ralph	-16435
▁ignor	-16436
▁visited	-16437
▁bezoeken	-16438
▁earnestly	-16439
▁telephone	-16440
▁gebruikten	-16441
▁environment	-16442
▁onderscheid	-16443
racy	-16444
▁187	-16445
▁ijz	-16446
▁故选择	-16447
meren	-16448
eleken	-16449
matige	-16450
▁false	-16451
▁yield	-16452
▁duties	-16453
▁sector	-16454
▁conditions	-16455
姊姊	-16456
还原	-16457
陪伴	-16458
Met	-16459
▁mL	-16460
mund	-16461
xtra	-16462
ctors	-16463
issch	-16464
▁depend	-16465
,.	-16466
一想	-16467
街上	-16468
▁很多	-16469
▁Fre	-16470
▁tom	-16471
achus	-16472
▁enzo	-16473
▁pause	-16474
▁uncons	-16475
▁broertje	-16476
▁surrounded	-16477
八百	-16478
化石	-16479
孤独	-16480
羊羊	-16481
dge	-16482
▁时间	-16483
Mother	-16484
proces	-16485
▁opende	-16486
atteland	-16487
▁behoren	-16488
业绩	-16489
mie	-16490
有两个	-16491
boog	-16492
oping	-16493
▁Daddy	-16494
▁Lucius	-16495
▁pirate	-16496
▁kunstwerk	-16497
▁mannetjes	-16498
▁voorstand	-16499
不吃	-16500
封建	-16501
小小	-16502
性能	-16503
resp	-16504
怎么回事	-16505
merkt	-16506
▁Brian	-16507
endeels	-16508
▁figuren	-16509
▁aardbeving	-16510
▁假	-16511
▁样	-16512
急得	-16513
我好	-16514
毫不	-16515
蒸发	-16516
Ben	-16517
▁ji	-16518
俄罗斯	-16519
就是在	-16520
▁silk	-16521
vogels	-16522
▁Anyway	-16523
▁blokken	-16524
▁normally	-16525
▁possessed	-16526
▁protection	-16527
[...]
