[UNK]	0
[CLS]	0
[SEP]	0
[PAD]	0
[MASK]	0
<0x00>	0
<0x01>	0
<0x02>	0
<0x03>	0
<0x04>	0
<0x05>	0
<0x06>	0
<0x07>	0
<0x08>	0
<0x09>	0
<0x0A>	0
<0x0B>	0
<0x0C>	0
<0x0D>	0
<0x0E>	0
<0x0F>	0
<0x10>	0
<0x11>	0
<0x12>	0
<0x13>	0
<0x14>	0
<0x15>	0
<0x16>	0
<0x17>	0
<0x18>	0
<0x19>	0
<0x1A>	0
<0x1B>	0
<0x1C>	0
<0x1D>	0
<0x1E>	0
<0x1F>	0
<0x20>	0
<0x21>	0
<0x22>	0
<0x23>	0
<0x24>	0
<0x25>	0
<0x26>	0
<0x27>	0
<0x28>	0
<0x29>	0
<0x2A>	0
<0x2B>	0
<0x2C>	0
<0x2D>	0
<0x2E>	0
<0x2F>	0
<0x30>	0
<0x31>	0
<0x32>	0
<0x33>	0
<0x34>	0
<0x35>	0
<0x36>	0
<0x37>	0
<0x38>	0
<0x39>	0
<0x3A>	0
<0x3B>	0
<0x3C>	0
<0x3D>	0
<0x3E>	0
<0x3F>	0
<0x40>	0
<0x41>	0
<0x42>	0
<0x43>	0
<0x44>	0
<0x45>	0
<0x46>	0
<0x47>	0
<0x48>	0
<0x49>	0
<0x4A>	0
<0x4B>	0
<0x4C>	0
<0x4D>	0
<0x4E>	0
<0x4F>	0
<0x50>	0
<0x51>	0
<0x52>	0
<0x53>	0
<0x54>	0
<0x55>	0
<0x56>	0
<0x57>	0
<0x58>	0
<0x59>	0
<0x5A>	0
<0x5B>	0
<0x5C>	0
<0x5D>	0
<0x5E>	0
<0x5F>	0
<0x60>	0
<0x61>	0
<0x62>	0
<0x63>	0
<0x64>	0
<0x65>	0
<0x66>	0
<0x67>	0
<0x68>	0
<0x69>	0
<0x6A>	0
<0x6B>	0
<0x6C>	0
<0x6D>	0
<0x6E>	0
<0x6F>	0
<0x70>	0
<0x71>	0
<0x72>	0
<0x73>	0
<0x74>	0
<0x75>	0
<0x76>	0
<0x77>	0
<0x78>	0
<0x79>	0
<0x7A>	0
<0x7B>	0
<0x7C>	0
<0x7D>	0
<0x7E>	0
<0x7F>	0
<0x80>	0
<0x81>	0
<0x82>	0
<0x83>	0
<0x84>	0
<0x85>	0
<0x86>	0
<0x87>	0
<0x88>	0
<0x89>	0
<0x8A>	0
<0x8B>	0
<0x8C>	0
<0x8D>	0
<0x8E>	0
<0x8F>	0
<0x90>	0
<0x91>	0
<0x92>	0
<0x93>	0
<0x94>	0
<0x95>	0
<0x96>	0
<0x97>	0
<0x98>	0
<0x99>	0
<0x9A>	0
<0x9B>	0
<0x9C>	0
<0x9D>	0
<0x9E>	0
<0x9F>	0
<0xA0>	0
<0xA1>	0
<0xA2>	0
<0xA3>	0
<0xA4>	0
<0xA5>	0
<0xA6>	0
<0xA7>	0
<0xA8>	0
<0xA9>	0
<0xAA>	0
<0xAB>	0
<0xAC>	0
<0xAD>	0
<0xAE>	0
<0xAF>	0
<0xB0>	0
<0xB1>	0
<0xB2>	0
<0xB3>	0
<0xB4>	0
<0xB5>	0
<0xB6>	0
<0xB7>	0
<0xB8>	0
<0xB9>	0
<0xBA>	0
<0xBB>	0
<0xBC>	0
<0xBD>	0
<0xBE>	0
<0xBF>	0
<0xC0>	0
<0xC1>	0
<0xC2>	0
<0xC3>	0
<0xC4>	0
<0xC5>	0
<0xC6>	0
<0xC7>	0
<0xC8>	0
<0xC9>	0
<0xCA>	0
<0xCB>	0
<0xCC>	0
<0xCD>	0
<0xCE>	0
<0xCF>	0
<0xD0>	0
<0xD1>	0
<0xD2>	0
<0xD3>	0
<0xD4>	0
<0xD5>	0
<0xD6>	0
<0xD7>	0
<0xD8>	0
<0xD9>	0
<0xDA>	0
<0xDB>	0
<0xDC>	0
<0xDD>	0
<0xDE>	0
<0xDF>	0
<0xE0>	0
<0xE1>	0
<0xE2>	0
<0xE3>	0
<0xE4>	0
<0xE5>	0
<0xE6>	0
<0xE7>	0
<0xE8>	0
<0xE9>	0
<0xEA>	0
<0xEB>	0
<0xEC>	0
<0xED>	0
<0xEE>	0
<0xEF>	0
<0xF0>	0
<0xF1>	0
<0xF2>	0
<0xF3>	0
<0xF4>	0
<0xF5>	0
<0xF6>	0
<0xF7>	0
<0xF8>	0
<0xF9>	0
<0xFA>	0
<0xFB>	0
<0xFC>	0
<0xFD>	0
<0xFE>	0
<0xFF>	0
en	-0
er	-1
▁t	-2
an	-3
he	-4
in	-5
▁d	-6
▁w	-7
at	-8
▁o	-9
▁.	-10
▁m	-11
▁s	-12
▁a	-13
▁b	-14
▁*	-15
et	-16
is	-17
ar	-18
ou	-19
or	-20
▁h	-21
▁g	-22
el	-23
▁v	-24
it	-25
ij	-26
▁n	-27
▁the	-28
on	-29
▁he	-30
es	-31
ed	-32
▁I	-33
▁z	-34
ing	-35
ch	-36
▁de	-37
and	-38
▁l	-39
▁e	-40
▁p	-41
▁j	-42
al	-43
▁k	-44
▁in	-45
re	-46
▁f	-47
as	-48
▁c	-49
▁th	-50
ie	-51
om	-52
▁to	-53
OT	-54
aar	-55
MOT	-56
CH	-57
▁is	-58
CHI	-59
▁,	-60
▁y	-61
ll	-62
▁H	-63
▁D	-64
st	-65
▁je	-66
▁of	-67
▁W	-68
▁you	-69
▁and	-70
ig	-71
oo	-72
ik	-73
▁een	-74
▁het	-75
▁on	-76
oor	-77
le	-78
ot	-79
▁A	-80
ad	-81
▁?	-82
id	-83
▁u	-84
▁M	-85
iet	-86
▁T	-87
▁S	-88
ere	-89
ow	-90
▁en	-91
..	-92
▁van	-93
▁be	-94
▁st	-95
am	-96
▁r	-97
▁ge	-98
▁me	-99
▁we	-100
ak	-101
▁B	-102
ur	-103
ut	-104
il	-105
ve	-106
ent	-107
ijn	-108
ver	-109
▁it	-110
▁was	-111
ay	-112
ic	-113
▁J	-114
▁dat	-115
▁niet	-116
▁op	-117
cht	-118
▁E	-119
ag	-120
▁Ik	-121
oe	-122
▁ver	-123
ee	-124
▁N	-125
▁that	-126
▁ik	-127
▁te	-128
im	-129
▁wh	-130
de	-131
▁'	-132
un	-133
ra	-134
ol	-135
se	-136
den	-137
▁G	-138
▁do	-139
▁C	-140
▁al	-141
gen	-142
est	-143
ijk	-144
▁"	-145
▁O	-146
der	-147
th	-148
ro	-149
▁er	-150
ir	-151
ft	-152
▁ze	-153
ant	-154
us	-155
▁voor	-156
▁L	-157
ven	-158
ap	-159
ion	-160
ac	-161
ly	-162
op	-163
▁re	-164
▁go	-165
ht	-166
▁P	-167
▁heb	-168
▁zijn	-169
▁for	-170
▁-	-171
▁mo	-172
▁...	-173
ers	-174
▁met	-175
ken	-176
ell	-177
▁K	-178
AR	-179
▁1	-180
ill	-181
ier	-182
ld	-183
aat	-184
▁Z	-185
▁all	-186
▁V	-187
ith	-188
▁no	-189
ge	-190
ct	-191
LD	-192
ok	-193
▁De	-194
ien	-195
CHILD	-196
▁ha	-197
▁R	-198
ET	-199
ight	-200
ist	-201
▁die	-202
TAR	-203
GET	-204
TARGET	-205
▁wor	-206
aan	-207
▁aan	-208
▁an	-209
▁with	-210
um	-211
▁le	-212
ome	-213
em	-214
IN	-215
xx	-216
AT	-217
ER	-218
all	-219
▁as	-220
▁over	-221
▁F	-222
▁wat	-223
je	-224
ust	-225
▁om	-226
▁had	-227
▁Y	-228
INV	-229
▁Het	-230
hat	-231
▁The	-232
▁sp	-233
ind	-234
▁[	-235
nd	-236
ul	-237
▁(	-238
▁uit	-239
▁at	-240
ze	-241
ter	-242
$$	-243
if	-244
ah	-245
▁als	-246
▁2	-247
eer	-248
▁kn	-249
▁not	-250
▁Je	-251
ce	-252
ast	-253
ould	-254
▁We	-255
▁zo	-256
eld	-257
ook	-258
▁have	-259
▁this	-260
▁pl	-261
▁sh	-262
ug	-263
ang	-264
▁maar	-265
art	-266
ood	-267
▁!	-268
HER	-269
▁naar	-270
ab	-271
...	-272
nen	-273
▁her	-274
▁fr	-275
▁are	-276
rou	-277
ess	-278
os	-279
ri	-280
▁ne	-281
een	-282
ond	-283
▁moet	-284
rij	-285
▁his	-286
ink	-287
aal	-288
▁dan	-289
▁He	-290
▁they	-291
▁sch	-292
▁one	-293
ru	-294
sen	-295
ard	-296
▁En	-297
MOTHER	-298
▁hij	-299
te	-300
▁Wat	-301
▁know	-302
▁can	-303
▁up	-304
be	-305
▁ben	-306
ain	-307
elijk	-308
eah	-309
we	-310
▁wer	-311
out	-312
her	-313
▁In	-314
ull	-315
▁man	-316
▁there	-317
▁don	-318
▁your	-319
ich	-320
ry	-321
ck	-322
ike	-323
ten	-324
oh	-325
pen	-326
▁gr	-327
▁wel	-328
▁bl	-329
▁she	-330
▁ch	-331
▁what	-332
▁so	-333
▁Dat	-334
▁kan	-335
ore	-336
▁wil	-337
sch	-338
▁bij	-339
▁or	-340
▁ook	-341
▁pro	-342
acht	-343
ank	-344
ine	-345
▁my	-346
ack	-347
▁nog	-348
ong	-349
ies	-350
eft	-351
▁sa	-352
▁pr	-353
aak	-354
eel	-355
▁Al	-356
ake	-357
ation	-358
▁get	-359
▁hier	-360
▁waar	-361
eren	-362
▁tw	-363
00	-364
▁out	-365
elf	-366
▁Th	-367
▁It	-368
▁Ze	-369
ip	-370
▁ab	-371
▁door	-372
▁like	-373
ben	-374
▁him	-375
▁kun	-376
qu	-377
og	-378
▁from	-379
na	-380
▁Hij	-381
ame	-382
od	-383
xxx	-384
▁com	-385
▁af	-386
▁mijn	-387
che	-388
▁kom	-389
▁but	-390
▁heeft	-391
▁You	-392
au	-393
ber	-394
▁U	-395
▁su	-396
FAT	-397
one	-398
ort	-399
▁goed	-400
▁con	-401
▁hebben	-402
▁dit	-403
▁br	-404
▁St	-405
ide	-406
ste	-407
▁ex	-408
ele	-409
you	-410
ST	-411
▁by	-412
OR	-413
ke	-414
▁men	-415
▁were	-416
▁hem	-417
ijd	-418
▁see	-419
▁se	-420
no	-421
own	-422
▁them	-423
ive	-424
uur	-425
▁bo	-426
▁19	-427
what	-428
▁did	-429
ingen	-430
▁geen	-431
▁want	-432
our	-433
aten	-434
▁bet	-435
IG	-436
."	-437
ree	-438
itt	-439
iv	-440
uit	-441
EST	-442
▁word	-443
ally	-444
ite	-445
ATOR	-446
ESTIG	-447
▁will	-448
INVESTIG	-449
INVESTIGATOR	-450
ied	-451
ff	-452
▁some	-453
▁got	-454
oon	-455
▁about	-456
pp	-457
▁un	-458
▁haar	-459
ia	-460
▁look	-461
▁think	-462
oot	-463
ick	-464
▁meer	-465
pt	-466
▁dr	-467
wh	-468
eten	-469
uk	-470
▁here	-471
mer	-472
oug	-473
▁daar	-474
▁sl	-475
ice	-476
▁deze	-477
oord	-478
ate	-479
▁gaan	-480
aken	-481
▁said	-482
▁just	-483
elen	-484
▁jij	-485
bl	-486
,"	-487
yeah	-488
▁nu	-489
land	-490
].	-491
orm	-492
oed	-493
▁ter	-494
▁Waar	-495
▁Als	-496
▁Maar	-497
▁would	-498
▁Een	-499
▁vr	-500
ime	-501
icht	-502
▁doen	-503
▁Ch	-504
▁weet	-505
▁onder	-506
pl	-507
zen	-508
per	-509
to	-510
av	-511
▁ar	-512
ings	-513
▁zou	-514
▁el	-515
▁if	-516
▁who	-517
lijk	-518
▁kl	-519
▁beg	-520
ost	-521
▁geb	-522
hing	-523
▁hou	-524
ige	-525
ker	-526
▁us	-527
ne	-528
▁when	-529
▁zeg	-530
ullie	-531
▁then	-532
▁bed	-533
▁any	-534
ud	-535
are	-536
▁hand	-537
▁20	-538
iets	-539
▁gaat	-540
ool	-541
▁ga	-542
▁now	-543
▁bent	-544
▁right	-545
▁gew	-546
oek	-547
▁cl	-548
other	-549
ek	-550
rouw	-551
▁ag	-552
▁say	-553
oll	-554
ittle	-555
▁worden	-556
▁wordt	-557
▁And	-558
ound	-559
agen	-560
men	-561
that	-562
jes	-563
uw	-564
ose	-565
--	-566
ther	-567
▁down	-568
▁mij	-569
▁Er	-570
way	-571
▁off	-572
▁even	-573
ach	-574
▁bel	-575
▁·	-576
uis	-577
▁best	-578
ear	-579
ous	-580
▁been	-581
ass	-582
dat	-583
eder	-584
▁back	-585
▁hoe	-586
▁vol	-587
▁3	-588
▁Hoe	-589
▁jou	-590
als	-591
enk	-592
ause	-593
▁ons	-594
▁Wh	-595
ans	-596
▁little	-597
ble	-598
▁going	-599
▁Nee	-600
iss	-601
▁Ja	-602
nt	-603
atie	-604
▁put	-605
els	-606
age	-607
ity	-608
ew	-609
▁time	-610
▁kunnen	-611
ect	-612
▁has	-613
ure	-614
▁gel	-615
▁could	-616
ace	-617
my	-618
▁ont	-619
▁more	-620
▁xxx	-621
▁hebt	-622
▁their	-623
uh	-624
▁hel	-625
mand	-626
igen	-627
▁Dit	-628
heid	-629
▁Fr	-630
ish	-631
ire	-632
▁zal	-633
▁good	-634
ade	-635
raag	-636
▁which	-637
ob	-638
▁jullie	-639
▁iets	-640
▁veel	-641
aren	-642
▁gev	-643
eden	-644
onder	-645
▁weg	-646
ert	-647
old	-648
int	-649
me	-650
oc	-651
▁very	-652
oof	-653
the	-654
▁gen	-655
▁What	-656
▁qu	-657
iend	-658
▁eer	-659
▁pe	-660
cause	-661
oel	-662
pr	-663
wer	-664
racht	-665
▁zit	-666
▁na	-667
▁som	-668
▁Is	-669
la	-670
yes	-671
▁zien	-672
▁min	-673
▁Mr	-674
▁hun	-675
alk	-676
omen	-677
ian	-678
▁sn	-679
ark	-680
▁Oh	-681
ment	-682
▁tot	-683
▁fl	-684
ief	-685
▁ged	-686
ger	-687
▁two	-688
orn	-689
amen	-690
end	-691
▁play	-692
aakt	-693
innen	-694
?"	-695
▁tr	-696
▁weer	-697
ater	-698
oen	-699
▁No	-700
▁per	-701
ock	-702
ep	-703
▁ever	-704
▁terug	-705
▁moeten	-706
urn	-707
!"	-708
▁mee	-709
ord	-710
▁我	-711
▁nie	-712
▁Kom	-713
▁mensen	-714
sh	-715
fter	-716
ase	-717
ett	-718
▁tegen	-719
chter	-720
▁eens	-721
▁mu	-722
▁other	-723
reat	-724
▁car	-725
▁vert	-726
man	-727
esch	-728
▁Be	-729
▁into	-730
▁part	-731
ary	-732
af	-733
iek	-734
ild	-735
ople	-736
ough	-737
ruik	-738
▁twee	-739
▁come	-740
一个	-741
irst	-742
▁werk	-743
▁All	-744
▁Br	-745
▁But	-746
ely	-747
▁maken	-748
▁gez	-749
act	-750
▁am	-751
sp	-752
▁tijd	-753
▁alleen	-754
esp	-755
▁echt	-756
onna	-757
gens	-758
ann	-759
▁kon	-760
▁She	-761
▁again	-762
▁laat	-763
▁str	-764
gel	-765
ale	-766
▁sc	-767
什么	-768
▁An	-769
ount	-770
▁land	-771
▁way	-772
▁Le	-773
▁water	-774
▁4	-775
ath	-776
▁toch	-777
ue	-778
▁Daar	-779
▁ad	-780
▁kw	-781
▁komt	-782
▁how	-783
ile	-784
oop	-785
ys	-786
▁sm	-787
▁werd	-788
iz	-789
ote	-790
▁make	-791
▁people	-792
air	-793
▁where	-794
amp	-795
oren	-796
▁ie	-797
dig	-798
ult	-799
▁leven	-800
▁work	-801
over	-802
erd	-803
▁gonna	-804
cl	-805
ooit	-806
▁zich	-807
ci	-808
▁well	-809
uist	-810
▁lang	-811
ellen	-812
▁jaar	-813
▁call	-814
▁does	-815
cc	-816
▁too	-817
do	-818
▁hele	-819
app	-820
▁ro	-821
▁komen	-822
▁你	-823
right	-824
▁krij	-825
ance	-826
▁day	-827
gt	-828
of	-829
ise	-830
▁Op	-831
alen	-832
▁somet	-833
hm	-834
ja	-835
▁first	-836
▁ple	-837
ub	-838
▁denk	-839
ict	-840
▁5	-841
ave	-842
▁take	-843
ens	-844
ader	-845
▁They	-846
elt	-847
▁Yeah	-848
oeg	-849
▁gek	-850
gr	-851
▁cont	-852
▁kle	-853
▁blij	-854
▁201	-855
▁act	-856
ische	-857
uck	-858
▁tell	-859
▁nooit	-860
▁let	-861
inder	-862
ph	-863
▁after	-864
▁need	-865
wn	-866
▁Waarom	-867
▁andere	-868
uid	-869
▁heel	-870
▁Ok	-871
ather	-872
▁tra	-873
inn	-874
hed	-875
okay	-876
fore	-877
oud	-878
▁On	-879
▁Mar	-880
▁Sch	-881
▁That	-882
▁only	-883
oorden	-884
appen	-885
ont	-886
ren	-887
én	-888
▁sle	-889
ouw	-890
roug	-891
▁mag	-892
▁vl	-893
▁alles	-894
▁our	-895
就是	-896
▁ste	-897
▁这	-898
zelf	-899
able	-900
▁im	-901
▁zelf	-902
。"	-903
▁open	-904
▁Ga	-905
du	-906
ov	-907
▁elk	-908
▁kijk	-909
open	-910
up	-911
▁vind	-912
round	-913
get	-914
ady	-915
ons	-916
oog	-917
▁gebruik	-918
:"	-919
▁verd	-920
▁la	-921
▁zei	-922
where	-923
▁school	-924
▁every	-925
onden	-926
EA	-927
▁是	-928
issch	-929
▁app	-930
irl	-931
▁dis	-932
ory	-933
tijd	-934
oet	-935
ix	-936
voor	-937
▁much	-938
▁staat	-939
ought	-940
ef	-941
ma	-942
▁sec	-943
orgen	-944
}$$	-945
▁inter	-946
▁made	-947
▁Sp	-948
▁year	-949
▁Die	-950
▁didn	-951
there	-952
ated	-953
beur	-954
▁Voor	-955
没有	-956
kt	-957
ijf	-958
cent	-959
▁big	-960
AD	-961
▁these	-962
ië	-963
).	-964
▁ma	-965
iff	-966
▁wr	-967
▁long	-968
▁than	-969
▁This	-970
▁pol	-971
-1	-972
iver	-973
thing	-974
ins	-975
▁comp	-976
▁gem	-977
▁won	-978
▁nodig	-979
isschien	-980
aby	-981
▁something	-982
▁fe	-983
▁should	-984
ving	-985
sl	-986
▁zw	-987
woord	-988
orry	-989
eef	-990
▁gl	-991
arl	-992
▁really	-993
▁Jij	-994
▁gebeur	-995
▁spe	-996
▁Heb	-997
我们	-998
▁eigen	-999
▁kind	-1000
ederland	-1001
▁200	-1002
▁mom	-1003
ussen	-1004
enn	-1005
$$\	-1006
{{	-1007
▁Zo	-1008
▁Ver	-1009
self	-1010
▁vrouw	-1011
row	-1012
rijk	-1013
▁away	-1014
ife	-1015
▁huis	-1016
▁verl	-1017
▁Un	-1018
▁jon	-1019
ember	-1020
▁under	-1021
ward	-1022
arm	-1023
▁Nederland	-1024
ody	-1025
▁Gr	-1026
oem	-1027
ove	-1028
beeld	-1029
▁went	-1030
idd	-1031
▁So	-1032
▁before	-1033
form	-1034
▁了	-1035
▁Dan	-1036
TEA	-1037
▁(1	-1038
▁rem	-1039
ions	-1040
▁gu	-1041
AN	-1042
▁because	-1043
br	-1044
▁pers	-1045
▁net	-1046
eerd	-1047
▁altijd	-1048
▁Well	-1049
anna	-1050
day	-1051
▁talk	-1052
io	-1053
▁Amer	-1054
vol	-1055
▁weten	-1056
▁é	-1057
▁also	-1058
unt	-1059
▁girl	-1060
▁kunt	-1061
▁Hier	-1062
▁toe	-1063
bij	-1064
amil	-1065
▁last	-1066
▁verk	-1067
▁mean	-1068
ors	-1069
▁beh	-1070
▁zeggen	-1071
▁ok	-1072
emaal	-1073
▁doe	-1074
▁pre	-1075
▁keer	-1076
▁achter	-1077
▁Ben	-1078
ugh	-1079
▁ser	-1080
oort	-1081
bo	-1082
oofd	-1083
aking	-1084
▁onze	-1085
▁één	-1086
▁bu	-1087
allen	-1088
van	-1089
ange	-1090
▁waren	-1091
▁iemand	-1092
etje	-1093
▁Goed	-1094
▁Re	-1095
▁dag	-1096
▁God	-1097
ting	-1098
ign	-1099
rek	-1100
▁stop	-1101
ets	-1102
atuur	-1103
but	-1104
EN	-1105
dy	-1106
▁Sh	-1107
▁Ar	-1108
▁alle	-1109
可以	-1110
look	-1111
oss	-1112
▁Pr	-1113
▁help	-1114
▁There	-1115
▁toen	-1116
▁Bl	-1117
akes	-1118
eep	-1119
▁gewoon	-1120
▁6	-1121
然后	-1122
▁elkaar	-1123
stand	-1124
ait	-1125
▁came	-1126
▁start	-1127
amer	-1128
ullen	-1129
ijden	-1130
▁doing	-1131
}}	-1132
inden	-1133
rough	-1134
ders	-1135
▁Ge	-1136
▁cr	-1137
▁\	-1138
ful	-1139
eds	-1140
ieren	-1141
▁aut	-1142
esl	-1143
▁Mijn	-1144
PAR	-1145
▁prob	-1146
▁kinder	-1147
ident	-1148
▁laten	-1149
▁zie	-1150
ina	-1151
▁niets	-1152
▁zegt	-1153
▁dood	-1154
▁versch	-1155
▁ask	-1156
▁thought	-1157
▁binnen	-1158
▁dus	-1159
▁home	-1160
▁head	-1161
▁mil	-1162
▁geh	-1163
wij	-1164
oint	-1165
▁nou	-1166
uiten	-1167
isch	-1168
▁never	-1169
▁bot	-1170
▁three	-1171
▁nee	-1172
ried	-1173
▁turn	-1174
oep	-1175
▁may	-1176
▁的	-1177
▁gra	-1178
▁che	-1179
▁new	-1180
ende	-1181
▁those	-1182
ss	-1183
xt	-1184
ail	-1185
他们	-1186
uwe	-1187
off	-1188
▁through	-1189
▁many	-1190
▁old	-1191
▁Laat	-1192
自己	-1193
aam	-1194
▁samen	-1195
▁Wel	-1196
▁Niet	-1197
▁book	-1198
▁house	-1199
ious	-1200
▁baby	-1201
imes	-1202
▁erg	-1203
ubl	-1204
unn	-1205
elijke	-1206
ilm	-1207
▁18	-1208
这个	-1209
ars	-1210
eter	-1211
oy	-1212
▁个	-1213
▁famil	-1214
▁things	-1215
▁eerste	-1216
▁allemaal	-1217
org	-1218
▁show	-1219
veel	-1220
well	-1221
port	-1222
igh	-1223
les	-1224
▁must	-1225
▁vast	-1226
▁num	-1227
▁doet	-1228
▁vader	-1229
▁grote	-1230
iden	-1231
▁reg	-1232
▁wanna	-1233
▁一	-1234
▁thing	-1235
▁find	-1236
ude	-1237
▁ant	-1238
▁bit	-1239
▁still	-1240
ooi	-1241
▁pres	-1242
ster	-1243
vel	-1244
▁minut	-1245
can	-1246
ved	-1247
▁zitten	-1248
ereen	-1249
ces	-1250
▁groot	-1251
gende	-1252
ucht	-1253
.'	-1254
▁wij	-1255
▁pap	-1256
▁Yes	-1257
▁lot	-1258
▁Wie	-1259
▁ke	-1260
▁bro	-1261
oos	-1262
▁proble	-1263
▁called	-1264
▁another	-1265
▁eat	-1266
▁Kijk	-1267
,'	-1268
▁red	-1269
▁child	-1270
▁plaat	-1271
不是	-1272
20	-1273
by	-1274
▁great	-1275
kend	-1276
ijt	-1277
▁Wil	-1278
妈妈	-1279
ates	-1280
▁kinderen	-1281
ever	-1282
dracht	-1283
▁geld	-1284
▁hard	-1285
▁ied	-1286
ope	-1287
▁Om	-1288
▁give	-1289
▁zoals	-1290
geven	-1291
▁drie	-1292
▁vo	-1293
▁gedaan	-1294
▁7	-1295
▁found	-1296
apt	-1297
itie	-1298
ama	-1299
▁How	-1300
▁boy	-1301
red	-1302
▁wereld	-1303
ib	-1304
▁Met	-1305
aag	-1306
alt	-1307
come	-1308
▁done	-1309
▁Deze	-1310
erk	-1311
▁Joh	-1312
▁happen	-1313
rac	-1314
▁its	-1315
▁name	-1316
▁mon	-1317
▁Me	-1318
ical	-1319
000	-1320
▁might	-1321
▁vraag	-1322
▁bre	-1323
rijf	-1324
emen	-1325
oeken	-1326
CHER	-1327
iel	-1328
▁bez	-1329
▁vinden	-1330
▁staan	-1331
TEACHER	-1332
ummy	-1333
▁vragen	-1334
▁vriend	-1335
uren	-1336
ister	-1337
▁later	-1338
let	-1339
aart	-1340
),	-1341
▁ging	-1342
▁moment	-1343
▁night	-1344
▁uw	-1345
▁ve	-1346
知道	-1347
▁res	-1348
isten	-1349
here	-1350
▁moeder	-1351
ually	-1352
alf	-1353
▁diff	-1354
▁try	-1355
▁friend	-1356
maal	-1357
ai	-1358
▁wie	-1359
▁lig	-1360
▁hoofd	-1361
▁paar	-1362
▁8	-1363
aw	-1364
▁verh	-1365
▁fin	-1366
ift	-1367
ADU	-1368
▁willen	-1369
▁most	-1370
▁tussen	-1371
▁lie	-1372
▁meest	-1373
▁rest	-1374
时候	-1375
ughs	-1376
▁steeds	-1377
▁dra	-1378
▁Van	-1379
▁rec	-1380
att	-1381
▁own	-1382
▁around	-1383
▁week	-1384
▁bus	-1385
sel	-1386
▁nieuwe	-1387
答案	-1388
gelijk	-1389
fr	-1390
ames	-1391
▁wilde	-1392
oney	-1393
▁ru	-1394
▁那	-1395
.]	-1396
ple	-1397
oten	-1398
▁Oké	-1399
▁plan	-1400
▁Weet	-1401
▁count	-1402
ww	-1403
▁anders	-1404
vent	-1405
▁omdat	-1406
ught	-1407
▁snel	-1408
▁sit	-1409
▁used	-1410
▁10	-1411
eng	-1412
▁Nu	-1413
▁Dus	-1414
▁uh	-1415
arn	-1416
▁comm	-1417
anden	-1418
mhm	-1419
▁ja	-1420
怎么	-1421
ited	-1422
▁isn	-1423
kom	-1424
▁des	-1425
▁If	-1426
▁feel	-1427
▁film	-1428
iteit	-1429
▁小	-1430
room	-1431
▁years	-1432
▁zij	-1433
body	-1434
omm	-1435
huh	-1436
hes	-1437
▁end	-1438
side	-1439
▁belang	-1440
▁dacht	-1441
▁beter	-1442
▁uur	-1443
▁such	-1444
ms	-1445
▁ele	-1446
▁better	-1447
▁id	-1448
▁being	-1449
ps	-1450
▁Geef	-1451
ern	-1452
aad	-1453
ways	-1454
▁jouw	-1455
▁place	-1456
gest	-1457
{2	-1458
outh	-1459
▁rel	-1460
▁volgende	-1461
▁Don	-1462
哈哈	-1463
▁tele	-1464
ede	-1465
▁naam	-1466
ty	-1467
ition	-1468
rist	-1469
kst	-1470
▁Cl	-1471
▁erm	-1472
vo	-1473
▁besch	-1474
▁maak	-1475
▁不	-1476
▁stad	-1477
EX	-1478
▁moest	-1479
ieft	-1480
iks	-1481
ince	-1482
pe	-1483
so	-1484
ruk	-1485
▁leuk	-1486
▁Se	-1487
▁好	-1488
ork	-1489
▁Do	-1490
▁hoor	-1491
med	-1492
▁while	-1493
".	-1494
ese	-1495
▁As	-1496
ction	-1497
urt	-1498
ced	-1499
▁cour	-1500
▁对	-1501
ial	-1502
喜欢	-1503
▁ziet	-1504
▁ten	-1505
IS	-1506
▁att	-1507
▁tre	-1508
▁vrij	-1509
▁four	-1510
▁kijken	-1511
▁inform	-1512
uss	-1513
▁Ma	-1514
▁mother	-1515
ird	-1516
▁why	-1517
atter	-1518
▁sche	-1519
II	-1520
▁pop	-1521
▁else	-1522
▁ball	-1523
▁他	-1524
▁supp	-1525
EXP	-1526
komen	-1527
ents	-1528
▁New	-1529
ged	-1530
ash	-1531
▁life	-1532
erl	-1533
pro	-1534
▁looks	-1535
▁9	-1536
▁wacht	-1537
aut	-1538
▁same	-1539
▁stand	-1540
ican	-1541
▁kwam	-1542
▁Bij	-1543
▁maakt	-1544
▁room	-1545
bs	-1546
mm	-1547
this	-1548
▁John	-1549
▁gezien	-1550
akken	-1551
▁gemaakt	-1552
▁在	-1553
▁krijgen	-1554
▁keep	-1555
▁verm	-1556
laughs	-1557
▁anything	-1558
▁eten	-1559
现在	-1560
▁zeker	-1561
▁•	-1562
▁geven	-1563
addy	-1564
uff	-1565
ations	-1566
ijkt	-1567
▁belangrijk	-1568
▁sy	-1569
gd	-1570
▁okay	-1571
door	-1572
▁col	-1573
▁doesn	-1574
",	-1575
▁Dr	-1576
FATHER	-1577
▁waarom	-1578
etten	-1579
eek	-1580
▁有	-1581
▁next	-1582
arr	-1583
▁sur	-1584
atuurlijk	-1585
▁El	-1586
▁yeah	-1587
LT	-1588
▁meis	-1589
▁mis	-1590
▁tekst	-1591
▁co	-1592
ouden	-1593
▁199	-1594
oun	-1595
arly	-1596
▁Of	-1597
▁goede	-1598
ves	-1599
▁sure	-1600
▁Misschien	-1601
▁stra	-1602
▁嗯	-1603
baar	-1604
▁nice	-1605
▁mar	-1606
log	-1607
eling	-1608
▁love	-1609
▁bedoel	-1610
▁vand	-1611
ui	-1612
▁saw	-1613
put	-1614
frac	-1615
its	-1616
they	-1617
▁Te	-1618
▁Hou	-1619
assen	-1620
▁wind	-1621
she	-1622
ta	-1623
ject	-1624
▁half	-1625
▁ac	-1626
now	-1627
▁told	-1628
▁helemaal	-1629
▁left	-1630
▁buiten	-1631
ower	-1632
▁zullen	-1633
▁Hall	-1634
▁acc	-1635
▁always	-1636
▁liv	-1637
▁leg	-1638
▁med	-1639
ankt	-1640
waar	-1641
▁dingen	-1642
▁Eur	-1643
▁gest	-1644
▁Bed	-1645
▁produ	-1646
▁cent	-1647
erg	-1648
▁ind	-1649
ump	-1650
ieve	-1651
nee	-1652
▁wilt	-1653
因为	-1654
▁Will	-1655
chten	-1656
▁vis	-1657
The	-1658
▁person	-1659
▁em	-1660
gaan	-1661
▁Let	-1662
▁Maak	-1663
▁verb	-1664
▁啊	-1665
vis	-1666
▁bas	-1667
▁opdracht	-1668
▁sw	-1669
▁par	-1670
▁klaar	-1671
▁real	-1672
了一	-1673
ctor	-1674
ADULT	-1675
ream	-1676
▁use	-1677
▁Pro	-1678
▁Eng	-1679
RO	-1680
olog	-1681
▁dog	-1682
iding	-1683
▁At	-1684
ids	-1685
eeft	-1686
▁tru	-1687
ots	-1688
▁When	-1689
▁niks	-1690
▁verschill	-1691
▁Doe	-1692
▁gre	-1693
▁sk	-1694
▁Ind	-1695
▁ph	-1696
ield	-1697
▁_	-1698
▁15	-1699
uld	-1700
eth	-1701
▁dire	-1702
etty	-1703
cy	-1704
▁ret	-1705
▁题	-1706
▁took	-1707
led	-1708
not	-1709
erent	-1710
▁houden	-1711
▁bad	-1712
▁beetje	-1713
fl	-1714
cies	-1715
▁Then	-1716
ng	-1717
▁genoeg	-1718
ton	-1719
▁iedereen	-1720
▁auto	-1721
▁blijven	-1722
那个	-1723
▁cle	-1724
geb	-1725
还是	-1726
▁Sorry	-1727
▁答案	-1728
aas	-1729
▁eerst	-1730
▁ster	-1731
▁kant	-1732
vl	-1733
▁plaats	-1734
▁art	-1735
die	-1736
▁read	-1737
atch	-1738
enten	-1739
▁father	-1740
az	-1741
▁point	-1742
til	-1743
▁nieuw	-1744
▁ken	-1745
▁voel	-1746
▁spr	-1747
▁lief	-1748
▁cons	-1749
的是	-1750
anneer	-1751
▁verand	-1752
▁helpen	-1753
▁gewe	-1754
▁gone	-1755
fect	-1756
oman	-1757
ikk	-1758
▁praten	-1759
ational	-1760
▁gesch	-1761
▁Now	-1762
go	-1763
▁Q	-1764
▁Geen	-1765
▁dec	-1766
▁den	-1767
angen	-1768
▁doll	-1769
ush	-1770
▁slecht	-1771
▁Why	-1772
▁spijt	-1773
▁hold	-1774
▁$$	-1775
▁Miss	-1776
zo	-1777
▁pass	-1778
ane	-1779
ius	-1780
▁bang	-1781
▁eind	-1782
▁就	-1783
▁wait	-1784
part	-1785
▁laatste	-1786
觉得	-1787
▁zonder	-1788
ness	-1789
zelfde	-1790
▁though	-1791
▁oor	-1792
any	-1793
▁box	-1794
▁care	-1795
ows	-1796
▁exc	-1797
orning	-1798
aden	-1799
▁coming	-1800
▁Jack	-1801
▁walk	-1802
▁jongen	-1803
tje	-1804
▁To	-1805
▁dist	-1806
ween	-1807
▁stud	-1808
uister	-1809
▁money	-1810
起来	-1811
▁enough	-1812
▁TH	-1813
ished	-1814
▁X	-1815
▁verg	-1816
cle	-1817
apen	-1818
ats	-1819
▁Nou	-1820
str	-1821
▁moe	-1822
▁goes	-1823
ider	-1824
ks	-1825
▁Ook	-1826
uring	-1827
▁sing	-1828
▁bev	-1829
▁Dank	-1830
▁hear	-1831
▁题干	-1832
▁nam	-1833
▁team	-1834
▁geweest	-1835
ross	-1836
▁eyes	-1837
▁says	-1838
vie	-1839
oit	-1840
▁Mrs	-1841
▁pie	-1842
aur	-1843
rijven	-1844
▁Vol	-1845
aps	-1846
?'	-1847
▁boven	-1848
▁fun	-1849
ium	-1850
▁verder	-1851
▁vlie	-1852
还有	-1853
how	-1854
nie	-1855
cept	-1856
ries	-1857
▁far	-1858
who	-1859
erm	-1860
val	-1861
ily	-1862
▁recht	-1863
▁stuk	-1864
▁misschien	-1865
▁side	-1866
▁For	-1867
une	-1868
▁$	-1869
▁face	-1870
▁top	-1871
aard	-1872
▁until	-1873
▁wist	-1874
▁看	-1875
onnen	-1876
▁hadden	-1877
▁Christ	-1878
▁)	-1879
ball	-1880
▁deel	-1881
ustr	-1882
▁Or	-1883
▁Can	-1884
▁small	-1885
▁asked	-1886
▁My	-1887
▁idee	-1888
1.	-1889
MA	-1890
▁Tw	-1891
▁quite	-1892
▁kill	-1893
▁light	-1894
▁ger	-1895
▁Kl	-1896
▁Wacht	-1897
▁five	-1898
▁Hey	-1899
ence	-1900
▁aant	-1901
▁world	-1902
oes	-1903
▁vier	-1904
ole	-1905
ract	-1906
elde	-1907
avond	-1908
▁graag	-1909
▁different	-1910
▁morning	-1911
▁vaak	-1912
▁Frank	-1913
选项	-1914
ennis	-1915
▁seen	-1916
▁kleine	-1917
reken	-1918
▁Not	-1919
▁please	-1920
aald	-1921
ible	-1922
这样	-1923
ijna	-1924
orth	-1925
▁Mag	-1926
正确	-1927
▁beste	-1928
▁Jullie	-1929
auw	-1930
oto	-1931
▁woorden	-1932
eg	-1933
但是	-1934
▁houd	-1935
▁remember	-1936
▁ber	-1937
ants	-1938
▁course	-1939
▁12	-1940
▁Zijn	-1941
▁known	-1942
omme	-1943
▁pick	-1944
aster	-1945
ired	-1946
▁looking	-1947
▁second	-1948
▁few	-1949
▁train	-1950
ollow	-1951
zz	-1952
▁heen	-1953
ips	-1954
jebl	-1955
到了	-1956
▁um	-1957
ures	-1958
▁neem	-1959
elling	-1960
wel	-1961
$$,	-1962
▁round	-1963
don	-1964
▁Ste	-1965
▁=	-1966
▁rond	-1967
rm	-1968
▁zorgen	-1969
▁yes	-1970
▁antwoord	-1971
ica	-1972
▁Hallo	-1973
▁ass	-1974
ics	-1975
▁disc	-1976
oven	-1977
▁Tom	-1978
▁解	-1979
urg	-1980
jeblieft	-1981
▁198	-1982
ivers	-1983
gether	-1984
▁hor	-1985
▁thuis	-1986
▁together	-1987
▁fell	-1988
use	-1989
▁什么	-1990
▁May	-1991
▁verschillende	-1992
▁informatie	-1993
eert	-1994
▁nothing	-1995
schap	-1996
ulp	-1997
aring	-1998
king	-1999
▁Sc	-2000
▁vertellen	-2001
ason	-2002
▁geluk	-2003
▁both	-2004
oth	-2005
▁between	-2006
why	-2007
▁Toen	-2008
▁sound	-2009
▁Na	-2010
enen	-2011
ye	-2012
▁Come	-2013
ung	-2014
▁werden	-2015
ijdens	-2016
▁mooi	-2017
▁miss	-2018
▁children	-2019
ley	-2020
▁hot	-2021
▁hands	-2022
▁heet	-2023
▁soon	-2024
▁stay	-2025
▁shall	-2026
kken	-2027
▁int	-2028
ines	-2029
▁Ex	-2030
所以	-2031
ijs	-2032
▁ooit	-2033
ijken	-2034
▁wonder	-2035
▁sorry	-2036
▁juist	-2037
▁Har	-2038
ped	-2039
aught	-2040
▁haven	-2041
▁sleep	-2042
▁once	-2043
▁Bel	-2044
ling	-2045
▁welke	-2046
▁dri	-2047
net	-2048
ape	-2049
▁oh	-2050
▁yet	-2051
▁number	-2052
▁Amerik	-2053
con	-2054
aanse	-2055
rew	-2056
cial	-2057
inner	-2058
▁geweld	-2059
▁deed	-2060
▁each	-2061
▁Men	-2062
▁six	-2063
▁ligt	-2064
▁ing	-2065
▁werken	-2066
▁$$\	-2067
zoek	-2068
▁run	-2069
▁dicht	-2070
▁klein	-2071
anten	-2072
▁drink	-2073
▁lar	-2074
▁himself	-2075
eerde	-2076
▁lijkt	-2077
▁verw	-2078
ating	-2079
ron	-2080
▁geeft	-2081
▁form	-2082
0.	-2083
anks	-2084
ared	-2085
▁meisje	-2086
▁getting	-2087
▁ext	-2088
▁17	-2089
mp	-2090
▁nemen	-2091
▁hen	-2092
▁mind	-2093
▁Ad	-2094
gan	-2095
▁heard	-2096
ably	-2097
▁Pl	-2098
line	-2099
▁bec	-2100
▁ide	-2101
▁upon	-2102
▁mus	-2103
uil	-2104
1:	-2105
}_	-2106
erst	-2107
▁dear	-2108
▁rust	-2109
▁Am	-2110
bed	-2111
▁Okay	-2112
}{	-2113
▁gebruikt	-2114
▁Ph	-2115
ches	-2116
EL	-2117
▁looked	-2118
igd	-2119
▁Her	-2120
weg	-2121
akk	-2122
fta	-2123
erde	-2124
▁Hé	-2125
▁foot	-2126
▁krijgt	-2127
▁without	-2128
ieden	-2129
son	-2130
▁bere	-2131
▁Was	-2132
ement	-2133
▁解析	-2134
ha	-2135
▁pict	-2136
▁fire	-2137
▁young	-2138
朋友	-2139
anger	-2140
▁today	-2141
▁watch	-2142
▁bew	-2143
woorden	-2144
unny	-2145
▁fig	-2146
▁begrij	-2147
▁boek	-2148
leg	-2149
▁kr	-2150
4.	-2151
▁woord	-2152
▁zag	-2153
inc	-2154
也是	-2155
▁Just	-2156
▁meneer	-2157
weede	-2158
▁gener	-2159
▁bijna	-2160
▁horen	-2161
illy	-2162
▁Over	-2163
▁16	-2164
▁high	-2165
ual	-2166
ient	-2167
▁anim	-2168
did	-2169
的时候	-2170
opt	-2171
▁manier	-2172
▁wanted	-2173
▁Ro	-2174
▁sir	-2175
oopt	-2176
▁Duit	-2177
ara	-2178
▁follow	-2179
▁197	-2180
▁leave	-2181
iam	-2182
▁elke	-2183
uurt	-2184
SIS	-2185
▁United	-2186
raat	-2187
ator	-2188
ased	-2189
▁mem	-2190
ocht	-2191
▁hafta	-2192
▁niemand	-2193
▁Bedankt	-2194
ilig	-2195
▁Wij	-2196
ific	-2197
▁coll	-2198
▁having	-2199
urs	-2200
▁American	-2201
▁happened	-2202
▁vindt	-2203
中国	-2204
▁kop	-2205
oemen	-2206
werp	-2207
▁ou	-2208
ched	-2209
▁sign	-2210
▁202	-2211
dr	-2212
▁offic	-2213
▁koning	-2214
omas	-2215
▁Par	-2216
osed	-2217
aint	-2218
uc	-2219
kker	-2220
ideo	-2221
▁Fl	-2222
anc	-2223
reek	-2224
▁hoog	-2225
▁air	-2226
GMA	-2227
▁geze	-2228
ikt	-2229
▁incl	-2230
▁gelijk	-2231
▁midd	-2232
oke	-2233
▁bren	-2234
▁lucht	-2235
▁Ed	-2236
▁hart	-2237
You	-2238
▁cut	-2239
zicht	-2240
▁direct	-2241
▁near	-2242
▁resp	-2243
▁gave	-2244
▁god	-2245
▁along	-2246
most	-2247
itch	-2248
▁verz	-2249
▁besl	-2250
▁set	-2251
▁inst	-2252
ester	-2253
▁verhaal	-2254
▁Bob	-2255
▁moo	-2256
我的	-2257
appy	-2258
▁av	-2259
akt	-2260
▁:	-2261
ony	-2262
▁past	-2263
inds	-2264
▁live	-2265
ieten	-2266
min	-2267
▁bloed	-2268
▁present	-2269
▁knew	-2270
▁Jan	-2271
▁dro	-2272
under	-2273
▁war	-2274
▁要	-2275
▁enige	-2276
▁Ger	-2277
▁sla	-2278
▁Pa	-2279
gram	-2280
▁gesp	-2281
▁mannen	-2282
2.	-2283
▁los	-2284
▁aard	-2285
OU	-2286
weet	-2287
▁hoop	-2288
▁ans	-2289
▁politie	-2290
▁vandaag	-2291
▁mogelijk	-2292
▁Zeg	-2293
出来	-2294
pect	-2295
▁talking	-2296
▁Man	-2297
ages	-2298
▁speel	-2299
▁story	-2300
ready	-2301
uin	-2302
▁grond	-2303
▁ob	-2304
▁char	-2305
rijd	-2306
▁Kan	-2307
ax	-2308
▁city	-2309
爸爸	-2310
▁sort	-2311
▁soort	-2312
▁stem	-2313
voorbeeld	-2314
▁popul	-2315
▁halen	-2316
▁onge	-2317
▁jongens	-2318
▁Car	-2319
▁opge	-2320
▁tri	-2321
roken	-2322
{1	-2323
fe	-2324
▁ogen	-2325
ney	-2326
▁against	-2327
▁sim	-2328
▁days	-2329
▁Zij	-2330
3.	-2331
ON	-2332
▁Sam	-2333
ities	-2334
▁Wik	-2335
▁publ	-2336
▁gebruiken	-2337
▁heart	-2338
ded	-2339
▁vijf	-2340
0,	-2341
▁ready	-2342
}^	-2343
▁sub	-2344
▁spelen	-2345
uizen	-2346
▁vorm	-2347
ones	-2348
iness	-2349
ienden	-2350
▁denken	-2351
▁Laten	-2352
▁familie	-2353
▁zelfs	-2354
▁Aan	-2355
▁hour	-2356
vers	-2357
▁Con	-2358
lex	-2359
▁Hel	-2360
▁nat	-2361
▁jaren	-2362
▁Kun	-2363
▁zouden	-2364
▁zoek	-2365
▁pretty	-2366
都是	-2367
ury	-2368
▁break	-2369
▁family	-2370
ully	-2371
▁died	-2372
bert	-2373
very	-2374
▁zin	-2375
▁fall	-2376
▁Alles	-2377
▁move	-2378
lo	-2379
▁win	-2380
elden	-2381
可能	-2382
▁His	-2383
▁Nie	-2384
▁Mm	-2385
▁making	-2386
▁boys	-2387
▁del	-2388
▁ty	-2389
的人	-2390
的小	-2391
▁hers	-2392
▁gehe	-2393
mon	-2394
▁arm	-2395
gy	-2396
▁Brit	-2397
ession	-2398
dag	-2399
▁eff	-2400
▁table	-2401
----	-2402
Oh	-2403
▁Tot	-2404
mee	-2405
▁pos	-2406
▁teken	-2407
!'	-2408
iter	-2409
esten	-2410
▁Tr	-2411
▁ref	-2412
rekken	-2413
▁everything	-2414
||	-2415
▁dagen	-2416
wards	-2417
und	-2418
▁Gel	-2419
▁gebeurt	-2420
ison	-2421
less	-2422
ither	-2423
▁196	-2424
▁meet	-2425
read	-2426
▁aantal	-2427
▁geleden	-2428
▁oude	-2429
▁zoon	-2430
▁Denk	-2431
▁vers	-2432
▁answer	-2433
ding	-2434
▁nacht	-2435
het	-2436
sten	-2437
maar	-2438
▁started	-2439
ital	-2440
ering	-2441
ekent	-2442
▁gebeurd	-2443
arde	-2444
▁houdt	-2445
▁oud	-2446
▁你好	-2447
heden	-2448
时间	-2449
It	-2450
▁inv	-2451
olen	-2452
▁pri	-2453
▁Charl	-2454
▁fact	-2455
▁Mummy	-2456
▁vroeg	-2457
真的	-2458
ziek	-2459
ING	-2460
▁Who	-2461
▁York	-2462
▁organ	-2463
enty	-2464
▁food	-2465
▁return	-2466
▁..	-2467
wat	-2468
▁THE	-2469
▁mens	-2470
▁zon	-2471
▁wasn	-2472
▁大	-2473
▁Welke	-2474
▁gi	-2475
unch	-2476
▁lov	-2477
rouwen	-2478
▁One	-2479
▁expl	-2480
moet	-2481
▁town	-2482
ari	-2483
ilijk	-2484
▁game	-2485
▁cir	-2486
▁bring	-2487
ald	-2488
▁lik	-2489
www	-2490
▁cra	-2491
▁Schrijf	-2492
▁gezegd	-2493
他的	-2494
▁band	-2495
▁sold	-2496
bel	-2497
▁believe	-2498
▁whe	-2499
▁morgen	-2500
▁minder	-2501
kl	-2502
▁noise	-2503
▁born	-2504
▁quest	-2505
可是	-2506
▁song	-2507
▁bep	-2508
东西	-2509
GR	-2510
▁whole	-2511
▁eigenlijk	-2512
▁polit	-2513
▁11	-2514
oemd	-2515
▁matter	-2516
▁ed	-2517
▁vond	-2518
▁geef	-2519
▁klas	-2520
▁Where	-2521
▁oorlog	-2522
▁Su	-2523
▁Nog	-2524
的一	-2525
▁since	-2526
▁became	-2527
ott	-2528
ene	-2529
raak	-2530
▁betekent	-2531
We	-2532
▁country	-2533
Ik	-2534
▁选项	-2535
▁floor	-2536
▁saying	-2537
idden	-2538
▁Af	-2539
▁Door	-2540
ner	-2541
孩子	-2542
ertain	-2543
ocal	-2544
airs	-2545
▁mot	-2546
▁krijg	-2547
iger	-2548
▁ander	-2549
▁foto	-2550
▁denkt	-2551
ES	-2552
▁Stop	-2553
▁licht	-2554
irt	-2555
▁zat	-2556
▁Ne	-2557
ga	-2558
也不	-2559
▁Per	-2560
ager	-2561
▁black	-2562
olf	-2563
▁hum	-2564
ijnen	-2565
ummer	-2566
▁job	-2567
▁white	-2568
kel	-2569
inde	-2570
▁States	-2571
▁son	-2572
有一	-2573
▁moeilijk	-2574
▁warm	-2575
ler	-2576
▁contin	-2577
▁video	-2578
ised	-2579
euw	-2580
▁actually	-2581
hel	-2582
▁began	-2583
▁compl	-2584
Th	-2585
▁ton	-2586
▁milj	-2587
▁vrienden	-2588
▁lekker	-2589
▁interest	-2590
▁i	-2591
▁194	-2592
▁pat	-2593
▁CHI	-2594
▁sat	-2595
bank	-2596
▁mark	-2597
▁Qu	-2598
��	-2599
▁comes	-2600
erv	-2601
▁Omdat	-2602
▁呢	-2603
ret	-2604
▁prof	-2605
▁natuurlijk	-2606
▁gevonden	-2607
已经	-2608
lijke	-2609
▁trying	-2610
aptain	-2611
▁begin	-2612
▁Luister	-2613
▁understand	-2614
see	-2615
▁feet	-2616
ives	-2617
▁Are	-2618
werk	-2619
▁sil	-2620
▁poss	-2621
▁pas	-2622
▁geloof	-2623
▁eng	-2624
essed	-2625
▁probleem	-2626
▁Good	-2627
▁Neem	-2628
▁hair	-2629
▁front	-2630
vr	-2631
▁kans	-2632
▁Som	-2633
▁jong	-2634
uidelijk	-2635
▁cur	-2636
orrow	-2637
▁Thomas	-2638
▁pu	-2639
▁almost	-2640
ipp	-2641
▁trans	-2642
▁gegeven	-2643
aces	-2644
aks	-2645
▁bur	-2646
ument	-2647
BRO	-2648
▁II	-2649
▁Bar	-2650
▁werkt	-2651
▁already	-2652
▁friends	-2653
sc	-2654
reg	-2655
'.	-2656
▁landen	-2657
osten	-2658
reven	-2659
itten	-2660
▁persoon	-2661
▁Jap	-2662
bers	-2663
这么	-2664
▁pa	-2665
▁schat	-2666
▁gar	-2667
▁val	-2668
▁succ	-2669
▁prov	-2670
ize	-2671
▁less	-2672
ommy	-2673
And	-2674
▁aange	-2675
▁tijdens	-2676
staan	-2677
▁vak	-2678
▁groep	-2679
ying	-2680
▁Europ	-2681
▁wouldn	-2682
ouch	-2683
ming	-2684
▁hond	-2685
deel	-2686
▁prot	-2687
▁squ	-2688
▁plek	-2689
▁wrong	-2690
▁lost	-2691
▁prom	-2692
▁kap	-2693
▁wed	-2694
▁Lees	-2695
▁grou	-2696
▁Jim	-2697
▁neer	-2698
▁pun	-2699
▁14	-2700
▁zet	-2701
▁post	-2702
oepen	-2703
vrouw	-2704
▁bestaat	-2705
▁Com	-2706
left	-2707
▁build	-2708
▁pot	-2709
比赛	-2710
▁times	-2711
▁soms	-2712
▁eas	-2713
▁during	-2714
▁playing	-2715
abel	-2716
▁reden	-2717
▁Ter	-2718
▁kamer	-2719
houd	-2720
▁druk	-2721
▁minute	-2722
veer	-2723
▁color	-2724
▁King	-2725
orp	-2726
▁played	-2727
▁cat	-2728
rought	-2729
▁blue	-2730
▁ding	-2731
ined	-2732
▁bar	-2733
akker	-2734
▁hè	-2735
▁ruim	-2736
rol	-2737
▁Gen	-2738
▁letter	-2739
ards	-2740
▁cup	-2741
▁pay	-2742
故事	-2743
vern	-2744
sn	-2745
▁beaut	-2746
▁Right	-2747
▁eeuw	-2748
▁def	-2749
▁les	-2750
heen	-2751
inken	-2752
▁25	-2753
▁president	-2754
如果	-2755
▁gro	-2756
▁close	-2757
▁13	-2758
▁blijft	-2759
▁brand	-2760
▁Echt	-2761
▁minuten	-2762
oul	-2763
▁Look	-2764
▁woon	-2765
▁West	-2766
ham	-2767
plaat	-2768
▁full	-2769
ima	-2770
▁idea	-2771
▁Ab	-2772
▁pull	-2773
▁leren	-2774
▁bijvoorbeeld	-2775
co	-2776
slag	-2777
uig	-2778
10	-2779
▁du	-2780
ises	-2781
▁taken	-2782
ellow	-2783
▁syst	-2784
wijl	-2785
▁order	-2786
ande	-2787
▁paper	-2788
ën	-2789
▁ble	-2790
▁wachten	-2791
lish	-2792
▁195	-2793
ric	-2794
imed	-2795
▁super	-2796
itting	-2797
▁picture	-2798
iezen	-2799
▁trou	-2800
▁bekend	-2801
很多	-2802
ging	-2803
huis	-2804
一定	-2805
ues	-2806
▁Zie	-2807
▁dieren	-2808
ently	-2809
▁Go	-2810
▁rock	-2811
▁zoeken	-2812
需要	-2813
▁norm	-2814
▁woman	-2815
ana	-2816
ilt	-2817
zer	-2818
▁product	-2819
▁fav	-2820
▁eight	-2821
good	-2822
▁lopen	-2823
▁uitge	-2824
▁vre	-2825
开始	-2826
▁music	-2827
▁After	-2828
rab	-2829
ogra	-2830
LO	-2831
▁import	-2832
▁x	-2833
got	-2834
▁pijn	-2835
tw	-2836
▁often	-2837
▁probably	-2838
▁party	-2839
ruct	-2840
▁chair	-2841
▁gehad	-2842
▁veilig	-2843
yn	-2844
▁appear	-2845
▁held	-2846
reeg	-2847
▁girls	-2848
▁eruit	-2849
▁green	-2850
▁inc	-2851
▁makes	-2852
zien	-2853
▁deur	-2854
▁hoort	-2855
▁brought	-2856
▁month	-2857
▁conf	-2858
▁fight	-2859
▁huh	-2860
▁Leg	-2861
▁quick	-2862
▁behind	-2863
▁link	-2864
burg	-2865
▁geweldig	-2866
rip	-2867
Yes	-2868
midd	-2869
▁lich	-2870
▁seemed	-2871
kig	-2872
▁brengen	-2873
▁poor	-2874
sk	-2875
hand	-2876
foon	-2877
just	-2878
mo	-2879
▁happy	-2880
▁stick	-2881
▁Japan	-2882
▁turned	-2883
▁hulp	-2884
olly	-2885
▁Ied	-2886
▁gotta	-2887
▁adv	-2888
▁dead	-2889
ouwen	-2890
ente	-2891
stof	-2892
▁onderzoek	-2893
mat	-2894
iep	-2895
自己的	-2896
more	-2897
▁Some	-2898
▁means	-2899
▁到	-2900
▁Stap	-2901
head	-2902
orge	-2903
▁dou	-2904
▁aren	-2905
rog	-2906
▁Did	-2907
▁zom	-2908
▁Paul	-2909
▁Vert	-2910
▁Dav	-2911
▁zee	-2912
aties	-2913
▁Alleen	-2914
▁Ital	-2915
▁draw	-2916
▁jo	-2917
ouse	-2918
▁mouth	-2919
key	-2920
▁lad	-2921
ides	-2922
rijs	-2923
▁stuff	-2924
▁Geb	-2925
ained	-2926
orden	-2927
because	-2928
这些	-2929
▁Duits	-2930
▁certain	-2931
ED	-2932
▁kreeg	-2933
hi	-2934
一起	-2935
zij	-2936
anen	-2937
▁fine	-2938
▁Blijf	-2939
▁movie	-2940
▁vrouwen	-2941
sy	-2942
▁able	-2943
▁beginnen	-2944
igde	-2945
大家	-2946
▁rele	-2947
inger	-2948
▁camp	-2949
No	-2950
感觉	-2951
-2	-2952
▁#	-2953
iful	-2954
▁Joe	-2955
▁Daddy	-2956
▁ontw	-2957
▁repl	-2958
▁guess	-2959
▁hoeveel	-2960
▁rad	-2961
▁oké	-2962
▁kaart	-2963
ains	-2964
▁bron	-2965
▁nieuws	-2966
ey	-2967
▁mer	-2968
dem	-2969
错误	-2970
▁short	-2971
▁perfect	-2972
ided	-2973
▁listen	-2974
eb	-2975
haps	-2976
UR	-2977
▁Sl	-2978
akkelijk	-2979
ured	-2980
不能	-2981
ists	-2982
{2}}	-2983
MCH	-2984
▁bank	-2985
▁Uit	-2986
▁liggen	-2987
▁gele	-2988
▁precies	-2989
res	-2990
▁下	-2991
ille	-2992
▁voice	-2993
What	-2994
ijst	-2995
hy	-2996
▁Peter	-2997
rop	-2998
ized	-2999
▁ziek	-3000
chn	-3001
▁cover	-3002
2:	-3003
▁30	-3004
一样	-3005
▁echte	-3006
Well	-3007
▁outside	-3008
▁然后	-3009
▁说	-3010
.$$	-3011
▁Thank	-3012
▁hurt	-3013
▁aw	-3014
zet	-3015
▁voet	-3016
com	-3017
▁wanneer	-3018
▁我们	-3019
▁Onder	-3020
▁death	-3021
应该	-3022
▁bott	-3023
▁pak	-3024
rying	-3025
ugust	-3026
▁afbeeld	-3027
▁hang	-3028
▁gezicht	-3029
▁Sn	-3030
▁onderwerp	-3031
▁bal	-3032
ba	-3033
▁jezelf	-3034
▁Beg	-3035
▁100	-3036
▁Cal	-3037
▁bird	-3038
▁Rome	-3039
▁cook	-3040
▁langs	-3041
▁program	-3042
▁wants	-3043
▁exper	-3044
生活	-3045
▁wee	-3046
▁line	-3047
▁Verd	-3048
里面	-3049
▁ho	-3050
▁Comm	-3051
uth	-3052
aged	-3053
▁alsof	-3054
▁words	-3055
regen	-3056
ander	-3057
▁learn	-3058
来了	-3059
▁ouders	-3060
▁duidelijk	-3061
▁ones	-3062
isme	-3063
▁piece	-3064
▁bek	-3065
▁miljoen	-3066
▁yourself	-3067
like	-3068
cess	-3069
▁Veel	-3070
hey	-3071
par	-3072
zie	-3073
▁With	-3074
▁stond	-3075
▁horse	-3076
▁bag	-3077
▁Ah	-3078
verd	-3079
▁brother	-3080
ship	-3081
band	-3082
▁bes	-3083
reet	-3084
zaam	-3085
pos	-3086
conom	-3087
▁Natuurlijk	-3088
▁serv	-3089
arth	-3090
ress	-3091
▁sent	-3092
▁1.	-3093
pril	-3094
▁business	-3095
因此	-3096
▁嗯嗯	-3097
ience	-3098
unning	-3099
irth	-3100
运动	-3101
▁record	-3102
ico	-3103
30	-3104
▁grot	-3105
▁Mc	-3106
▁ra	-3107
▁Col	-3108
▁hon	-3109
idge	-3110
▁German	-3111
iers	-3112
▁哈哈	-3113
ular	-3114
▁couldn	-3115
▁cor	-3116
▁tweede	-3117
ante	-3118
▁mooie	-3119
▁Gu	-3120
centerl	-3121
▁tien	-3122
NAN	-3123
▁hund	-3124
met	-3125
isk	-3126
1,	-3127
ardon	-3128
▁hundred	-3129
▁large	-3130
▁来	-3131
不过	-3132
gg	-3133
其实	-3134
used	-3135
ox	-3136
ately	-3137
▁hope	-3138
▁zoveel	-3139
▁Wanneer	-3140
▁tem	-3141
esc	-3142
▁sun	-3143
▁extra	-3144
bal	-3145
urch	-3146
achten	-3147
▁kracht	-3148
houden	-3149
▁rather	-3150
▁commun	-3151
▁handen	-3152
▁gun	-3153
▁它	-3154
ative	-3155
大的	-3156
▁ol	-3157
eeuw	-3158
schijn	-3159
thers	-3160
▁taking	-3161
IT	-3162
▁Fran	-3163
▁sever	-3164
▁Sy	-3165
▁conc	-3166
▁English	-3167
▁Daarom	-3168
▁上	-3169
▁gere	-3170
rit	-3171
selves	-3172
▁roll	-3173
▁gesl	-3174
▁energ	-3175
iving	-3176
▁2020	-3177
▁wife	-3178
▁Alex	-3179
▁gevaar	-3180
▁orde	-3181
for	-3182
▁ju	-3183
上的	-3184
▁Afr	-3185
antwoord	-3186
▁inside	-3187
▁minutes	-3188
▁deal	-3189
▁lichaam	-3190
▁Em	-3191
▁tree	-3192
eens	-3193
▁thank	-3194
▁comput	-3195
▁voed	-3196
▁Volgens	-3197
▁ongeveer	-3198
▁alsjeblieft	-3199
AL	-3200
比较	-3201
好的	-3202
▁late	-3203
ism	-3204
▁situ	-3205
ments	-3206
zak	-3207
看到	-3208
▁felt	-3209
▁Net	-3210
But	-3211
▁power	-3212
▁pen	-3213
▁park	-3214
rag	-3215
▁law	-3216
▁ill	-3217
ention	-3218
▁maybe	-3219
发现	-3220
▁spel	-3221
▁Russ	-3222
bit	-3223
▁road	-3224
▁Phil	-3225
▁brief	-3226
▁given	-3227
▁tom	-3228
ada	-3229
▁Min	-3230
▁Your	-3231
▁ang	-3232
oeien	-3233
▁hist	-3234
bum	-3235
▁Ir	-3236
▁vallen	-3237
▁Iedereen	-3238
CD	-3239
▁Wor	-3240
ogen	-3241
▁cap	-3242
▁&	-3243
▁oper	-3244
▁hetzelfde	-3245
▁Zet	-3246
▁meteen	-3247
▁muziek	-3248
bare	-3249
▁Meer	-3250
▁Kennis	-3251
▁chang	-3252
ourn	-3253
que	-3254
▁body	-3255
▁mine	-3256
▁daarna	-3257
{{{	-3258
▁myself	-3259
今天	-3260
▁includ	-3261
▁mama	-3262
▁lezen	-3263
▁grand	-3264
▁MOT	-3265
而且	-3266
bye	-3267
▁Pe	-3268
▁(19	-3269
▁ring	-3270
你们	-3271
Mummy	-3272
aars	-3273
umm	-3274
▁去	-3275
{2}	-3276
mber	-3277
▁Pres	-3278
▁strong	-3279
▁ev	-3280
2)	-3281
▁vooral	-3282
▁state	-3283
vallen	-3284
▁wit	-3285
▁mogen	-3286
niet	-3287
▁bear	-3288
▁ent	-3289
esh	-3290
▁aand	-3291
▁age	-3292
▁avond	-3293
=\	-3294
▁televis	-3295
▁till	-3296
非常	-3297
▁case	-3298
▁sug	-3299
▁govern	-3300
▁Ju	-3301
▁Nederlandse	-3302
ench	-3303
▁bor	-3304
世界	-3305
deren	-3306
▁gehoord	-3307
的话	-3308
▁lady	-3309
▁Sm	-3310
5.	-3311
fully	-3312
▁occ	-3313
underline	-3314
▁geloven	-3315
▁Here	-3316
inning	-3317
▁Pap	-3318
4)	-3319
是一	-3320
▁ago	-3321
▁mod	-3322
▁proberen	-3323
▁important	-3324
▁ran	-3325
fort	-3326
▁page	-3327
▁test	-3328
▁feest	-3329
▁bra	-3330
▁War	-3331
▁noem	-3332
▁hit	-3333
▁Mart	-3334
▁grootste	-3335
born	-3336
}$$,	-3337
▁problemen	-3338
ptember	-3339
▁gevangen	-3340
▁George	-3341
omst	-3342
▁class	-3343
▁nummer	-3344
电影	-3345
▁oef	-3346
▁teach	-3347
irty	-3348
acter	-3349
aving	-3350
▁creat	-3351
▁Gebruik	-3352
▁mill	-3353
ution	-3354
▁slapen	-3355
vert	-3356
▁wou	-3357
▁cold	-3358
pres	-3359
▁mach	-3360
AP	-3361
pje	-3362
▁noemen	-3363
▁glad	-3364
thank	-3365
ery	-3366
ete	-3367
▁fout	-3368
▁free	-3369
▁others	-3370
2,	-3371
▁/	-3372
ians	-3373
ached	-3374
shall	-3375
yy	-3376
▁Ho	-3377
alm	-3378
▁var	-3379
pped	-3380
iken	-3381
▁event	-3382
▁rol	-3383
▁const	-3384
走了	-3385
orie	-3386
▁beautiful	-3387
eur	-3388
reed	-3389
▁故	-3390
reen	-3391
▁zes	-3392
▁beneden	-3393
▁fair	-3394
llo	-3395
▁Heeft	-3396
▁birth	-3397
▁club	-3398
▁dark	-3399
▁keu	-3400
aien	-3401
▁也	-3402
▁Get	-3403
urk	-3404
▁guy	-3405
▁main	-3406
▁Pak	-3407
kende	-3408
▁fast	-3409
人的	-3410
▁zodat	-3411
▁arr	-3412
▁vliegt	-3413
▁Span	-3414
▁acht	-3415
Uh	-3416
▁telefoon	-3417
▁pakken	-3418
gele	-3419
▁several	-3420
DAD	-3421
▁throw	-3422
▁vanavond	-3423
▁Lu	-3424
▁least	-3425
▁change	-3426
50	-3427
中的	-3428
aling	-3429
▁ground	-3430
aker	-3431
▁broer	-3432
▁spreken	-3433
▁stap	-3434
iging	-3435
iously	-3436
▁School	-3437
▁Beeld	-3438
▁lay	-3439
▁either	-3440
▁meeste	-3441
▁across	-3442
两个	-3443
▁mess	-3444
da	-3445
vin	-3446
▁sometimes	-3447
▁effect	-3448
▁loopt	-3449
▁toys	-3450
inkt	-3451
▁schuld	-3452
▁Bra	-3453
▁alone	-3454
{}$$	-3455
▁macht	-3456
UN	-3457
▁animals	-3458
▁vergeten	-3459
▁Heel	-3460
这种	-3461
▁1,	-3462
▁uitleg	-3463
▁react	-3464
▁doel	-3465
▁inde	-3466
▁early	-3467
▁favor	-3468
▁det	-3469
▁sweet	-3470
ode	-3471
▁einde	-3472
动物	-3473
▁riv	-3474
▁hat	-3475
▁lead	-3476
▁vij	-3477
那么	-3478
ford	-3479
▁area	-3480
▁France	-3481
▁ergens	-3482
▁+	-3483
一点	-3484
▁By	-3485
▁rece	-3486
▁voorbij	-3487
omin	-3488
▁boot	-3489
▁呀	-3490
一下	-3491
▁eerder	-3492
aves	-3493
▁partic	-3494
▁der	-3495
▁Niemand	-3496
indelijk	-3497
rokken	-3498
▁bezig	-3499
▁gaf	-3500
▁boat	-3501
won	-3502
▁begint	-3503
▁funny	-3504
▁vle	-3505
▁shop	-3506
vember	-3507
不会	-3508
inig	-3509
▁group	-3510
▁result	-3511
▁Gew	-3512
kele	-3513
▁Want	-3514
▁mist	-3515
▁kijkt	-3516
sche	-3517
▁valt	-3518
▁ervan	-3519
Yeah	-3520
老师	-3521
▁true	-3522
▁lett	-3523
▁genoemd	-3524
▁Gl	-3525
▁Moet	-3526
▁Best	-3527
oef	-3528
拜拜	-3529
▁someone	-3530
▁gep	-3531
▁twenty	-3532
▁zetten	-3533
ask	-3534
nieuw	-3535
▁question	-3536
▁Count	-3537
zy	-3538
▁dien	-3539
1)	-3540
▁bi	-3541
▁hop	-3542
国家	-3543
▁Inter	-3544
rict	-3545
▁World	-3546
▁wet	-3547
▁Kon	-3548
▁Bek	-3549
▁dezelfde	-3550
▁Pol	-3551
▁mond	-3552
then	-3553
特别	-3554
▁Jul	-3555
rat	-3556
▁milk	-3557
▁就是	-3558
▁Act	-3559
▁grow	-3560
▁24	-3561
eem	-3562
▁liefde	-3563
ds	-3564
gang	-3565
oom	-3566
它们	-3567
▁Grand	-3568
▁pur	-3569
boek	-3570
▁Gra	-3571
igin	-3572
▁leeft	-3573
▁maakte	-3574
▁Jon	-3575
▁gets	-3576
That	-3577
▁Mich	-3578
最近	-3579
▁aarde	-3580
▁Ant	-3581
cri	-3582
isc	-3583
▁193	-3584
gie	-3585
sing	-3586
▁maat	-3587
genomen	-3588
wijs	-3589
AND	-3590
oops	-3591
▁fish	-3592
▁working	-3593
▁0	-3594
▁li	-3595
▁sta	-3596
▁wish	-3597
▁Ke	-3598
▁vraagt	-3599
ello	-3600
icks	-3601
water	-3602
▁album	-3603
▁elect	-3604
▁imp	-3605
▁Mon	-3606
▁vill	-3607
▁sister	-3608
partment	-3609
MAR	-3610
▁Gaat	-3611
▁dollar	-3612
9.	-3613
▁terwijl	-3614
▁Europe	-3615
▁hy	-3616
5)	-3617
▁是啊	-3618
have	-3619
▁Mary	-3620
▁gebouw	-3621
▁geworden	-3622
RI	-3623
ales	-3624
▁verkl	-3625
does	-3626
▁verst	-3627
dom	-3628
cer	-3629
▁ongel	-3630
▁Harry	-3631
za	-3632
▁da	-3633
▁Even	-3634
ino	-3635
▁opl	-3636
问题	-3637
▁kent	-3638
▁fuck	-3639
ram	-3640
▁cried	-3641
▁wonen	-3642
▁drinken	-3643
▁Veren	-3644
▁rijk	-3645
ule	-3646
6.	-3647
▁hoeft	-3648
▁station	-3649
通过	-3650
再见	-3651
青蛙	-3652
cil	-3653
发展	-3654
komt	-3655
▁via	-3656
▁truck	-3657
ense	-3658
▁ervoor	-3659
▁Rob	-3660
▁sport	-3661
iest	-3662
uhhuh	-3663
▁stoppen	-3664
▁Lou	-3665
新闻	-3666
▁gekomen	-3667
▁women	-3668
▁clot	-3669
amb	-3670
▁papa	-3671
▁Hoeveel	-3672
▁Sw	-3673
iting	-3674
▁wall	-3675
▁pracht	-3676
izen	-3677
▁ya	-3678
▁cou	-3679
▁koff	-3680
uut	-3681
▁schrijven	-3682
12	-3683
▁partij	-3684
8.	-3685
▁buy	-3686
▁jump	-3687
▁dochter	-3688
uary	-3689
▁tried	-3690
▁French	-3691
▁consider	-3692
▁吃	-3693
▁enter	-3694
▁plant	-3695
▁vreem	-3696
▁verteld	-3697
▁punten	-3698
alth	-3699
ogel	-3700
▁50	-3701
▁kil	-3702
aire	-3703
7.	-3704
▁wink	-3705
▁David	-3706
▁vermoord	-3707
▁afbeelding	-3708
▁Mad	-3709
gem	-3710
antie	-3711
▁meter	-3712
▁hol	-3713
igheid	-3714
▁speci	-3715
地方	-3716
▁gebied	-3717
▁Engel	-3718
▁These	-3719
schijnlijk	-3720
▁weinig	-3721
▁system	-3722
▁blood	-3723
主要	-3724
▁Zoals	-3725
duct	-3726
▁econom	-3727
oken	-3728
▁clean	-3729
▁mam	-3730
▁expect	-3731
19	-3732
▁Bekijk	-3733
▁rep	-3734
▁Twee	-3735
▁volgens	-3736
▁yellow	-3737
▁Dag	-3738
▁finished	-3739
▁cond	-3740
▁vi	-3741
▁Rep	-3742
▁seven	-3743
▁sea	-3744
when	-3745
▁zwart	-3746
▁guys	-3747
▁sol	-3748
iversity	-3749
▁respect	-3750
ris	-3751
ural	-3752
▁company	-3753
maken	-3754
velop	-3755
nou	-3756
issen	-3757
bt	-3758
▁herself	-3759
ael	-3760
bles	-3761
arch	-3762
amera	-3763
atten	-3764
alve	-3765
▁among	-3766
stuk	-3767
▁schoon	-3768
aced	-3769
▁rug	-3770
▁tit	-3771
▁Every	-3772
recht	-3773
不好	-3774
3,	-3775
PAT	-3776
oeger	-3777
▁doden	-3778
▁object	-3779
▁dank	-3780
▁ontwikk	-3781
]?	-3782
ID	-3783
pers	-3784
▁cult	-3785
▁killed	-3786
▁Ag	-3787
▁Sir	-3788
arling	-3789
▁kopen	-3790
▁begrijp	-3791
ocol	-3792
▁gas	-3793
3)	-3794
aalde	-3795
ijl	-3796
▁ontde	-3797
▁praat	-3798
▁Mark	-3799
▁speak	-3800
ube	-3801
ued	-3802
rem	-3803
leven	-3804
▁Zw	-3805
osp	-3806
ived	-3807
inet	-3808
▁maanden	-3809
▁gevol	-3810
ior	-3811
goed	-3812
▁给	-3813
▁zult	-3814
▁kru	-3815
▁vanaf	-3816
was	-3817
owed	-3818
▁zorg	-3819
▁di	-3820
▁reason	-3821
▁ges	-3822
▁IN	-3823
18	-3824
▁football	-3825
ices	-3826
raagd	-3827
▁konden	-3828
▁kwamen	-3829
aughter	-3830
▁Ple	-3831
▁become	-3832
▁sinds	-3833
schapp	-3834
▁James	-3835
▁South	-3836
role	-3837
oorten	-3838
▁trouw	-3839
▁write	-3840
▁begon	-3841
iviteit	-3842
7)	-3843
▁August	-3844
为什么	-3845
▁juiste	-3846
▁cool	-3847
▁2.	-3848
ustral	-3849
▁running	-3850
▁waarin	-3851
▁Sim	-3852
▁laug	-3853
▁special	-3854
ika	-3855
iment	-3856
这是	-3857
▁toek	-3858
▁abs	-3859
arrow	-3860
rie	-3861
下来	-3862
▁cow	-3863
▁enkele	-3864
▁tea	-3865
two	-3866
▁thinking	-3867
▁vlucht	-3868
▁doctor	-3869
ror	-3870
▁Because	-3871
▁buurt	-3872
▁anderen	-3873
▁betalen	-3874
▁Naar	-3875
▁sett	-3876
▁soft	-3877
ically	-3878
kk	-3879
▁verdw	-3880
▁toy	-3881
▁leerl	-3882
kening	-3883
▁Hen	-3884
▁wood	-3885
▁Alsjeblieft	-3886
▁March	-3887
derd	-3888
▁ren	-3889
strijd	-3890
▁stil	-3891
oft	-3892
▁takes	-3893
▁gebeuren	-3894
▁usually	-3895
▁还	-3896
uigen	-3897
▁living	-3898
▁command	-3899
friend	-3900
▁leger	-3901
▁Che	-3902
▁maand	-3903
▁har	-3904
▁stat	-3905
▁lange	-3906
▁dinner	-3907
▁lach	-3908
ring	-3909
▁Exc	-3910
▁ice	-3911
mas	-3912
▁Part	-3913
▁vor	-3914
▁Daarna	-3915
rift	-3916
onde	-3917
cul	-3918
▁voordat	-3919
▁egg	-3920
olle	-3921
▁books	-3922
▁langu	-3923
▁lived	-3924
看看	-3925
▁ijs	-3926
以后	-3927
ousand	-3928
stubl	-3929
▁Alle	-3930
vorm	-3931
repen	-3932
▁liet	-3933
▁surpr	-3934
发生	-3935
▁Amerikaanse	-3936
你的	-3937
avy	-3938
▁step	-3939
De	-3940
▁voorst	-3941
ping	-3942
▁ship	-3943
stublieft	-3944
▁kept	-3945
▁Austral	-3946
point	-3947
▁Pas	-3948
▁June	-3949
▁ontmoet	-3950
狐狸	-3951
attle	-3952
ounds	-3953
▁rij	-3954
unk	-3955
▁eraan	-3956
jor	-3957
▁把	-3958
▁phone	-3959
raid	-3960
▁Wer	-3961
offen	-3962
oenen	-3963
▁port	-3964
ukt	-3965
太阳	-3966
ases	-3967
▁snap	-3968
15	-3969
▁div	-3970
▁figuur	-3971
▁gingen	-3972
▁corn	-3973
▁redden	-3974
▁geval	-3975
▁lift	-3976
▁loc	-3977
icken	-3978
▁verr	-3979
ute	-3980
▁opt	-3981
▁techn	-3982
▁Ken	-3983
▁sand	-3984
▁report	-3985
press	-3986
▁III	-3987
▁January	-3988
▁hur	-3989
ances	-3990
▁neemt	-3991
▁slag	-3992
▁quiet	-3993
▁Vertel	-3994
owers	-3995
▁somebody	-3996
▁mass	-3997
▁trouble	-3998
▁verwacht	-3999
oer	-4000
▁touch	-4001
▁check	-4002
weer	-4003
stead	-4004
▁sterk	-4005
ieke	-4006
▁Help	-4007
gas	-4008
为了	-4009
这里	-4010
view	-4011
▁dier	-4012
▁send	-4013
▁Rust	-4014
▁examen	-4015
aven	-4016
▁stood	-4017
onk	-4018
▁oog	-4019
times	-4020
▁fly	-4021
16	-4022
▁fur	-4023
▁priv	-4024
▁attack	-4025
▁rijden	-4026
▁punt	-4027
dra	-4028
▁king	-4029
▁vent	-4030
▁window	-4031
9,	-4032
的大	-4033
▁chance	-4034
eller	-4035
SI	-4036
eeg	-4037
▁sterven	-4038
▁ir	-4039
itter	-4040
第一	-4041
ague	-4042
annen	-4043
▁Captain	-4044
去了	-4045
▁North	-4046
▁north	-4047
▁schrij	-4048
▁sitting	-4049
▁Cent	-4050
▁nad	-4051
vangen	-4052
▁hung	-4053
LOI	-4054
ral	-4055
▁ner	-4056
elk	-4057
▁voelt	-4058
▁vie	-4059
CDS	-4060
▁eil	-4061
icult	-4062
nemen	-4063
▁public	-4064
}_{	-4065
▁nose	-4066
TER	-4067
toe	-4068
play	-4069
▁rot	-4070
berg	-4071
▁Pat	-4072
▁thousand	-4073
▁mater	-4074
▁kost	-4075
pel	-4076
sta	-4077
▁bom	-4078
▁gang	-4079
▁zeer	-4080
▁named	-4081
▁series	-4082
▁DE	-4083
▁reger	-4084
ility	-4085
nam	-4086
zonder	-4087
▁single	-4088
▁eh	-4089
▁(2	-4090
▁ker	-4091
He	-4092
▁mount	-4093
▁daarom	-4094
▁British	-4095
▁ca	-4096
oose	-4097
▁Ser	-4098
▁catch	-4099
wegen	-4100
▁ins	-4101
eding	-4102
好像	-4103
▁AN	-4104
ories	-4105
▁kennen	-4106
▁wakker	-4107
ining	-4108
▁clim	-4109
▁computer	-4110
▁bru	-4111
iedenis	-4112
▁region	-4113
▁reis	-4114
rok	-4115
▁Mil	-4116
▁afraid	-4117
▁hours	-4118
dden	-4119
▁Eén	-4120
▁fear	-4121
iez	-4122
▁fa	-4123
▁haal	-4124
▁cross	-4125
bor	-4126
though	-4127
▁replied	-4128
dan	-4129
▁trein	-4130
esse	-4131
gesch	-4132
reekt	-4133
▁birthday	-4134
▁vuur	-4135
alright	-4136
▁gevoel	-4137
▁boom	-4138
▁national	-4139
▁cre	-4140
▁YOU	-4141
社会	-4142
geet	-4143
▁clos	-4144
▁Mo	-4145
▁Jer	-4146
vloed	-4147
百分	-4148
▁problem	-4149
最后	-4150
spraak	-4151
gelopen	-4152
▁Toch	-4153
▁erop	-4154
▁Vraag	-4155
3:	-4156
▁trad	-4157
▁fix	-4158
▁没	-4159
一直	-4160
dot	-4161
▁President	-4162
.000	-4163
▁City	-4164
▁dam	-4165
▁released	-4166
▁Mer	-4167
▁fift	-4168
ichting	-4169
▁blijf	-4170
▁frog	-4171
▁fit	-4172
dien	-4173
7,	-4174
▁voort	-4175
影响	-4176
苹果	-4177
▁Dec	-4178
▁origin	-4179
ya	-4180
cto	-4181
▁gast	-4182
▁lied	-4183
▁ruimte	-4184
imin	-4185
▁baas	-4186
▁log	-4187
▁CH	-4188
▁China	-4189
▁within	-4190
▁toekomst	-4191
▁arg	-4192
▁enorm	-4193
▁weken	-4194
OM	-4195
edia	-4196
▁Rich	-4197
▁temper	-4198
▁antwoorden	-4199
hoog	-4200
▁Val	-4201
▁lid	-4202
entle	-4203
▁sudden	-4204
▁letters	-4205
▁fant	-4206
▁naast	-4207
▁pig	-4208
hor	-4209
▁government	-4210
rt	-4211
bouw	-4212
▁dad	-4213
▁gevraagd	-4214
▁daughter	-4215
▁dress	-4216
▁darling	-4217
afel	-4218
mb	-4219
ality	-4220
▁schip	-4221
ex	-4222
▁camera	-4223
ella	-4224
▁themselves	-4225
▁west	-4226
▁dik	-4227
ges	-4228
blad	-4229
thern	-4230
进行	-4231
▁Bill	-4232
ening	-4233
▁bos	-4234
▁makkelijk	-4235
▁veranderen	-4236
leiding	-4237
▁points	-4238
entie	-4239
▁April	-4240
▁Noord	-4241
nem	-4242
ilder	-4243
▁Red	-4244
作用	-4245
makes	-4246
oelen	-4247
▁Staten	-4248
▁waardoor	-4249
一些	-4250
▁clothes	-4251
AS	-4252
umb	-4253
我就	-4254
▁baan	-4255
kn	-4256
▁Duitsland	-4257
物体	-4258
▁control	-4259
oger	-4260
centr	-4261
gar	-4262
▁dok	-4263
▁tired	-4264
▁probeer	-4265
▁Zuid	-4266
▁lunch	-4267
▁Zelf	-4268
itein	-4269
fer	-4270
▁mat	-4271
40	-4272
▁block	-4273
$${	-4274
FCH	-4275
▁married	-4276
8,	-4277
asure	-4278
▁kunst	-4279
▁Europa	-4280
▁alright	-4281
IJ	-4282
▁Uh	-4283
▁lo	-4284
事情	-4285
uke	-4286
▁Mama	-4287
▁fort	-4288
▁Please	-4289
▁natuur	-4290
▁Max	-4291
▁Bon	-4292
ctober	-4293
▁William	-4294
一只	-4295
▁zak	-4296
▁star	-4297
▁Republ	-4298
roll	-4299
ugen	-4300
▁mevrouw	-4301
▁Sar	-4302
▁zus	-4303
▁boos	-4304
▁Nor	-4305
▁regel	-4306
老鼠	-4307
erence	-4308
▁Jo	-4309
▁192	-4310
▁kiss	-4311
omp	-4312
▁gelukkig	-4313
原来	-4314
gev	-4315
▁dream	-4316
▁lives	-4317
zin	-4318
eken	-4319
▁San	-4320
▁et	-4321
moc	-4322
▁middel	-4323
▁answered	-4324
▁exact	-4325
▁aardig	-4326
不同	-4327
kant	-4328
ïn	-4329
want	-4330
sm	-4331
▁dest	-4332
▁zwaar	-4333
▁Vl	-4334
▁County	-4335
▁heer	-4336
▁meisjes	-4337
hold	-4338
▁妈妈	-4339
oorlog	-4340
▁kwijt	-4341
▁Erm	-4342
▁nine	-4343
stad	-4344
▁months	-4345
▁proper	-4346
uwen	-4347
▁Tim	-4348
▁overal	-4349
olon	-4350
▁equ	-4351
▁dokter	-4352
ikken	-4353
▁huid	-4354
ozen	-4355
▁Had	-4356
6,	-4357
▁wild	-4358
▁seems	-4359
ette	-4360
▁England	-4361
▁Have	-4362
▁zaken	-4363
▁schree	-4364
关系	-4365
▁Meneer	-4366
▁est	-4367
▁delen	-4368
▁都	-4369
gave	-4370
naam	-4371
▁winter	-4372
aser	-4373
于是	-4374
▁kort	-4375
工作	-4376
genoot	-4377
▁river	-4378
eh	-4379
}\	-4380
▁hus	-4381
zichtig	-4382
LL	-4383
▁possible	-4384
enny	-4385
▁Prob	-4386
▁Black	-4387
icro	-4388
出了	-4389
▁fijn	-4390
▁rain	-4391
▁speelt	-4392
百分之	-4393
▁moved	-4394
▁passen	-4395
▁straight	-4396
▁会	-4397
▁Verenigde	-4398
▁spl	-4399
}^{2}}	-4400
▁organis	-4401
▁winnen	-4402
14	-4403
may	-4404
▁verv	-4405
▁klim	-4406
第二	-4407
▁perhaps	-4408
▁讲	-4409
ugd	-4410
▁support	-4411
眼睛	-4412
▁eye	-4413
▁knows	-4414
inter	-4415
▁arri	-4416
▁passed	-4417
▁Carl	-4418
▁Onze	-4419
▁moder	-4420
▁bedrijf	-4421
▁La	-4422
andy	-4423
▁type	-4424
▁Haar	-4425
gaat	-4426
▁Lord	-4427
色的	-4428
▁vechten	-4429
uurd	-4430
▁sail	-4431
ny	-4432
公司	-4433
▁easy	-4434
▁worked	-4435
▁slow	-4436
ula	-4437
ays	-4438
▁怎么	-4439
anny	-4440
▁elekt	-4441
▁哦	-4442
▁however	-4443
▁whether	-4444
▁cos	-4445
ammer	-4446
6)	-4447
▁race	-4448
5,	-4449
ebru	-4450
不知道	-4451
elingen	-4452
▁cannot	-4453
▁waiting	-4454
60	-4455
ingers	-4456
▁hield	-4457
iën	-4458
ekst	-4459
▁eating	-4460
essor	-4461
▁luist	-4462
▁sal	-4463
▁develop	-4464
ograph	-4465
▁vandaan	-4466
▁吗	-4467
ooh	-4468
▁zwem	-4469
▁sex	-4470
▁Ol	-4471
▁yours	-4472
▁garden	-4473
▁bath	-4474
onen	-4475
▁clear	-4476
▁difficult	-4477
{\	-4478
▁Belg	-4479
▁ontst	-4480
▁bellen	-4481
hello	-4482
高兴	-4483
oogle	-4484
肯定	-4485
▁Rustig	-4486
▁November	-4487
ondon	-4488
math	-4489
rian	-4490
▁field	-4491
▁contact	-4492
▁Den	-4493
▁pain	-4494
▁October	-4495
▁neg	-4496
▁prijs	-4497
▁kids	-4498
速度	-4499
8)	-4500
ikel	-4501
之前	-4502
那种	-4503
▁Cr	-4504
oest	-4505
▁slim	-4506
▁他们	-4507
gesl	-4508
▁lots	-4509
▁December	-4510
▁namelijk	-4511
▁suff	-4512
▁milit	-4513
▁regering	-4514
▁Mom	-4515
ample	-4516
▁common	-4517
▁Ell	-4518
▁opnieuw	-4519
希望	-4520
▁shot	-4521
▁September	-4522
▁geluid	-4523
▁tomorrow	-4524
▁led	-4525
▁beeld	-4526
▁suppose	-4527
▁July	-4528
▁rode	-4529
▁对啊	-4530
▁zichzelf	-4531
▁TO	-4532
▁above	-4533
eend	-4534
▁kor	-4535
achte	-4536
▁Michael	-4537
厉害	-4538
fast	-4539
zetten	-4540
▁storm	-4541
▁toward	-4542
▁dw	-4543
lymp	-4544
eltje	-4545
emand	-4546
▁Soms	-4547
▁Any	-4548
oppen	-4549
osaur	-4550
-19	-4551
▁Frankrijk	-4552
ills	-4553
▁member	-4554
IE	-4555
eddy	-4556
ioen	-4557
我觉得	-4558
espe	-4559
▁bab	-4560
ersch	-4561
ban	-4562
▁hoorde	-4563
▁rustig	-4564
▁See	-4565
ebruary	-4566
stairs	-4567
▁eet	-4568
▁medic	-4569
▁故选	-4570
night	-4571
▁slaap	-4572
▁suggest	-4573
kw	-4574
子的	-4575
思考	-4576
▁hotel	-4577
▁reached	-4578
va	-4579
▁wear	-4580
9)	-4581
▁Vooruit	-4582
▁duur	-4583
ology	-4584
关注	-4585
▁moesten	-4586
work	-4587
iny	-4588
▁shoes	-4589
▁cry	-4590
ising	-4591
二十	-4592
▁circ	-4593
▁Hi	-4594
ctie	-4595
▁leid	-4596
▁energie	-4597
声音	-4598
PO	-4599
里的	-4600
which	-4601
▁Sun	-4602
ength	-4603
▁million	-4604
isper	-4605
▁rob	-4606
ered	-4607
▁appro	-4608
▁farm	-4609
▁noises	-4610
will	-4611
▁taal	-4612
▁Hoi	-4613
▁Billy	-4614
▁Robert	-4615
▁human	-4616
▁nor	-4617
▁huil	-4618
▁snow	-4619
▁kast	-4620
虽然	-4621
▁volk	-4622
▁boeken	-4623
ida	-4624
这一	-4625
▁waarheid	-4626
bei	-4627
▁keek	-4628
▁stroom	-4629
▁husband	-4630
▁regen	-4631
看见	-4632
▁Tweede	-4633
halen	-4634
oost	-4635
▁Wees	-4636
amm	-4637
▁ann	-4638
joy	-4639
aa	-4640
▁low	-4641
▁jonge	-4642
▁Google	-4643
▁danger	-4644
▁meestal	-4645
▁couple	-4646
▁volgen	-4647
▁longer	-4648
elijkheid	-4649
▁sounds	-4650
▁hom	-4651
▁Hello	-4652
▁pract	-4653
▁daddy	-4654
igg	-4655
doen	-4656
rijden	-4657
▁beide	-4658
zus	-4659
▁shut	-4660
beelden	-4661
▁thr	-4662
▁geboren	-4663
veren	-4664
anning	-4665
之后	-4666
▁Somm	-4667
▁London	-4668
▁amb	-4669
▁cop	-4670
▁Tekst	-4671
ipe	-4672
▁board	-4673
▁Mex	-4674
▁Indian	-4675
▁lovely	-4676
告诉	-4677
▁forgot	-4678
▁obs	-4679
▁Zoek	-4680
▁omge	-4681
▁straat	-4682
▁只	-4683
根据	-4684
cks	-4685
isteren	-4686
$${{	-4687
▁gentle	-4688
▁putting	-4689
wezen	-4690
▁Port	-4691
Ch	-4692
▁Tijd	-4693
iefd	-4694
▁forward	-4695
▁hors	-4696
▁pan	-4697
▁University	-4698
▁esc	-4699
▁quickly	-4700
bren	-4701
▁Zou	-4702
▁towards	-4703
▁Mensen	-4704
ichten	-4705
▁treat	-4706
▁prins	-4707
wood	-4708
phone	-4709
▁erin	-4710
▁breat	-4711
',	-4712
▁plane	-4713
▁intern	-4714
地说	-4715
有的	-4716
iot	-4717
▁Iemand	-4718
▁former	-4719
▁OK	-4720
▁verloren	-4721
▁erbij	-4722
ugs	-4723
▁knock	-4724
▁namen	-4725
kamer	-4726
▁Vind	-4727
▁insp	-4728
▁drive	-4729
▁overt	-4730
▁kerk	-4731
▁stemmen	-4732
会儿	-4733
cing	-4734
reep	-4735
▁motor	-4736
oegen	-4737
druk	-4738
tjes	-4739
▁bow	-4740
▁droom	-4741
▁sight	-4742
iety	-4743
zoeken	-4744
▁adm	-4745
▁liever	-4746
▁puts	-4747
box	-4748
▁3.	-4749
ragen	-4750
▁stom	-4751
▁waarschijnlijk	-4752
▁40	-4753
▁Pre	-4754
ec	-4755
▁third	-4756
▁din	-4757
▁island	-4758
确实	-4759
▁arms	-4760
agon	-4761
▁seem	-4762
▁returned	-4763
▁chocol	-4764
▁Christmas	-4765
uwelijk	-4766
cted	-4767
▁吧	-4768
uro	-4769
结果	-4770
illen	-4771
ision	-4772
▁somm	-4773
present	-4774
▁没有	-4775
agina	-4776
▁zinnen	-4777
astic	-4778
▁Charlie	-4779
gra	-4780
▁langer	-4781
▁February	-4782
omet	-4783
zier	-4784
▁term	-4785
delen	-4786
手机	-4787
▁perform	-4788
▁kat	-4789
▁midden	-4790
▁radio	-4791
ffen	-4792
▁police	-4793
edig	-4794
▁eerlijk	-4795
▁hell	-4796
▁needs	-4797
▁broken	-4798
▁voedsel	-4799
illa	-4800
▁ban	-4801
stelling	-4802
4,	-4803
aste	-4804
▁meester	-4805
emy	-4806
▁duck	-4807
bie	-4808
▁glass	-4809
▁trees	-4810
看了	-4811
▁building	-4812
▁thee	-4813
▁forget	-4814
▁Mooi	-4815
▁Gener	-4816
▁places	-4817
▁pil	-4818
llustr	-4819
▁Olymp	-4820
▁geheim	-4821
yl	-4822
▁machine	-4823
▁belangrijke	-4824
▁fre	-4825
▁television	-4826
gin	-4827
▁Kle	-4828
▁Dor	-4829
▁dig	-4830
▁luck	-4831
▁basis	-4832
▁From	-4833
▁waard	-4834
▁caught	-4835
▁secret	-4836
▁list	-4837
▁India	-4838
▁built	-4839
▁21	-4840
ival	-4841
otte	-4842
▁haat	-4843
▁seat	-4844
▁everybody	-4845
我也	-4846
▁visit	-4847
GRA	-4848
▁hu	-4849
▁klinkt	-4850
▁discover	-4851
your	-4852
▁kennis	-4853
▁人	-4854
▁当	-4855
iod	-4856
▁kleur	-4857
moeten	-4858
▁Mommy	-4859
▁office	-4860
▁pupp	-4861
▁vriendin	-4862
▁deep	-4863
▁nearly	-4864
▁evening	-4865
重要	-4866
▁paard	-4867
▁regels	-4868
ippen	-4869
▁stellen	-4870
▁trouwen	-4871
▁village	-4872
▁followed	-4873
clus	-4874
▁succes	-4875
不要	-4876
▁collect	-4877
..."	-4878
▁ahead	-4879
▁instead	-4880
▁roe	-4881
▁cake	-4882
▁dorp	-4883
▁Wereld	-4884
▁grapp	-4885
▁Dad	-4886
aches	-4887
etjes	-4888
▁mad	-4889
eland	-4890
▁mezelf	-4891
▁zaak	-4892
▁reach	-4893
▁zeven	-4894
▁ontstaan	-4895
dam	-4896
▁Brown	-4897
ogn	-4898
ache	-4899
▁Noem	-4900
▁Maybe	-4901
▁minister	-4902
▁mommy	-4903
ala	-4904
inea	-4905
ston	-4906
kan	-4907
▁department	-4908
▁Ha	-4909
▁view	-4910
ts	-4911
wege	-4912
成了	-4913
▁news	-4914
▁opened	-4915
--------	-4916
▁verdomme	-4917
name	-4918
▁Eer	-4919
estig	-4920
▁volg	-4921
LA	-4922
RE	-4923
ature	-4924
ermen	-4925
▁Wal	-4926
▁vroeger	-4927
▁voorbeeld	-4928
▁groe	-4929
St	-4930
▁很	-4931
vocal	-4932
▁Excuse	-4933
heb	-4934
▁afge	-4935
过来	-4936
uch	-4937
▁sad	-4938
▁lag	-4939
ified	-4940
▁omhoog	-4941
▁bedankt	-4942
oci	-4943
▁hoef	-4944
empt	-4945
▁veroor	-4946
▁feeling	-4947
mark	-4948
▁following	-4949
▁meen	-4950
uts	-4951
esterd	-4952
▁ieder	-4953
kijk	-4954
▁hé	-4955
▁versl	-4956
▁所以	-4957
▁voll	-4958
▁Zorg	-4959
意思	-4960
▁wand	-4961
▁standing	-4962
▁Ten	-4963
▁success	-4964
▁Verdomme	-4965
oph	-4966
with	-4967
▁besp	-4968
经济	-4969
▁rivier	-4970
▁22	-4971
▁Bo	-4972
▁shout	-4973
▁National	-4974
▁vliegtuig	-4975
okken	-4976
▁juice	-4977
▁bestaan	-4978
▁玩	-4979
elly	-4980
board	-4981
回家	-4982
▁ongeluk	-4983
▁stopped	-4984
▁Angel	-4985
sq	-4986
▁welk	-4987
etting	-4988
▁kwaad	-4989
NA	-4990
aalt	-4991
len	-4992
▁dur	-4993
植物	-4994
▁Ros	-4995
▁mur	-4996
-9	-4997
▁lim	-4998
▁tv	-4999
gene	-5000
▁herinner	-5001
iller	-5002
esterday	-5003
▁zoiets	-5004
▁groter	-5005
▁serie	-5006
xim	-5007
▁kid	-5008
▁tafel	-5009
▁koffie	-5010
▁anyway	-5011
▁whatever	-5012
▁想	-5013
▁blad	-5014
▁project	-5015
ooien	-5016
▁wedstrijd	-5017
▁leerlingen	-5018
▁vliegen	-5019
▁kerst	-5020
▁changed	-5021
▁telling	-5022
reden	-5023
▁career	-5024
▁puzz	-5025
▁requ	-5026
▁rechts	-5027
▁decided	-5028
▁tonight	-5029
好了	-5030
sterd	-5031
▁YouT	-5032
▁diep	-5033
▁tick	-5034
▁ain	-5035
▁Cle	-5036
▁meant	-5037
▁comb	-5038
▁cost	-5039
▁using	-5040
▁hall	-5041
▁Str	-5042
▁bouw	-5043
▁ermee	-5044
▁cray	-5045
▁sick	-5046
▁heren	-5047
▁Thanks	-5048
不错	-5049
▁vergelijk	-5050
rible	-5051
11	-5052
$$.	-5053
▁wilden	-5054
ses	-5055
erecht	-5056
▁fil	-5057
▁zul	-5058
schappen	-5059
每天	-5060
sqrt	-5061
▁broke	-5062
▁Jezus	-5063
▁enjoy	-5064
▁written	-5065
{3	-5066
▁player	-5067
▁soorten	-5068
▁hosp	-5069
arts	-5070
volgens	-5071
▁preten	-5072
▁但是	-5073
▁leef	-5074
uses	-5075
▁hungry	-5076
iforn	-5077
▁fellow	-5078
突然	-5079
ket	-5080
mother	-5081
▁stof	-5082
▁fill	-5083
ologie	-5084
▁Uw	-5085
▁Mac	-5086
▁Mal	-5087
▁klopt	-5088
▁straks	-5089
inen	-5090
itchen	-5091
▁拿	-5092
▁zen	-5093
▁Helen	-5094
▁stuur	-5095
woordig	-5096
▁Da	-5097
some	-5098
▁winkel	-5099
▁example	-5100
▁supposed	-5101
ipedia	-5102
iste	-5103
▁2,	-5104
▁Egy	-5105
▁district	-5106
环境	-5107
zijn	-5108
ho	-5109
▁service	-5110
▁careful	-5111
▁从	-5112
▁decl	-5113
ppen	-5114
▁kiezen	-5115
bab	-5116
▁OF	-5117
ubb	-5118
▁Kar	-5119
▁luister	-5120
▁Bere	-5121
▁language	-5122
▁geme	-5123
后来	-5124
product	-5125
▁eiland	-5126
▁spring	-5127
uel	-5128
▁gekregen	-5129
Dat	-5130
▁politic	-5131
▁breakfast	-5132
idence	-5133
70	-5134
▁cast	-5135
ira	-5136
▁Great	-5137
▁carry	-5138
werken	-5139
先生	-5140
▁doubt	-5141
▁Haal	-5142
▁tent	-5143
▁earth	-5144
▁intro	-5145
▁23	-5146
▁YouTube	-5147
▁rid	-5148
▁internet	-5149
ume	-5150
leep	-5151
▁("	-5152
werpen	-5153
▁prison	-5154
achter	-5155
ugg	-5156
出现	-5157
▁ba	-5158
▁smil	-5159
▁swim	-5160
▁verschil	-5161
cially	-5162
mathrm	-5163
▁coun	-5164
▁Niets	-5165
那些	-5166
▁Laur	-5167
En	-5168
有点	-5169
maybe	-5170
▁fir	-5171
vere	-5172
▁middle	-5173
▁geleerd	-5174
▁Californ	-5175
▁disapp	-5176
▁km	-5177
▁press	-5178
ago	-5179
pot	-5180
▁geschreven	-5181
▁typ	-5182
zel	-5183
icip	-5184
▁protect	-5185
▁Ren	-5186
▁Wikipedia	-5187
游戏	-5188
▁oma	-5189
▁aller	-5190
▁docent	-5191
一天	-5192
▁season	-5193
▁belangrijkste	-5194
▁tape	-5195
▁added	-5196
▁Amerika	-5197
▁vres	-5198
▁accept	-5199
▁plezier	-5200
▁里	-5201
▁heavy	-5202
▁bright	-5203
noon	-5204
▁uite	-5205
▁worry	-5206
ils	-5207
▁exp	-5208
▁links	-5209
▁legs	-5210
▁works	-5211
13	-5212
oeld	-5213
▁including	-5214
▁trots	-5215
izer	-5216
oeder	-5217
▁Papa	-5218
laimed	-5219
ita	-5220
▁silly	-5221
▁position	-5222
▁zuid	-5223
▁Zelfs	-5224
▁pieces	-5225
▁gold	-5226
▁begonnen	-5227
▁pad	-5228
▁bepaalde	-5229
▁planten	-5230
hij	-5231
sterdam	-5232
▁blow	-5233
LE	-5234
▁vanuit	-5235
XX	-5236
表示	-5237
▁zieken	-5238
▁kamp	-5239
▁verwij	-5240
▁mix	-5241
▁south	-5242
komst	-5243
looks	-5244
wassen	-5245
▁Sal	-5246
▁appar	-5247
icit	-5248
▁bottom	-5249
▁verdien	-5250
以前	-5251
同学	-5252
▁whom	-5253
▁mm	-5254
▁pack	-5255
▁save	-5256
▁Europese	-5257
OO	-5258
▁Welkom	-5259
▁members	-5260
flag	-5261
▁wapen	-5262
▁However	-5263
ails	-5264
▁indeed	-5265
ENT	-5266
iday	-5267
▁Henry	-5268
▁anyone	-5269
ancy	-5270
▁spell	-5271
▁可以	-5272
▁miles	-5273
▁Mor	-5274
▁liter	-5275
▁voelen	-5276
abr	-5277
▁apart	-5278
IC	-5279
Wat	-5280
Al	-5281
▁ride	-5282
▁viel	-5283
derdaad	-5284
兔子	-5285
ini	-5286
yle	-5287
▁paint	-5288
▁toest	-5289
han	-5290
}{{{	-5291
▁Bro	-5292
▁base	-5293
opdracht	-5294
▁kitchen	-5295
▁Mot	-5296
▁Roman	-5297
▁prima	-5298
你好	-5299
voer	-5300
▁First	-5301
▁discuss	-5302
▁absol	-5303
bled	-5304
▁doc	-5305
▁princ	-5306
▁descri	-5307
▁Richard	-5308
▁plat	-5309
▁turns	-5310
▁America	-5311
▁fruit	-5312
▁compet	-5313
▁history	-5314
▁Ont	-5315
▁relig	-5316
eloos	-5317
▁general	-5318
▁Like	-5319
▁Schiet	-5320
森林	-5321
Het	-5322
rs	-5323
▁ah	-5324
laag	-5325
▁Chi	-5326
▁onderdeel	-5327
▁mun	-5328
▁comfort	-5329
▁Sov	-5330
GRAND	-5331
singing	-5332
只有	-5333
▁Sarah	-5334
▁bread	-5335
▁revol	-5336
▁verniet	-5337
▁wrote	-5338
rey	-5339
▁Park	-5340
▁whose	-5341
▁stel	-5342
ampion	-5343
▁waarbij	-5344
In	-5345
ola	-5346
▁spir	-5347
ording	-5348
itty	-5349
▁blank	-5350
▁schrijf	-5351
▁character	-5352
umenten	-5353
▁bevol	-5354
▁Mother	-5355
▁giving	-5356
▁overheid	-5357
▁loop	-5358
kort	-5359
就会	-5360
漂亮	-5361
▁roept	-5362
▁weeks	-5363
▁Duitse	-5364
▁afgelopen	-5365
ams	-5366
▁graf	-5367
▁€	-5368
哪里	-5369
足球	-5370
▁ST	-5371
▁safe	-5372
sit	-5373
▁euro	-5374
hank	-5375
▁sus	-5376
ictor	-5377
▁Chin	-5378
▁afternoon	-5379
asc	-5380
▁dansen	-5381
arp	-5382
ribut	-5383
▁cab	-5384
staande	-5385
方面	-5386
onger	-5387
▁period	-5388
▁Drie	-5389
ineend	-5390
▁Klaar	-5391
centerline	-5392
ineendflag	-5393
▁dom	-5394
▁arch	-5395
sych	-5396
▁swe	-5397
▁Tijdens	-5398
▁vakantie	-5399
▁butter	-5400
▁Sat	-5401
▁Two	-5402
▁ene	-5403
▁Probeer	-5404
▁captain	-5405
III	-5406
▁shoot	-5407
hington	-5408
▁major	-5409
ushed	-5410
otter	-5411
▁vertel	-5412
▁着	-5413
▁Anders	-5414
市场	-5415
ikker	-5416
kens	-5417
变化	-5418
din	-5419
▁allebei	-5420
iode	-5421
apens	-5422
eech	-5423
▁behand	-5424
细胞	-5425
▁Charles	-5426
▁burn	-5427
▁profession	-5428
tv	-5429
▁finish	-5430
▁strange	-5431
▁vermoorden	-5432
▁waarde	-5433
▁begrijpen	-5434
▁Bobby	-5435
anda	-5436
▁church	-5437
ometer	-5438
▁belong	-5439
rouwd	-5440
▁except	-5441
▁gegaan	-5442
▁beteken	-5443
人们	-5444
ites	-5445
反应	-5446
▁hole	-5447
▁bought	-5448
▁exactly	-5449
▁uitleggen	-5450
55	-5451
▁ident	-5452
lement	-5453
woners	-5454
▁这个	-5455
▁Mam	-5456
▁hig	-5457
▁account	-5458
▁normaal	-5459
back	-5460
▁add	-5461
▁Amsterdam	-5462
ground	-5463
▁zomaar	-5464
ored	-5465
▁Aunt	-5466
▁lab	-5467
▁Kies	-5468
▁brown	-5469
▁waarop	-5470
▁convers	-5471
▁sommige	-5472
offee	-5473
roy	-5474
punt	-5475
▁mid	-5476
▁verliefd	-5477
▁NPO	-5478
▁Big	-5479
▁Fin	-5480
▁tuin	-5481
▁Heer	-5482
▁lijn	-5483
▁hasn	-5484
RA	-5485
aft	-5486
plaats	-5487
▁dev	-5488
▁space	-5489
orgt	-5490
▁design	-5491
house	-5492
材料	-5493
raagt	-5494
▁yesterday	-5495
▁Cor	-5496
geld	-5497
▁Washington	-5498
ym	-5499
▁TV	-5500
▁Welk	-5501
▁happens	-5502
ootzak	-5503
standig	-5504
▁street	-5505
▁geschiedenis	-5506
lei	-5507
▁IV	-5508
▁Tra	-5509
▁Jane	-5510
▁schilder	-5511
过程	-5512
了一个	-5513
▁prachtig	-5514
▁veranderd	-5515
▁beschermen	-5516
▁Hun	-5517
真是	-5518
would	-5519
▁Take	-5520
ossing	-5521
▁population	-5522
ky	-5523
ieken	-5524
▁curr	-5525
▁naartoe	-5526
▁ontmoeten	-5527
说法	-5528
▁woont	-5529
▁sleut	-5530
▁summer	-5531
child	-5532
ogels	-5533
▁Ray	-5534
▁Sant	-5535
rupt	-5536
▁erv	-5537
▁Franc	-5538
▁inten	-5539
CAR	-5540
▁holding	-5541
▁exclaimed	-5542
姐姐	-5543
身体	-5544
▁non	-5545
▁Cont	-5546
办法	-5547
美国	-5548
▁slechts	-5549
spr	-5550
▁grappig	-5551
▁tax	-5552
aakte	-5553
▁US	-5554
学生	-5555
time	-5556
▁overl	-5557
Fr	-5558
ieu	-5559
cont	-5560
cel	-5561
igr	-5562
▁stukje	-5563
ka	-5564
▁certainly	-5565
学习	-5566
咱们	-5567
▁Weg	-5568
▁Wiki	-5569
▁games	-5570
▁received	-5571
▁Roy	-5572
情况	-5573
▁Bet	-5574
▁vertrouwen	-5575
▁Lie	-5576
▁fol	-5577
▁idi	-5578
▁daarmee	-5579
▁bood	-5580
▁bleef	-5581
▁century	-5582
▁chicken	-5583
▁spullen	-5584
▁voorkomen	-5585
icle	-5586
▁worth	-5587
oeie	-5588
▁vertelt	-5589
ilar	-5590
owel	-5591
▁derde	-5592
▁orange	-5593
gesteld	-5594
▁Mat	-5595
▁gezond	-5596
▁ontsn	-5597
▁animal	-5598
▁slechte	-5599
属于	-5600
ishing	-5601
▁vertelde	-5602
achtig	-5603
IV	-5604
Why	-5605
▁Mus	-5606
▁Sec	-5607
▁Zal	-5608
amous	-5609
谢谢	-5610
utt	-5611
aardig	-5612
▁steden	-5613
部分	-5614
▁Afbeeld	-5615
aans	-5616
▁carried	-5617
生物	-5618
ened	-5619
▁figure	-5620
▁Lang	-5621
ells	-5622
itted	-5623
▁shit	-5624
▁cal	-5625
▁gevaarlijk	-5626
zing	-5627
▁truth	-5628
▁appeared	-5629
▁Mel	-5630
▁Li	-5631
iaal	-5632
▁weekend	-5633
▁bezoek	-5634
晚上	-5635
ivid	-5636
▁parents	-5637
kun	-5638
asting	-5639
▁lachen	-5640
回来	-5641
▁koud	-5642
erson	-5643
ouder	-5644
▁Betty	-5645
▁hout	-5646
▁liep	-5647
▁levens	-5648
爷爷	-5649
▁alstublieft	-5650
▁kapot	-5651
urr	-5652
▁spot	-5653
ato	-5654
▁vreemd	-5655
aper	-5656
▁tall	-5657
▁Carol	-5658
ization	-5659
▁verzam	-5660
▁leer	-5661
▁Grote	-5662
gl	-5663
▁Rus	-5664
APTER	-5665
听说	-5666
veld	-5667
▁neck	-5668
▁enkel	-5669
brand	-5670
gegeven	-5671
▁watching	-5672
▁controle	-5673
▁Nick	-5674
▁stuck	-5675
▁Geluid	-5676
▁→	-5677
igt	-5678
wow	-5679
"。	-5680
▁huwelijk	-5681
▁hoge	-5682
▁neus	-5683
▁Anna	-5684
onderd	-5685
▁goud	-5686
$$2	-5687
▁Sen	-5688
▁kwal	-5689
▁monster	-5690
▁echter	-5691
▁rul	-5692
▁versp	-5693
,--	-5694
▁Wait	-5695
▁agent	-5696
▁popular	-5697
uf	-5698
▁Luc	-5699
▁micro	-5700
▁dragen	-5701
▁hemel	-5702
organ	-5703
17	-5704
lopen	-5705
▁Word	-5706
▁somewhere	-5707
▁Air	-5708
▁nood	-5709
bet	-5710
AM	-5711
▁Martin	-5712
▁compan	-5713
▁喔	-5714
oute	-5715
bre	-5716
say	-5717
wez	-5718
roon	-5719
▁adem	-5720
▁Bereken	-5721
信息	-5722
▁busy	-5723
▁Clip	-5724
能够	-5725
▁Dis	-5726
athol	-5727
▁based	-5728
▁Commons	-5729
别人	-5730
gebied	-5731
▁cause	-5732
奶奶	-5733
它的	-5734
▁Hebben	-5735
▁restaur	-5736
▁prop	-5737
▁local	-5738
▁Elke	-5739
▁Louis	-5740
▁Johann	-5741
▁commune	-5742
zil	-5743
▁moving	-5744
电视	-5745
hier	-5746
ads	-5747
▁Hist	-5748
▁Somet	-5749
▁recogn	-5750
▁CHAPTER	-5751
▁Terug	-5752
一次	-5753
vang	-5754
▁webs	-5755
▁ought	-5756
有一个	-5757
▁AND	-5758
atief	-5759
▁Open	-5760
▁social	-5761
篮球	-5762
给我	-5763
▁geg	-5764
▁Sinds	-5765
▁infl	-5766
▁ep	-5767
▁zwarte	-5768
phant	-5769
一边	-5770
▁trekken	-5771
▁vlak	-5772
▁Sommige	-5773
Illustr	-5774
▁dienst	-5775
方向	-5776
ona	-5777
ores	-5778
▁Art	-5779
▁hospital	-5780
▁lk	-5781
▁univers	-5782
我是	-5783
▁lijst	-5784
▁spoke	-5785
ees	-5786
▁Vr	-5787
elle	-5788
ummie	-5789
▁因为	-5790
▁fat	-5791
aarten	-5792
▁complet	-5793
▁self	-5794
▁(9	-5795
Kids	-5796
There	-5797
astisch	-5798
▁Tex	-5799
▁现在	-5800
▁author	-5801
▁fle	-5802
▁opa	-5803
▁laag	-5804
▁Mike	-5805
▁leaving	-5806
▁gebeurde	-5807
ests	-5808
▁Arab	-5809
▁invloed	-5810
nes	-5811
▁likes	-5812
▁afstand	-5813
▁uiteindelijk	-5814
▁本	-5815
▁trust	-5816
▁teeth	-5817
▁vormen	-5818
▁allowed	-5819
eless	-5820
ieved	-5821
lands	-5822
voerd	-5823
▁Victor	-5824
都不	-5825
▁Anne	-5826
▁card	-5827
▁corre	-5828
▁flowers	-5829
▁gesproken	-5830
▁continued	-5831
▁aanb	-5832
▁Ele	-5833
▁suddenly	-5834
▁luisteren	-5835
▁|	-5836
dad	-5837
▁Mic	-5838
▁gebracht	-5839
▁verkopen	-5840
▁$\	-5841
▁Pal	-5842
asant	-5843
其他	-5844
baby	-5845
cient	-5846
vat	-5847
ively	-5848
▁sense	-5849
▁capital	-5850
▁pet	-5851
Daddy	-5852
▁App	-5853
itions	-5854
▁gisteren	-5855
weging	-5856
▁situatie	-5857
▁further	-5858
▁everyone	-5859
▁neigh	-5860
▁sou	-5861
uture	-5862
▁brengt	-5863
▁Franse	-5864
▁nergens	-5865
▁WikiKids	-5866
Don	-5867
▁ur	-5868
▁ut	-5869
▁Hol	-5870
▁lock	-5871
ureau	-5872
▁fifty	-5873
▁Pardon	-5874
▁Nederlands	-5875
质量	-5876
▁Werk	-5877
▁laughs	-5878
▁schiet	-5879
▁kleren	-5880
▁pictures	-5881
field	-5882
loos	-5883
prob	-5884
正在	-5885
}}_	-5886
imedia	-5887
▁wol	-5888
▁anybody	-5889
▁programma	-5890
hee	-5891
uster	-5892
gemaakt	-5893
▁爸爸	-5894
points	-5895
▁weren	-5896
▁知道	-5897
▁Tony	-5898
▁fail	-5899
Illustration	-5900
▁可	-5901
上了	-5902
▁26	-5903
▁Breng	-5904
终于	-5905
▁Rock	-5906
▁Stel	-5907
▁keuze	-5908
▁plate	-5909
▁Ann	-5910
▁tong	-5911
▁Kennisbank	-5912
")	-5913
ationale	-5914
▁beginning	-5915
▁0,	-5916
ilige	-5917
▁rood	-5918
▁gekozen	-5919
essie	-5920
▁chem	-5921
erend	-5922
▁River	-5923
▁assist	-5924
▁probeert	-5925
▁rap	-5926
▁shirt	-5927
zeker	-5928
▁jack	-5929
▁itself	-5930
ims	-5931
este	-5932
okk	-5933
▁Ber	-5934
▁push	-5935
▁grass	-5936
grond	-5937
▁Stan	-5938
▁spend	-5939
-8	-5940
准备	-5941
▁tal	-5942
boy	-5943
ods	-5944
▁4.	-5945
▁Blue	-5946
ijdt	-5947
stit	-5948
▁arbe	-5949
▁although	-5950
▁imag	-5951
▁imm	-5952
▁master	-5953
lin	-5954
▁27	-5955
只是	-5956
bing	-5957
assing	-5958
▁Afbeeldingen	-5959
▁mocht	-5960
容易	-5961
izes	-5962
▁begrip	-5963
▁eindelijk	-5964
当时	-5965
sey	-5966
pend	-5967
elijks	-5968
▁shoul	-5969
▁Inhoud	-5970
iced	-5971
▁brood	-5972
▁created	-5973
▁cheese	-5974
▁gehouden	-5975
▁ə	-5976
▁Dick	-5977
产生	-5978
ville	-5979
▁Super	-5980
▁iedere	-5981
过去	-5982
▁drank	-5983
▁fiets	-5984
▁overle	-5985
直接	-5986
ums	-5987
jaar	-5988
▁Schooltv	-5989
Je	-5990
edy	-5991
hoe	-5992
▁zingen	-5993
▁bouwen	-5994
▁walked	-5995
▁Lat	-5996
▁Wikimedia	-5997
auwe	-5998
▁krant	-5999
▁maxim	-6000
▁anymore	-6001
▁questions	-6002
▁boer	-6003
▁Lee	-6004
▁Vand	-6005
▁muur	-6006
▁incre	-6007
▁verlaten	-6008
▁28	-6009
▁[1	-6010
-4	-6011
▁mening	-6012
▁remark	-6013
istische	-6014
▁coffee	-6015
二零	-6016
▁thirty	-6017
▁kolon	-6018
▁writing	-6019
表现	-6020
raad	-6021
▁Uncle	-6022
stra	-6023
turn	-6024
istan	-6025
▁House	-6026
▁sturen	-6027
▁getrouwd	-6028
个人	-6029
ije	-6030
▁rab	-6031
ellig	-6032
▁dry	-6033
▁Geweld	-6034
▁information	-6035
关于	-6036
▁IS	-6037
▁laugh	-6038
ux	-6039
来的	-6040
▁prep	-6041
ivil	-6042
▁Greg	-6043
实验	-6044
▁Ac	-6045
▁verliezen	-6046
▁gesprek	-6047
▁好的	-6048
▁Beeldbank	-6049
▁duurt	-6050
lor	-6051
▁People	-6052
子里	-6053
ounced	-6054
▁arrest	-6055
▁seks	-6056
▁Brazil	-6057
▁basket	-6058
▁bottle	-6059
▁pounds	-6060
▁inwoners	-6061
▁cars	-6062
▁zuur	-6063
▁Maria	-6064
▁seeing	-6065
▁verkeerd	-6066
学校	-6067
衣服	-6068
bling	-6069
看着	-6070
▁dropped	-6071
especially	-6072
▁ON	-6073
▁gewonnen	-6074
jar	-6075
▁psych	-6076
lang	-6077
▁jun	-6078
▁papier	-6079
▁koningin	-6080
▁©	-6081
▁und	-6082
If	-6083
了解	-6084
rom	-6085
▁tail	-6086
▁eentje	-6087
▁bescherm	-6088
▁politieke	-6089
wijk	-6090
睡觉	-6091
mond	-6092
▁famous	-6093
▁honger	-6094
▁Clipjes	-6095
fin	-6096
▁Chinese	-6097
宝宝	-6098
light	-6099
kennen	-6100
▁vogel	-6101
gasps	-6102
▁beoord	-6103
▁ziel	-6104
▁behulp	-6105
Ja	-6106
{1}	-6107
give	-6108
▁spoor	-6109
BC	-6110
▁moon	-6111
How	-6112
▁Eind	-6113
▁stier	-6114
jo	-6115
▁county	-6116
▁walking	-6117
erve	-6118
▁Med	-6119
schuw	-6120
▁Jouw	-6121
▁还有	-6122
iders	-6123
cious	-6124
.)	-6125
dere	-6126
▁symb	-6127
bu	-6128
gew	-6129
▁sky	-6130
sings	-6131
ateg	-6132
utie	-6133
▁Toe	-6134
▁level	-6135
▁Minister	-6136
▁gevallen	-6137
+\	-6138
▁Co	-6139
▁Engeland	-6140
inderen	-6141
▁raad	-6142
▁geest	-6143
▁Ra	-6144
国王	-6145
▁grew	-6146
▁plays	-6147
-6	-6148
之间	-6149
▁Eerst	-6150
▁activ	-6151
样子	-6152
▁totaal	-6153
▁fucking	-6154
▁Ty	-6155
ijen	-6156
arter	-6157
▁crying	-6158
▁seconden	-6159
hu	-6160
rel	-6161
▁Fred	-6162
▁educ	-6163
inding	-6164
▁ate	-6165
����	-6166
▁defin	-6167
▁zorgt	-6168
不到	-6169
kle	-6170
▁muse	-6171
▁lijken	-6172
▁Germany	-6173
▁drop	-6174
▁distance	-6175
▁model	-6176
▁parts	-6177
▁Parijs	-6178
▁gift	-6179
▁honey	-6180
▁Intern	-6181
▁slaan	-6182
▁genomen	-6183
出去	-6184
▁engine	-6185
▁Mos	-6186
▁moed	-6187
▁match	-6188
▁plaatsen	-6189
''	-6190
spel	-6191
▁duizen	-6192
fen	-6193
▁meeting	-6194
▁Ron	-6195
▁conne	-6196
▁subject	-6197
▁attention	-6198
riage	-6199
▁colle	-6200
▁Canada	-6201
▁health	-6202
▁volwassen	-6203
▁dak	-6204
▁soci	-6205
loop	-6206
ruck	-6207
▁vul	-6208
▁Samen	-6209
▁picks	-6210
$$,$$	-6211
wagen	-6212
▁bull	-6213
ffic	-6214
▁aud	-6215
▁Later	-6216
▁Scott	-6217
▁teacher	-6218
▁bijzonder	-6219
使用	-6220
▁lose	-6221
▁finger	-6222
oms	-6223
▁ziens	-6224
▁histor	-6225
▁schieten	-6226
▁vertrekken	-6227
keken	-6228
▁Goedem	-6229
▁corner	-6230
是不是	-6231
▁wash	-6232
chtend	-6233
pression	-6234
▁countries	-6235
90	-6236
kenen	-6237
▁holds	-6238
▁thema	-6239
gesp	-6240
ruim	-6241
▁jud	-6242
▁ziekenhuis	-6243
多的	-6244
▁breng	-6245
▁force	-6246
▁leggen	-6247
▁terecht	-6248
zaak	-6249
▁track	-6250
-3	-6251
▁190	-6252
ission	-6253
▁Little	-6254
▁Iets	-6255
能力	-6256
▁East	-6257
clock	-6258
▁sens	-6259
▁overw	-6260
▁hoogte	-6261
▁rechter	-6262
空气	-6263
▁store	-6264
▁啦	-6265
▁voelde	-6266
▁positie	-6267
▁species	-6268
{1}{	-6269
▁nogal	-6270
▁Spe	-6271
pper	-6272
order	-6273
▁reag	-6274
▁witte	-6275
noise	-6276
▁dance	-6277
So	-6278
Amer	-6279
▁pink	-6280
▁necess	-6281
uten	-6282
They	-6283
oming	-6284
▁Aust	-6285
▁Land	-6286
▁helft	-6287
bra	-6288
▁Del	-6289
▁cream	-6290
▁Alexander	-6291
▁films	-6292
▁Zonder	-6293
真的是	-6294
▁spoon	-6295
ipped	-6296
▁Tell	-6297
▁filmpje	-6298
▁Wereldoorlog	-6299
ji	-6300
▁crow	-6301
▁trek	-6302
bi	-6303
这次	-6304
▁(20	-6305
▁vorige	-6306
▁laughed	-6307
_,	-6308
kijken	-6309
▁zomer	-6310
arc	-6311
▁feit	-6312
▁ouder	-6313
iker	-6314
▁loud	-6315
aining	-6316
我要	-6317
▁geve	-6318
▁ninet	-6319
▁stars	-6320
来到	-6321
schrift	-6322
daar	-6323
▁cla	-6324
▁kilometer	-6325
技术	-6326
▁speciale	-6327
kracht	-6328
▁Jac	-6329
▁ern	-6330
▁Hoor	-6331
▁pock	-6332
▁birds	-6333
BA	-6334
地球	-6335
▁Bert	-6336
▁Achter	-6337
zi	-6338
,000	-6339
etch	-6340
vlak	-6341
▁Nin	-6342
▁gemidd	-6343
ni	-6344
▁army	-6345
▁lees	-6346
▁leaves	-6347
▁delight	-6348
▁probeerde	-6349
▁gebouwd	-6350
▁60	-6351
▁Marc	-6352
▁toil	-6353
▁periode	-6354
▁attempt	-6355
ijnt	-6356
▁Jos	-6357
▁shows	-6358
ning	-6359
▁maan	-6360
▁Tegen	-6361
心里	-6362
▁dans	-6363
▁Kunnen	-6364
car	-6365
stel	-6366
▁anx	-6367
▁verantwoord	-6368
isen	-6369
▁Kamer	-6370
▁invol	-6371
▁toets	-6372
▁leiden	-6373
udd	-6374
opp	-6375
▁cel	-6376
▁League	-6377
▁include	-6378
bon	-6379
▁Johannes	-6380
是一个	-6381
80	-6382
EE	-6383
▁strijd	-6384
gend	-6385
▁rac	-6386
▁trap	-6387
▁horses	-6388
▁gegevens	-6389
SO	-6390
▁pagina	-6391
anken	-6392
▁klasgenoot	-6393
icy	-6394
ops	-6395
▁$${	-6396
ao	-6397
▁herinn	-6398
onken	-6399
▁gered	-6400
▁2000	-6401
▁wapens	-6402
▁leek	-6403
许多	-6404
boden	-6405
ongen	-6406
▁Isra	-6407
▁vict	-6408
三个	-6409
▁cru	-6410
--"	-6411
25	-6412
▁Morgen	-6413
bar	-6414
▁wan	-6415
entje	-6416
▁Engels	-6417
lant	-6418
越来	-6419
urd	-6420
vragen	-6421
有人	-6422
决定	-6423
inks	-6424
▁fem	-6425
An	-6426
raft	-6427
edict	-6428
anch	-6429
▁shape	-6430
▁showed	-6431
▁{	-6432
才能	-6433
▁Pet	-6434
▁grap	-6435
▁Geluk	-6436
▁murder	-6437
-10	-6438
▁pir	-6439
ploy	-6440
▁wint	-6441
sw	-6442
一般	-6443
▁silence	-6444
aid	-6445
▁conversation	-6446
ades	-6447
rijp	-6448
▁ears	-6449
▁helpt	-6450
▁bekijken	-6451
meester	-6452
▁korte	-6453
选择	-6454
▁Many	-6455
▁silver	-6456
越来越	-6457
▁redenen	-6458
down	-6459
▁meth	-6460
others	-6461
地上	-6462
medi	-6463
▁放	-6464
▁kick	-6465
▁kust	-6466
▁liked	-6467
sters	-6468
▁beloof	-6469
▁reading	-6470
ois	-6471
▁kregen	-6472
▁dinosaur	-6473
IF	-6474
▁tab	-6475
▁Oost	-6476
▁names	-6477
▁Hierdoor	-6478
▁favorite	-6479
AK	-6480
▁�	-6481
bour	-6482
▁vijand	-6483
iezingen	-6484
▁Flor	-6485
wit	-6486
orgd	-6487
▁eggs	-6488
▁gods	-6489
▁deden	-6490
▁Mexico	-6491
▁concern	-6492
yep	-6493
▁iss	-6494
}=	-6495
1$$	-6496
overn	-6497
▁Zeker	-6498
▁aanwez	-6499
ceed	-6500
▁modern	-6501
▁shouldn	-6502
▁capt	-6503
▁onbe	-6504
▁再	-6505
▁Kat	-6506
▁due	-6507
▁voorzichtig	-6508
tell	-6509
▁alive	-6510
▁interesting	-6511
▁dut	-6512
▁earn	-6513
▁sneeuw	-6514
west	-6515
schuld	-6516
rum	-6517
▁begra	-6518
▁vlees	-6519
viously	-6520
hah	-6521
AAR	-6522
▁Amy	-6523
▁Willem	-6524
▁protest	-6525
妖怪	-6526
▁青蛙	-6527
izza	-6528
ament	-6529
▁alinea	-6530
▁needed	-6531
andid	-6532
bes	-6533
▁gevangenis	-6534
▁lying	-6535
▁daarvan	-6536
▁29	-6537
▁melk	-6538
▁aandacht	-6539
▁contract	-6540
保护	-6541
nog	-6542
earch	-6543
pardon	-6544
物质	-6545
▁nest	-6546
▁waarmee	-6547
其中	-6548
▁rom	-6549
▁打	-6550
或者	-6551
ipper	-6552
▁Nic	-6553
CO	-6554
▁mor	-6555
▁Leuk	-6556
▁prem	-6557
▁donker	-6558
tra	-6559
▁leeg	-6560
▁vele	-6561
▁raar	-6562
▁gedacht	-6563
▁represent	-6564
▁Kap	-6565
abeth	-6566
intig	-6567
▁fresh	-6568
▁bracht	-6569
igs	-6570
▁Ru	-6571
▁Gro	-6572
▁leeftijd	-6573
活动	-6574
▁schr	-6575
minste	-6576
▁closed	-6577
las	-6578
▁kar	-6579
▁berg	-6580
我们的	-6581
▁future	-6582
▁哈哈哈	-6583
deeld	-6584
▁Most	-6585
▁gras	-6586
thur	-6587
▁Bart	-6588
please	-6589
▁gesloten	-6590
文化	-6591
▁stage	-6592
▁Prof	-6593
▁paid	-6594
▁Party	-6595
▁wonderful	-6596
gers	-6597
▁hate	-6598
▁Cong	-6599
alo	-6600
book	-6601
▁vanwege	-6602
▁especially	-6603
▁struct	-6604
▁High	-6605
▁mention	-6606
▁kosten	-6607
▁klootzak	-6608
条件	-6609
▁Jean	-6610
▁individ	-6611
elve	-6612
▁key	-6613
▁bronnen	-6614
inse	-6615
方法	-6616
▁attract	-6617
▁oom	-6618
▁Mont	-6619
▁Geweldig	-6620
isa	-6621
asion	-6622
的故事	-6623
▁mei	-6624
主人	-6625
▁aff	-6626
▁brug	-6627
ANK	-6628
▁Jose	-6629
▁pale	-6630
inkrijk	-6631
▁finally	-6632
▁但	-6633
▁家	-6634
▁starts	-6635
▁oce	-6636
▁indust	-6637
UT	-6638
回答	-6639
继续	-6640
rein	-6641
bad	-6642
▁host	-6643
▁下列	-6644
▁serious	-6645
All	-6646
一个人	-6647
ournal	-6648
gesloten	-6649
▁voetbal	-6650
▁interview	-6651
成为	-6652
▁Jeff	-6653
自然	-6654
▁spec	-6655
▁below	-6656
▁blijkt	-6657
▁bepaald	-6658
▁process	-6659
人民	-6660
颜色	-6661
isse	-6662
}$$.	-6663
▁Fijn	-6664
▁vooruit	-6665
▁afspraak	-6666
平时	-6667
▁crayon	-6668
▁slowly	-6669
▁procent	-6670
▁problems	-6671
美丽	-6672
orter	-6673
她的	-6674
好多	-6675
▁beat	-6676
▁California	-6677
heer	-6678
▁Maj	-6679
ashed	-6680
▁honden	-6681
后面	-6682
▁Ca	-6683
bere	-6684
▁(10	-6685
tr	-6686
答案是	-6687
▁flat	-6688
▁dun	-6689
▁stam	-6690
▁viol	-6691
▁separ	-6692
下列	-6693
isf	-6694
▁Bas	-6695
年的	-6696
▁如果	-6697
▁voorstellen	-6698
isy	-6699
▁CO	-6700
这样的	-6701
iana	-6702
▁Sil	-6703
▁charge	-6704
75	-6705
anor	-6706
stellen	-6707
▁interested	-6708
▁voorbeelden	-6709
pty	-6710
raal	-6711
▁bedoeld	-6712
▁又	-6713
itive	-6714
▁Pri	-6715
▁Jimmy	-6716
▁smile	-6717
di	-6718
▁lieverd	-6719
'?	-6720
._	-6721
hood	-6722
laas	-6723
▁tap	-6724
issing	-6725
▁Fraser	-6726
▁sneller	-6727
verk	-6728
▁IT	-6729
iant	-6730
groep	-6731
▁Street	-6732
▁Opdracht	-6733
emming	-6734
▁broek	-6735
▁Vergeet	-6736
▁stappen	-6737
▁surprise	-6738
wanna	-6739
istr	-6740
▁steen	-6741
▁3,	-6742
ares	-6743
▁Mum	-6744
▁tel	-6745
▁bereiken	-6746
▁Rem	-6747
▁sele	-6748
▁introdu	-6749
▁Norm	-6750
▁loved	-6751
upid	-6752
▁sheep	-6753
.,	-6754
ATT	-6755
▁kapitein	-6756
研究	-6757
ère	-6758
▁gezin	-6759
▁Texas	-6760
具有	-6761
认为	-6762
sin	-6763
▁crazy	-6764
ique	-6765
tern	-6766
▁blind	-6767
▁opening	-6768
了吗	-6769
▁Reg	-6770
人家	-6771
想到	-6772
nis	-6773
▁jan	-6774
Mommy	-6775
▁Turk	-6776
brengen	-6777
▁Opgave	-6778
▁blik	-6779
▁vlieg	-6780
stop	-6781
▁Snel	-6782
▁Christian	-6783
hem	-6784
ply	-6785
▁gives	-6786
▁raken	-6787
▁Spanje	-6788
哥哥	-6789
▁wide	-6790
▁opper	-6791
OW	-6792
omer	-6793
▁angst	-6794
▁daarvoor	-6795
cir	-6796
▁meid	-6797
▁Laura	-6798
RY	-6799
acy	-6800
▁partner	-6801
best	-6802
uhoh	-6803
udeer	-6804
▁scared	-6805
▁largest	-6806
▁vervolgens	-6807
▁exam	-6808
▁date	-6809
▁adult	-6810
▁court	-6811
▁tekening	-6812
▁nauw	-6813
▁suit	-6814
▁recent	-6815
▁glas	-6816
▁verleden	-6817
食物	-6818
vall	-6819
▁Dam	-6820
ination	-6821
▁During	-6822
▁erover	-6823
▁oplossing	-6824
▁WE	-6825
▁emot	-6826
▁Really	-6827
▁opp	-6828
▁huilen	-6829
kte	-6830
uli	-6831
wet	-6832
▁feed	-6833
▁served	-6834
▁interess	-6835
▁laughing	-6836
变成	-6837
▁kerel	-6838
▁mann	-6839
45	-6840
▁Father	-6841
▁klimaat	-6842
oper	-6843
▁500	-6844
▁Adam	-6845
▁kantoor	-6846
▁sharp	-6847
▁tabel	-6848
▁bridge	-6849
▁travel	-6850
▁Kr	-6851
▁Sus	-6852
▁vreselijk	-6853
GRANDMOTHER	-6854
lam	-6855
同时	-6856
▁其实	-6857
ooft	-6858
▁stub	-6859
▁Paris	-6860
▁wheel	-6861
小熊	-6862
aded	-6863
▁Rusland	-6864
ipl	-6865
BL	-6866
cos	-6867
▁狗	-6868
▁fingers	-6869
▁whisper	-6870
开心	-6871
▁Kim	-6872
▁peace	-6873
▁similar	-6874
▁HE	-6875
▁State	-6876
▁utter	-6877
▁Nothing	-6878
▁dollars	-6879
知识	-6880
▁gemeen	-6881
lem	-6882
▁White	-6883
▁share	-6884
▁hast	-6885
▁saf	-6886
heids	-6887
▁Rijk	-6888
-5	-6889
基本	-6890
▁producten	-6891
iao	-6892
▁Ap	-6893
很好	-6894
▁bak	-6895
▁rose	-6896
▁allerlei	-6897
的地方	-6898
▁autom	-6899
aris	-6900
▁Wilt	-6901
Is	-6902
wl	-6903
毕竟	-6904
符合	-6905
▁Bru	-6906
▁cere	-6907
▁bevolking	-6908
▁Jes	-6909
▁training	-6910
hal	-6911
oma	-6912
▁水	-6913
inct	-6914
isted	-6915
▁sen	-6916
说的	-6917
▁veld	-6918
▁myster	-6919
▁spread	-6920
▁bigger	-6921
▁做	-6922
儿子	-6923
▁Its	-6924
▁Leo	-6925
▁Our	-6926
▁code	-6927
face	-6928
▁是的	-6929
▁Hit	-6930
▁Nieuw	-6931
oemde	-6932
gelegd	-6933
▁Goedemorgen	-6934
▁dol	-6935
▁inge	-6936
▁officer	-6937
快乐	-6938
jaard	-6939
▁Houd	-6940
▁和	-6941
film	-6942
▁spent	-6943
▁stoel	-6944
ogelijk	-6945
outs	-6946
▁Los	-6947
▁kam	-6948
▁raam	-6949
▁stij	-6950
▁municip	-6951
我还	-6952
▁bewegen	-6953
▁Alice	-6954
▁communic	-6955
utch	-6956
yond	-6957
▁monkey	-6958
▁Begrepen	-6959
▁飞	-6960
▁Eigen	-6961
▁vonden	-6962
oede	-6963
▁hide	-6964
▁kenmer	-6965
▁likely	-6966
▁veroorz	-6967
▁Sta	-6968
▁Sue	-6969
▁asking	-6970
▁covered	-6971
▁ochtend	-6972
▁verklaring	-6973
elsel	-6974
▁gezet	-6975
▁跟	-6976
安全	-6977
家里	-6978
ertje	-6979
ieven	-6980
elicit	-6981
▁keuken	-6982
▁Lady	-6983
Now	-6984
hol	-6985
rick	-6986
▁leuke	-6987
▁batter	-6988
wise	-6989
▁chief	-6990
▁media	-6991
▁bedacht	-6992
▁Kn	-6993
▁wa	-6994
▁wees	-6995
▁Green	-6996
▁Gal	-6997
▁Sur	-6998
estival	-6999
▁schoenen	-7000
先走了	-7001
▁site	-7002
▁direction	-7003
ero	-7004
orpen	-7005
▁wen	-7006
utter	-7007
▁pray	-7008
▁hoger	-7009
▁spreek	-7010
▁History	-7011
-\	-7012
stein	-7013
slagen	-7014
▁strand	-7015
▁publiek	-7016
ias	-7017
▁lukt	-7018
▁Berl	-7019
▁fool	-7020
▁Vanaf	-7021
▁猫	-7022
▁Sla	-7023
ommen	-7024
▁crit	-7025
▁zand	-7026
▁hoek	-7027
▁relatie	-7028
ano	-7029
▁VI	-7030
▁gene	-7031
▁voldoen	-7032
olden	-7033
▁apple	-7034
24	-7035
zes	-7036
umber	-7037
▁zowel	-7038
}$	-7039
只要	-7040
▁repe	-7041
▁Sunday	-7042
▁helped	-7043
▁beer	-7044
阿姨	-7045
aine	-7046
inda	-7047
▁Govern	-7048
▁artikel	-7049
▁bedoelt	-7050
▁reactie	-7051
▁tas	-7052
一看	-7053
ounter	-7054
▁Arthur	-7055
▁Eerste	-7056
得到	-7057
▁General	-7058
▁terrible	-7059
▁verhalen	-7060
orde	-7061
wait	-7062
oning	-7063
▁Francis	-7064
▁college	-7065
在看	-7066
azen	-7067
▁Union	-7068
▁verp	-7069
要求	-7070
▁WH	-7071
akers	-7072
atic	-7073
riet	-7074
enken	-7075
▁lastig	-7076
▁gather	-7077
▁richting	-7078
▁Activiteit	-7079
系统	-7080
起了	-7081
eman	-7082
▁Soc	-7083
给你	-7084
omb	-7085
vies	-7086
▁study	-7087
▁Spr	-7088
▁gemeente	-7089
gu	-7090
▁indruk	-7091
▁begrijpt	-7092
take	-7093
angle	-7094
▁earl	-7095
▁België	-7096
kay	-7097
▁accident	-7098
col	-7099
ios	-7100
aalf	-7101
▁dogs	-7102
▁Democ	-7103
ieel	-7104
▁inf	-7105
ielen	-7106
▁Eliz	-7107
ueel	-7108
▁rich	-7109
▁Zullen	-7110
▁(8	-7111
AV	-7112
iti	-7113
set	-7114
iens	-7115
roat	-7116
▁bud	-7117
▁amount	-7118
▁verkocht	-7119
ukken	-7120
▁pist	-7121
▁role	-7122
▁various	-7123
▁risk	-7124
▁Gar	-7125
olang	-7126
开了	-7127
aly	-7128
richt	-7129
▁betaald	-7130
▁ris	-7131
voeren	-7132
wijzen	-7133
wed	-7134
▁Give	-7135
▁hangt	-7136
。""	-7137
agne	-7138
atis	-7139
watch	-7140
▁crack	-7141
27	-7142
▁aft	-7143
▁hardly	-7144
▁Ur	-7145
▁Nat	-7146
▁gaten	-7147
eeld	-7148
▁picked	-7149
这时	-7150
▁none	-7151
alle	-7152
▁Smith	-7153
big	-7154
rap	-7155
记得	-7156
jam	-7157
▁Du	-7158
▁ziekte	-7159
▁干	-7160
猴子	-7161
ooth	-7162
▁asleep	-7163
coh	-7164
▁Harr	-7165
olland	-7166
▁Georg	-7167
▁natural	-7168
iction	-7169
▁cloud	-7170
▁breath	-7171
▁cijf	-7172
▁market	-7173
▁opdrachten	-7174
慢慢	-7175
▁Ass	-7176
orten	-7177
存在	-7178
▁5.	-7179
▁size	-7180
▁"'	-7181
▁(18	-7182
Peter	-7183
▁dirty	-7184
▁joined	-7185
▁thanks	-7186
▁掉	-7187
▁missen	-7188
antwoorden	-7189
▁demon	-7190
观察	-7191
▁lamp	-7192
说明	-7193
人类	-7194
antly	-7195
▁kern	-7196
▁slight	-7197
▁2018	-7198
▁ways	-7199
counter	-7200
▁alarm	-7201
▁hieronder	-7202
elled	-7203
▁singing	-7204
▁manieren	-7205
方式	-7206
▁Ut	-7207
▁museum	-7208
▁document	-7209
▁gebieden	-7210
boven	-7211
▁完	-7212
现象	-7213
▁Vader	-7214
▁final	-7215
▁nobody	-7216
▁cy	-7217
▁older	-7218
找到	-7219
wing	-7220
asing	-7221
▁waarvan	-7222
▁website	-7223
sluit	-7224
ae	-7225
dit	-7226
▁twelve	-7227
plant	-7228
▁Frans	-7229
nacht	-7230
▁meerdere	-7231
▁cit	-7232
three	-7233
▁Fort	-7234
▁battle	-7235
▁Australia	-7236
Do	-7237
lijn	-7238
▁temp	-7239
▁coach	-7240
▁caused	-7241
▁immedi	-7242
▁search	-7243
▁Vandaag	-7244
▁worse	-7245
▁bloemen	-7246
▁而	-7247
▁Midd	-7248
正确答案是	-7249
▁straf	-7250
▁spirit	-7251
让我	-7252
pose	-7253
▁Rose	-7254
▁Jones	-7255
rightarrow	-7256
▁Steph	-7257
▁Bur	-7258
▁mountain	-7259
房子	-7260
▁Bent	-7261
isters	-7262
▁restaurant	-7263
都会	-7264
anje	-7265
▁considered	-7266
yyy	-7267
▁今天	-7268
▁Tod	-7269
▁Vir	-7270
▁cho	-7271
astern	-7272
sect	-7273
cohol	-7274
cellen	-7275
▁zoekt	-7276
mers	-7277
▁wal	-7278
▁turning	-7279
▁rub	-7280
▁谁	-7281
一种	-7282
itor	-7283
uari	-7284
▁hey	-7285
oude	-7286
aders	-7287
athan	-7288
作为	-7289
一会儿	-7290
▁erger	-7291
gebracht	-7292
▁inhoud	-7293
cr	-7294
aped	-7295
tegen	-7296
|$$\	-7297
▁Ted	-7298
▁Would	-7299
▁grens	-7300
▁declared	-7301
ca	-7302
OOR	-7303
▁advoc	-7304
▁speed	-7305
▁learned	-7306
▁onth	-7307
▁Fe	-7308
ikte	-7309
由于	-7310
▁pal	-7311
▁speciaal	-7312
iano	-7313
▁paarden	-7314
▁Rad	-7315
▁drugs	-7316
▁orders	-7317
▁tradition	-7318
成的	-7319
▁Their	-7320
▁politician	-7321
▁Haw	-7322
▁idioot	-7323
▁elephant	-7324
▁ij	-7325
▁ler	-7326
▁cade	-7327
▁cust	-7328
▁fright	-7329
▁哎	-7330
has	-7331
hen	-7332
▁pocket	-7333
▁tenminste	-7334
▁tour	-7335
▁sig	-7336
▁Beck	-7337
▁forty	-7338
▁onver	-7339
▁Gewoon	-7340
▁dromen	-7341
▁situation	-7342
▁hm	-7343
▁拜拜	-7344
▁jas	-7345
▁east	-7346
ography	-7347
pens	-7348
▁talked	-7349
My	-7350
▁Cup	-7351
▁Hon	-7352
▁vir	-7353
▁Bear	-7354
▁Egypt	-7355
▁verslag	-7356
▁mult	-7357
▁International	-7358
roud	-7359
unde	-7360
nocent	-7361
▁spreekt	-7362
▁benen	-7363
laugh	-7364
▁bomen	-7365
▁coat	-7366
oordat	-7367
▁promise	-7368
▁stories	-7369
不了	-7370
mar	-7371
▁Ach	-7372
▁vac	-7373
▁groeien	-7374
▁sleeping	-7375
必须	-7376
▁drawing	-7377
feest	-7378
▁harm	-7379
▁koop	-7380
▁destroy	-7381
▁多	-7382
以为	-7383
▁bye	-7384
▁Only	-7385
▁Hy	-7386
hoor	-7387
▁Jud	-7388
▁phys	-7389
▁wezen	-7390
▁circle	-7391
姑娘	-7392
▁你好啊	-7393
▁length	-7394
mag	-7395
▁Ned	-7396
steem	-7397
▁2010	-7398
▁riep	-7399
▁Japanese	-7400
DE	-7401
▁Disney	-7402
▁Londen	-7403
▁她	-7404
▁Bern	-7405
▁minim	-7406
▁percent	-7407
▁particular	-7408
有个	-7409
▁Mount	-7410
▁nature	-7411
不对	-7412
▁burg	-7413
▁armen	-7414
几个	-7415
溶液	-7416
adu	-7417
▁EN	-7418
▁negen	-7419
▁Listen	-7420
▁affect	-7421
▁gedeel	-7422
▁keizer	-7423
▁soldaten	-7424
AC	-7425
pa	-7426
帮助	-7427
蚂蚁	-7428
有什么	-7429
ental	-7430
▁titel	-7431
科学	-7432
▁Zod	-7433
utely	-7434
▁appl	-7435
▁instr	-7436
▁enorme	-7437
▁三	-7438
小的	-7439
▁--	-7440
▁ei	-7441
▁sleutel	-7442
城市	-7443
氧化	-7444
▁satisf	-7445
▁rit	-7446
▁lines	-7447
▁oppos	-7448
▁strip	-7449
▁boeren	-7450
老虎	-7451
ulf	-7452
▁Bu	-7453
▁fac	-7454
48	-7455
经常	-7456
▁ap	-7457
▁Ham	-7458
lijst	-7459
▁Shit	-7460
▁Gelukkig	-7461
▁verdienen	-7462
ooid	-7463
▁Koning	-7464
erved	-7465
▁tekenen	-7466
公主	-7467
▁geïn	-7468
▁Queen	-7469
▁BE	-7470
月亮	-7471
▁ko	-7472
zond	-7473
▁wijn	-7474
▁Before	-7475
yr	-7476
不得	-7477
abl	-7478
▁lower	-7479
toen	-7480
vels	-7481
▁ear	-7482
rees	-7483
▁worst	-7484
▁zacht	-7485
▁oefening	-7486
▁buitenland	-7487
历史	-7488
增加	-7489
rucht	-7490
urday	-7491
35	-7492
▁meat	-7493
▁entered	-7494
▁directed	-7495
achel	-7496
▁Does	-7497
▁kruis	-7498
▁voeten	-7499
的事	-7500
TUR	-7501
正确的是	-7502
▁crew	-7503
▁Kerst	-7504
▁forth	-7505
▁beyond	-7506
wich	-7507
gaven	-7508
只能	-7509
▁这样	-7510
reid	-7511
▁uncle	-7512
▁correct	-7513
▁vertrouw	-7514
▁tim	-7515
indt	-7516
ushing	-7517
▁Which	-7518
▁deter	-7519
▁stone	-7520
相同	-7521
▁Old	-7522
▁path	-7523
▁offer	-7524
▁januari	-7525
▁pretend	-7526
▁concentr	-7527
▁overleven	-7528
▁beantwoorden	-7529
AY	-7530
ns	-7531
essen	-7532
▁Maggie	-7533
68	-7534
▁allow	-7535
▁gedrag	-7536
ouders	-7537
▁Earth	-7538
▁过	-7539
长的	-7540
itude	-7541
ughty	-7542
▁Jesus	-7543
▁haalt	-7544
▁gevecht	-7545
▁soldiers	-7546
▁Hieronder	-7547
▁gedachten	-7548
种子	-7549
▁Since	-7550
==	-7551
▁%	-7552
▁用	-7553
dog	-7554
▁aanp	-7555
iem	-7556
itte	-7557
▁influ	-7558
dro	-7559
▁bite	-7560
▁trip	-7561
注意	-7562
▁discovered	-7563
名字	-7564
▁Sk	-7565
▁roof	-7566
▁agreed	-7567
▁werkte	-7568
▁schrijft	-7569
▁Chris	-7570
主义	-7571
企业	-7572
▁Other	-7573
▁dames	-7574
stoffen	-7575
]!	-7576
▁ta	-7577
▁driving	-7578
erkt	-7579
▁leader	-7580
▁draaien	-7581
▁rook	-7582
▁angry	-7583
▁Island	-7584
▁Jongens	-7585
▁plastic	-7586
vey	-7587
▁studio	-7588
▁tanden	-7589
▁speaking	-7590
总是	-7591
▁voeren	-7592
▁numbers	-7593
▁verandert	-7594
▁Bang	-7595
▁po	-7596
▁vrede	-7597
▁cell	-7598
▁bound	-7599
rib	-7600
ibly	-7601
▁hill	-7602
▁respons	-7603
rid	-7604
▁addr	-7605
uderen	-7606
jaardag	-7607
▁simple	-7608
▁hierheen	-7609
Mum	-7610
▁东西	-7611
▁placed	-7612
rukt	-7613
ughing	-7614
▁Hop	-7615
▁vet	-7616
▁bill	-7617
▁noorden	-7618
orst	-7619
cher	-7620
▁Vul	-7621
arry	-7622
▁volgt	-7623
▁vergeet	-7624
▁gestolen	-7625
22	-7626
了吧	-7627
马上	-7628
▁diam	-7629
▁toilet	-7630
▁chocolate	-7631
uken	-7632
▁Boy	-7633
ado	-7634
ensus	-7635
▁Coun	-7636
▁atten	-7637
▁terror	-7638
▁arrived	-7639
我国	-7640
jet	-7641
chan	-7642
▁mum	-7643
iform	-7644
▁Club	-7645
▁Play	-7646
▁soul	-7647
▁draait	-7648
利用	-7649
▁While	-7650
▁sevent	-7651
▁daarbij	-7652
▁planeet	-7653
ria	-7654
▁cheer	-7655
▁stupid	-7656
▁calling	-7657
▁Nap	-7658
▁Water	-7659
▁schreef	-7660
rust	-7661
IL	-7662
▁bele	-7663
▁beurt	-7664
▁movies	-7665
ijven	-7666
▁join	-7667
▁Juist	-7668
mens	-7669
▁poet	-7670
▁tiny	-7671
▁stelt	-7672
▁dichter	-7673
▁professional	-7674
▁听	-7675
▁verschillen	-7676
US	-7677
ii	-7678
分析	-7679
有些	-7680
hang	-7681
itect	-7682
laten	-7683
▁bericht	-7684
▁plannen	-7685
win	-7686
keur	-7687
ucky	-7688
▁smart	-7689
身边	-7690
▁laid	-7691
abriek	-7692
包括	-7693
ashion	-7694
努力	-7695
我不	-7696
onds	-7697
▁ruzie	-7698
▁easily	-7699
99	-7700
ript	-7701
▁嗨	-7702
▁Ev	-7703
导致	-7704
iverse	-7705
▁original	-7706
▁fan	-7707
elaar	-7708
eltjes	-7709
▁flink	-7710
▁Down	-7711
aud	-7712
ora	-7713
▁Nob	-7714
opter	-7715
achine	-7716
▁nadat	-7717
▁gevolg	-7718
▁tunn	-7719
▁verdom	-7720
36	-7721
-15	-7722
▁{{	-7723
haal	-7724
▁slot	-7725
▁taak	-7726
▁formed	-7727
是个	-7728
iar	-7729
...?	-7730
URS	-7731
▁Des	-7732
▁Chic	-7733
▁Komt	-7734
▁geweldige	-7735
yer	-7736
▁aanv	-7737
▁zaten	-7738
▁gelezen	-7739
▁actie	-7740
▁huizen	-7741
▁ontdekt	-7742
▁;	-7743
wacht	-7744
▁houses	-7745
▁ontstaat	-7746
],	-7747
ours	-7748
orspr	-7749
▁fore	-7750
▁iron	-7751
agment	-7752
▁verkeerde	-7753
rikk	-7754
▁Hem	-7755
▁omsch	-7756
▁European	-7757
原因	-7758
经过	-7759
odes	-7760
▁square	-7761
▁welcome	-7762
▁fighting	-7763
▁upstairs	-7764
▁31	-7765
▁Hoezo	-7766
▁shore	-7767
▁bier	-7768
▁guard	-7769
▁refer	-7770
wa	-7771
▁2017	-7772
▁scene	-7773
▁moeite	-7774
tha	-7775
▁Ry	-7776
▁thou	-7777
▁langzaam	-7778
▁35	-7779
▁kool	-7780
▁phot	-7781
▁Oosten	-7782
考查	-7783
hei	-7784
▁fles	-7785
▁Steve	-7786
▁Mevrouw	-7787
||0	-7788
▁rare	-7789
▁wagen	-7790
▁Doctor	-7791
今年	-7792
oring	-7793
▁minuut	-7794
医生	-7795
ires	-7796
▁Hot	-7797
asons	-7798
▁temperatuur	-7799
ih	-7800
▁2011	-7801
都有	-7802
▁gauw	-7803
▁gedood	-7804
▁politiek	-7805
AG	-7806
判断	-7807
▁civil	-7808
结构	-7809
的东西	-7810
三十	-7811
3$$	-7812
▁effort	-7813
adem	-7814
▁action	-7815
▁长	-7816
even	-7817
unten	-7818
▁dikke	-7819
▁beweging	-7820
She	-7821
▁quarter	-7822
认识	-7823
kin	-7824
non	-7825
▁besloten	-7826
▁(15	-7827
▁Sol	-7828
▁Star	-7829
▁straw	-7830
▁professor	-7831
▁belt	-7832
▁sell	-7833
▁disappear	-7834
▁Acc	-7835
▁koek	-7836
▁ineens	-7837
▁Spanish	-7838
要是	-7839
uele	-7840
▁skin	-7841
▁ended	-7842
▁impro	-7843
▁employ	-7844
▁gebeld	-7845
▁verjaardag	-7846
alph	-7847
▁degene	-7848
▁dressed	-7849
hoek	-7850
▁dre	-7851
IR	-7852
▁Wood	-7853
▁toneel	-7854
▁GE	-7855
▁里面	-7856
}_{1	-7857
▁Three	-7858
mogelijk	-7859
IM	-7860
▁得	-7861
▁fot	-7862
vaart	-7863
▁steps	-7864
▁colors	-7865
▁harder	-7866
就像	-7867
▁gelukt	-7868
▁insect	-7869
▁vrijheid	-7870
相关	-7871
ators	-7872
▁Comp	-7873
▁Very	-7874
▁gate	-7875
▁steun	-7876
▁stierf	-7877
▁天	-7878
mie	-7879
▁prim	-7880
▁broad	-7881
▁gehaald	-7882
Cl	-7883
these	-7884
▁buik	-7885
vreden	-7886
温度	-7887
进了	-7888
▁cris	-7889
▁coast	-7890
弟弟	-7891
▁wolf	-7892
laughing	-7893
▁eenv	-7894
▁score	-7895
▁raised	-7896
▁schatje	-7897
▁sluiten	-7898
▁military	-7899
▁妖怪	-7900
也没有	-7901
▁Kingdom	-7902
的一个	-7903
▁Pan	-7904
▁rail	-7905
▁tight	-7906
▁Bay	-7907
▁onderdelen	-7908
▁这里	-7909
erie	-7910
▁Klik	-7911
nu	-7912
着一	-7913
ols	-7914
teen	-7915
▁Day	-7916
▁journal	-7917
eliciteerd	-7918
住了	-7919
oeid	-7920
orpor	-7921
▁Kenn	-7922
gelaten	-7923
▁tijdje	-7924
▁glim	-7925
▁driver	-7926
▁formule	-7927
▁believed	-7928
Nee	-7929
▁Bos	-7930
▁zwak	-7931
▁twijf	-7932
▁kleding	-7933
▁teksten	-7934
▁Never	-7935
改变	-7936
▁cm	-7937
位置	-7938
iles	-7939
▁Atlant	-7940
▁onderstaande	-7941
看过	-7942
rand	-7943
▁happening	-7944
▁80	-7945
▁beside	-7946
▁missing	-7947
▁rent	-7948
▁overe	-7949
▁explos	-7950
▁rabbit	-7951
▁schrijver	-7952
▁Az	-7953
oved	-7954
▁bevat	-7955
▁meiden	-7956
完全	-7957
教育	-7958
▁2012	-7959
▁political	-7960
▁onto	-7961
those	-7962
▁weather	-7963
▁Cap	-7964
▁Son	-7965
▁tur	-7966
▁bacter	-7967
▁handle	-7968
▁enemy	-7969
▁rekening	-7970
▁beantwoord	-7971
mal	-7972
▁agree	-7973
▁stream	-7974
▁nurs	-7975
▁songs	-7976
▁prinses	-7977
▁pleasant	-7978
上面	-7979
身上	-7980
annel	-7981
iegel	-7982
ously	-7983
ruction	-7984
▁zuiden	-7985
pi	-7986
▁IJ	-7987
stal	-7988
▁About	-7989
▁vissen	-7990
▁Elizabeth	-7991
▁sterren	-7992
unity	-7993
▁ni	-7994
auto	-7995
▁tou	-7996
0.000	-7997
ledge	-7998
▁manager	-7999
ouwd	-8000
▁Nad	-8001
iveau	-8002
▁warn	-8003
▁rough	-8004
▁gestuurd	-8005
内容	-8006
反正	-8007
zal	-8008
▁weap	-8009
▁aanval	-8010
▁能	-8011
four	-8012
▁pizza	-8013
▁wearing	-8014
▁difference	-8015
baan	-8016
▁demand	-8017
▁watched	-8018
▁omgeving	-8019
rekt	-8020
▁dame	-8021
▁Bedenk	-8022
100	-8023
▁Cla	-8024
shire	-8025
▁Andy	-8026
▁threw	-8027
▁geraakt	-8028
▁woest	-8029
▁deliver	-8030
▁Law	-8031
▁youn	-8032
▁theorie	-8033
ura	-8034
gent	-8035
ples	-8036
▁goeie	-8037
▁Steven	-8038
▁clever	-8039
▁gewone	-8040
64	-8041
=2	-8042
▁meaning	-8043
▁zuurstof	-8044
是在	-8045
看的	-8046
▁Ang	-8047
▁tie	-8048
licht	-8049
ffe	-8050
five	-8051
▁mel	-8052
▁Sand	-8053
▁Britse	-8054
▁starting	-8055
IA	-8056
▁deb	-8057
▁Hand	-8058
▁vern	-8059
▁clock	-8060
▁Eigenlijk	-8061
geant	-8062
▁fault	-8063
▁gewerkt	-8064
▁total	-8065
▁groups	-8066
tain	-8067
▁Ram	-8068
▁Foot	-8069
▁Saint	-8070
▁cous	-8071
scheid	-8072
设计	-8073
▁Precies	-8074
▁gevolgen	-8075
▁volledig	-8076
多少	-8077
▁hangen	-8078
▁gemakkelijk	-8079
schieten	-8080
▁alcohol	-8081
▁systeem	-8082
▁pleasure	-8083
bur	-8084
picks	-8085
pping	-8086
ël	-8087
bus	-8088
▁cro	-8089
▁zover	-8090
vi	-8091
以及	-8092
生产	-8093
▁Got	-8094
berry	-8095
▁drew	-8096
▁jour	-8097
▁hiding	-8098
▁populair	-8099
汽车	-8100
hip	-8101
agers	-8102
▁2019	-8103
▁Bunny	-8104
▁moves	-8105
▁proud	-8106
72	-8107
参加	-8108
▁missed	-8109
▁doos	-8110
ularly	-8111
genoten	-8112
▁spoken	-8113
▁relation	-8114
所有	-8115
▁bord	-8116
▁flying	-8117
▁Meester	-8118
▁bedrijven	-8119
iling	-8120
probeerd	-8121
▁fantastisch	-8122
ki	-8123
▁gebeurten	-8124
比如	-8125
fly	-8126
iënt	-8127
▁Wind	-8128
▁stelling	-8129
进入	-8130
▁2016	-8131
▁Fuck	-8132
▁Hong	-8133
▁cart	-8134
▁text	-8135
program	-8136
▁prachtige	-8137
▁à	-8138
▁ye	-8139
▁Prima	-8140
▁gekocht	-8141
各种	-8142
▁Ts	-8143
▁Brad	-8144
▁clown	-8145
▁Binnen	-8146
hankelijk	-8147
▁surprised	-8148
eta	-8149
past	-8150
izoen	-8151
Thomas	-8152
▁democ	-8153
▁babies	-8154
▁kasteel	-8155
▁produced	-8156
ega	-8157
▁pitch	-8158
▁wound	-8159
▁opport	-8160
▁4,	-8161
▁deg	-8162
▁Pers	-8163
▁Ross	-8164
▁filled	-8165
▁moorden	-8166
▁surv	-8167
▁trekt	-8168
▁rennen	-8169
▁Saturday	-8170
▁Ot	-8171
▁Tur	-8172
▁emb	-8173
有关	-8174
测量	-8175
jij	-8176
hest	-8177
▁Gord	-8178
▁Nooit	-8179
▁leider	-8180
▁announced	-8181
▁Sher	-8182
▁vess	-8183
▁simply	-8184
Br	-8185
健康	-8186
听到	-8187
那里	-8188
STER	-8189
▁boord	-8190
vocalizes	-8191
小白	-8192
itz	-8193
nummer	-8194
题意	-8195
una	-8196
ograf	-8197
vious	-8198
▁Vijf	-8199
▁Portug	-8200
AB	-8201
▁buck	-8202
▁kwart	-8203
overrightarrow	-8204
  	-8205
外面	-8206
生命	-8207
▁2014	-8208
▁Baby	-8209
▁thus	-8210
▁winn	-8211
icious	-8212
▁functie	-8213
▁Champion	-8214
出的	-8215
oves	-8216
▁Wow	-8217
▁knap	-8218
▁perm	-8219
▁puppet	-8220
▁shr	-8221
▁serieus	-8222
▁berekening	-8223
oei	-8224
你知道	-8225
▁betre	-8226
▁woods	-8227
rest	-8228
▁Church	-8229
▁bewijs	-8230
▁pulled	-8231
▁slacht	-8232
▁tegelijk	-8233
iber	-8234
▁leest	-8235
▁Joseph	-8236
▁article	-8237
▁persoonlijk	-8238
Not	-8239
kere	-8240
▁thick	-8241
▁bell	-8242
▁wens	-8243
十分	-8244
▁blauwe	-8245
▁vogels	-8246
boom	-8247
cast	-8248
ockey	-8249
▁Jerry	-8250
▁2021	-8251
▁Geloof	-8252
▁blocks	-8253
▁Italian	-8254
▁bestuur	-8255
▁argument	-8256
实现	-8257
▁Bor	-8258
wan	-8259
▁Res	-8260
▁Scot	-8261
▁verded	-8262
▁hoofdstad	-8263
ili	-8264
sem	-8265
▁Cos	-8266
▁dek	-8267
orius	-8268
▁recl	-8269
ellingen	-8270
▁dangerous	-8271
▁kleuren	-8272
▁experiment	-8273
och	-8274
urse	-8275
▁wake	-8276
tussen	-8277
▁actor	-8278
▁completely	-8279
ipt	-8280
▁falling	-8281
▁zwemmen	-8282
▁300	-8283
▁pens	-8284
▁vaker	-8285
▁expected	-8286
我想	-8287
Then	-8288
gress	-8289
▁pool	-8290
▁stoffen	-8291
ata	-8292
▁hadn	-8293
▁Santa	-8294
▁Albert	-8295
▁Chicago	-8296
▁inderdaad	-8297
BO	-8298
▁zu	-8299
athy	-8300
▁Dood	-8301
▁Benedict	-8302
orven	-8303
▁gebroken	-8304
无法	-8305
▁Mond	-8306
就在	-8307
生气	-8308
uits	-8309
▁onzin	-8310
▁geprobeerd	-8311
▁Kore	-8312
▁ware	-8313
78	-8314
▁pour	-8315
▁tower	-8316
▁escape	-8317
▁oefenen	-8318
▁instruct	-8319
▁regard	-8320
▁Ve	-8321
是什么	-8322
▁magic	-8323
▁slaat	-8324
▁energy	-8325
▁unless	-8326
vir	-8327
▁对呀	-8328
zocht	-8329
▁exten	-8330
ournaal	-8331
▁garage	-8332
▁notice	-8333
▁189	-8334
状态	-8335
▁cred	-8336
▁feat	-8337
▁bedre	-8338
▁leert	-8339
kast	-8340
markt	-8341
▁juni	-8342
▁thinks	-8343
▁boodschap	-8344
下的	-8345
ety	-8346
tog	-8347
▁Tor	-8348
▁wid	-8349
▁是不是	-8350
▁Sing	-8351
isatie	-8352
▁experience	-8353
松鼠	-8354
VER	-8355
▁那个	-8356
▁arme	-8357
获得	-8358
他们的	-8359
▁Mhm	-8360
▁huge	-8361
▁shel	-8362
▁Daarnaast	-8363
了起来	-8364
azing	-8365
▁Cour	-8366
▁Matt	-8367
▁print	-8368
▁Pur	-8369
HE	-8370
害怕	-8371
▁pakt	-8372
▁zond	-8373
▁puzzle	-8374
▁therefore	-8375
▁needta	-8376
新的	-8377
.$$\	-8378
▁Han	-8379
▁Hal	-8380
▁kies	-8381
morgen	-8382
werking	-8383
▁balloon	-8384
TV	-8385
在一起	-8386
▁haast	-8387
▁jeugd	-8388
▁higher	-8389
▁necessary	-8390
ava	-8391
Maar	-8392
▁Hoewel	-8393
▁private	-8394
▁bon	-8395
▁rat	-8396
iende	-8397
incie	-8398
▁Bi	-8399
▁Bew	-8400
▁Stil	-8401
▁bowl	-8402
▁singer	-8403
▁Kapitein	-8404
▁snelheid	-8405
▁VAN	-8406
▁Anton	-8407
▁ernst	-8408
BLANK	-8409
ommel	-8410
▁mate	-8411
▁vari	-8412
▁blauw	-8413
▁mostly	-8414
▁schelen	-8415
▁current	-8416
▁princip	-8417
▁december	-8418
28	-8419
aked	-8420
▁2013	-8421
jarige	-8422
对于	-8423
zinn	-8424
heart	-8425
▁lights	-8426
▁Dist	-8427
▁listening	-8428
▁tegenwoordig	-8429
cour	-8430
▁meed	-8431
▁Roger	-8432
▁complete	-8433
▁Cam	-8434
▁terms	-8435
▁romant	-8436
▁excited	-8437
Be	-8438
aus	-8439
▁188	-8440
▁smell	-8441
▁gebruikte	-8442
受到	-8443
elo	-8444
This	-8445
▁goin	-8446
▁noemt	-8447
可知	-8448
尾巴	-8449
ify	-8450
▁draagt	-8451
kwam	-8452
▁More	-8453
▁vlag	-8454
分别	-8455
▁Boven	-8456
▁Bestudeer	-8457
hin	-8458
hop	-8459
pol	-8460
sil	-8461
icky	-8462
狮子	-8463
▁Oce	-8464
ially	-8465
▁cultuur	-8466
imm	-8467
▁tar	-8468
▁happ	-8469
▁Hitler	-8470
精神	-8471
男孩	-8472
uct	-8473
▁dozen	-8474
▁Beh	-8475
▁maag	-8476
▁beest	-8477
▁gemist	-8478
▁nietwaar	-8479
▁noord	-8480
▁sugar	-8481
▁teams	-8482
spe	-8483
ikke	-8484
father	-8485
aamd	-8486
tober	-8487
▁Holly	-8488
▁manner	-8489
▁Engelse	-8490
▁Russian	-8491
▁verband	-8492
根本	-8493
Right	-8494
▁taste	-8495
▁bother	-8496
肚子	-8497
▁Simon	-8498
▁grown	-8499
▁burger	-8500
▁comment	-8501
▁explain	-8502
▁gespeeld	-8503
}^{	-8504
abet	-8505
▁gat	-8506
▁Jwww	-8507
utenant	-8508
▁crimin	-8509
▁verdwenen	-8510
ftig	-8511
▁tante	-8512
SIB	-8513
eks	-8514
emd	-8515
▁45	-8516
▁Child	-8517
▁hoeven	-8518
-18	-8519
}_{1}}	-8520
垃圾	-8521
▁Dar	-8522
oudig	-8523
大象	-8524
▁frequ	-8525
▁Walter	-8526
▁journey	-8527
23	-8528
数据	-8529
▁bat	-8530
▁Serv	-8531
▁stre	-8532
▁raakt	-8533
▁sluit	-8534
▁边	-8535
一条	-8536
elet	-8537
puts	-8538
▁Gem	-8539
▁weight	-8540
gesproken	-8541
naar	-8542
▁Jake	-8543
▁Tommy	-8544
▁186	-8545
▁detect	-8546
▁pleased	-8547
▁desk	-8548
▁edge	-8549
▁Italië	-8550
mail	-8551
▁Hart	-8552
▁Vier	-8553
▁toer	-8554
▁Schat	-8555
▁empty	-8556
▁lieve	-8557
▁weergegeven	-8558
inus	-8559
▁Africa	-8560
waarde	-8561
▁speech	-8562
▁Ly	-8563
▁jurk	-8564
▁tone	-8565
▁missie	-8566
▁走	-8567
▁hi	-8568
▁Mir	-8569
teren	-8570
▁moord	-8571
▁gasten	-8572
▁anywhere	-8573
亿元	-8574
sequ	-8575
▁hiel	-8576
▁mail	-8577
uffrouw	-8578
▁fallen	-8579
▁Ooh	-8580
▁Six	-8581
▁bloem	-8582
▁located	-8583
▁Alstublieft	-8584
urity	-8585
▁dust	-8586
stelsel	-8587
▁maakten	-8588
▁verover	-8589
isteravond	-8590
ti	-8591
吃的	-8592
▁veiligheid	-8593
odigd	-8594
▁Krij	-8595
gekomen	-8596
plaatst	-8597
当然	-8598
▁route	-8599
▁forest	-8600
▁gooien	-8601
▁Gi	-8602
werkt	-8603
dienst	-8604
▁Trans	-8605
▁veget	-8606
▁flower	-8607
▁risico	-8608
▁activiteit	-8609
就不	-8610
成功	-8611
▁Sche	-8612
▁areas	-8613
▁brave	-8614
▁(5	-8615
ords	-8616
▁lever	-8617
▁verschrikk	-8618
▁poes	-8619
▁vuil	-8620
▁strugg	-8621
▁research	-8622
▁5,	-8623
▁opger	-8624
▁zagen	-8625
▁honest	-8626
▁Jackson	-8627
▁erachter	-8628
▁immediately	-8629
ibility	-8630
▁gewond	-8631
▁inkomen	-8632
").	-8633
也有	-8634
▁ME	-8635
▁DNA	-8636
▁Conf	-8637
▁Stud	-8638
▁lion	-8639
▁Julia	-8640
▁minst	-8641
▁Edward	-8642
消息	-8643
▁EEN	-8644
▁families	-8645
和小	-8646
▁duty	-8647
▁exec	-8648
▁trail	-8649
▁twice	-8650
▁herinneren	-8651
iële	-8652
都在	-8653
▁zicht	-8654
▁favoriet	-8655
▁officers	-8656
▁televisie	-8657
力的	-8658
过了	-8659
▁Um	-8660
▁Gaan	-8661
▁hero	-8662
▁faith	-8663
rijving	-8664
▁evidence	-8665
▁onderweg	-8666
ani	-8667
▁Post	-8668
▁magaz	-8669
▁两	-8670
tes	-8671
ooie	-8672
▁steek	-8673
wo	-8674
des	-8675
zuur	-8676
▁snake	-8677
▁vrije	-8678
样的	-8679
4$$	-8680
rad	-8681
▁Out	-8682
useum	-8683
▁hurry	-8684
▁bekende	-8685
▁plaatje	-8686
▁jongeren	-8687
▁swimming	-8688
▁Sure	-8689
▁teddy	-8690
▁zulke	-8691
▁advent	-8692
▁vreemde	-8693
▁树	-8694
▁Jam	-8695
▁Italy	-8696
▁Prins	-8697
▁occup	-8698
下了	-8699
FRI	-8700
lag	-8701
▁Gef	-8702
好好	-8703
▁IK	-8704
oking	-8705
ossen	-8706
▁schema	-8707
▁kaarten	-8708
▁Helemaal	-8709
▁unc	-8710
▁Goeden	-8711
▁Council	-8712
▁~	-8713
ila	-8714
zee	-8715
bron	-8716
▁usual	-8717
▁speelde	-8718
▁verboden	-8719
kr	-8720
提供	-8721
▁Up	-8722
ware	-8723
erland	-8724
▁plain	-8725
▁behalve	-8726
▁conclus	-8727
▁occasion	-8728
▁voorbere	-8729
▁background	-8730
说话	-8731
赶紧	-8732
▁Cast	-8733
▁Dutch	-8734
▁zware	-8735
▁talent	-8736
▁naughty	-8737
▁transport	-8738
也很	-8739
坐在	-8740
▁aspect	-8741
▁ordered	-8742
带着	-8743
hab	-8744
▁Im	-8745
▁kont	-8746
▁Donald	-8747
▁groepen	-8748
▁published	-8749
duc	-8750
upp	-8751
wil	-8752
▁ox	-8753
▁shoe	-8754
pet	-8755
▁OP	-8756
▁Oostenrijk	-8757
hr	-8758
不起	-8759
zame	-8760
onel	-8761
▁Dave	-8762
brother	-8763
大了	-8764
erc	-8765
mis	-8766
▁runs	-8767
▁markt	-8768
▁oorspr	-8769
OS	-8770
asty	-8771
▁web	-8772
▁occur	-8773
cheiden	-8774
上去	-8775
moord	-8776
staat	-8777
▁Niks	-8778
▁6.	-8779
▁sour	-8780
▁smoke	-8781
▁strength	-8782
gemeester	-8783
leet	-8784
▁Rod	-8785
mommy	-8786
▁Leon	-8787
▁guns	-8788
rijzen	-8789
▁plants	-8790
▁noticed	-8791
somet	-8792
▁Long	-8793
▁Lucy	-8794
▁Mass	-8795
▁Jacob	-8796
▁verdriet	-8797
▁Professor	-8798
ingt	-8799
▁inj	-8800
▁sac	-8801
▁2015	-8802
gemeen	-8803
▁Christus	-8804
LY	-8805
▁Hum	-8806
matig	-8807
▁Four	-8808
▁juli	-8809
ële	-8810
▁lake	-8811
▁onaf	-8812
▁pound	-8813
▁purpose	-8814
回到	-8815
女孩	-8816
▁Alf	-8817
izing	-8818
▁Barb	-8819
▁bedenken	-8820
76	-8821
▁joy	-8822
ushes	-8823
asy	-8824
ena	-8825
zeg	-8826
▁Cra	-8827
▁Viet	-8828
▁beach	-8829
▁liedje	-8830
▁personen	-8831
▁education	-8832
ieën	-8833
▁Bron	-8834
bru	-8835
▁那么	-8836
▁promised	-8837
oted	-8838
▁title	-8839
▁Verder	-8840
▁Vooral	-8841
▁details	-8842
▁dronken	-8843
▁Jun	-8844
▁dise	-8845
▁online	-8846
▁Florida	-8847
▁regelen	-8848
iev	-8849
▁Put	-8850
▁mole	-8851
▁Johnny	-8852
▁plenty	-8853
▁surround	-8854
▁architect	-8855
eeuwen	-8856
▁Dames	-8857
▁schade	-8858
▁earlier	-8859
host	-8860
obby	-8861
▁...'	-8862
▁Trek	-8863
leggen	-8864
▁reizen	-8865
冠军	-8866
takes	-8867
▁april	-8868
▁Bal	-8869
▁bin	-8870
▁municipality	-8871
ws	-8872
放在	-8873
▁Hill	-8874
▁pair	-8875
▁Romeinse	-8876
itely	-8877
▁plot	-8878
▁schad	-8879
osta	-8880
▁verle	-8881
▁double	-8882
▁concert	-8883
▁jar	-8884
▁droog	-8885
▁mouse	-8886
ministr	-8887
▁founded	-8888
▁smaller	-8889
▁provincie	-8890
进去	-8891
issie	-8892
▁partijen	-8893
▁od	-8894
aled	-8895
elebr	-8896
ray	-8897
uce	-8898
▁row	-8899
▁Excuseer	-8900
阳光	-8901
▁hoed	-8902
icated	-8903
▁Groot	-8904
▁christ	-8905
▁scient	-8906
▁VER	-8907
ochtend	-8908
▁remain	-8909
adow	-8910
cles	-8911
▁Fil	-8912
▁Daniel	-8913
▁sprake	-8914
▁zeiden	-8915
pap	-8916
▁ce	-8917
elend	-8918
▁Toon	-8919
whoops	-8920
▁Virgin	-8921
▁choice	-8922
▁mistake	-8923
▁hoeveelheid	-8924
你说	-8925
ointed	-8926
全国	-8927
▁por	-8928
▁scream	-8929
▁trouwens	-8930
SOA	-8931
mama	-8932
school	-8933
▁heads	-8934
▁oefen	-8935
▁carefully	-8936
投资	-8937
sec	-8938
cries	-8939
▁eager	-8940
▁rijdt	-8941
▁advert	-8942
▁stomme	-8943
▁struck	-8944
▁prevent	-8945
▁Fre	-8946
ei	-8947
来说	-8948
agram	-8949
多了	-8950
pop	-8951
ekend	-8952
▁Besp	-8953
▁ontvangen	-8954
女儿	-8955
▁AB	-8956
▁lok	-8957
▁swing	-8958
▁proces	-8959
▁shoulder	-8960
▁Arch	-8961
plicht	-8962
▁september	-8963
IGH	-8964
▁bevel	-8965
▁leden	-8966
▁census	-8967
▁twaalf	-8968
▁gegeten	-8969
理解	-8970
bak	-8971
▁lap	-8972
verb	-8973
itiek	-8974
▁oppervlak	-8975
kent	-8976
usten	-8977
▁epis	-8978
▁verkiezingen	-8979
pte	-8980
uze	-8981
▁Pen	-8982
▁Ven	-8983
▁loss	-8984
ossible	-8985
▁tijden	-8986
▁betekenis	-8987
▁note	-8988
▁growing	-8989
STE	-8990
div	-8991
▁pond	-8992
▁Gab	-8993
▁hut	-8994
▁2008	-8995
▁Could	-8996
▁staart	-8997
▁generaal	-8998
$,	-8999
几天	-9000
▁Dra	-9001
▁bod	-9002
▁awful	-9003
▁()	-9004
inson	-9005
▁olie	-9006
▁knife	-9007
spraken	-9008
▁Sometimes	-9009
相信	-9010
▁HET	-9011
▁gedeelte	-9012
▁spannen	-9013
ïne	-9014
...'	-9015
make	-9016
ships	-9017
atieve	-9018
▁allen	-9019
▁nomin	-9020
▁Top	-9021
▁Griek	-9022
▁hello	-9023
▁generally	-9024
的电	-9025
VAL	-9026
▁Cas	-9027
▁Say	-9028
▁behoor	-9029
▁ideeën	-9030
ags	-9031
▁rule	-9032
gedaan	-9033
▁Award	-9034
▁Goede	-9035
▁Perhaps	-9036
▁oktober	-9037
▁Sa	-9038
▁tunnel	-9039
▁bedroom	-9040
iefde	-9041
▁Angeles	-9042
▁中	-9043
ota	-9044
▁Bat	-9045
▁maximaal	-9046
也没	-9047
▁故事	-9048
▁Cat	-9049
▁ham	-9050
▁brush	-9051
▁kikker	-9052
+2	-9053
▁groen	-9054
▁ladies	-9055
▁nation	-9056
听了	-9057
旁边	-9058
oeven	-9059
▁enth	-9060
▁rand	-9061
ellijk	-9062
istics	-9063
▁liber	-9064
▁beroep	-9065
你是	-9066
!""	-9067
-20	-9068
▁bril	-9069
▁Afrika	-9070
▁bewijzen	-9071
▁Rh	-9072
▁juf	-9073
gency	-9074
▁inqu	-9075
▁center	-9076
▁doordat	-9077
▁gelooft	-9078
▁version	-9079
▁让	-9080
▁Pier	-9081
▁Succ	-9082
▁fiet	-9083
▁maart	-9084
▁besluit	-9085
erij	-9086
▁Alsof	-9087
▁lucky	-9088
looking	-9089
▁graden	-9090
▁gratis	-9091
明白	-9092
CAT	-9093
bird	-9094
ingly	-9095
▁huur	-9096
▁goodness	-9097
CT	-9098
还要	-9099
▁Ba	-9100
▁我觉得	-9101
▁deck	-9102
▁stonden	-9103
CK	-9104
如何	-9105
his	-9106
irk	-9107
▁saved	-9108
▁trade	-9109
▁Sovjet	-9110
▁artist	-9111
▁我是	-9112
ishes	-9113
▁2009	-9114
▁geldt	-9115
高的	-9116
deze	-9117
▁Turn	-9118
▁begins	-9119
▁female	-9120
oli	-9121
▁elf	-9122
spect	-9123
arters	-9124
▁Brand	-9125
▁opgel	-9126
▁Tussen	-9127
GE	-9128
▁70	-9129
waard	-9130
▁Once	-9131
ollege	-9132
我看	-9133
这部	-9134
▁00	-9135
▁button	-9136
▁taught	-9137
▁province	-9138
▁slachtoff	-9139
▁tegenover	-9140
▁onderzoeken	-9141
机会	-9142
▁CD	-9143
steen	-9144
▁Corn	-9145
▁Kate	-9146
▁rang	-9147
▁scher	-9148
▁watches	-9149
▁student	-9150
CE	-9151
RYA	-9152
▁Cons	-9153
▁Eric	-9154
ooster	-9155
34	-9156
乌龟	-9157
国际	-9158
illing	-9159
▁confl	-9160
▁suiker	-9161
journaal	-9162
ademy	-9163
engte	-9164
icked	-9165
▁astr	-9166
elings	-9167
▁alweer	-9168
IK	-9169
reme	-9170
▁ontb	-9171
iaanse	-9172
▁charm	-9173
科技	-9174
▁begrippen	-9175
+1	-9176
我都	-9177
有没有	-9178
blue	-9179
▁tip	-9180
▁Lisa	-9181
你看	-9182
▁Sle	-9183
ements	-9184
another	-9185
▁expand	-9186
▁daardoor	-9187
▁official	-9188
)$$	-9189
pool	-9190
▁Les	-9191
▁kab	-9192
derij	-9193
▁involved	-9194
▁Benedictus	-9195
下去	-9196
▁).	-9197
▁data	-9198
erende	-9199
▁Brian	-9200
▁brain	-9201
▁shown	-9202
▁twintig	-9203
▁opin	-9204
▁finan	-9205
▁election	-9206
▁voldoende	-9207
极了	-9208
▁buur	-9209
▁tears	-9210
▁betere	-9211
volution	-9212
▁burgers	-9213
lt	-9214
喜欢看	-9215
▁oren	-9216
apping	-9217
▁vieren	-9218
66	-9219
可爱	-9220
▁Ons	-9221
▁goedk	-9222
▁Gefeliciteerd	-9223
有一天	-9224
▁wijs	-9225
▁Republic	-9226
⌉.	-9227
kamp	-9228
▁halve	-9229
▁Andrew	-9230
▁totdat	-9231
▁zwaard	-9232
▁dichtbij	-9233
▁Bud	-9234
▁Kent	-9235
▁domin	-9236
▁Summer	-9237
▁supper	-9238
▁oil	-9239
apped	-9240
▁Coll	-9241
▁Grieken	-9242
▁director	-9243
▁function	-9244
▁heerlijk	-9245
▁32	-9246
laat	-9247
▁Besch	-9248
减少	-9249
dule	-9250
should	-9251
▁leidt	-9252
▁vecht	-9253
▁honderd	-9254
▁interessant	-9255
不断	-9256
星星	-9257
ruit	-9258
▁pill	-9259
aterdag	-9260
▁leiding	-9261
▁mooiste	-9262
bout	-9263
▁Rec	-9264
▁的时候	-9265
using	-9266
▁stairs	-9267
▁begrepen	-9268
做的	-9269
ems	-9270
▁teleur	-9271
▁determin	-9272
vle	-9273
▁pants	-9274
▁message	-9275
▁Bijvoorbeeld	-9276
bell	-9277
▁nod	-9278
▁soc	-9279
▁meal	-9280
atives	-9281
▁sides	-9282
▁Master	-9283
▁Oor	-9284
▁Wall	-9285
▁eraf	-9286
hangen	-9287
▁personal	-9288
▁prepared	-9289
amed	-9290
▁ere	-9291
▁obl	-9292
going	-9293
▁chap	-9294
▁golf	-9295
▁Those	-9296
▁imagine	-9297
形成	-9298
水平	-9299
aron	-9300
actie	-9301
igers	-9302
▁Brook	-9303
年轻	-9304
mes	-9305
}=\	-9306
▁changes	-9307
▁DO	-9308
ilen	-9309
▁Eddie	-9310
▁Jeugd	-9311
▁flight	-9312
▁ancient	-9313
▁⌈	-9314
▁哪	-9315
?""	-9316
plan	-9317
▁Lake	-9318
▁associ	-9319
▁hiervan	-9320
来看	-9321
▁Fa	-9322
othy	-9323
▁Pop	-9324
▁hal	-9325
▁Leer	-9326
▁stock	-9327
▁Prince	-9328
nic	-9329
▁[?	-9330
iner	-9331
itan	-9332
ooper	-9333
▁Ruth	-9334
▁vrol	-9335
▁mijne	-9336
▁Rotter	-9337
▁groene	-9338
变得	-9339
Een	-9340
known	-9341
▁schrift	-9342
▁wetenschapp	-9343
wr	-9344
wen	-9345
▁firm	-9346
▁Marie	-9347
▁cases	-9348
▁tiger	-9349
▁zenuw	-9350
▁advocaat	-9351
▁Amerikanen	-9352
▁XV	-9353
▁toast	-9354
:$$	-9355
arte	-9356
intje	-9357
▁2006	-9358
▁Volg	-9359
▁dial	-9360
▁bewust	-9361
▁vracht	-9362
_2	-9363
刚才	-9364
▁Far	-9365
▁map	-9366
▁Doug	-9367
▁prec	-9368
----------------	-9369
UNK	-9370
▁mol	-9371
▁shi	-9372
▁Tele	-9373
nemers	-9374
▁regular	-9375
任何	-9376
服务	-9377
5$$	-9378
via	-9379
▁raak	-9380
▁hersenen	-9381
▁hiervoor	-9382
▁meenemen	-9383
ption	-9384
▁calm	-9385
▁Democrat	-9386
umn	-9387
▁defe	-9388
▁proef	-9389
▁toren	-9390
▁bureau	-9391
isn	-9392
▁choo	-9393
▁desp	-9394
▁slide	-9395
▁wegge	-9396
schappij	-9397
▁community	-9398
提高	-9399
的声音	-9400
▁Camp	-9401
▁mir	-9402
▁kinds	-9403
programma	-9404
▁remained	-9405
lop	-9406
agement	-9407
.①	-9408
▁跑	-9409
十二	-9410
ooflijk	-9411
▁plekken	-9412
▁science	-9413
▁suggested	-9414
ieur	-9415
▁Hans	-9416
▁cong	-9417
功能	-9418
政府	-9419
heim	-9420
craft	-9421
▁Chief	-9422
▁wisten	-9423
▁overleden	-9424
lad	-9425
▁keren	-9426
⌋.	-9427
nest	-9428
every	-9429
▁beelden	-9430
▁landbouw	-9431
▁november	-9432
兄弟	-9433
就要	-9434
oston	-9435
pressed	-9436
29	-9437
北京	-9438
回去	-9439
anned	-9440
▁Grandma	-9441
▁uniform	-9442
▁找	-9443
▁36	-9444
geef	-9445
▁weig	-9446
▁vinger	-9447
▁showing	-9448
pan	-9449
是一种	-9450
▁Rel	-9451
haald	-9452
小心	-9453
▁aged	-9454
▁rocks	-9455
▁Begrijp	-9456
▁hoogste	-9457
▁Kinderen	-9458
rich	-9459
▁gal	-9460
▁tells	-9461
▁contain	-9462
▁Allemaal	-9463
▁movement	-9464
距离	-9465
▁起来	-9466
▁fro	-9467
▁acqu	-9468
▁calls	-9469
▁welkom	-9470
不见	-9471
kaan	-9472
▁Tem	-9473
▁lips	-9474
▁choose	-9475
▁huidige	-9476
▁included	-9477
父亲	-9478
while	-9479
▁handel	-9480
▁magnet	-9481
▁nummers	-9482
▁Rotterdam	-9483
▁gentleman	-9484
每次	-9485
▁drag	-9486
▁kwalijk	-9487
▁vervangen	-9488
分钟	-9489
奇怪	-9490
Let	-9491
▁90	-9492
ables	-9493
▁mamma	-9494
▁gereed	-9495
▁evident	-9496
▁keeping	-9497
▁aanwezig	-9498
▁optreden	-9499
show	-9500
▁ond	-9501
▁Ster	-9502
▁afle	-9503
▁misd	-9504
▁doors	-9505
▁newsp	-9506
▁fashion	-9507
▁Syl	-9508
▁Way	-9509
▁etc	-9510
▁durf	-9511
▁Under	-9512
▁Russische	-9513
=1	-9514
▁Fel	-9515
▁foc	-9516
▁Hoog	-9517
▁senten	-9518
▁terugk	-9519
▁interrupt	-9520
▁stenen	-9521
▁verdomde	-9522
小猪	-9523
rot	-9524
mann	-9525
oegd	-9526
▁Cub	-9527
▁ess	-9528
whisper	-9529
球员	-9530
amel	-9531
▁Bre	-9532
adering	-9533
▁circus	-9534
▁sterke	-9535
房间	-9536
JEN	-9537
aval	-9538
▁mut	-9539
▁aunt	-9540
veilig	-9541
▁grafiek	-9542
▁tevreden	-9543
▁Zit	-9544
▁Piet	-9545
▁schuldig	-9546
▁7.	-9547
imit	-9548
▁真	-9549
vlie	-9550
icles	-9551
▁zout	-9552
middag	-9553
▁style	-9554
▁kus	-9555
▁nek	-9556
}_{2}}	-9557
▁Spain	-9558
▁bodem	-9559
▁Genoeg	-9560
石头	-9561
aries	-9562
▁vide	-9563
hh	-9564
很快	-9565
路上	-9566
▁Oke	-9567
▁seconds	-9568
▁verbrand	-9569
是否	-9570
zijde	-9571
rische	-9572
▁avail	-9573
▁stopt	-9574
▁jumped	-9575
▁fellows	-9576
▁叫	-9577
日本	-9578
▁而且	-9579
▁pin	-9580
juist	-9581
▁piano	-9582
▁voren	-9583
▁surface	-9584
▁vernietigen	-9585
妹妹	-9586
club	-9587
▁Call	-9588
▁states	-9589
hum	-9590
iseerd	-9591
▁betrokken	-9592
arliam	-9593
▁Kevin	-9594
▁climb	-9595
FF	-9596
家的	-9597
vig	-9598
▁dem	-9599
▁woo	-9600
oorte	-9601
▁purple	-9602
heek	-9603
▁pod	-9604
▁tank	-9605
▁walks	-9606
▁address	-9607
▁Rom	-9608
▁matt	-9609
不行	-9610
▁veren	-9611
Come	-9612
uziek	-9613
▁...?	-9614
▁motion	-9615
▁springen	-9616
▁telephone	-9617
21	-9618
viron	-9619
▁emer	-9620
▁approach	-9621
asp	-9622
▁Mur	-9623
▁bond	-9624
▁tries	-9625
▁leading	-9626
▁stukken	-9627
行为	-9628
CHT	-9629
ears	-9630
▁THAT	-9631
▁price	-9632
del	-9633
就可以	-9634
▁voorz	-9635
▁wegen	-9636
▁dancing	-9637
ua	-9638
inkel	-9639
irect	-9640
▁VIII	-9641
▁mob	-9642
▁Army	-9643
▁pause	-9644
▁rapid	-9645
achtige	-9646
下面	-9647
站在	-9648
ading	-9649
▁Jess	-9650
▁gall	-9651
▁cards	-9652
bow	-9653
alie	-9654
voed	-9655
▁pit	-9656
▁Succes	-9657
▁sociale	-9658
▁developed	-9659
说了	-9660
▁lat	-9661
▁Hard	-9662
▁bits	-9663
▁Canad	-9664
▁stijl	-9665
▁celebr	-9666
▁Republiek	-9667
▁herkennen	-9668
▁Elk	-9669
▁territ	-9670
middellijk	-9671
▁meegenomen	-9672
▁哪里	-9673
worth	-9674
▁range	-9675
▁bloody	-9676
▁aangezien	-9677
▁universiteit	-9678
49	-9679
BR	-9680
maat	-9681
vatting	-9682
udden	-9683
ether	-9684
▁appre	-9685
▁rules	-9686
▁youth	-9687
▁Gordon	-9688
▁bergen	-9689
产品	-9690
▁Abs	-9691
▁Film	-9692
▁trop	-9693
▁vleug	-9694
▁beroemd	-9695
▁musical	-9696
arliament	-9697
▁investig	-9698
rik	-9699
▁entire	-9700
▁geheime	-9701
▁burgemeester	-9702
ners	-9703
▁plus	-9704
▁Links	-9705
你也	-9706
slaan	-9707
▁Emma	-9708
▁shock	-9709
▁verdient	-9710
清楚	-9711
rig	-9712
▁Tay	-9713
▁normal	-9714
▁slaapt	-9715
▁reaches	-9716
▁condition	-9717
不仅	-9718
目前	-9719
issa	-9720
ittee	-9721
▁bleek	-9722
▁raakte	-9723
▁managed	-9724
bey	-9725
▁Bes	-9726
▁mes	-9727
▁weak	-9728
▁Night	-9729
▁plans	-9730
▁electric	-9731
▁onderste	-9732
uls	-9733
haven	-9734
▁stelen	-9735
38	-9736
▁rights	-9737
▁addition	-9738
_{	-9739
方程	-9740
iled	-9741
▁award	-9742
▁Another	-9743
▁shouted	-9744
▁medicine	-9745
()	-9746
二零一	-9747
▁kitty	-9748
▁loves	-9749
▁events	-9750
▁closer	-9751
▁vrolijk	-9752
vy	-9753
▁本题	-9754
▁Tok	-9755
▁Friday	-9756
▁geheel	-9757
▁kussen	-9758
▁dachten	-9759
▁practice	-9760
▁ontwikkeling	-9761
▁kleiner	-9762
▁theater	-9763
▁afbeeldingen	-9764
-0	-9765
qi	-9766
的啊	-9767
▁6,	-9768
朋友们	-9769
ilde	-9770
电话	-9771
▁Hor	-9772
bergen	-9773
▁Romeinen	-9774
▁carrying	-9775
体育	-9776
增长	-9777
蝴蝶	-9778
aap	-9779
ros	-9780
ceeded	-9781
▁Command	-9782
▁finding	-9783
愿意	-9784
pad	-9785
rix	-9786
过程中	-9787
illed	-9788
▁1990	-9789
▁Terwijl	-9790
oets	-9791
▁Eth	-9792
▁VII	-9793
gebruik	-9794
▁recept	-9795
▁neither	-9796
elta	-9797
▁vangen	-9798
ologische	-9799
▁kampioen	-9800
▁absolutely	-9801
▁gemiddelde	-9802
▁onmogelijk	-9803
结合	-9804
racy	-9805
vest	-9806
besch	-9807
▁waarschuw	-9808
▁trok	-9809
verage	-9810
▁fixed	-9811
▁uiter	-9812
▁beloofd	-9813
37	-9814
▁​	-9815
感到	-9816
让人	-9817
ANT	-9818
ito	-9819
Waar	-9820
▁(200	-9821
babbles	-9822
▁economie	-9823
鼻子	-9824
ijm	-9825
一定要	-9826
▁lul	-9827
▁excuse	-9828
▁verzeker	-9829
eefd	-9830
etter	-9831
ublic	-9832
▁worried	-9833
▁sandwich	-9834
▁gram	-9835
▁invent	-9836
▁kunsten	-9837
▁schepen	-9838
▁downstairs	-9839
传播	-9840
量的	-9841
▁dep	-9842
▁不是	-9843
▁overd	-9844
▁fifteen	-9845
▁Gregorius	-9846
▁continues	-9847
47	-9848
聪明	-9849
dus	-9850
had	-9851
▁Dun	-9852
▁rib	-9853
arily	-9854
cream	-9855
▁1980	-9856
▁Hold	-9857
▁Life	-9858
ological	-9859
▁bepalen	-9860
死了	-9861
meer	-9862
oln	-9863
akel	-9864
roup	-9865
anged	-9866
忽然	-9867
kins	-9868
▁gef	-9869
groot	-9870
▁kende	-9871
▁resol	-9872
standigheden	-9873
接着	-9874
欢迎	-9875
ukte	-9876
OTHER	-9877
▁gren	-9878
▁opportunity	-9879
很有	-9880
▁可是	-9881
ratie	-9882
▁august	-9883
▁volgorde	-9884
▁according	-9885
不可	-9886
不知	-9887
▁Huis	-9888
pendent	-9889
▁fourth	-9890
▁materiaal	-9891
▁everywhere	-9892
甚至	-9893
▁VS	-9894
ersp	-9895
▁rak	-9896
▁screw	-9897
▁forgotten	-9898
小时	-9899
哈哈哈	-9900
▁2004	-9901
▁richt	-9902
▁betaal	-9903
▁offered	-9904
▁gisteravond	-9905
▁GO	-9906
▁barr	-9907
▁Boston	-9908
▁cijfers	-9909
▁scholen	-9910
lyn	-9911
▁illeg	-9912
▁Central	-9913
▁actress	-9914
ification	-9915
iteindelijk	-9916
▁Emp	-9917
▁walls	-9918
▁Bespreek	-9919
circ	-9920
heel	-9921
▁Win	-9922
▁2022	-9923
▁sprak	-9924
▁students	-9925
▁哇	-9926
直线	-9927
▁再见	-9928
bijt	-9929
▁Peg	-9930
oughs	-9931
▁tand	-9932
angers	-9933
▁ladder	-9934
▁council	-9935
▁impossible	-9936
十五	-9937
第二天	-9938
▁Bye	-9939
▁cities	-9940
▁mountains	-9941
发布	-9942
cdot	-9943
apper	-9944
一步	-9945
都没有	-9946
▁ach	-9947
▁magn	-9948
ustrie	-9949
chester	-9950
▁cookie	-9951
▁College	-9952
▁schools	-9953
▁wetenschap	-9954
▁最	-9955
刚刚	-9956
政策	-9957
urry	-9958
▁dare	-9959
▁uitv	-9960
▁cousin	-9961
▁depart	-9962
分子	-9963
地区	-9964
▁Aut	-9965
achelijk	-9966
▁Johnson	-9967
▁Uiteindelijk	-9968
SE	-9969
maakt	-9970
opper	-9971
▁Jenn	-9972
▁Stand	-9973
▁Bessie	-9974
▁ontsnappen	-9975
▁development	-9976
mos	-9977
▁不过	-9978
^{2}	-9979
opher	-9980
▁ouwe	-9981
▁veroorzaakt	-9982
生长	-9983
Nin	-9984
▁400	-9985
▁2005	-9986
▁Show	-9987
▁Susan	-9988
▁machines	-9989
gh	-9990
regel	-9991
▁Time	-9992
▁merk	-9993
▁types	-9994
▁heaven	-9995
32	-9996
boot	-9997
▁dru	-9998
▁sem	-9999
▁touw	-10000
▁uses	-10001
▁centre	-10002
▁commer	-10003
▁tongue	-10004
▁opgenomen	-10005
▁Love	-10006
▁stro	-10007
▁benef	-10008
▁dread	-10009
▁快	-10010
天空	-10011
▁Gold	-10012
▁cock	-10013
kaart	-10014
▁ramp	-10015
▁rate	-10016
▁metal	-10017
▁weggaan	-10018
óó	-10019
▁bereikt	-10020
基础	-10021
▁falls	-10022
▁Napole	-10023
▁Utrecht	-10024
nod	-10025
▁Arn	-10026
▁Still	-10027
▁duren	-10028
▁augustus	-10029
▁languages	-10030
▁Nederlanders	-10031
控制	-10032
+{{	-10033
▁大象	-10034
little	-10035
ulance	-10036
▁Const	-10037
~~	-10038
▁behe	-10039
▁carri	-10040
▁shake	-10041
▁cellen	-10042
▁arrange	-10043
▁settled	-10044
▁opposite	-10045
只好	-10046
耳朵	-10047
lle	-10048
fish	-10049
▁Ash	-10050
▁boss	-10051
▁Royal	-10052
▁liefje	-10053
是因为	-10054
ineer	-10055
▁Holland	-10056
▁drinking	-10057
消费	-10058
ighs	-10059
▁Squ	-10060
aging	-10061
▁Keep	-10062
▁knee	-10063
▁afval	-10064
▁breken	-10065
▁Wed	-10066
▁Inderdaad	-10067
think	-10068
vraag	-10069
▁Last	-10070
▁Gesch	-10071
JES	-10072
rekk	-10073
▁Huh	-10074
▁ign	-10075
▁blok	-10076
▁heat	-10077
▁Wegwezen	-10078
asth	-10079
▁bub	-10080
ellent	-10081
seling	-10082
▁crime	-10083
$$(	-10084
eekt	-10085
roep	-10086
▁Major	-10087
▁beper	-10088
▁brothers	-10089
▁doorgaan	-10090
▁obviously	-10091
ör	-10092
一百	-10093
大学	-10094
oving	-10095
▁Begin	-10096
▁simpel	-10097
显示	-10098
agra	-10099
▁sake	-10100
▁faces	-10101
▁gouden	-10102
▁levend	-10103
完了	-10104
cup	-10105
ador	-10106
pakt	-10107
▁Ged	-10108
▁Stuur	-10109
istisch	-10110
▁holiday	-10111
▁According	-10112
▁international	-10113
79	-10114
aka	-10115
olk	-10116
▁AD	-10117
▁goo	-10118
▁resc	-10119
排除	-10120
用的	-10121
▁\\	-10122
▁Zee	-10123
▁Hoofd	-10124
▁leugen	-10125
保持	-10126
第三	-10127
iërs	-10128
▁twe	-10129
▁spin	-10130
▁feestje	-10131
▁grotere	-10132
▁productie	-10133
▁出来	-10134
rice	-10135
▁Bruce	-10136
▁exerc	-10137
▁grapje	-10138
)=	-10139
整个	-10140
还没	-10141
aming	-10142
icans	-10143
▁1000	-10144
▁Beth	-10145
▁Linc	-10146
▁salt	-10147
middel	-10148
▁ships	-10149
▁biggest	-10150
▁patient	-10151
▁suspect	-10152
▁distribut	-10153
▁ourselves	-10154
▁Ox	-10155
neem	-10156
▁bol	-10157
▁vloe	-10158
▁stands	-10159
▁Everything	-10160
体的	-10161
怎么样	-10162
mine	-10163
▁Doc	-10164
最大	-10165
bits	-10166
pjes	-10167
vader	-10168
▁pistool	-10169
通常	-10170
ifer	-10171
omes	-10172
ashing	-10173
▁Greek	-10174
▁stayed	-10175
▁successful	-10176
▁es	-10177
▁Hmm	-10178
▁dode	-10179
▁toege	-10180
▁Indones	-10181
▁bedoeling	-10182
▁7,	-10183
athers	-10184
adenken	-10185
▁Moeder	-10186
▁先	-10187
也会	-10188
▁AL	-10189
ruis	-10190
sorry	-10191
▁2001	-10192
▁bike	-10193
arring	-10194
ementen	-10195
▁toestemming	-10196
支持	-10197
有了	-10198
除了	-10199
▁thy	-10200
▁Nina	-10201
▁sloeg	-10202
▁vaste	-10203
▁voorsp	-10204
▁Vroeger	-10205
▁directly	-10206
医院	-10207
opend	-10208
▁stab	-10209
making	-10210
▁throat	-10211
▁demonstr	-10212
▁①	-10213
嘴巴	-10214
ials	-10215
▁Goos	-10216
ipping	-10217
▁borst	-10218
itation	-10219
▁孩	-10220
ussy	-10221
▁Arm	-10222
▁Lab	-10223
▁kip	-10224
innie	-10225
▁geschikt	-10226
▁marriage	-10227
zw	-10228
fall	-10229
ional	-10230
▁honor	-10231
▁knowledge	-10232
天气	-10233
iat	-10234
ivel	-10235
uurlijk	-10236
▁bereid	-10237
▁eieren	-10238
▁string	-10239
▁bezorgd	-10240
▁onderwijs	-10241
实力	-10242
时代	-10243
萝卜	-10244
适合	-10245
所有的	-10246
note	-10247
pill	-10248
aning	-10249
could	-10250
▁legt	-10251
▁Sport	-10252
▁ideas	-10253
▁border	-10254
vironment	-10255
stem	-10256
stood	-10257
▁2007	-10258
▁flew	-10259
▁Annie	-10260
machine	-10261
▁highest	-10262
▁appearance	-10263
onse	-10264
▁refle	-10265
▁milieu	-10266
一块	-10267
稳定	-10268
ampen	-10269
▁Clemens	-10270
46	-10271
zan	-10272
▁Bull	-10273
▁steel	-10274
▁waited	-10275
他说	-10276
幸福	-10277
anus	-10278
leed	-10279
▁Sea	-10280
▁Wist	-10281
ispers	-10282
▁Danny	-10283
▁Lieve	-10284
▁Bonnet	-10285
▁opeens	-10286
▁Academy	-10287
▁reclame	-10288
▁Koninkrijk	-10289
opl	-10290
isie	-10291
park	-10292
▁crowd	-10293
▁waste	-10294
▁greatest	-10295
500	-10296
uif	-10297
▁Voel	-10298
▁polic	-10299
▁recover	-10300
▁comfortable	-10301
打开	-10302
peror	-10303
plane	-10304
▁bezit	-10305
▁robot	-10306
▁totale	-10307
▁hierbij	-10308
▁continue	-10309
▁presentatie	-10310
正常	-10311
bin	-10312
rows	-10313
▁Rot	-10314
▁ronde	-10315
▁narrow	-10316
▁complex	-10317
▁neighbor	-10318
sure	-10319
▁Soph	-10320
▁gevo	-10321
▁Lincoln	-10322
吃饭	-10323
bury	-10324
▁Gre	-10325
▁stok	-10326
leving	-10327
▁decide	-10328
▁Early	-10329
▁Jawel	-10330
▁schoot	-10331
生态	-10332
oond	-10333
▁mission	-10334
▁quietly	-10335
▁AT	-10336
▁Eh	-10337
▁是呀	-10338
▁1970	-10339
▁Noor	-10340
▁barn	-10341
▁taxi	-10342
▁Philip	-10343
▁champion	-10344
▁eenvoudig	-10345
价格	-10346
aign	-10347
▁noemde	-10348
▁zakken	-10349
▁soldaat	-10350
uo	-10351
▁呃	-10352
Chi	-10353
▁NO	-10354
▁Tri	-10355
▁Fair	-10356
▁Fire	-10357
▁hunt	-10358
▁bless	-10359
▁eindproduct	-10360
ls	-10361
管理	-10362
▁boats	-10363
gelijke	-10364
叶子	-10365
cha	-10366
▁sits	-10367
▁smiled	-10368
▁belasting	-10369
成绩	-10370
▁hek	-10371
▁kra	-10372
▁toon	-10373
▁champ	-10374
▁duizend	-10375
▁Napoleon	-10376
▁ervaring	-10377
一片	-10378
伙伴	-10379
把它	-10380
▁dyn	-10381
▁taart	-10382
▁laatst	-10383
terusten	-10384
▁younger	-10385
él	-10386
▁Caes	-10387
▁Form	-10388
▁jury	-10389
illiant	-10390
▁disease	-10391
xide	-10392
▁evil	-10393
filler	-10394
▁Although	-10395
遇到	-10396
atty	-10397
▁uren	-10398
▁roepen	-10399
▁wheels	-10400
▁zaterdag	-10401
▁Tre	-10402
brary	-10403
▁bark	-10404
▁easier	-10405
▁beoordeling	-10406
▁particularly	-10407
,-	-10408
简单	-10409
答案为	-10410
▁nurse	-10411
▁winst	-10412
▁eleven	-10413
▁possibly	-10414
▁onmiddellijk	-10415
▁yyy	-10416
▁male	-10417
▁misl	-10418
▁rapp	-10419
▁crash	-10420
▁leerling	-10421
▁老	-10422
小兔	-10423
ali	-10424
▁苹果	-10425
cend	-10426
▁Praat	-10427
▁woestijn	-10428
坚持	-10429
ami	-10430
wiss	-10431
genaam	-10432
▁astron	-10433
▁wedding	-10434
的那个	-10435
mend	-10436
▁favour	-10437
▁¶	-10438
▁②	-10439
的好	-10440
颈鹿	-10441
ohn	-10442
▁Lo	-10443
▁Ta	-10444
▁bem	-10445
▁hug	-10446
▁dipl	-10447
▁zweer	-10448
▁papers	-10449
▁willing	-10450
▁onschuld	-10451
load	-10452
▁Det	-10453
▁Est	-10454
▁sav	-10455
▁Sara	-10456
▁Ireland	-10457
▁decision	-10458
了个	-10459
翅膀	-10460
Hij	-10461
▁你也	-10462
▁nag	-10463
▁butt	-10464
▁rope	-10465
▁centrum	-10466
▁Charlotte	-10467
▁Voorzichtig	-10468
▁Es	-10469
punten	-10470
▁society	-10471
▁voorzien	-10472
更加	-10473
▁purs	-10474
▁marry	-10475
▁memory	-10476
▁whispered	-10477
▁nauwelijks	-10478
她们	-10479
elder	-10480
▁forced	-10481
▁express	-10482
民族	-10483
▁JE	-10484
ekker	-10485
▁scen	-10486
oelang	-10487
▁Krijg	-10488
▁nerve	-10489
▁steken	-10490
给他	-10491
资源	-10492
uhuh	-10493
▁Jord	-10494
▁grij	-10495
esteit	-10496
▁Famil	-10497
▁keeps	-10498
▁shell	-10499
▁tonen	-10500
▁towel	-10501
▁desert	-10502
▁produc	-10503
▁anxious	-10504
▁jongetje	-10505
31	-10506
uim	-10507
▁Ob	-10508
美丽的	-10509
oned	-10510
▁nep	-10511
▁lijk	-10512
▁Klopt	-10513
▁drama	-10514
▁retired	-10515
▁explained	-10516
在这	-10517
春天	-10518
▁Has	-10519
▁kaas	-10520
▁volt	-10521
▁breed	-10522
▁cabin	-10523
▁claim	-10524
▁reply	-10525
▁Pakistan	-10526
gro	-10527
igan	-10528
▁Bab	-10529
▁Sid	-10530
Where	-10531
atory	-10532
green	-10533
▁Andere	-10534
▁mechan	-10535
▁betreft	-10536
▁duizenden	-10537
▁看看	-10538
▁heu	-10539
▁Empire	-10540
▁establ	-10541
▁schild	-10542
▁mentioned	-10543
▁organisatie	-10544
kop	-10545
▁Karel	-10546
▁vingers	-10547
▁shopping	-10548
OTH	-10549
reis	-10550
▁stri	-10551
▁eaten	-10552
▁central	-10553
▁schreeuw	-10554
▁suc	-10555
acher	-10556
▁avont	-10557
▁ninety	-10558
▁helping	-10559
▁economische	-10560
ELL	-10561
▁Secret	-10562
▁kranten	-10563
▁services	-10564
eral	-10565
▁好不好	-10566
▁conv	-10567
▁nachts	-10568
▁Virginia	-10569
▁somewhat	-10570
球队	-10571
Ste	-10572
oogd	-10573
▁opw	-10574
▁arts	-10575
imeter	-10576
▁Absol	-10577
▁donder	-10578
▁gestopt	-10579
▁inspect	-10580
▁District	-10581
▁bringing	-10582
▁frightened	-10583
离开	-10584
▁horn	-10585
▁wine	-10586
▁Young	-10587
▁nucle	-10588
一声	-10589
的那	-10590
轻轻	-10591
▁mud	-10592
▁reck	-10593
aliteit	-10594
▁0.	-10595
ques	-10596
▁Staat	-10597
▁chest	-10598
▁smaak	-10599
▁betekenen	-10600
大小	-10601
随着	-10602
icate	-10603
▁Vrij	-10604
▁Margar	-10605
▁forces	-10606
▁besloot	-10607
▁eenmaal	-10608
▁studied	-10609
▁overeenk	-10610
try	-10611
▁git	-10612
▁Bijna	-10613
erschap	-10614
▁signaal	-10615
山羊	-10616
nods	-10617
▁Daardoor	-10618
▁verdeeld	-10619
OP	-10620
树上	-10621
aide	-10622
▁Att	-10623
zaken	-10624
ential	-10625
▁writer	-10626
▁Western	-10627
▁fabriek	-10628
▁seizoen	-10629
ée	-10630
▁根据	-10631
▁illustr	-10632
▁favoriete	-10633
auze	-10634
itzer	-10635
reeks	-10636
▁muis	-10637
hib	-10638
▁gay	-10639
▁kalm	-10640
▁tips	-10641
▁prove	-10642
▁compos	-10643
▁rekenen	-10644
▁手	-10645
思想	-10646
vak	-10647
slant	-10648
▁slaven	-10649
▁verander	-10650
Eur	-10651
▁(6	-10652
Unie	-10653
▁sum	-10654
▁pages	-10655
▁invest	-10656
▁Terugkijken	-10657
自由	-10658
qslant	-10659
▁balls	-10660
▁prefer	-10661
因素	-10662
完成	-10663
满了	-10664
▁eth	-10665
SISTER	-10666
deling	-10667
▁Taylor	-10668
▁Berlijn	-10669
wek	-10670
year	-10671
▁fab	-10672
▁bisc	-10673
▁koel	-10674
▁Feder	-10675
▁harde	-10676
▁Patrick	-10677
▁verlies	-10678
他就	-10679
基因	-10680
,$$	-10681
▁Cy	-10682
▁一下	-10683
edige	-10684
▁dert	-10685
▁flag	-10686
▁bunny	-10687
▁regio	-10688
▁rijke	-10689
▁vocal	-10690
▁Israël	-10691
▁zolang	-10692
▁Indians	-10693
▁players	-10694
▁windows	-10695
▁geboorte	-10696
▁intellig	-10697
asse	-10698
▁Div	-10699
oging	-10700
▁Nice	-10701
▁doin	-10702
ballen	-10703
▁fought	-10704
▁westen	-10705
――	-10706
简直	-10707
▁oven	-10708
▁Dummie	-10709
▁altern	-10710
▁betaalt	-10711
国的	-10712
▁2002	-10713
▁bomb	-10714
genheid	-10715
uitenant	-10716
▁incident	-10717
已知	-10718
▁Kunt	-10719
▁soep	-10720
uments	-10721
▁depen	-10722
▁beauty	-10723
▁available	-10724
▁beschrijven	-10725
"?	-10726
▁Lew	-10727
▁nut	-10728
ersen	-10729
holds	-10730
usion	-10731
▁verbl	-10732
▁tractor	-10733
特点	-10734
▁喜欢	-10735
▁有没有	-10736
logen	-10737
▁belde	-10738
stappen	-10739
▁circum	-10740
▁Beantwoord	-10741
正确的	-10742
▁Princ	-10743
▁judge	-10744
▁elected	-10745
▁kenmerken	-10746
▁Goedenavond	-10747
Sh	-10748
yo	-10749
zondere	-10750
▁zondag	-10751
前面	-10752
电视剧	-10753
iley	-10754
itief	-10755
▁Ryan	-10756
▁provin	-10757
母亲	-10758
▁Bell	-10759
▁schol	-10760
▁Monday	-10761
strijden	-10762
EG	-10763
宝贝	-10764
▁klok	-10765
yellow	-10766
▁credit	-10767
▁silent	-10768
▁element	-10769
▁rechten	-10770
▁oppervlakte	-10771
句话	-10772
桌子	-10773
长得	-10774
beg	-10775
▁pra	-10776
▁tum	-10777
▁Hann	-10778
▁draag	-10779
▁goden	-10780
▁oorzaak	-10781
▁related	-10782
▁FOR	-10783
▁pijl	-10784
▁Ongel	-10785
▁haalde	-10786
cho	-10787
gere	-10788
▁Hend	-10789
▁Grace	-10790
▁chips	-10791
▁sixty	-10792
▁veront	-10793
▁nap	-10794
▁Bird	-10795
▁teveel	-10796
middelen	-10797
▁verslaan	-10798
函数	-10799
ekra	-10800
ijns	-10801
rijft	-10802
▁myth	-10803
idding	-10804
▁Prime	-10805
▁Video	-10806
▁prett	-10807
▁safety	-10808
▁Olympics	-10809
▁geregeld	-10810
▁powerful	-10811
ules	-10812
broek	-10813
▁stir	-10814
eerden	-10815
icking	-10816
▁Oliver	-10817
▁verrassing	-10818
aws	-10819
▁Pac	-10820
ollen	-10821
ungle	-10822
▁Girl	-10823
centrum	-10824
▁beiden	-10825
▁paleis	-10826
aterpill	-10827
只小	-10828
ION	-10829
aya	-10830
▁zil	-10831
ansas	-10832
place	-10833
icient	-10834
▁split	-10835
▁bathroom	-10836
▁geslacht	-10837
▁werkblad	-10838
▁EU	-10839
svorm	-10840
▁Back	-10841
▁Pius	-10842
actually	-10843
▁afterwards	-10844
Als	-10845
osh	-10846
}}$$	-10847
▁koe	-10848
olpen	-10849
▁Rachel	-10850
osc	-10851
asie	-10852
▁Stad	-10853
▁saus	-10854
aseerd	-10855
▁Robin	-10856
▁IX	-10857
▁自己	-10858
▁phil	-10859
▁decor	-10860
▁larger	-10861
面前	-10862
cod	-10863
▁von	-10864
etched	-10865
▁perfectly	-10866
全部	-10867
▁8.	-10868
oria	-10869
▁las	-10870
▁material	-10871
fa	-10872
▁太	-10873
如此	-10874
工具	-10875
ifth	-10876
▁klap	-10877
▁Soviet	-10878
▁nursery	-10879
建设	-10880
▁Di	-10881
happy	-10882
▁Ball	-10883
▁average	-10884
▁verkoop	-10885
▁repeated	-10886
每个	-10887
小白兔	-10888
▁debut	-10889
▁Vanavond	-10890
▁fragment	-10891
▁Something	-10892
▁directeur	-10893
FAD	-10894
▁ven	-10895
▁combin	-10896
▁infect	-10897
riciteit	-10898
lim	-10899
▁hog	-10900
▁Raad	-10901
▁serve	-10902
▁miljoenen	-10903
adel	-10904
eeper	-10905
▁Fant	-10906
▁Vaak	-10907
▁sees	-10908
▁vote	-10909
urende	-10910
▁shook	-10911
▁fairly	-10912
▁native	-10913
▁hurried	-10914
▁conflict	-10915
▁northern	-10916
▁vannacht	-10917
▁185	-10918
▁furn	-10919
▁theory	-10920
▁hiermee	-10921
▁begraven	-10922
▁remarked	-10923
▁schilderij	-10924
▁tegenstand	-10925
▁samenleving	-10926
ju	-10927
看来	-10928
May	-10929
ouver	-10930
▁cloth	-10931
waardig	-10932
▁vluchten	-10933
想要	-10934
▁dim	-10935
▁Unie	-10936
▁bump	-10937
▁screen	-10938
▁includes	-10939
ients	-10940
▁smer	-10941
▁crisis	-10942
▁reacties	-10943
的事情	-10944
▁damn	-10945
▁keus	-10946
▁African	-10947
▁Vietnam	-10948
▁release	-10949
▁nineteen	-10950
▁described	-10951
sa	-10952
▁pony	-10953
reaten	-10954
▁castle	-10955
▁点	-10956
▁球	-10957
给了	-10958
eegt	-10959
▁McC	-10960
▁Stone	-10961
sluiten	-10962
▁matters	-10963
▁vergelijking	-10964
▁150	-10965
▁nic	-10966
▁Gall	-10967
▁mast	-10968
▁wiss	-10969
▁Start	-10970
▁upset	-10971
▁gebleven	-10972
代表	-10973
满足	-10974
▁Bol	-10975
▁grab	-10976
▁advies	-10977
▁cancer	-10978
▁signed	-10979
▁culture	-10980
▁getekend	-10981
▁∴	-10982
arf	-10983
▁Fer	-10984
maker	-10985
▁Israel	-10986
▁bekeken	-10987
▁content	-10988
▁interesse	-10989
▁studenten	-10990
形状	-10991
还在	-10992
zed	-10993
▁Fox	-10994
etsen	-10995
▁Book	-10996
acters	-10997
▁Oorlog	-10998
▁finale	-10999
▁manage	-11000
▁thrown	-11001
▁vierde	-11002
▁glasses	-11003
▁gedragen	-11004
Of	-11005
▁ocean	-11006
▁active	-11007
▁nadenken	-11008
▁instrument	-11009
的比赛	-11010
▁cha	-11011
hoofd	-11012
fortun	-11013
wereld	-11014
silence	-11015
▁daarin	-11016
▁hanging	-11017
▁verloor	-11018
实际	-11019
▁maal	-11020
▁opens	-11021
▁zwanger	-11022
并不	-11023
银行	-11024
IED	-11025
eat	-11026
clud	-11027
plaatsen	-11028
▁Perfect	-11029
▁presence	-11030
去看	-11031
父母	-11032
都要	-11033
aved	-11034
▁Naast	-11035
▁bitch	-11036
▁computers	-11037
▁verdwijnen	-11038
39	-11039
▁bug	-11040
ronken	-11041
▁virus	-11042
▁fietsen	-11043
pat	-11044
▁Prov	-11045
▁bied	-11046
▁peas	-11047
▁lacht	-11048
▁heette	-11049
▁blanket	-11050
▁Francisco	-11051
1]	-11052
实在	-11053
▁LA	-11054
▁script	-11055
▁smiling	-11056
▁ontslagen	-11057
▁behoorlijk	-11058
体现	-11059
结束	-11060
▁Lim	-11061
▁Vla	-11062
▁Alan	-11063
▁Kelly	-11064
▁Freder	-11065
▁bestond	-11066
▁Innocent	-11067
Who	-11068
▁boo	-11069
▁vocht	-11070
▁lessen	-11071
▁southern	-11072
昨天	-11073
那你	-11074
DER	-11075
aria	-11076
uile	-11077
▁Both	-11078
▁Weer	-11079
▁Britain	-11080
▁geholpen	-11081
娃娃	-11082
▁48	-11083
▁你们	-11084
iloft	-11085
iënten	-11086
▁Jason	-11087
▁lijden	-11088
formatie	-11089
▁moderne	-11090
全球	-11091
road	-11092
▁anti	-11093
reedom	-11094
▁vasth	-11095
吃了	-11096
200	-11097
▁caf	-11098
▁puppy	-11099
▁satell	-11100
他在	-11101
更多	-11102
解决	-11103
▁Ni	-11104
▁Cass	-11105
▁Sally	-11106
▁zette	-11107
▁Spaanse	-11108
▁gebouwen	-11109
▁uitspraak	-11110
呼吸	-11111
▁openen	-11112
▁Dorothy	-11113
▁knowing	-11114
▁vertrek	-11115
▁becoming	-11116
cu	-11117
▁像	-11118
不住	-11119
都很	-11120
▁8,	-11121
▁Bow	-11122
▁gym	-11123
alled	-11124
oorde	-11125
▁Iran	-11126
action	-11127
▁privé	-11128
▁Ka	-11129
▁sne	-11130
▁Inde	-11131
▁reken	-11132
▁relationship	-11133
vuld	-11134
▁neef	-11135
▁fancy	-11136
▁kinda	-11137
▁Caesar	-11138
▁verbet	-11139
▁painting	-11140
心的	-11141
urb	-11142
yup	-11143
▁1960	-11144
▁bran	-11145
▁cash	-11146
▁Trouw	-11147
▁rooms	-11148
▁sterft	-11149
▁hearing	-11150
▁constant	-11151
▁洗	-11152
▁SP	-11153
Good	-11154
onge	-11155
▁zoo	-11156
IDENT	-11157
daddy	-11158
istic	-11159
antage	-11160
▁adopt	-11161
▁Buiten	-11162
▁effects	-11163
▁greater	-11164
▁hierdoor	-11165
▁properly	-11166
大声	-11167
▁inn	-11168
▁ambulance	-11169
▁parlement	-11170
▁bijzondere	-11171
▁为	-11172
▁Off	-11173
fenis	-11174
bruari	-11175
▁initi	-11176
▁zonne	-11177
▁Argent	-11178
▁Museum	-11179
▁afford	-11180
▁Univers	-11181
▁boerderij	-11182
▁concerned	-11183
▁resultaat	-11184
▁persoonlijke	-11185
On	-11186
单位	-11187
cat	-11188
opa	-11189
▁2003	-11190
▁hook	-11191
▁feels	-11192
▁inspir	-11193
▁schaal	-11194
▁vessel	-11195
▁administr	-11196
▁gentlemen	-11197
yi	-11198
蜜蜂	-11199
▁飞机	-11200
▁Fro	-11201
▁Pink	-11202
moeder	-11203
冬天	-11204
gde	-11205
▁knop	-11206
▁Eleanor	-11207
▁definitely	-11208
.(	-11209
是我	-11210
voc	-11211
IGHT	-11212
▁avo	-11213
arken	-11214
ikbaar	-11215
木头	-11216
Dan	-11217
、$$	-11218
feer	-11219
icus	-11220
▁verandering	-11221
óór	-11222
▁forms	-11223
▁detail	-11224
▁fouten	-11225
▁zuster	-11226
▁pressure	-11227
▁remembered	-11228
ario	-11229
▁dub	-11230
estal	-11231
▁novel	-11232
▁spect	-11233
▁Instit	-11234
▁Midden	-11235
▁pencil	-11236
▁Alright	-11237
EM	-11238
休息	-11239
处理	-11240
报道	-11241
chen	-11242
▁erf	-11243
▁Each	-11244
▁fasc	-11245
▁value	-11246
▁voert	-11247
▁Awards	-11248
▁versie	-11249
▁opzicht	-11250
▁februari	-11251
gn	-11252
气体	-11253
ser	-11254
▁Next	-11255
▁Oekra	-11256
▁colour	-11257
▁objects	-11258
▁property	-11259
▁lu	-11260
▁aap	-11261
▁Rand	-11262
▁brut	-11263
▁Russia	-11264
▁jammer	-11265
▁oosten	-11266
▁industri	-11267
▁krachten	-11268
"]	-11269
制作	-11270
pak	-11271
rub	-11272
umper	-11273
pakken	-11274
▁planet	-11275
▁pushed	-11276
▁troops	-11277
rr	-11278
▁一个	-11279
▁Mij	-11280
▁Sub	-11281
▁Char	-11282
▁cand	-11283
▁cute	-11284
▁rank	-11285
▁fence	-11286
atherine	-11287
▁vrijdag	-11288
▁aanvallen	-11289
auff	-11290
▁Pete	-11291
▁pump	-11292
vallig	-11293
就把	-11294
six	-11295
about	-11296
▁ingew	-11297
▁knocked	-11298
▁gevoelen	-11299
▁threaten	-11300
制度	-11301
mom	-11302
pie	-11303
wie	-11304
agan	-11305
▁Vin	-11306
▁akk	-11307
dagen	-11308
geving	-11309
▁passing	-11310
33	-11311
ault	-11312
▁Mun	-11313
▁Sint	-11314
iseren	-11315
▁Domin	-11316
▁jacht	-11317
▁mummy	-11318
▁Straks	-11319
▁riding	-11320
▁gewicht	-11321
▁response	-11322
不然	-11323
▁Gil	-11324
▁Beat	-11325
▁drawn	-11326
▁established	-11327
▁Kw	-11328
▁XI	-11329
的样子	-11330
merk	-11331
vrij	-11332
▁10,	-11333
▁Ari	-11334
▁Ill	-11335
▁Sab	-11336
▁talks	-11337
▁signific	-11338
zijd	-11339
▁Aye	-11340
▁Int	-11341
▁cats	-11342
▁fond	-11343
▁Howard	-11344
▁Spelen	-11345
▁latter	-11346
▁appreci	-11347
▁komende	-11348
▁opstand	-11349
羽毛	-11350
mol	-11351
▁bast	-11352
▁telt	-11353
▁wished	-11354
▁western	-11355
▁gevoelens	-11356
UG	-11357
▁哈	-11358
▁yi	-11359
atoes	-11360
imate	-11361
erences	-11362
▁Ak	-11363
▁Lor	-11364
ergie	-11365
▁toep	-11366
▁wort	-11367
▁kopje	-11368
▁Wilson	-11369
▁opinion	-11370
元素	-11371
能量	-11372
oeft	-11373
umps	-11374
▁Recht	-11375
▁knees	-11376
▁continu	-11377
▁opnemen	-11378
▁bedanken	-11379
▁expression	-11380
疫情	-11381
sung	-11382
▁Ever	-11383
▁Team	-11384
▁dying	-11385
▁leraar	-11386
▁touched	-11387
▁campaign	-11388
▁oorspronk	-11389
po	-11390
灰狼	-11391
rale	-11392
▁pic	-11393
▁Stra	-11394
morrow	-11395
人员	-11396
小猴	-11397
bro	-11398
▁copy	-11399
▁defend	-11400
onderden	-11401
▁Duitsers	-11402
▁progress	-11403
▁Eindopdracht	-11404
▁planning	-11405
▁Australian	-11406
▁beslissing	-11407
▁被	-11408
玻璃	-11409
pull	-11410
▁Wales	-11411
▁wijze	-11412
▁lawyer	-11413
▁uitzen	-11414
▁thoughts	-11415
anced	-11416
irely	-11417
▁aardbe	-11418
▁zorgde	-11419
▁bruiloft	-11420
era	-11421
▁我也	-11422
appe	-11423
▁Ford	-11424
▁goal	-11425
▁Court	-11426
▁lengte	-11427
▁formula	-11428
▁verschrikkelijk	-11429
ulous	-11430
▁mile	-11431
ctions	-11432
▁2020,	-11433
▁microphone	-11434
组织	-11435
ocks	-11436
▁Road	-11437
▁acting	-11438
▁ballen	-11439
sluiting	-11440
▁previous	-11441
▁zelfmoord	-11442
Ar	-11443
面上	-11444
mijn	-11445
igned	-11446
tocht	-11447
▁disg	-11448
▁symp	-11449
▁Polly	-11450
▁burst	-11451
▁massa	-11452
▁Purdie	-11453
▁reported	-11454
题目	-11455
ras	-11456
▁75	-11457
运动员	-11458
▁Liz	-11459
▁clearly	-11460
▁ontstond	-11461
▁verbonden	-11462
alty	-11463
▁hap	-11464
▁Mars	-11465
▁Slecht	-11466
▁platform	-11467
▁等	-11468
,$$\	-11469
▁10.	-11470
▁Ref	-11471
outen	-11472
▁Hind	-11473
▁dief	-11474
▁fans	-11475
▁klass	-11476
▁staff	-11477
▁luistert	-11478
一阵	-11479
竟然	-11480
▁lux	-11481
▁meas	-11482
▁neat	-11483
▁weird	-11484
ategory	-11485
iteiten	-11486
voering	-11487
▁bedrag	-11488
▁farmer	-11489
▁excuses	-11490
su	-11491
▁试	-11492
▁Mid	-11493
▁tid	-11494
illes	-11495
▁vriendje	-11496
▁Eindelijk	-11497
▁Innocentius	-11498
nel	-11499
▁Bad	-11500
▁olif	-11501
▁whist	-11502
▁wings	-11503
▁Columb	-11504
▁kandid	-11505
▁Behalve	-11506
▁cooking	-11507
▁schijnt	-11508
▁officieel	-11509
42	-11510
BI	-11511
跟着	-11512
aska	-11513
sver	-11514
▁Hay	-11515
oever	-11516
▁drug	-11517
▁本题考查	-11518
▁fired	-11519
namelijk	-11520
▁washing	-11521
▁eilanden	-11522
不太	-11523
ulk	-11524
maak	-11525
amber	-11526
▁Wolf	-11527
▁gradu	-11528
berries	-11529
▁Griekse	-11530
正好	-11531
oots	-11532
▁coc	-11533
rance	-11534
▁nutt	-11535
▁thin	-11536
▁truc	-11537
▁Today	-11538
▁respond	-11539
▁verstand	-11540
不同的	-11541
▁(17	-11542
▁advan	-11543
▁exist	-11544
▁leerd	-11545
▁waaronder	-11546
电流	-11547
IET	-11548
law	-11549
▁Hu	-11550
场比赛	-11551
▁lijf	-11552
▁luid	-11553
▁eighty	-11554
▁feelings	-11555
▁throughout	-11556
Ze	-11557
awa	-11558
acks	-11559
stone	-11560
▁Fine	-11561
▁Snap	-11562
▁verdiep	-11563
FT	-11564
Hoe	-11565
动物们	-11566
kind	-11567
lies	-11568
▁Sou	-11569
arian	-11570
▁loon	-11571
▁vest	-11572
▁mixed	-11573
auffeur	-11574
▁werkwoord	-11575
我说	-11576
▁[$	-11577
sers	-11578
▁Isn	-11579
aloers	-11580
▁boots	-11581
ishment	-11582
▁failed	-11583
他是	-11584
在水	-11585
dle	-11586
▁flo	-11587
▁Buck	-11588
▁streng	-11589
▁consequ	-11590
▁premier	-11591
▁geslagen	-11592
▁companion	-11593
▁schoonheid	-11594
▁Welterusten	-11595
▁Jeugdjournaal	-11596
Mama	-11597
▁Hug	-11598
rence	-11599
▁...-	-11600
▁Zodra	-11601
▁volume	-11602
▁aandoen	-11603
▁belachelijk	-11604
▁行	-11605
走到	-11606
▁Av	-11607
ieus	-11608
▁Deb	-11609
▁qual	-11610
▁Portugal	-11611
▁bedoelde	-11612
▁overleef	-11613
▁aangegeven	-11614
▁controleren	-11615
VD	-11616
tan	-11617
▁那你	-11618
llen	-11619
ishop	-11620
▁Eens	-11621
▁trav	-11622
▁fully	-11623
▁warme	-11624
▁shoulders	-11625
用于	-11626
-16	-11627
▁中国	-11628
▁Lot	-11629
▁entirely	-11630
▁environment	-11631
掉了	-11632
omdat	-11633
▁boun	-11634
▁nerv	-11635
▁slee	-11636
▁Voordat	-11637
▁meedoen	-11638
▁soldier	-11639
▁vermogen	-11640
▁characters	-11641
uan	-11642
aagt	-11643
anton	-11644
ianen	-11645
▁Whoa	-11646
▁pant	-11647
▁Nadat	-11648
▁hopen	-11649
middels	-11650
▁konijn	-11651
▁algemeen	-11652
▁张	-11653
KEN	-11654
etta	-11655
from	-11656
obal	-11657
▁neut	-11658
indingen	-11659
▁UN	-11660
▁XX	-11661
ollo	-11662
rans	-11663
▁[1.	-11664
▁heks	-11665
▁mart	-11666
▁ghost	-11667
▁ordin	-11668
▁Louise	-11669
▁buried	-11670
▁softly	-11671
▁episode	-11672
▁genaamd	-11673
▁Scotland	-11674
▁gestorven	-11675
时期	-11676
ijp	-11677
▁Ale	-11678
olven	-11679
▁Leven	-11680
▁friendly	-11681
▁③	-11682
▁花	-11683
▁promot	-11684
▁instant	-11685
▁verslagen	-11686
DEN	-11687
leur	-11688
▁veh	-11689
▁toes	-11690
orence	-11691
▁马	-11692
uwd	-11693
的时间	-11694
onne	-11695
oopp	-11696
resp	-11697
soft	-11698
▁Syd	-11699
really	-11700
▁hypot	-11701
▁gehoor	-11702
▁geïnter	-11703
▁bespreken	-11704
▁Mill	-11705
▁Tien	-11706
▁kilo	-11707
▁waves	-11708
ication	-11709
▁Oranje	-11710
▁vriendelijk	-11711
日子	-11712
hof	-11713
▁33	-11714
▁9.	-11715
alys	-11716
▁ends	-11717
▁Music	-11718
▁koken	-11719
▁aardapp	-11720
▁miljard	-11721
▁overtuigen	-11722
ERS	-11723
▁Osc	-11724
prijs	-11725
▁Make	-11726
▁Spring	-11727
▁realized	-11728
▁mogelijkheden	-11729
段时间	-11730
▁Mah	-11731
aarde	-11732
uiven	-11733
▁Haag	-11734
alking	-11735
▁Heren	-11736
▁Jimmie	-11737
▁confir	-11738
▁disappeared	-11739
可能是	-11740
▁rif	-11741
▁Five	-11742
▁realize	-11743
96	-11744
uzz	-11745
▁180	-11746
owing	-11747
boeken	-11748
▁labor	-11749
▁medicijnen	-11750
▁以	-11751
共同	-11752
期待	-11753
演的	-11754
apes	-11755
rechten	-11756
▁reasons	-11757
▁activity	-11758
一年	-11759
▁gig	-11760
uther	-11761
▁Liber	-11762
▁excit	-11763
▁Jammer	-11764
▁bitter	-11765
▁transl	-11766
▁magazine	-11767
▁otherwise	-11768
别的	-11769
}}^	-11770
▁NE	-11771
很喜欢	-11772
umin	-11773
▁aanr	-11774
▁sher	-11775
▁yards	-11776
▁winnaar	-11777
▁reageren	-11778
▁Bond	-11779
▁Grant	-11780
▁Joost	-11781
▁lenen	-11782
▁ontbijt	-11783
▁Governor	-11784
好看	-11785
aki	-11786
avi	-11787
▁Larry	-11788
▁advis	-11789
▁horiz	-11790
volutie	-11791
▁mirror	-11792
▁poster	-11793
▁Canadian	-11794
_.	-11795
sdag	-11796
aland	-11797
cties	-11798
▁bene	-11799
▁yard	-11800
ertijd	-11801
ilities	-11802
▁pointed	-11803
▁spiegel	-11804
▁security	-11805
iance	-11806
▁mode	-11807
huizen	-11808
▁policy	-11809
OL	-11810
一刻	-11811
天天	-11812
就能	-11813
本来	-11814
的水	-11815
case	-11816
▁Chr	-11817
▁Guy	-11818
▁dod	-11819
iland	-11820
uries	-11821
▁Hebt	-11822
▁Jenny	-11823
▁troepen	-11824
▁observed	-11825
▁Olympische	-11826
笑着	-11827
bang	-11828
▁vel	-11829
heast	-11830
▁geur	-11831
▁leaf	-11832
▁Clark	-11833
▁handig	-11834
▁sposta	-11835
▁elektriciteit	-11836
我在	-11837
▁Tar	-11838
▁trick	-11839
▁leefde	-11840
geslagen	-11841
▁出	-11842
▁fairy	-11843
IDENTIF	-11844
▁Altijd	-11845
▁broers	-11846
▁wondering	-11847
▁Waarschijnlijk	-11848
学会	-11849
是谁	-11850
脑袋	-11851
面包	-11852
▁BC	-11853
▁Po	-11854
shirt	-11855
▁Roos	-11856
▁tied	-11857
▁Latin	-11858
▁inhab	-11859
▁fishing	-11860
▁rivieren	-11861
▁verwachten	-11862
-7	-11863
▁还是	-11864
▁Ali	-11865
▁Thor	-11866
▁Town	-11867
▁Irish	-11868
▁Nancy	-11869
▁pakte	-11870
改革	-11871
早上	-11872
大家都	-11873
▁dolly	-11874
▁bevest	-11875
▁waters	-11876
IDENTIFIED	-11877
▁production	-11878
zit	-11879
▁1:	-11880
text	-11881
entuin	-11882
▁Cathol	-11883
▁Kleine	-11884
▁netjes	-11885
▁signal	-11886
▁witness	-11887
▁geheugen	-11888
▁understood	-11889
anie	-11890
genda	-11891
▁Loop	-11892
▁task	-11893
▁ontpl	-11894
▁beslissen	-11895
▁Mem	-11896
▁liqu	-11897
▁schil	-11898
▁paying	-11899
▁review	-11900
▁figures	-11901
▁specific	-11902
▁gemiddeld	-11903
UNIDENTIFIED	-11904
严重	-11905
听见	-11906
isje	-11907
▁Rond	-11908
▁beast	-11909
▁tummy	-11910
▁execut	-11911
▁makkelijker	-11912
性的	-11913
tot	-11914
▁joke	-11915
▁mort	-11916
▁killing	-11917
▁normale	-11918
十一	-11919
说是	-11920
▁Maakt	-11921
▁Think	-11922
▁queen	-11923
▁roken	-11924
▁sigar	-11925
▁bedenk	-11926
▁ontwerp	-11927
▁Williams	-11928
;"	-11929
Le	-11930
▁afgele	-11931
▁stones	-11932
▁constit	-11933
▁medical	-11934
▁perfecte	-11935
▁buildings	-11936
▁。	-11937
▁画	-11938
是指	-11939
gek	-11940
mene	-11941
▁187	-11942
▁Gods	-11943
preten	-11944
▁digit	-11945
▁extrem	-11946
▁verhuis	-11947
▁gebaseerd	-11948
国内	-11949
明天	-11950
考虑	-11951
▁Pep	-11952
▁lekk	-11953
blazen	-11954
▁feder	-11955
▁march	-11956
▁symbol	-11957
▁determined	-11958
inst	-11959
olie	-11960
▁tor	-11961
after	-11962
icket	-11963
▁knul	-11964
▁damage	-11965
▁sports	-11966
▁forever	-11967
▁pointing	-11968
不用	-11969
UST	-11970
怎么办	-11971
▁poort	-11972
geschoten	-11973
▁afscheid	-11974
PS	-11975
去找	-11976
▁HAV	-11977
▁gira	-11978
▁pulls	-11979
▁bieden	-11980
▁开	-11981
第一次	-11982
aily	-11983
osen	-11984
▁Ext	-11985
▁Shut	-11986
▁gliml	-11987
▁cadeau	-11988
▁darkness	-11989
▁opgericht	-11990
光的	-11991
哪儿	-11992
▁homo	-11993
▁verf	-11994
iggles	-11995
▁Lewis	-11996
▁Teddy	-11997
▁rende	-11998
Amerika	-11999
▁vervol	-12000
▁minstens	-12001
aterpillar	-12002
▁influence	-12003
xi	-12004
一位	-12005
本题	-12006
计算	-12007
那样	-12008
rob	-12009
的生活	-12010
▁Stu	-12011
▁Chine	-12012
▁Light	-12013
▁Polen	-12014
▁owned	-12015
▁advice	-12016
▁oefeningen	-12017
压力	-12018
▁sym	-12019
▁sink	-12020
▁wijk	-12021
▁Hopelijk	-12022
▁beroemde	-12023
▁particip	-12024
▁individual	-12025
ekt	-12026
▁Vor	-12027
erden	-12028
▁heav	-12029
▁migr	-12030
▁jagen	-12031
▁Komaan	-12032
BS	-12033
森林里	-12034
wers	-12035
zakken	-12036
数的	-12037
说完	-12038
▁tij	-12039
符合题意	-12040
igger	-12041
▁Diana	-12042
▁gezocht	-12043
▁journalist	-12044
▁弄	-12045
真正	-12046
之间的	-12047
▁pup	-12048
▁sam	-12049
▁reed	-12050
▁volle	-12051
▁overzicht	-12052
▁verplicht	-12053
▁vertrokken	-12054
美元	-12055
▁9,	-12056
eleid	-12057
▁sexy	-12058
▁Goeie	-12059
▁Weten	-12060
▁bunch	-12061
▁drove	-12062
▁vloer	-12063
▁wagon	-12064
▁desper	-12065
▁module	-12066
▁Florence	-12067
▁Victoria	-12068
▁brilliant	-12069
政治	-12070
cow	-12071
zaal	-12072
▁lol	-12073
▁vies	-12074
arcely	-12075
▁lager	-12076
▁geleid	-12077
价值	-12078
only	-12079
zinnig	-12080
▁afsch	-12081
▁getal	-12082
▁wraak	-12083
esseerd	-12084
stances	-12085
▁oudste	-12086
▁divided	-12087
▁carriage	-12088
▁eigenaar	-12089
▁menselijke	-12090
会有	-12091
kra	-12092
neur	-12093
▁Eva	-12094
▁prakt	-12095
regelen	-12096
▁aangeven	-12097
▁contribut	-12098
▁gezondheid	-12099
lu	-12100
不想	-12101
dence	-12102
▁naged	-12103
▁socks	-12104
▁degree	-12105
▁opeten	-12106
whispers	-12107
▁mochten	-12108
▁receive	-12109
的家	-12110
beh	-12111
omed	-12112
ziet	-12113
▁jam	-12114
undige	-12115
▁Check	-12116
▁currently	-12117
Did	-12118
fit	-12119
出来了	-12120
▁Sit	-12121
▁Pear	-12122
▁lies	-12123
▁teen	-12124
stikke	-12125
▁Watch	-12126
BROTHER	-12127
▁duurde	-12128
▁citizen	-12129
▁separate	-12130
▁Americans	-12131
whoa	-12132
▁drops	-12133
▁stamp	-12134
playing	-12135
▁gedicht	-12136
▁verster	-12137
▁Generaal	-12138
▁throwing	-12139
不多	-12140
悄悄	-12141
▁Ellen	-12142
ïnvloed	-12143
▁faster	-12144
▁gepakt	-12145
uz	-12146
▁男	-12147
▁BO	-12148
}}_2	-12149
uckles	-12150
▁crown	-12151
▁groei	-12152
▁kiest	-12153
▁shift	-12154
igingen	-12155
zettend	-12156
▁niveau	-12157
▁staats	-12158
▁performance	-12159
▁二	-12160
▁由	-12161
演员	-12162
还挺	-12163
-17	-12164
Die	-12165
voud	-12166
istry	-12167
▁Women	-12168
▁boxes	-12169
▁grave	-12170
▁accomp	-12171
▁useful	-12172
▁foreign	-12173
▁jaloers	-12174
▁kaartje	-12175
分享	-12176
post	-12177
▁(16	-12178
▁adres	-12179
▁rings	-12180
▁Nieuwe	-12181
▁Partij	-12182
▁revolutie	-12183
aai	-12184
volle	-12185
▁susp	-12186
▁wave	-12187
▁zocht	-12188
▁schatt	-12189
▁plaatjes	-12190
▁performed	-12191
OH	-12192
到底	-12193
并且	-12194
▁maj	-12195
anner	-12196
iking	-12197
▁Prot	-12198
▁slip	-12199
▁measure	-12200
▁pulling	-12201
件事	-12202
好吧	-12203
Ele	-12204
▁duw	-12205
achen	-12206
▁Walt	-12207
▁dump	-12208
▁lack	-12209
▁soup	-12210
erslag	-12211
▁Cross	-12212
▁kogel	-12213
▁mainly	-12214
▁staying	-12215
▁坐	-12216
小花	-12217
担心	-12218
点儿	-12219
电子	-12220
喜欢的	-12221
▁tro	-12222
eloze	-12223
genen	-12224
leden	-12225
▁wise	-12226
wekkend	-12227
▁vertegen	-12228
▁statistics	-12229
▁activiteiten	-12230
▁omstandigheden	-12231
小鸟	-12232
节目	-12233
漂亮的	-12234
▁rout	-12235
ikkeld	-12236
▁habit	-12237
vaardig	-12238
▁trains	-12239
▁Volgende	-12240
▁excitement	-12241
不停	-12242
可惜	-12243
▁FC	-12244
▁kg	-12245
otten	-12246
▁Becky	-12247
▁Peggy	-12248
▁faint	-12249
nothing	-12250
▁geopend	-12251
▁veranderde	-12252
▁gebeurtenissen	-12253
行业	-12254
har	-12255
aboo	-12256
▁coal	-12257
buiten	-12258
▁Beste	-12259
▁giant	-12260
▁holes	-12261
▁ruikt	-12262
▁Barbara	-12263
▁heilige	-12264
意义	-12265
omt	-12266
▁Us	-12267
▁[.	-12268
▁lon	-12269
neath	-12270
▁Duke	-12271
▁ther	-12272
▁Again	-12273
▁oblig	-12274
▁snoep	-12275
▁custom	-12276
▁absoluut	-12277
▁volledige	-12278
Er	-12279
合作	-12280
ffect	-12281
▁Vuur	-12282
vingen	-12283
▁minimaal	-12284
án	-12285
水的	-12286
相互	-12287
西瓜	-12288
▁这么	-12289
▁dies	-12290
▁access	-12291
▁branch	-12292
▁critic	-12293
▁paniek	-12294
▁resist	-12295
▁crayons	-12296
▁eenzaam	-12297
▁matches	-12298
▁Tegenwoordig	-12299
化学	-12300
ELS	-12301
cep	-12302
doek	-12303
▁ALL	-12304
▁Song	-12305
▁zanger	-12306
baarheid	-12307
▁gathered	-12308
不变	-12309
isher	-12310
teken	-12311
▁fier	-12312
atisch	-12313
vering	-12314
▁slept	-12315
▁patter	-12316
▁toevallig	-12317
了呢	-12318
▁34	-12319
aasd	-12320
▁Nobody	-12321
▁hidden	-12322
▁spannend	-12323
▁argumenten	-12324
▁university	-12325
哪个	-12326
超过	-12327
达到	-12328
comm	-12329
▁laws	-12330
▁wisk	-12331
▁surely	-12332
▁kritiek	-12333
▁beoordelen	-12334
蜗牛	-12335
▁Log	-12336
waart	-12337
landen	-12338
▁Nicol	-12339
▁equal	-12340
▁folks	-12341
▁loose	-12342
▁status	-12343
▁voordeel	-12344
▁hoofdstuk	-12345
刺猬	-12346
ROZ	-12347
▁Os	-12348
▁Moh	-12349
▁Tru	-12350
▁filos	-12351
▁humor	-12352
▁wrest	-12353
▁create	-12354
▁challen	-12355
▁recorded	-12356
,[	-12357
EF	-12358
EV	-12359
》,	-12360
ardo	-12361
rive	-12362
▁fee	-12363
schat	-12364
▁Luke	-12365
▁foss	-12366
▁tend	-12367
groeid	-12368
uesday	-12369
▁Mooie	-12370
▁Associ	-12371
▁Company	-12372
▁同	-12373
兴趣	-12374
moed	-12375
▁roy	-12376
▁Lief	-12377
▁Molly	-12378
▁Radio	-12379
▁wassen	-12380
▁newspaper	-12381
▁2:	-12382
geen	-12383
▁kou	-12384
ctors	-12385
owder	-12386
▁radi	-12387
▁Islam	-12388
▁Zwits	-12389
▁Lekker	-12390
▁Potter	-12391
▁liegen	-12392
▁stukjes	-12393
▁Caroline	-12394
▁mogelijke	-12395
li	-12396
教练	-12397
lai	-12398
▁Zei	-12399
▁reput	-12400
▁traffic	-12401
▁beïnvloed	-12402
专业	-12403
在了	-12404
表达	-12405
阅读	-12406
▁题目	-12407
▁Naz	-12408
0,000	-12409
▁1999	-12410
▁spul	-12411
▁subs	-12412
▁boter	-12413
ikaanse	-12414
▁concept	-12415
▁Congress	-12416
王子	-12417
金属	-12418
}}=	-12419
▁真的	-12420
oons	-12421
▁为什么	-12422
▁erom	-12423
▁pure	-12424
▁Chair	-12425
▁Offic	-12426
▁slang	-12427
▁sword	-12428
atische	-12429
▁paragra	-12430
▁toegang	-12431
▁features	-12432
▁achteruit	-12433
中心	-12434
建立	-12435
gez	-12436
▁Rab	-12437
eline	-12438
hebben	-12439
▁Witte	-12440
▁Mickey	-12441
▁beschreven	-12442
特征	-12443
▁rise	-12444
▁jumping	-12445
 ·	-12446
了啊	-12447
ILL	-12448
uns	-12449
▁Duck	-12450
▁stops	-12451
▁amazing	-12452
▁koolstof	-12453
▁destroyed	-12454
我去	-12455
永远	-12456
▁Bul	-12457
breken	-12458
▁koude	-12459
▁uitgeb	-12460
▁network	-12461
▁Margaret	-12462
geschreven	-12463
面积	-12464
agn	-12465
▁Germ	-12466
▁soap	-12467
▁kopie	-12468
▁tough	-12469
不管	-12470
phy	-12471
▁geë	-12472
▁reb	-12473
▁jigs	-12474
▁proved	-12475
▁voedings	-12476
五十	-12477
定的	-12478
接受	-12479
dis	-12480
dur	-12481
pton	-12482
▁Cher	-12483
▁Ring	-12484
▁zaad	-12485
▁muren	-12486
▁zodra	-12487
▁golden	-12488
▁geweten	-12489
▁streets	-12490
▁juffrouw	-12491
▁vergelijken	-12492
网络	-12493
都没	-12494
▁1950	-12495
▁Jersey	-12496
▁botten	-12497
▁ophouden	-12498
▁KN	-12499
▁py	-12500
▁Karl	-12501
▁Move	-12502
▁pest	-12503
▁Licht	-12504
▁Pracht	-12505
▁studie	-12506
▁sterker	-12507
 ;	-12508
▁则	-12509
计划	-12510
zzz	-12511
▁38	-12512
atsy	-12513
nice	-12514
▁Tal	-12515
▁rum	-12516
▁对不对	-12517
▁cups	-12518
▁munt	-12519
▁gerust	-12520
▁philos	-12521
▁gevolgd	-12522
▁zwembad	-12523
▁voornamelijk	-12524
标准	-12525
:20	-12526
▁Egypte	-12527
▁dreams	-12528
▁groeit	-12529
▁apparently	-12530
▁Geschiedenis	-12531
▁internationale	-12532
华为	-12533
哎呀	-12534
老人	-12535
▁12,	-12536
▁Eet	-12537
maals	-12538
▁file	-12539
▁aankl	-12540
▁bijeen	-12541
▁warmte	-12542
▁bezoeken	-12543
▁listened	-12544
▁recently	-12545
四个	-12546
小猫	-12547
iki	-12548
主要是	-12549
▁Mod	-12550
▁fox	-12551
geeft	-12552
▁curt	-12553
▁craft	-12554
▁spanning	-12555
▁verspreid	-12556
土壤	-12557
boel	-12558
▁fra	-12559
ington	-12560
▁collega	-12561
▁werkwoorden	-12562
58	-12563
iele	-12564
zorg	-12565
▁ruimt	-12566
tainment	-12567
▁Switzer	-12568
▁brieven	-12569
▁stuurde	-12570
▁recorder	-12571
谢谢你	-12572
lers	-12573
▁Jas	-12574
▁WAS	-12575
▁aside	-12576
▁fields	-12577
▁wooden	-12578
▁beschad	-12579
▁verpest	-12580
▁Sergeant	-12581
▁positive	-12582
▁书	-12583
▁头	-12584
stan	-12585
▁enz	-12586
▁lui	-12587
$$2$$	-12588
▁tast	-12589
▁aware	-12590
▁④	-12591
哪些	-12592
飞机	-12593
tri	-12594
应该是	-12595
ences	-12596
▁Bour	-12597
▁boel	-12598
▁Graag	-12599
▁genieten	-12600
▁Government	-12601
氧气	-12602
aver	-12603
ierd	-12604
▁vit	-12605
front	-12606
▁genet	-12607
▁varken	-12608
▁creature	-12609
▁regelmatig	-12610
▁⌊	-12611
寻找	-12612
blik	-12613
▁HER	-12614
▁Len	-12615
▁atmos	-12616
▁cirkel	-12617
▁hierna	-12618
▁tender	-12619
▁vrucht	-12620
remember	-12621
▁Raymond	-12622
▁landing	-12623
▁oplossen	-12624
▁slightly	-12625
▁Switzerland	-12626
出来的	-12627
enth	-12628
esty	-12629
nope	-12630
▁Vis	-12631
▁rubb	-12632
▁torn	-12633
▁Sydney	-12634
▁encour	-12635
▁koffer	-12636
▁voices	-12637
▁vertrekt	-12638
6$$	-12639
oker	-12640
▁Yet	-12641
▁fal	-12642
▁Didn	-12643
iences	-12644
ioxide	-12645
▁hills	-12646
▁nicht	-12647
▁hunting	-12648
▁stranger	-12649
rec	-12650
▁aer	-12651
▁Asia	-12652
▁gaven	-12653
▁rusten	-12654
▁behoren	-12655
▁vijanden	-12656
▁introduced	-12657
▁koninkrijk	-12658
choo	-12659
acing	-12660
▁Oude	-12661
▁keys	-12662
{1}{2}	-12663
▁leerde	-12664
▁normally	-12665
▁originally	-12666
▁resultaten	-12667
3]	-12668
hist	-12669
icing	-12670
▁Gooi	-12671
▁mand	-12672
▁owner	-12673
▁queer	-12674
▁Sophie	-12675
▁curious	-12676
组成	-12677
uge	-12678
有很多	-12679
gier	-12680
▁Penn	-12681
▁dubb	-12682
▁Apple	-12683
▁Linda	-12684
▁issue	-12685
▁koopt	-12686
▁Station	-12687
▁channel	-12688
▁prijzen	-12689
吸引	-12690
红色	-12691
项是	-12692
没想到	-12693
▁wow	-12694
inned	-12695
▁jail	-12696
▁flash	-12697
▁lifted	-12698
▁arbeids	-12699
▁verzamelen	-12700
▁地	-12701
lap	-12702
▁tooth	-12703
▁kathol	-12704
▁strike	-12705
▁totally	-12706
文章	-12707
cut	-12708
yay	-12709
▁Id	-12710
Here	-12711
▁Cook	-12712
▁Maur	-12713
▁wore	-12714
interk	-12715
▁Emily	-12716
▁helps	-12717
▁shame	-12718
▁duivel	-12719
▁eeuwig	-12720
▁vermoed	-12721
▁Hollywood	-12722
▁Dok	-12723
merkt	-12724
onding	-12725
▁dwars	-12726
▁ijzer	-12727
▁thumb	-12728
▁afkomst	-12729
▁ernstig	-12730
▁klanten	-12731
▁aankomen	-12732
inem	-12733
▁reve	-12734
change	-12735
winkel	-12736
▁Madame	-12737
▁middag	-12738
▁opgave	-12739
▁gezeten	-12740
NBA	-12741
iro	-12742
▁Kor	-12743
▁Happy	-12744
▁Second	-12745
▁clouds	-12746
▁verhuizen	-12747
动的	-12748
▁SH	-12749
When	-12750
▁scr	-12751
klaar	-12752
▁bevr	-12753
▁whisk	-12754
▁gently	-12755
▁burning	-12756
味道	-12757
明星	-12758
笑了	-12759
IJN	-12760
▁37	-12761
voeg	-12762
▁Ath	-12763
alpha	-12764
quest	-12765
ysteem	-12766
ability	-12767
▁Marcus	-12768
▁records	-12769
▁removed	-12770
▁section	-12771
▁advantage	-12772
▁militaire	-12773
游泳	-12774
蘑菇	-12775
训练	-12776
imp	-12777
▁大家	-12778
我知道	-12779
月二十	-12780
▁Kop	-12781
▁bid	-12782
▁kol	-12783
▁odd	-12784
aarwel	-12785
▁settle	-12786
▁stuurt	-12787
▁cutting	-12788
▁ontvang	-12789
▁vleugels	-12790
aga	-12791
exc	-12792
etts	-12793
▁loy	-12794
▁eeuwen	-12795
▁geweer	-12796
▁systems	-12797
▁weapons	-12798
▁wounded	-12799
president	-12800
▁familiar	-12801
▁replaced	-12802
力量	-12803
对对	-12804
ookt	-12805
▁bee	-12806
▁mas	-12807
urtle	-12808
▁Belle	-12809
▁opera	-12810
▁schot	-12811
▁schaam	-12812
▁request	-12813
▁learning	-12814
▁prisoners	-12815
危险	-12816
lets	-12817
vast	-12818
▁Also	-12819
wonden	-12820
▁Person	-12821
vocalize	-12822
▁companies	-12823
▁dichterbij	-12824
▁moordenaar	-12825
WE	-12826
关键	-12827
音乐	-12828
▁KB	-12829
▁tin	-12830
▁Wend	-12831
▁drum	-12832
▁stubs	-12833
bedrijf	-12834
▁scarcely	-12835
▁waarvoor	-12836
两只	-12837
▁wetten	-12838
SS	-12839
事儿	-12840
类的	-12841
▁(;	-12842
dier	-12843
fire	-12844
ender	-12845
▁Burt	-12846
▁Kerk	-12847
▁Moon	-12848
▁jobs	-12849
untary	-12850
▁Games	-12851
▁Provin	-12852
▁relief	-12853
pointing	-12854
▁verwoest	-12855
▁mogelijkheid	-12856
Re	-12857
acu	-12858
hai	-12859
▁COM	-12860
shine	-12861
▁opzij	-12862
▁gevorm	-12863
▁staten	-12864
▁nervous	-12865
▁carrière	-12866
Bl	-12867
加入	-12868
经历	-12869
Mom	-12870
agg	-12871
好朋友	-12872
▁Der	-12873
▁Tel	-12874
aghet	-12875
sense	-12876
▁Work	-12877
▁Sever	-12878
▁Anyway	-12879
▁Wonder	-12880
▁hockey	-12881
▁sisters	-12882
▁branches	-12883
唱歌	-12884
范围	-12885
ELA	-12886
pes	-12887
▁ov	-12888
物体的	-12889
deur	-12890
reck	-12891
otted	-12892
uitar	-12893
▁sets	-12894
▁breaking	-12895
▁voorwerp	-12896
▁onderhand	-12897
▁tekeningen	-12898
SC	-12899
优秀	-12900
oyd	-12901
anas	-12902
▁hao	-12903
ursday	-12904
▁blijk	-12905
▁maandag	-12906
!!	-12907
44	-12908
树叶	-12909
nor	-12910
ikes	-12911
tegr	-12912
▁Carr	-12913
▁beet	-12914
▁Commun	-12915
▁liefst	-12916
只见	-12917
squ	-12918
chair	-12919
▁Home	-12920
▁Techn	-12921
▁contr	-12922
▁ballet	-12923
▁budget	-12924
▁jungle	-12925
▁becomes	-12926
▁gerecht	-12927
▁shooting	-12928
住在	-12929
礼物	-12930
项目	-12931
▁UK	-12932
▁确实	-12933
世界上	-12934
verg	-12935
▁Barry	-12936
▁sorts	-12937
▁Jackie	-12938
▁smooth	-12939
▁leaders	-12940
▁engineer	-12941
▁excellent	-12942
▁revolution	-12943
发出	-12944
▁Tob	-12945
▁chef	-12946
▁neuken	-12947
▁vaders	-12948
▁horrible	-12949
▁difficulty	-12950
▁independent	-12951
电脑	-12952
Afr	-12953
▁gij	-12954
tered	-12955
▁unus	-12956
▁vere	-12957
▁medel	-12958
▁Harold	-12959
▁hammer	-12960
▁enjoyed	-12961
▁picking	-12962
▁remains	-12963
▁versche	-12964
▁getallen	-12965
ieg	-12966
laus	-12967
▁Sky	-12968
▁kist	-12969
Fraser	-12970
urance	-12971
▁ontsp	-12972
▁tellen	-12973
▁woonde	-12974
▁required	-12975
▁stations	-12976
居然	-12977
一个小	-12978
igar	-12979
were	-12980
▁Zes	-12981
heeft	-12982
▁goat	-12983
regels	-12984
▁attend	-12985
▁landed	-12986
▁vergeven	-12987
98	-12988
资金	-12989
pher	-12990
vard	-12991
▁Dog	-12992
▁Rol	-12993
▁Verb	-12994
aarden	-12995
▁gekke	-12996
▁bidden	-12997
▁gekeken	-12998
▁ontsnapt	-12999
▁studeren	-13000
interklaas	-13001
▁structure	-13002
不少	-13003
介绍	-13004
平衡	-13005
还能	-13006
那边	-13007
中国的	-13008
妈妈说	-13009
oods	-13010
thew	-13011
hemat	-13012
▁gray	-13013
▁Korea	-13014
▁lievel	-13015
▁stomach	-13016
▁monsters	-13017
▁recording	-13018
ón	-13019
keep	-13020
loze	-13021
vriend	-13022
▁Speel	-13023
▁trunk	-13024
▁Palest	-13025
▁lippen	-13026
▁airplane	-13027
▁verstopt	-13028
▁evidently	-13029
▁werkelijkheid	-13030
26	-13031
iven	-13032
▁191	-13033
▁bok	-13034
▁Drink	-13035
▁deuren	-13036
▁height	-13037
▁leidde	-13038
▁target	-13039
▁courage	-13040
▁Verenigd	-13041
▁leerdoelen	-13042
gly	-13043
iaan	-13044
uzen	-13045
bliot	-13046
▁diss	-13047
▁uitnod	-13048
▁cookies	-13049
▁elektrische	-13050
▁eindopdracht	-13051
▁每	-13052
ANG	-13053
cca	-13054
孩子们	-13055
▁nick	-13056
▁Center	-13057
▁dorpen	-13058
▁engaged	-13059
▁compleet	-13060
▁industry	-13061
▁operatie	-13062
▁omschrijven	-13063
▁wo	-13064
的影响	-13065
achus	-13066
venue	-13067
▁deer	-13068
▁vóór	-13069
▁cheek	-13070
▁trial	-13071
▁Hoelang	-13072
▁closely	-13073
rif	-13074
▁sj	-13075
hoop	-13076
▁Aud	-13077
▁poo	-13078
▁tens	-13079
▁heten	-13080
▁repar	-13081
▁带	-13082
爱的	-13083
▁paus	-13084
▁Joden	-13085
▁Julie	-13086
▁levert	-13087
▁locked	-13088
▁sprong	-13089
▁struik	-13090
▁vliegtuigen	-13091
南方	-13092
acon	-13093
care	-13094
▁tak	-13095
▁appel	-13096
▁spite	-13097
▁Australië	-13098
▁butterfly	-13099
▁四	-13100
蜘蛛	-13101
门口	-13102
umed	-13103
▁Lux	-13104
▁fer	-13105
▁upper	-13106
▁losing	-13107
▁papieren	-13108
▁wondered	-13109
)\	-13110
95	-13111
VE	-13112
变成了	-13113
avel	-13114
wart	-13115
zine	-13116
▁bags	-13117
▁splend	-13118
▁donkere	-13119
▁voornaam	-13120
▁increased	-13121
▁meegemaakt	-13122
▁倒	-13123
立刻	-13124
ofte	-13125
▁bewer	-13126
▁desire	-13127
▁doggie	-13128
▁podium	-13129
▁priest	-13130
▁airport	-13131
▁drankje	-13132
▁geplaatst	-13133
▁religious	-13134
▁verdedigen	-13135
""	-13136
形式	-13137
sex	-13138
▁Kh	-13139
▁Bank	-13140
▁dish	-13141
▁kleed	-13142
▁bodies	-13143
▁Griekenland	-13144
ghan	-13145
▁Hang	-13146
▁keel	-13147
▁exped	-13148
▁vasthouden	-13149
之一	-13150
发挥	-13151
恢复	-13152
▁SO	-13153
什么的	-13154
keys	-13155
▁Erg	-13156
▁das	-13157
▁Cool	-13158
▁saai	-13159
▁trem	-13160
ippers	-13161
▁Winter	-13162
▁merken	-13163
▁Meestal	-13164
▁Windows	-13165
▁bevindt	-13166
▁sheriff	-13167
▁Catholic	-13168
▁Tuurlijk	-13169
iu	-13170
中医	-13171
方便	-13172
超级	-13173
ène	-13174
aman	-13175
▁Him	-13176
outer	-13177
▁Gary	-13178
▁helik	-13179
gevoegd	-13180
▁Championship	-13181
ova	-13182
▁Ker	-13183
▁Ziet	-13184
▁wipe	-13185
▁Britt	-13186
blijven	-13187
▁Jordan	-13188
▁appart	-13189
▁studies	-13190
了一下	-13191
的主要	-13192
doet	-13193
akter	-13194
▁vice	-13195
zingen	-13196
▁pilot	-13197
▁theat	-13198
▁actief	-13199
▁ambass	-13200
▁expert	-13201
▁helder	-13202
▁bacteriën	-13203
动了	-13204
0$$	-13205
turns	-13206
▁sque	-13207
schaps	-13208
speech	-13209
▁legal	-13210
Eleanor	-13211
▁besides	-13212
▁aantrekk	-13213
▁ontdekken	-13214
▁werkelijk	-13215
▁responsible	-13216
Mr	-13217
仔细	-13218
lon	-13219
▁试题	-13220
一下子	-13221
ijft	-13222
▁Aren	-13223
▁thor	-13224
oningen	-13225
▁Helaas	-13226
▁Pierre	-13227
▁source	-13228
▁stress	-13229
▁tennis	-13230
▁Colonel	-13231
▁emotion	-13232
▁twijfel	-13233
):	-13234
三角	-13235
不敢	-13236
让他	-13237
也可以	-13238
看到了	-13239
▁Pot	-13240
ronen	-13241
▁Fall	-13242
steken	-13243
▁Zeven	-13244
▁Dennis	-13245
▁chairs	-13246
▁lukken	-13247
▁stepped	-13248
▁victory	-13249
▁toneelstuk	-13250
原子	-13251
▁wc	-13252
sque	-13253
▁Head	-13254
▁bewon	-13255
▁snapt	-13256
▁veert	-13257
▁comedy	-13258
▁nearer	-13259
▁refused	-13260
▁slipped	-13261
▁somehow	-13262
▁transfer	-13263
▁gescheiden	-13264
hot	-13265
mbo	-13266
estie	-13267
eters	-13268
▁sang	-13269
▁tort	-13270
▁Teken	-13271
▁katten	-13272
ationaal	-13273
inklijke	-13274
▁religion	-13275
▁neighbour	-13276
UM	-13277
帽子	-13278
都能	-13279
llie	-13280
▁Moor	-13281
bridge	-13282
▁bones	-13283
▁eikel	-13284
ografie	-13285
▁candid	-13286
▁daarop	-13287
▁greatly	-13288
▁vanzelf	-13289
▁sweetheart	-13290
▁uitgevoerd	-13291
下次	-13292
无论	-13293
精彩	-13294
▁阿姨	-13295
corn	-13296
▁1998	-13297
▁2023	-13298
▁Test	-13299
▁Enter	-13300
▁prize	-13301
▁dierentuin	-13302
▁geïnteresseerd	-13303
ür	-13304
工程	-13305
mus	-13306
▁dee	-13307
▁NIET	-13308
▁fold	-13309
▁试题信息	-13310
▁admir	-13311
▁Paulus	-13312
▁Social	-13313
▁instit	-13314
▁scherm	-13315
▁behaald	-13316
▁icecream	-13317
▁高	-13318
的花	-13319
wee	-13320
▁mi	-13321
不容易	-13322
▁Bus	-13323
▁Kong	-13324
▁geel	-13325
▁����	-13326
▁grant	-13327
▁legend	-13328
▁honderden	-13329
▁personeel	-13330
▁plotseling	-13331
▁onderwerpen	-13332
的手	-13333
小朋友	-13334
▁duh	-13335
lucht	-13336
▁Damn	-13337
▁pret	-13338
▁troon	-13339
systeem	-13340
▁thousands	-13341
接触	-13342
这儿	-13343
▁Ms	-13344
pijn	-13345
▁===	-13346
▁Stef	-13347
▁brak	-13348
arrest	-13349
▁hesit	-13350
▁borrow	-13351
▁ticket	-13352
▁Besides	-13353
▁beneath	-13354
▁chemical	-13355
▁arbeiders	-13356
▁overwinning	-13357
似的	-13358
物理	-13359
orf	-13360
▁FBI	-13361
▁Isa	-13362
jamin	-13363
▁regr	-13364
▁Valley	-13365
▁kanker	-13366
▁planned	-13367
▁Lieutenant	-13368
▁binnenkort	-13369
▁underneath	-13370
机器	-13371
oty	-13372
iser	-13373
ompl	-13374
▁meld	-13375
▁fifth	-13376
▁troep	-13377
▁wolken	-13378
▁invited	-13379
▁monarch	-13380
习惯	-13381
你就	-13382
omi	-13383
ammen	-13384
gezet	-13385
▁stal	-13386
▁schak	-13387
▁chosen	-13388
▁schuil	-13389
▁Zealand	-13390
▁moeders	-13391
▁opleiding	-13392
▁spelletje	-13393
7]	-13394
{4	-13395
▁据	-13396
开放	-13397
bord	-13398
ented	-13399
ineel	-13400
▁signs	-13401
▁Noteer	-13402
▁actual	-13403
▁horsie	-13404
▁gesteld	-13405
▁library	-13406
▁seconde	-13407
你要	-13408
生的	-13409
inky	-13410
▁Rud	-13411
chant	-13412
▁kroon	-13413
▁pauze	-13414
▁solid	-13415
▁kippen	-13416
▁lesson	-13417
▁rising	-13418
wedstrijd	-13419
▁Remember	-13420
▁designed	-13421
▁voorstel	-13422
▁nagedacht	-13423
isl	-13424
foot	-13425
allas	-13426
waarden	-13427
▁Miller	-13428
▁passag	-13429
▁descend	-13430
▁uitdruk	-13431
▁accepted	-13432
▁partners	-13433
▁ontzettend	-13434
是啊	-13435
5-1	-13436
Are	-13437
▁睡觉	-13438
kings	-13439
▁rush	-13440
elende	-13441
▁Davis	-13442
▁Kitty	-13443
▁supply	-13444
▁beschuld	-13445
▁producer	-13446
很久	-13447
hao	-13448
▁VOOR	-13449
▁Jesse	-13450
▁palace	-13451
▁produce	-13452
▁treated	-13453
▁Northern	-13454
相对	-13455
▁spo	-13456
▁wra	-13457
struct	-13458
▁Groep	-13459
▁couch	-13460
▁stroomt	-13461
▁exciting	-13462
▁跳	-13463
体积	-13464
得很	-13465
的吗	-13466
资讯	-13467
ITH	-13468
chi	-13469
hmm	-13470
hou	-13471
▁65	-13472
▁Cel	-13473
▁gla	-13474
enter	-13475
ivity	-13476
ulden	-13477
▁Ocean	-13478
▁vorig	-13479
▁jigsaw	-13480
▁marine	-13481
▁rapport	-13482
Nou	-13483
wal	-13484
小老鼠	-13485
aned	-13486
ernooi	-13487
ubliek	-13488
▁Andre	-13489
▁beker	-13490
▁frogs	-13491
▁shark	-13492
▁rollen	-13493
▁baseball	-13494
▁toeristen	-13495
▁uitvoeren	-13496
▁新	-13497
▁MY	-13498
leid	-13499
▁drunk	-13500
▁relax	-13501
branden	-13502
▁elimin	-13503
▁gewend	-13504
▁wensen	-13505
▁speelgoed	-13506
Ma	-13507
的心	-13508
zon	-13509
▁42	-13510
▁Joy	-13511
▁wip	-13512
▁1996	-13513
▁eats	-13514
waarts	-13515
pensive	-13516
▁Robbie	-13517
▁concurr	-13518
▁plaatsv	-13519
▁Kerstmis	-13520
▁geloofde	-13521
▁brandstof	-13522
读书	-13523
rië	-13524
▁zaal	-13525
▁Apollo	-13526
▁Nether	-13527
▁intens	-13528
▁lonely	-13529
▁display	-13530
▁rapidly	-13531
ouverneur	-13532
▁captured	-13533
▁ordinary	-13534
从来	-13535
传统	-13536
数字	-13537
跑到	-13538
▁孩儿	-13539
ahhah	-13540
ciële	-13541
ruimen	-13542
▁gezel	-13543
▁immigr	-13544
▁Confeder	-13545
▁gedachte	-13546
zhei	-13547
▁ros	-13548
▁lads	-13549
▁rijt	-13550
▁Hotel	-13551
▁Sylvia	-13552
▁propos	-13553
▁behoeft	-13554
▁provide	-13555
▁competition	-13556
▁tegenhouden	-13557
舒服	-13558
Per	-13559
haha	-13560
▁zone	-13561
坏了	-13562
葡萄	-13563
ilj	-13564
}+\	-13565
▁觉得	-13566
▁klote	-13567
▁stopte	-13568
▁genezen	-13569
▁results	-13570
▁princess	-13571
▁terugkomen	-13572
▁temperature	-13573
{5	-13574
一家	-13575
'''	-13576
Man	-13577
low	-13578
nat	-13579
▁Kir	-13580
▁cas	-13581
▁sna	-13582
▁pred	-13583
rieken	-13584
▁spare	-13585
▁Oxford	-13586
▁lelijk	-13587
gebieden	-13588
▁godsnaam	-13589
TH	-13590
例如	-13591
面的	-13592
$$1	-13593
▁[2	-13594
▁哦哦	-13595
▁XII	-13596
inary	-13597
▁lord	-13598
▁mobi	-13599
▁vmbo	-13600
▁komst	-13601
aghetti	-13602
▁counter	-13603
▁competed	-13604
▁treasure	-13605
▁middelbare	-13606
▁recognized	-13607
出一	-13608
reef	-13609
▁anno	-13610
▁bijl	-13611
ladesh	-13612
▁Champ	-13613
▁duist	-13614
▁spons	-13615
together	-13616
▁groepje	-13617
▁herinneringen	-13618
想着	-13619
道理	-13620
▁没错	-13621
hard	-13622
▁foll	-13623
▁Spider	-13624
▁hoping	-13625
▁recommen	-13626
GRANDFATHER	-13627
▁诶	-13628
值得	-13629
说着	-13630
资本	-13631
toys	-13632
▁Stay	-13633
▁lage	-13634
▁Power	-13635
▁notes	-13636
▁verhoud	-13637
▁beveilig	-13638
▁Bovendien	-13639
▁apartment	-13640
▁presently	-13641
AI	-13642
机构	-13643
▁Dev	-13644
wicht	-13645
▁blame	-13646
▁knuff	-13647
▁helaas	-13648
▁schaduw	-13649
▁attacked	-13650
▁mannetje	-13651
▁nationale	-13652
^2	-13653
ér	-13654
需求	-13655
COL	-13656
gehe	-13657
coughs	-13658
▁candy	-13659
▁wijst	-13660
▁picnic	-13661
▁Kennedy	-13662
▁quality	-13663
▁ondersche	-13664
▁Parliament	-13665
描述	-13666
▁当然	-13667
stick	-13668
▁buff	-13669
▁Sandy	-13670
▁squee	-13671
▁Moeten	-13672
▁Hendrik	-13673
▁rolling	-13674
▁festival	-13675
▁Everybody	-13676
▁Majesteit	-13677
▁natuurlijke	-13678
ko	-13679
▁猪	-13680
生成	-13681
uma	-13682
▁Vi	-13683
wijd	-13684
▁Zag	-13685
zoals	-13686
▁Armen	-13687
▁Death	-13688
▁Oscar	-13689
▁talen	-13690
▁ergste	-13691
▁passage	-13692
▁apparaat	-13693
▁moeilijke	-13694
▁seriously	-13695
▁aangevallen	-13696
病毒	-13697
MAT	-13698
oster	-13699
▁Step	-13700
▁geit	-13701
▁grav	-13702
▁woke	-13703
▁Mario	-13704
▁doggy	-13705
▁gained	-13706
▁graven	-13707
▁schouder	-13708
▁verliest	-13709
周期	-13710
得了	-13711
明显	-13712
未来	-13713
▁MO	-13714
icum	-13715
▁Jew	-13716
ucker	-13717
▁vlug	-13718
▁afmaken	-13719
▁spelers	-13720
▁Jonathan	-13721
▁Bangladesh	-13722
是由	-13723
▁我的	-13724
klim	-13725
▁cot	-13726
iches	-13727
||0||	-13728
▁bears	-13729
▁Iedere	-13730
▁rushed	-13731
▁Secretary	-13732
▁vrachtwagen	-13733
平均	-13734
还不	-13735
▁(3	-13736
ippi	-13737
rose	-13738
ieuze	-13739
▁Anth	-13740
▁Such	-13741
▁sequ	-13742
▁uith	-13743
▁Honey	-13744
▁Claire	-13745
▁belief	-13746
▁meters	-13747
▁platen	-13748
▁ophalen	-13749
▁verborgen	-13750
▁eventually	-13751
85	-13752
尤其	-13753
物的	-13754
▁ax	-13755
▁Rick	-13756
▁joch	-13757
contin	-13758
eeland	-13759
▁varen	-13760
▁breast	-13761
▁bricks	-13762
▁behoort	-13763
人都	-13764
按照	-13765
zik	-13766
不错的	-13767
ammy	-13768
▁lod	-13769
▁aanbod	-13770
▁grenzen	-13771
▁winning	-13772
▁achtervol	-13773
选手	-13774
▁这些	-13775
asis	-13776
char	-13777
hond	-13778
ijnse	-13779
▁Pass	-13780
▁pile	-13781
▁merry	-13782
▁sticks	-13783
▁voorbereid	-13784
含有	-13785
我和	-13786
cake	-13787
▁alt	-13788
▁kok	-13789
▁Hung	-13790
▁Leave	-13791
▁washed	-13792
▁standard	-13793
原来是	-13794
Just	-13795
chel	-13796
▁Lara	-13797
nesday	-13798
▁gedoe	-13799
stekend	-13800
▁dienen	-13801
▁insecten	-13802
Ah	-13803
Go	-13804
Un	-13805
工业	-13806
Ind	-13807
izz	-13808
...-	-13809
atius	-13810
vlees	-13811
▁pron	-13812
▁dunno	-13813
▁spion	-13814
km	-13815
公鸡	-13816
树林	-13817
▁这是	-13818
▁Ton	-13819
▁aid	-13820
▁hof	-13821
▁buit	-13822
▁Miche	-13823
▁beled	-13824
▁eisen	-13825
▁Tenzij	-13826
▁apolog	-13827
▁fortune	-13828
▁Carolina	-13829
▁exercise	-13830
▁statement	-13831
4-1	-13832
velt	-13833
wind	-13834
▁ade	-13835
lopig	-13836
▁hipp	-13837
▁Kolon	-13838
ointment	-13839
▁gepraat	-13840
▁improve	-13841
▁seventy	-13842
▁kaartjes	-13843
蛋白	-13844
首先	-13845
bot	-13846
▁owl	-13847
gever	-13848
neemt	-13849
▁dolls	-13850
spreken	-13851
▁Hannah	-13852
▁dishes	-13853
▁rolled	-13854
▁Tuesday	-13855
▁inhabit	-13856
▁vliegveld	-13857
▁nieuwsgier	-13858
▁熊	-13859
受伤	-13860
心想	-13861
还会	-13862
1-1	-13863
wijf	-13864
▁Lucas	-13865
▁chain	-13866
▁schud	-13867
▁poison	-13868
gestelde	-13869
▁genoegen	-13870
IVE	-13871
ppel	-13872
▁ego	-13873
ropol	-13874
▁Rijn	-13875
▁appe	-13876
▁ours	-13877
isions	-13878
▁homes	-13879
▁klant	-13880
▁raise	-13881
▁Kinder	-13882
▁appears	-13883
▁也是	-13884
help	-13885
▁Pic	-13886
arium	-13887
▁Chap	-13888
▁Group	-13889
▁draai	-13890
▁glance	-13891
▁streek	-13892
▁changing	-13893
▁division	-13894
▁increase	-13895
KF	-13896
③④	-13897
作业	-13898
叔叔	-13899
左右	-13900
等于	-13901
KAR	-13902
ialen	-13903
▁toel	-13904
▁badly	-13905
▁koers	-13906
ateriaal	-13907
▁bestand	-13908
▁gelaten	-13909
mel	-13910
▁(4	-13911
arbe	-13912
lock	-13913
▁11,	-13914
▁mal	-13915
antal	-13916
▁steam	-13917
▁tover	-13918
▁goederen	-13919
▁provided	-13920
▁sleutels	-13921
▁tijdschrift	-13922
As	-13923
是不	-13924
iast	-13925
▁dram	-13926
▁virt	-13927
▁Should	-13928
▁brings	-13929
▁stevig	-13930
genodigd	-13931
▁Bernard	-13932
▁leveren	-13933
▁doorheen	-13934
▁prisoner	-13935
▁overkomen	-13936
eurs	-13937
▁20,	-13938
ogram	-13939
oorts	-13940
▁Oper	-13941
▁enig	-13942
▁opst	-13943
Donald	-13944
▁Class	-13945
▁Sluit	-13946
▁hallo	-13947
▁purse	-13948
eekaboo	-13949
▁Golden	-13950
▁shadow	-13951
▁kilomet	-13952
LU	-13953
革命	-13954
umes	-13955
▁Jed	-13956
ensie	-13957
▁aank	-13958
▁Trump	-13959
▁jacket	-13960
);	-13961
拿着	-13962
污染	-13963
皇帝	-13964
▁颜色	-13965
可能会	-13966
andel	-13967
cases	-13968
▁Iris	-13969
▁Plan	-13970
▁hydro	-13971
▁sentence	-13972
▁vergadering	-13973
乌鸦	-13974
估计	-13975
网球	-13976
elect	-13977
▁Vers	-13978
dieren	-13979
gerust	-13980
inders	-13981
uchten	-13982
▁stout	-13983
▁linker	-13984
▁Georgia	-13985
▁conduct	-13986
中间	-13987
以来	-13988
too	-13989
rapt	-13990
▁Shak	-13991
▁Tour	-13992
▁guil	-13993
▁Heilige	-13994
▁beschikbaar	-13995
十八	-13996
怎样	-13997
火车	-13998
▁Ama	-13999
多么	-14000
玩儿	-14001
aph	-14002
ups	-14003
pret	-14004
▁Deel	-14005
▁WHAT	-14006
▁kopp	-14007
binnen	-14008
▁irrit	-14009
▁leeuw	-14010
▁prior	-14011
▁thorough	-14012
▁vanmorgen	-14013
▁Democratic	-14014
头上	-14015
蛋糕	-14016
pson	-14017
push	-14018
▁gru	-14019
first	-14020
▁Pict	-14021
▁telkens	-14022
▁gezellig	-14023
▁睡	-14024
地问	-14025
英雄	-14026
重新	-14027
我感觉	-14028
第一个	-14029
▁ped	-14030
▁XIII	-14031
▁unit	-14032
▁platt	-14033
▁commander	-14034
▁onderzocht	-14035
天上	-14036
osl	-14037
▁Web	-14038
▁故答案为	-14039
ilanden	-14040
▁Rennen	-14041
▁sector	-14042
▁sprook	-14043
ulations	-14044
▁straten	-14045
▁terrein	-14046
▁Benjamin	-14047
▁bladeren	-14048
▁karakter	-14049
▁presents	-14050
麻烦	-14051
agu	-14052
▁39	-14053
anut	-14054
zend	-14055
▁Via	-14056
▁pity	-14057
urally	-14058
▁Allah	-14059
▁weapon	-14060
▁parties	-14061
▁Fu	-14062
▁13,	-14063
▁16,	-14064
▁Nan	-14065
▁1992	-14066
▁dict	-14067
▁remind	-14068
▁climbed	-14069
▁verdiend	-14070
▁operation	-14071
准确	-14072
难道	-14073
▁Wy	-14074
obile	-14075
sighs	-14076
▁Gray	-14077
▁Verk	-14078
▁Boris	-14079
▁Griff	-14080
▁Ralph	-14081
▁Volks	-14082
▁liegt	-14083
▁koeien	-14084
▁sporen	-14085
▁eindigt	-14086
▁farther	-14087
▁afhankelijk	-14088
▁circumstances	-14089
▁]	-14090
Can	-14091
国家的	-14092
uige	-14093
nemer	-14094
▁Agent	-14095
▁Draai	-14096
▁schoen	-14097
ervation	-14098
▁Thursday	-14099
▁innocent	-14100
▁expensive	-14101
▁menselijk	-14102
小狗	-14103
roe	-14104
还没有	-14105
----"	-14106
oloog	-14107
stoel	-14108
▁cave	-14109
▁pipe	-14110
▁Nieuws	-14111
▁league	-14112
▁lieten	-14113
▁stelde	-14114
▁agenten	-14115
▁branden	-14116
▁gericht	-14117
▁dankbaar	-14118
▁behandeld	-14119
▁Netherlands	-14120
美的	-14121
▁doo	-14122
print	-14123
insdag	-14124
draaien	-14125
▁feiten	-14126
▁throws	-14127
▁bewonder	-14128
▁gestoord	-14129
▁connected	-14130
▁ontwikkeld	-14131
CA	-14132
夏天	-14133
pir	-14134
}^\	-14135
John	-14136
begin	-14137
elson	-14138
overs	-14139
▁cows	-14140
▁roep	-14141
ughter	-14142
▁Kruis	-14143
▁Afghan	-14144
▁Nathan	-14145
▁marked	-14146
▁mighty	-14147
▁consult	-14148
▁earnest	-14149
▁governor	-14150
▁intended	-14151
头发	-14152
▁lic	-14153
▁rhy	-14154
▁shed	-14155
▁shower	-14156
▁Whatever	-14157
玉米	-14158
real	-14159
▁Inc	-14160
▁geï	-14161
▁gord	-14162
▁towns	-14163
▁zijde	-14164
▁Zwarte	-14165
▁Atlantic	-14166
▁uitgenodigd	-14167
iy	-14168
ingo	-14169
▁McG	-14170
rific	-14171
▁Ooit	-14172
entjes	-14173
▁grace	-14174
▁Willen	-14175
▁guitar	-14176
▁verzet	-14177
▁beweegt	-14178
▁islands	-14179
▁suffered	-14180
▁grandmother	-14181
的高	-14182
西安	-14183
财经	-14184
aff	-14185
mod	-14186
▁Py	-14187
oeker	-14188
throw	-14189
▁hits	-14190
▁Urban	-14191
▁colon	-14192
▁greet	-14193
▁guest	-14194
▁lagen	-14195
▁Warren	-14196
▁geduld	-14197
▁liepen	-14198
▁Hierbij	-14199
▁eighteen	-14200
▁conditions	-14201
ün	-14202
下降	-14203
数量	-14204
答应	-14205
过的	-14206
isd	-14207
这么多	-14208
gery	-14209
istof	-14210
▁draad	-14211
▁grate	-14212
▁crocod	-14213
▁herken	-14214
▁mummie	-14215
▁Lieverd	-14216
▁Someone	-14217
▁Herinner	-14218
▁Trouwens	-14219
▁demanded	-14220
▁treatment	-14221
▁verbergen	-14222
▁vernietigd	-14223
▁与	-14224
妻子	-14225
调整	-14226
调查	-14227
zou	-14228
最大的	-14229
indy	-14230
unts	-14231
爸爸妈妈	-14232
▁Soon	-14233
▁Year	-14234
vision	-14235
▁2019,	-14236
▁cells	-14237
▁frame	-14238
elletje	-14239
▁hogere	-14240
▁issues	-14241
▁crossed	-14242
▁pensioen	-14243
▁verbaasd	-14244
▁Onderzoek	-14245
确定	-14246
绿色	-14247
kap	-14248
我也是	-14249
mont	-14250
▁Cru	-14251
inten	-14252
▁Ellie	-14253
▁beans	-14254
▁opzoeken	-14255
▁schattig	-14256
▁blijkbaar	-14257
.[	-14258
说不	-14259
面对	-14260
gor	-14261
rous	-14262
▁Dol	-14263
actly	-14264
iture	-14265
▁chim	-14266
▁ugly	-14267
▁Kleur	-14268
▁Micro	-14269
▁droeg	-14270
▁hoped	-14271
aringen	-14272
▁Econom	-14273
▁nerveus	-14274
▁bekendste	-14275
▁brandweer	-14276
▁chauffeur	-14277
▁officiële	-14278
▁democratie	-14279
▁vreselijke	-14280
你在	-14281
到处	-14282
是吧	-14283
鸭子	-14284
)$$,	-14285
▁lun	-14286
udding	-14287
▁conce	-14288
▁delay	-14289
▁Zweden	-14290
▁blanke	-14291
▁calcul	-14292
▁hearts	-14293
▁verspre	-14294
▁werkloos	-14295
▁bladzijde	-14296
▁gezelschap	-14297
cd	-14298
▁lip	-14299
▁Disc	-14300
▁awake	-14301
komsten	-14302
▁banana	-14303
▁guilty	-14304
▁prepar	-14305
▁distant	-14306
▁patiënt	-14307
▁Prachtig	-14308
▁Southern	-14309
▁geslapen	-14310
▁overleed	-14311
▁selected	-14312
▁begrafenis	-14313
▁collection	-14314
▁caterpillar	-14315
曾经	-14316
lee	-14317
的新闻	-14318
ctic	-14319
▁Jay	-14320
▁Oom	-14321
cules	-14322
▁Earl	-14323
▁bone	-14324
oensdag	-14325
▁Marokk	-14326
▁kanten	-14327
▁switch	-14328
▁Pacific	-14329
▁eenheid	-14330
▁lessons	-14331
▁Robinson	-14332
▁vrijwill	-14333
";	-14334
一千	-14335
普通	-14336
逐渐	-14337
doe	-14338
大灰狼	-14339
▁Cir	-14340
▁Rub	-14341
▁aqu	-14342
etters	-14343
▁Gabri	-14344
▁sympt	-14345
▁Adrian	-14346
gehouden	-14347
▁bevatten	-14348
▁handsome	-14349
▁Association	-14350
▁请	-14351
名的	-14352
小姐	-14353
星期	-14354
的发展	-14355
cest	-14356
社会主义	-14357
▁1994	-14358
▁Meen	-14359
irteen	-14360
▁guide	-14361
▁pitcher	-14362
▁satisfied	-14363
挺好的	-14364
的一些	-14365
okes	-14366
poor	-14367
▁Felix	-14368
▁avoid	-14369
▁diverse	-14370
▁Sommigen	-14371
一把	-14372
了我	-14373
吓得	-14374
空间	-14375
比如说	-14376
laagd	-14377
▁Lois	-14378
▁folk	-14379
▁godd	-14380
▁Allen	-14381
▁equip	-14382
▁wealth	-14383
▁akkoord	-14384
▁spieren	-14385
▁occurred	-14386
动作	-14387
▁ink	-14388
$$3$$	-14389
▁Wordt	-14390
▁ingen	-14391
▁shops	-14392
anderen	-14393
ulation	-14394
▁Carter	-14395
▁highly	-14396
▁perman	-14397
▁proced	-14398
▁vulkaan	-14399
▁Lawrence	-14400
▁appointed	-14401
▁construct	-14402
利于	-14403
重要的	-14404
amma	-14405
▁DAT	-14406
▁Veg	-14407
▁hok	-14408
$$1$$	-14409
manda	-14410
mouth	-14411
▁Cuba	-14412
▁Half	-14413
▁Japanse	-14414
▁filmpjes	-14415
▁samenwerken	-14416
一切	-14417
作者	-14418
一样的	-14419
miss	-14420
▁Onge	-14421
▁lege	-14422
▁aanget	-14423
▁honour	-14424
▁lossen	-14425
▁reckon	-14426
▁Brazilië	-14427
▁achtergrond	-14428
\%	-14429
还可以	-14430
▁Holy	-14431
▁klus	-14432
▁noch	-14433
muziek	-14434
verhaal	-14435
▁kitten	-14436
▁gevormd	-14437
▁onthouden	-14438
▁platteland	-14439
▁slachtoffers	-14440
Ph	-14441
2$$	-14442
uen	-14443
uing	-14444
▁Def	-14445
apple	-14446
▁Aard	-14447
▁Snow	-14448
▁numer	-14449
▁pardon	-14450
pendence	-14451
▁varkens	-14452
▁Actually	-14453
▁trousers	-14454
▁schreeuwen	-14455
uy	-14456
着急	-14457
mot	-14458
▁判断	-14459
▁eend	-14460
▁stak	-14461
blemen	-14462
▁hasta	-14463
▁useta	-14464
▁cowboy	-14465
▁eagerly	-14466
▁kidding	-14467
▁Province	-14468
▁bewoners	-14469
▁mensheid	-14470
▁toegevoegd	-14471
▁44	-14472
起来了	-14473
▁Wit	-14474
asten	-14475
▁dere	-14476
▁vielen	-14477
▁Stanley	-14478
▁require	-14479
something	-14480
▁别	-14481
▁好像	-14482
appa	-14483
ooter	-14484
schip	-14485
wijze	-14486
▁THIS	-14487
▁lets	-14488
haling	-14489
▁squir	-14490
▁multip	-14491
▁tracks	-14492
▁escaped	-14493
▁organization	-14494
és	-14495
▁帮	-14496
真的很	-14497
▁14,	-14498
armen	-14499
dreds	-14500
▁redu	-14501
arming	-14502
kosten	-14503
▁Klaas	-14504
▁pussy	-14505
▁stack	-14506
▁bucket	-14507
▁steekt	-14508
▁belongs	-14509
▁discussie	-14510
▁Christopher	-14511
JO	-14512
oi	-14513
uv	-14514
大树	-14515
阶段	-14516
isha	-14517
▁CIA	-14518
▁Gek	-14519
▁Roll	-14520
kering	-14521
▁2020)	-14522
station	-14523
trekken	-14524
▁eastern	-14525
▁fiction	-14526
▁liefste	-14527
▁trouwde	-14528
出门	-14529
网上	-14530
视频	-14531
ati	-14532
bec	-14533
pas	-14534
▁120	-14535
▁reet	-14536
▁rots	-14537
▁tale	-14538
▁toven	-14539
▁tweet	-14540
▁benzine	-14541
▁bewaren	-14542
▁verkeer	-14543
cm	-14544
打球	-14545
而是	-14546
ici	-14547
来到了	-14548
▁Bir	-14549
breng	-14550
▁elder	-14551
▁hurts	-14552
▁Turkije	-14553
▁dialect	-14554
▁grandma	-14555
▁Groningen	-14556
▁vervelend	-14557
▁uitspraken	-14558
▁persoonsvorm	-14559
▁并	-14560
度的	-14561
认真	-14562
walk	-14563
▁Ald	-14564
▁Lil	-14565
▁Pil	-14566
▁..."	-14567
shakes	-14568
▁graaf	-14569
▁afloop	-14570
▁Austria	-14571
▁kingdom	-14572
▁liedjes	-14573
▁stretch	-14574
▁sweetie	-14575
▁symbool	-14576
▁splendid	-14577
▁teaching	-14578
▁inmiddels	-14579
▁maatregelen	-14580
叫做	-14581
鸡蛋	-14582
}{3	-14583
▁Dom	-14584
▁Lar	-14585
▁1997	-14586
mannen	-14587
rolled	-14588
▁Jamie	-14589
▁Percy	-14590
▁gunst	-14591
▁rescue	-14592
▁whenever	-14593
stellingen	-14594
▁authority	-14595
▁structuur	-14596
Wh	-14597
反映	-14598
周围	-14599
故选	-14600
目的	-14601
锻炼	-14602
boo	-14603
hun	-14604
发展的	-14605
iper	-14606
zone	-14607
▁Wol	-14608
▁rear	-14609
▁Hurry	-14610
▁lorry	-14611
▁opvol	-14612
▁roles	-14613
▁Harris	-14614
▁Spreek	-14615
▁Vrouwen	-14616
▁forgive	-14617
▁schitter	-14618
▁verbeteren	-14619
4]	-14620
▁回	-14621
平台	-14622
是有	-14623
oda	-14624
lied	-14625
▁jur	-14626
▁heus	-14627
▁summ	-14628
▁drown	-14629
▁sweep	-14630
▁Sweden	-14631
▁boekje	-14632
▁gotten	-14633
▁Football	-14634
▁samenwerking	-14635
后的	-14636
吸收	-14637
把我	-14638
▁ash	-14639
▁tub	-14640
▁1995	-14641
▁Juan	-14642
▁meda	-14643
▁oceaan	-14644
▁victim	-14645
▁conclusie	-14646
▁Sinterklaas	-14647
▁bescherming	-14648
▁五	-14649
从而	-14650
伤心	-14651
制造	-14652
空中	-14653
ALL	-14654
▁doss	-14655
▁grey	-14656
erable	-14657
▁domme	-14658
▁Alaska	-14659
▁upside	-14660
▁bibliot	-14661
▁Onderdeel	-14662
事件	-14663
交通	-14664
具体	-14665
好啊	-14666
旅游	-14667
▁Od	-14668
Look	-14669
prom	-14670
▁15,	-14671
macht	-14672
▁Lode	-14673
▁Raak	-14674
versch	-14675
▁admit	-14676
▁divor	-14677
▁maint	-14678
onsieur	-14679
▁gehele	-14680
▁humans	-14681
▁oldest	-14682
▁bevrijd	-14683
▁dubbele	-14684
▁boodschappen	-14685
▁voorstelling	-14686
To	-14687
红的	-14688
要去	-14689
lar	-14690
mbly	-14691
▁Hob	-14692
▁ruil	-14693
▁spre	-14694
keurig	-14695
▁piloot	-14696
▁rubber	-14697
▁reality	-14698
▁好吧	-14699
hart	-14700
{}^\	-14701
▁Dur	-14702
也不知道	-14703
arden	-14704
▁zwer	-14705
▁finds	-14706
▁bleven	-14707
▁suffer	-14708
▁Vertrouw	-14709
▁afgesproken	-14710
At	-14711
无聊	-14712
那儿	-14713
mit	-14714
一定会	-14715
现在的	-14716
▁kre	-14717
▁yog	-14718
▁Wauw	-14719
▁Junior	-14720
▁kamers	-14721
▁entrance	-14722
▁extremely	-14723
{3}	-14724
▁acid	-14725
▁koos	-14726
shouts	-14727
▁Dallas	-14728
▁burned	-14729
ications	-14730
▁Everyone	-14731
▁Lodewijk	-14732
▁gedronken	-14733
▁Italiaanse	-14734
▁sufficient	-14735
lly	-14736
一定是	-14737
ssel	-14738
yard	-14739
▁chi	-14740
▁lif	-14741
▁zhei	-14742
▁Mabel	-14743
▁Dokter	-14744
▁Oekraïne	-14745
▁centimeter	-14746
才是	-14747
otes	-14748
▁11.	-14749
▁lit	-14750
▁rod	-14751
的一项是	-14752
emies	-14753
ikkel	-14754
ridge	-14755
▁raket	-14756
▁Eastern	-14757
▁camping	-14758
▁verlaat	-14759
achusetts	-14760
▁physical	-14761
▁astronaut	-14762
hankelijkheid	-14763
▁此	-14764
报告	-14765
生日	-14766
shi	-14767
Daar	-14768
been	-14769
oeit	-14770
rimin	-14771
▁Verl	-14772
▁toss	-14773
wongen	-14774
▁slave	-14775
▁omlaag	-14776
▁Martine	-14777
▁moments	-14778
▁setting	-14779
▁Chairman	-14780
▁Controle	-14781
▁uitzoeken	-14782
verkiezingen	-14783
nik	-14784
二氧化	-14785
你怎么	-14786
agle	-14787
▁Bom	-14788
▁Eve	-14789
icide	-14790
vania	-14791
▁Sean	-14792
▁neur	-14793
▁sore	-14794
bericht	-14795
▁Morgan	-14796
▁Zoiets	-14797
▁hondje	-14798
▁knight	-14799
▁sorrow	-14800
▁kolonel	-14801
**	-14802
类型	-14803
reerd	-14804
usted	-14805
▁lood	-14806
▁sons	-14807
orange	-14808
▁dertig	-14809
▁tranen	-14810
▁Matthew	-14811
▁即	-14812
劳动	-14813
让你	-14814
▁需要	-14815
ikki	-14816
▁(2)	-14817
▁Yep	-14818
▁fate	-14819
gegaan	-14820
giggles	-14821
▁Mannen	-14822
▁ruiken	-14823
▁testen	-14824
▁selling	-14825
▁warning	-14826
▁recognize	-14827
▁Sha	-14828
▁worm	-14829
▁zoet	-14830
alling	-14831
▁royal	-14832
▁sterf	-14833
▁sprang	-14834
▁overstr	-14835
▁verzoek	-14836
▁vuilnis	-14837
▁grandfather	-14838
中央	-14839
用了	-14840
更多的	-14841
▁laf	-14842
▁yum	-14843
▁Barn	-14844
▁Kyle	-14845
malige	-14846
sembly	-14847
▁fijne	-14848
▁geste	-14849
▁tools	-14850
▁uitst	-14851
▁sooner	-14852
▁woning	-14853
▁standaard	-14854
▁passengers	-14855
▁inhabitants	-14856
know	-14857
}_{2}	-14858
▁Benn	-14859
▁helm	-14860
▁zeld	-14861
coming	-14862
▁beseft	-14863
▁freedom	-14864
▁jaarlijk	-14865
▁opgelost	-14866
▁verdrietig	-14867
88	-14868
天下	-14869
建议	-14870
措施	-14871
记录	-14872
降低	-14873
allo	-14874
▁bush	-14875
▁ment	-14876
▁smeek	-14877
▁Cooper	-14878
▁aanwij	-14879
▁oudere	-14880
▁scherp	-14881
▁Wednesday	-14882
▁uitzonder	-14883
Me	-14884
IST	-14885
syl	-14886
boat	-14887
▁Rode	-14888
▁fase	-14889
▁suck	-14890
▁Niger	-14891
oordeling	-14892
schrijven	-14893
▁basissch	-14894
▁verraden	-14895
果然	-14896
▁Ll	-14897
rock	-14898
▁Mmm	-14899
▁proc	-14900
▁behalen	-14901
▁Franklin	-14902
▁register	-14903
▁Manchester	-14904
操作	-14905
相等	-14906
金融	-14907
aah	-14908
▁cd	-14909
也不是	-14910
就这样	-14911
avan	-14912
half	-14913
pass	-14914
geten	-14915
lezen	-14916
▁Extra	-14917
▁chose	-14918
▁imper	-14919
▁discip	-14920
▁kindje	-14921
▁regent	-14922
▁thirst	-14923
▁accompl	-14924
▁enthous	-14925
▁arranged	-14926
▁schouders	-14927
▁zelfstandig	-14928
时的	-14929
loge	-14930
▁Bah	-14931
inton	-14932
▁Cole	-14933
inguis	-14934
▁Patsy	-14935
▁categ	-14936
▁marks	-14937
groepen	-14938
▁Aangen	-14939
▁Mister	-14940
▁winkels	-14941
▁woonden	-14942
▁acquaint	-14943
▁klasgenoten	-14944
xy	-14945
doel	-14946
▁ABC	-14947
▁Ond	-14948
appar	-14949
poort	-14950
▁zons	-14951
▁Beter	-14952
▁driven	-14953
▁Category	-14954
▁adventure	-14955
schappelijke	-14956
Ne	-14957
▁七	-14958
九年	-14959
点点	-14960
▁WK	-14961
assa	-14962
atus	-14963
bage	-14964
hese	-14965
eslie	-14966
▁Poor	-14967
▁lamb	-14968
▁truly	-14969
▁ontdek	-14970
▁Stephen	-14971
▁Vergelijk	-14972
▁ontworpen	-14973
▁Department	-14974
65	-14975
ku	-14976
越大	-14977
gom	-14978
asha	-14979
kkel	-14980
ijgen	-14981
langs	-14982
ruimte	-14983
vonden	-14984
▁Amanda	-14985
▁profit	-14986
▁afdeling	-14987
女排	-14988
持续	-14989
证明	-14990
mans	-14991
mate	-14992
▁Aha	-14993
ammed	-14994
▁Lily	-14995
▁vals	-14996
cribed	-14997
▁Zolang	-14998
▁racing	-14999
▁appartement	-15000
战争	-15001
说道	-15002
就是说	-15003
▁Sad	-15004
▁san	-15005
alous	-15006
ician	-15007
▁Diego	-15008
▁Karen	-15009
▁Luxem	-15010
▁opgeb	-15011
▁gigant	-15012
quarters	-15013
▁Britten	-15014
▁beslist	-15015
▁shining	-15016
▁vanmiddag	-15017
▁opschieten	-15018
▁voorzitter	-15019
▁Massachusetts	-15020
考试	-15021
▁Vo	-15022
brug	-15023
iche	-15024
doesn	-15025
tekst	-15026
▁Kalm	-15027
▁load	-15028
▁sofa	-15029
▁tiss	-15030
▁waan	-15031
▁goods	-15032
▁items	-15033
▁magie	-15034
▁scary	-15035
▁stern	-15036
▁Versch	-15037
▁scratch	-15038
▁eindigen	-15039
▁Stephanus	-15040
▁container	-15041
▁Amerikaans	-15042
▁Californië	-15043
下一	-15044
乒乓	-15045
KAT	-15046
aux	-15047
bee	-15048
ango	-15049
▁Oma	-15050
▁Var	-15051
▁pik	-15052
amine	-15053
burgh	-15054
▁Must	-15055
▁Pooh	-15056
▁cruel	-15057
▁penny	-15058
▁uitdag	-15059
whispered	-15060
▁distinct	-15061
▁见	-15062
作品	-15063
渐渐	-15064
olo	-15065
有时候	-15066
chem	-15067
▁lust	-15068
▁adapt	-15069
▁parad	-15070
▁union	-15071
▁Valent	-15072
▁buttons	-15073
▁uitgang	-15074
▁Waarvoor	-15075
▁Institute	-15076
几乎	-15077
tus	-15078
▁已知	-15079
▁Ban	-15080
▁Ein	-15081
▁klonk	-15082
▁spider	-15083
▁enemies	-15084
▁Absoluut	-15085
主意	-15086
兴奋	-15087
效果	-15088
温暖	-15089
英国	-15090
erse	-15091
onia	-15092
▁bla	-15093
again	-15094
invol	-15095
▁Jong	-15096
▁bijdr	-15097
▁vuile	-15098
▁Isabel	-15099
▁Kansas	-15100
controle	-15101
▁kloppen	-15102
▁levende	-15103
▁climbing	-15104
▁后来	-15105
▁Anim	-15106
▁alph	-15107
▁fork	-15108
▁lanc	-15109
bureau	-15110
udeerd	-15111
▁Story	-15112
▁speaks	-15113
▁trucks	-15114
▁ceremon	-15115
▁springt	-15116
▁Footnote	-15117
▁heleboel	-15118
▁afgesloten	-15119
▁eigenschappen	-15120
2]	-15121
▁将	-15122
规定	-15123
躺在	-15124
▁Ay	-15125
我还是	-15126
▁hyp	-15127
ietje	-15128
▁durft	-15129
▁letten	-15130
▁pillow	-15131
▁seated	-15132
▁pushing	-15133
▁techniek	-15134
Na	-15135
成立	-15136
那是	-15137
很大的	-15138
▁End	-15139
▁INV	-15140
▁Rap	-15141
▁Main	-15142
▁chip	-15143
▁comr	-15144
▁stim	-15145
ekende	-15146
▁strak	-15147
▁Russen	-15148
▁Vincent	-15149
▁Constant	-15150
▁Daarvoor	-15151
▁champagne	-15152
▁equipment	-15153
了好	-15154
创新	-15155
war	-15156
妈妈的	-15157
alog	-15158
reem	-15159
voet	-15160
wide	-15161
▁melt	-15162
▁aston	-15163
▁horror	-15164
▁girlfriend	-15165
▁AM	-15166
▁OH	-15167
nina	-15168
▁Ark	-15169
▁fed	-15170
oline	-15171
▁Todd	-15172
▁knie	-15173
▁pine	-15174
▁slap	-15175
▁Middle	-15176
▁mathemat	-15177
▁policeman	-15178
最终	-15179
负责	-15180
PLA	-15181
unes	-15182
▁Fat	-15183
▁Hee	-15184
verse	-15185
▁rejo	-15186
landse	-15187
partij	-15188
▁hoopte	-15189
▁shapes	-15190
American	-15191
richting	-15192
▁getuige	-15193
▁werking	-15194
▁electron	-15195
▁unfortun	-15196
▁wandelen	-15197
Sp	-15198
▁白	-15199
很大	-15200
长大	-15201
uer	-15202
iere	-15203
zers	-15204
brush	-15205
▁Seth	-15206
giving	-15207
▁swear	-15208
triangle	-15209
▁uitgest	-15210
▁struggle	-15211
odigdheden	-15212
干净	-15213
IND	-15214
fig	-15215
▁希望	-15216
▁Kaz	-15217
Thank	-15218
appie	-15219
▁Faith	-15220
▁prest	-15221
angrijk	-15222
issippi	-15223
reement	-15224
▁dragon	-15225
▁unable	-15226
▁valley	-15227
▁justice	-15228
▁kleinere	-15229
▁completed	-15230
▁verklaren	-15231
▁identiteit	-15232
▁volwassenen	-15233
inny	-15234
▁18,	-15235
▁Budd	-15236
▁Doet	-15237
▁mede	-15238
writer	-15239
▁spaar	-15240
▁spots	-15241
▁kindly	-15242
▁klimmen	-15243
▁proposed	-15244
▁teachers	-15245
▁management	-15246
几年	-15247
okt	-15248
top	-15249
▁AF	-15250
gonna	-15251
▁Bonif	-15252
▁minor	-15253
▁Arnold	-15254
▁Overal	-15255
▁Illustr	-15256
▁grondwet	-15257
▁precious	-15258
▁delighted	-15259
▁companions	-15260
▁ongelooflijk	-15261
不在	-15262
的老	-15263
的重要	-15264
▁FAT	-15265
eight	-15266
famil	-15267
names	-15268
phere	-15269
ufact	-15270
urele	-15271
▁Lion	-15272
meisje	-15273
roffen	-15274
▁spark	-15275
omingen	-15276
▁breekt	-15277
▁lijnen	-15278
▁select	-15279
▁vullen	-15280
▁Maarten	-15281
▁presented	-15282
困难	-15283
常常	-15284
ted	-15285
▁Ce	-15286
▁Dou	-15287
▁buren	-15288
▁condu	-15289
▁gooit	-15290
▁steal	-15291
geraakt	-15292
▁acteur	-15293
▁metaal	-15294
▁powers	-15295
▁extreme	-15296
▁giraffe	-15297
▁kwestie	-15298
▁Princess	-15299
▁gebeurtenis	-15300
rd	-15301
vd	-15302
放大	-15303
跟我	-15304
tin	-15305
▁最近	-15306
▁curs	-15307
letter	-15308
▁Chuck	-15309
▁drift	-15310
▁Battle	-15311
▁aandelen	-15312
involuntary	-15313
▁opgesloten	-15314
▁traditional	-15315
世纪	-15316
智能	-15317
-{{	-15318
tit	-15319
-200	-15320
oekt	-15321
▁CON	-15322
▁XIV	-15323
Helen	-15324
anges	-15325
theta	-15326
▁1945	-15327
▁caut	-15328
▁dawn	-15329
▁seats	-15330
▁swift	-15331
▁Norman	-15332
▁pushes	-15333
▁seized	-15334
▁Daarmee	-15335
▁leefden	-15336
四十	-15337
女生	-15338
▁Opa	-15339
▁ooh	-15340
▁seek	-15341
Europa	-15342
▁Berlin	-15343
▁Parker	-15344
▁causes	-15345
▁hersen	-15346
▁ability	-15347
▁verkoopt	-15348
▁behandelen	-15349
▁surrounded	-15350
▁买	-15351
太太	-15352
规模	-15353
oca	-15354
June	-15355
▁Abe	-15356
▁我也是	-15357
▁keen	-15358
▁legde	-15359
▁sexual	-15360
▁tweeën	-15361
▁dankzij	-15362
▁fourteen	-15363
▁voorkomt	-15364
一口	-15365
外的	-15366
Miss	-15367
▁DON	-15368
▁creë	-15369
▁Geeft	-15370
▁fleet	-15371
▁leans	-15372
▁noble	-15373
▁woede	-15374
attered	-15375
▁Bedoel	-15376
▁nights	-15377
▁climate	-15378
▁gewacht	-15379
▁sending	-15380
▁helikopter	-15381
▁construction	-15382
▁verontschuld	-15383
zu	-15384
END	-15385
aaf	-15386
小兔子	-15387
0$$,	-15388
▁Lam	-15389
▁bay	-15390
ateur	-15391
▁WITH	-15392
▁puin	-15393
vissen	-15394
▁Groen	-15395
▁Wendy	-15396
▁Zodat	-15397
▁pride	-15398
▁stole	-15399
▁arrive	-15400
▁ingest	-15401
▁schimm	-15402
▁broertje	-15403
▁gevochten	-15404
▁combinatie	-15405
Pl	-15406
合理	-15407
见到	-15408
VID	-15409
回来了	-15410
{3}}	-15411
▁Math	-15412
▁tear	-15413
▁Storm	-15414
▁quant	-15415
▁strate	-15416
▁Frances	-15417
▁gelogen	-15418
▁detective	-15419
▁protection	-15420
▁onderzoekers	-15421
▁}	-15422
rin	-15423
并没有	-15424
beep	-15425
valu	-15426
count	-15427
oofde	-15428
▁Bush	-15429
▁Force	-15430
▁Order	-15431
▁medal	-15432
▁Keizer	-15433
▁guests	-15434
▁senior	-15435
▁skelet	-15436
▁advanced	-15437
▁percentage	-15438
引起	-15439
kou	-15440
away	-15441
beer	-15442
helm	-15443
▁Bla	-15444
Steven	-15445
rabant	-15446
▁draak	-15447
undigen	-15448
▁Leslie	-15449
▁houten	-15450
▁arrested	-15451
▁middelen	-15452
▁software	-15453
▁ontmoette	-15454
▁maatschappij	-15455
▁皮	-15456
▁该	-15457
的呢	-15458
8$$	-15459
bos	-15460
▁[3	-15461
blok	-15462
▁17,	-15463
▁22,	-15464
▁Tai	-15465
produ	-15466
matige	-15467
▁hobby	-15468
iseerde	-15469
▁schuur	-15470
astische	-15471
▁Vergeef	-15472
▁armoede	-15473
▁draaide	-15474
▁lekkere	-15475
▁vijftig	-15476
▁technology	-15477
▁wetenschappers	-15478
培养	-15479
好吃	-15480
课标	-15481
重力	-15482
植物的	-15483
ijpen	-15484
romos	-15485
▁Acht	-15486
▁darm	-15487
▁clubs	-15488
▁ballon	-15489
▁locatie	-15490
▁raining	-15491
▁contains	-15492
▁neerslag	-15493
▁occupied	-15494
▁verdieping	-15495
▁wedstrijden	-15496
.②	-15497
不及	-15498
池塘	-15499
生存	-15500
艺术	-15501
IJK	-15502
rah	-15503
uum	-15504
▁[5	-15505
的问题	-15506
过去了	-15507
oles	-15508
▁Cut	-15509
▁Sel	-15510
beurt	-15511
schot	-15512
▁cher	-15513
▁cries	-15514
▁column	-15515
▁painted	-15516
▁shelter	-15517
sometimes	-15518
▁hartstikke	-15519
▁verbinding	-15520
(\	-15521
▁嗯呢	-15522
让我们	-15523
bevol	-15524
iekem	-15525
lingen	-15526
▁Vegas	-15527
▁buddy	-15528
▁canoe	-15529
▁chase	-15530
▁gepro	-15531
▁mustn	-15532
▁stort	-15533
▁swall	-15534
gestaan	-15535
ofelijk	-15536
▁dapper	-15537
▁wezens	-15538
▁advance	-15539
▁efforts	-15540
▁spirits	-15541
▁verzorg	-15542
▁sergeant	-15543
▁Vervolgens	-15544
▁gevangenen	-15545
▁唉	-15546
▁爬	-15547
。(	-15548
可怜	-15549
曲线	-15550
Will	-15551
haar	-15552
zoon	-15553
inois	-15554
▁1940	-15555
▁beep	-15556
▁gooi	-15557
ikkers	-15558
▁Buddy	-15559
▁armed	-15560
▁daily	-15561
▁units	-15562
▁verse	-15563
▁affair	-15564
▁poorly	-15565
▁slechter	-15566
▁succeeded	-15567
▁samenvatting	-15568
OE	-15569
SP	-15570
nl	-15571
中华	-15572
积极	-15573
For	-15574
gal	-15575
rels	-15576
▁21,	-15577
▁engel	-15578
▁jelly	-15579
▁penis	-15580
icopter	-15581
wegingen	-15582
▁delicious	-15583
土地	-15584
岩石	-15585
身子	-15586
MEL	-15587
了出来	-15588
eton	-15589
▁Vill	-15590
anders	-15591
▁naakt	-15592
▁spier	-15593
▁tourn	-15594
rekking	-15595
▁albums	-15596
▁powder	-15597
▁dringen	-15598
▁tickets	-15599
▁Internet	-15600
▁ontbreekt	-15601
▁Afghanistan	-15602
▁veranderingen	-15603
急忙	-15604
▁55	-15605
nock	-15606
oked	-15607
uals	-15608
▁hip	-15609
▁sin	-15610
hetic	-15611
▁Face	-15612
▁bree	-15613
▁worn	-15614
▁Broad	-15615
▁Schot	-15616
▁exhib	-15617
▁ridic	-15618
▁dubbel	-15619
▁prince	-15620
▁stijgt	-15621
▁unusual	-15622
▁reageert	-15623
▁happiness	-15624
▁commandant	-15625
做了	-15626
感谢	-15627
egd	-15628
him	-15629
oly	-15630
你可以	-15631
▁Hil	-15632
▁Rog	-15633
▁Tit	-15634
▁duid	-15635
▁roze	-15636
inging	-15637
kingen	-15638
vatten	-15639
atively	-15640
▁slaves	-15641
▁sociaal	-15642
▁Achteruit	-15643
财经资讯	-15644
weten	-15645
▁Cult	-15646
▁Spen	-15647
▁daad	-15648
▁pigs	-15649
▁jarig	-15650
▁purch	-15651
▁witch	-15652
▁cheeks	-15653
▁explan	-15654
▁Emperor	-15655
▁Houston	-15656
▁avontuur	-15657
▁altogether	-15658
▁车	-15659
ingu	-15660
ophy	-15661
vier	-15662
▁600	-15663
▁IJs	-15664
▁oost	-15665
▁neder	-15666
honderd	-15667
▁Justin	-15668
schoenen	-15669
▁scheiden	-15670
▁industrie	-15671
▁schrikken	-15672
随便	-15673
OUT	-15674
差不多	-15675
▁Tan	-15676
eders	-15677
▁1989	-15678
▁refr	-15679
▁viss	-15680
▁dried	-15681
▁hadta	-15682
▁hielp	-15683
▁rijst	-15684
▁sloot	-15685
▁Samuel	-15686
▁hierin	-15687
▁balance	-15688
▁visited	-15689
▁instance	-15690
▁Belgische	-15691
▁suffering	-15692
▁photograph	-15693
▁gevaarlijke	-15694
边的	-15695
GER	-15696
▁Si	-15697
▁其中	-15698
发现了	-15699
kiss	-15700
last	-15701
word	-15702
active	-15703
uleren	-15704
▁Seven	-15705
▁joint	-15706
▁lands	-15707
▁drinkt	-15708
▁method	-15709
▁opgewonden	-15710
▁Nederlanden	-15711
67	-15712
现代	-15713
称为	-15714
程度	-15715
的作用	-15716
▁Alm	-15717
kunst	-15718
storm	-15719
vernij	-15720
istence	-15721
▁knieën	-15722
▁proeven	-15723
▁openbaar	-15724
▁basically	-15725
▁Mississippi	-15726
▁ontwikkelen	-15727
▁Activiteiten	-15728
▁considerable	-15729
▁才	-15730
iko	-15731
▁地方	-15732
▁Aqu	-15733
▁aye	-15734
▁nak	-15735
ördin	-15736
▁cott	-15737
aanval	-15738
▁Bravo	-15739
▁Guard	-15740
▁speler	-15741
▁Fransen	-15742
▁healthy	-15743
43	-15744
收入	-15745
营养	-15746
iga	-15747
cdots	-15748
ionen	-15749
▁Bram	-15750
▁Care	-15751
▁Kath	-15752
▁bare	-15753
▁honk	-15754
▁krab	-15755
cluded	-15756
▁biedt	-15757
▁zingt	-15758
▁gitaar	-15759
▁overst	-15760
▁Politie	-15761
▁workers	-15762
▁Michelle	-15763
促进	-15764
保证	-15765
直到	-15766
OOD	-15767
长颈鹿	-15768
▁Kay	-15769
▁ult	-15770
krant	-15771
▁Berg	-15772
▁Dire	-15773
▁besta	-15774
▁focus	-15775
▁muzik	-15776
▁poten	-15777
▁covers	-15778
▁steady	-15779
▁Kolonel	-15780
▁technologie	-15781
国足	-15782
基金	-15783
Mar	-15784
omy	-15785
▁AC	-15786
goes	-15787
▁Tro	-15788
kunde	-15789
▁Azië	-15790
▁belie	-15791
▁pregn	-15792
▁avonds	-15793
▁kissed	-15794
▁Without	-15795
▁majority	-15796
▁echtgenoot	-15797
法律	-15798
附近	-15799
Bob	-15800
IER	-15801
hurt	-15802
▁Run	-15803
▁rice	-15804
▁bijen	-15805
▁horloge	-15806
▁stronger	-15807
▁evenwicht	-15808
产业	-15809
提出	-15810
Dit	-15811
的意思	-15812
错误的	-15813
▁你好呀	-15814
▁peng	-15815
▁Jeann	-15816
▁zucht	-15817
▁Austin	-15818
▁volgde	-15819
▁Mexican	-15820
▁briefly	-15821
▁thunder	-15822
▁winters	-15823
▁badkamer	-15824
▁supermarkt	-15825
家庭	-15826
见了	-15827
▁47	-15828
▁BY	-15829
▁Jr	-15830
anim	-15831
ivia	-15832
▁bun	-15833
▁beds	-15834
▁poot	-15835
scream	-15836
▁amuse	-15837
▁warri	-15838
▁trainen	-15839
▁vaardig	-15840
▁huiswerk	-15841
▁Bonifatius	-15842
▁passagiers	-15843
UL	-15844
从小	-15845
提升	-15846
cin	-15847
jas	-15848
▁Il	-15849
}^{2}	-15850
▁cord	-15851
▁poem	-15852
▁Adams	-15853
▁Clara	-15854
▁haren	-15855
▁proof	-15856
▁rente	-15857
▁ridder	-15858
▁letting	-15859
▁sunshine	-15860
▁gedurende	-15861
农业	-15862
牙齿	-15863
▁fo	-15864
▁tu	-15865
emon	-15866
girl	-15867
[...]
