▁the
▁mot
▁and
▁you
▁chi
▁that
▁was
▁what
▁for
▁this
▁with
▁they
▁there
▁have
▁not
▁are
▁she
▁but
▁one
▁his
▁can
▁all
▁her
▁yeah
▁your
▁don
▁had
▁know
▁like
▁inv
▁from
▁out
▁here
▁him
▁were
▁get
▁now
▁just
▁well
▁then
▁when
▁right
▁fat
▁them
▁about
▁see
▁said
▁who
▁got
▁yes
▁did
▁think
▁some
▁where
▁would
▁come
▁will
▁look
▁good
▁how
▁little
▁xxx
▁want
▁okay
▁down
▁more
▁which
▁going
▁time
▁two
▁put
▁very
▁their
▁back
▁has
▁could
▁over
▁let
▁why
▁other
▁say
▁people
▁take
▁make
▁off
▁because
▁first
▁too
▁way
▁after
▁these
▁only
▁man
▁any
▁tell
▁our
▁really
▁again
▁something
▁made
▁much
▁before
▁day
▁big
▁away
▁three
▁should
▁also
▁went
▁does
▁those
▁never
▁new
▁many
▁old
▁give
▁came
▁house
▁long
▁need
▁par
▁home
▁mean
▁still
▁things
▁work
▁thing
▁may
▁play
▁through
▁great
▁thought
▁its
▁called
▁even
▁mother
▁must
▁boy
▁baby
▁last
▁won
▁done
▁find
▁night
▁looks
▁car
▁name
▁head
▁huh
▁most
▁please
▁around
▁while
▁laughs
▁thank
▁help
▁girl
▁such
▁hey
▁sure
▁book
▁found
▁better
▁used
▁place
▁water
▁years
▁life
▁erm
▁nice
▁bit
▁eat
▁hand
▁next
▁father
▁same
▁four
▁mummy
▁world
▁love
▁room
▁exp
▁school
▁own
▁left
▁saw
▁nothing
▁always
▁told
▁five
▁keep
▁lot
▁every
▁daddy
▁men
▁part
▁under
▁though
▁born
▁took
▁gone
▁cause
▁ever
▁sorry
▁looking
▁coming
▁maybe
▁dad
▁show
▁enough
▁kind
▁goes
▁door
▁money
▁use
▁until
▁year
▁once
▁box
▁talk
▁says
▁city
▁both
▁end
▁eyes
▁morning
▁best
▁open
▁face
▁side
▁known
▁each
▁asked
▁read
▁stop
▁tea
▁friend
▁wait
▁course
▁remember
▁red
▁seen
▁call
▁try
▁yet
▁round
▁today
▁leave
▁turn
▁god
▁children
▁together
▁child
▁between
▁sit
▁feel
▁different
▁few
▁without
▁makes
▁young
▁hear
▁number
▁getting
▁dear
▁later
▁sir
▁mommy
▁noise
▁heard
▁soon
▁blue
▁ready
▁mrs
▁hands
▁himself
▁sis
▁second
▁since
▁everything
▁half
▁white
▁ball
▁looked
▁making
▁story
▁american
▁small
▁haven
▁dog
▁actually
▁mind
▁hard
▁united
▁wanted
▁happened
▁miss
▁bed
▁talking
▁pretty
▁boys
▁during
▁hold
▁gma
▁fire
▁far
▁knew
▁bad
▁against
▁top
▁watch
▁six
▁family
▁hello
▁set
▁days
▁high
▁states
▁gave
▁stay
▁party
▁live
▁along
▁black
▁king
▁died
▁table
▁run
▁believe
▁brother
▁ask
▁started
▁saying
▁almost
▁bro
▁playing
▁war
▁whole
▁trying
▁green
▁light
▁move
▁food
▁matter
▁game
▁became
▁sort
▁real
▁happy
▁cat
▁probably
▁mom
▁son
▁fine
▁bring
▁country
▁comes
▁began
▁times
▁feet
▁word
▁moment
▁state
▁woman
▁town
▁floor
▁start
▁near
▁sometimes
▁already
▁girls
▁john
▁care
▁close
▁friends
▁lost
▁thomas
▁heart
▁picture
▁person
▁wrong
▁jack
▁sleep
▁played
▁minute
▁point
▁hair
▁poor
▁north
▁behind
▁voice
▁full
▁paper
▁team
▁train
▁idea
▁however
▁music
▁cup
▁means
▁air
▁ten
▁often
▁brought
▁bear
▁turned
▁front
▁outside
▁cut
▁death
▁chair
▁captain
▁points
▁lady
▁guess
▁understand
▁mine
▁seemed
▁hope
▁early
▁sound
▁dead
▁drink
▁movie
▁job
▁national
▁nan
▁taking
▁line
▁wants
▁tree
▁sec
▁taken
▁perhaps
▁piece
▁someone
▁pat
▁hundred
▁south
▁hot
▁mch
▁toys
▁twenty
▁words
▁week
▁rest
▁ones
▁takes
▁county
▁large
▁listen
▁inside
▁yourself
▁mouth
▁stand
▁seven
▁women
▁color
▁guy
▁page
▁song
▁rather
▁age
▁doctor
▁wife
▁horse
▁yellow
▁stuff
▁sea
▁till
▁sister
▁beautiful
▁myself
▁felt
▁true
▁minutes
▁fall
▁others
▁either
▁several
▁given
▁group
▁case
▁late
▁river
▁bye
▁cold
▁road
▁company
▁funny
▁body
▁boat
▁eight
▁change
▁order
▁fell
▁thanks
▁english
▁alone
▁walk
▁gets
▁ago
▁area
▁tom
▁important
▁hurt
▁animals
▁somebody
▁france
▁business
▁fish
▁sent
▁short
▁working
▁mum
▁free
▁least
▁land
▁pay
▁brown
▁march
▁guys
▁wish
▁general
▁milk
▁cried
▁hat
▁bob
▁fact
▁toy
▁history
▁fun
▁june
▁singing
▁mar
▁government
▁ground
▁usually
▁peter
▁pick
▁french
▁buy
▁tried
▁books
▁meet
▁finished
▁wow
▁dinner
▁president
▁hour
▁ran
▁everybody
▁herself
▁thinking
▁kill
▁write
▁killed
▁power
▁living
▁phone
▁held
▁running
▁nine
▁series
▁lived
▁become
▁sun
▁hit
▁football
▁dark
▁sitting
▁speak
▁january
▁west
▁kept
▁break
▁york
▁laugh
▁darling
▁nose
▁uncle
▁present
▁trouble
▁window
▁eating
▁bag
▁fast
▁bird
▁sounds
▁past
▁less
▁university
▁stood
▁chance
▁anyway
▁letter
▁ooh
▁glad
▁named
▁cds
▁tomorrow
▁street
▁foot
▁question
▁replied
▁within
▁strong
▁loi
▁afraid
▁birthday
▁fight
▁easy
▁seems
▁suppose
▁club
▁hours
▁summer
▁british
▁police
▁daughter
▁problem
▁released
▁answered
▁april
▁wonder
▁member
▁throw
▁earth
▁married
▁ship
▁joe
▁clothes
▁ice
▁tired
▁kids
▁although
▁adu
▁lovely
▁lives
▁yours
▁church
▁turns
▁deal
▁pull
▁sat
▁laughing
▁main
▁reason
▁department
▁east
▁indeed
▁clock
▁places
▁special
▁answer
▁office
▁noises
▁system
▁october
▁third
▁rock
▁shoes
▁above
▁island
▁months
▁catch
▁lay
▁july
▁careful
▁met
▁arms
▁clear
▁knows
▁passed
▁single
▁career
▁possible
▁moved
▁november
▁truck
▁worked
▁september
▁august
▁waiting
▁christmas
▁die
▁form
▁whose
▁region
▁december
▁park
▁quickly
▁middle
▁orange
▁ain
▁building
▁silence
▁eye
▁master
▁forward
▁exactly
▁television
▁touch
▁ring
▁news
▁nearly
▁reached
▁wind
▁stick
▁everyone
▁england
▁forget
▁shot
▁draw
▁broken
▁lord
▁fit
▁february
▁send
▁trees
▁juice
▁excuse
▁certain
▁army
▁tonight
▁law
▁thousand
▁couple
▁husband
▁drive
▁silly
▁longer
▁clean
▁low
▁standing
▁evening
▁human
▁village
▁mama
▁caught
▁million
▁return
▁board
▁returned
▁language
▁class
▁built
▁feeling
▁service
▁needs
▁straight
▁arm
▁written
▁frog
▁save
▁chapter
▁player
▁aunt
▁seat
▁certainly
▁station
▁nobody
▁blood
▁games
▁hungry
▁major
▁using
▁sing
▁tape
▁gra
▁frank
▁album
▁mark
▁anyone
▁miles
▁quick
▁changed
▁works
▁holding
▁london
▁century
▁opened
▁cow
▁quiet
▁cake
▁including
▁wear
▁ride
▁stopped
▁wall
▁yep
▁broke
▁hell
▁german
▁followed
▁bus
▁suddenly
▁honey
▁season
▁breakfast
▁pardon
▁district
▁band
▁carry
▁moving
▁heavy
▁former
▁strange
▁garden
▁mary
▁yesterday
▁rose
▁crying
▁george
▁field
▁push
▁gold
▁cry
▁david
▁example
▁common
▁chief
▁camp
▁fellow
▁kitchen
▁legs
▁pieces
▁fraser
▁wee
▁added
▁sweet
▁ben
▁cross
▁giving
▁sight
▁afternoon
▁bunny
▁wrote
▁based
▁hole
▁led
▁cool
▁space
▁supposed
▁thirty
▁weeks
▁star
▁gun
▁public
▁bottom
▁bread
▁decided
▁plan
▁animal
▁pictures
▁position
▁population
▁nor
▁dress
▁apple
▁sick
▁watching
▁sings
▁teacher
▁stuck
▁safe
▁helen
▁duck
▁members
▁fifty
▁bought
▁learn
▁indian
▁bill
▁film
▁silver
▁check
▁happens
▁somewhere
▁snow
▁hall
▁shop
▁nin
▁deep
▁figure
▁pass
▁flowers
▁america
▁finish
▁exclaimed
▁none
▁international
▁except
▁parents
▁leaving
▁finally
▁fair
▁meant
▁queen
▁warm
▁truth
▁force
▁received
▁win
▁coffee
▁dat
▁chicken
▁jump
▁list
▁league
▁act
▁cover
▁further
▁control
▁busy
▁college
▁bottle
▁hospital
▁cars
▁kiss
▁pink
▁follow
▁plays
▁teeth
▁lake
▁walking
▁fucking
▁cheese
▁reach
▁bet
▁continued
▁wild
▁beginning
▁billy
▁harry
▁kid
▁commune
▁especially
▁appeared
▁doll
▁engine
▁moon
▁visit
▁fear
▁gives
▁james
▁stone
▁type
▁spoke
▁shit
▁art
▁attack
▁illustration
▁race
▁capital
▁farm
▁wood
▁dance
▁officer
▁bridge
▁dis
▁created
▁allowed
▁sense
▁lunch
▁lie
▁minister
▁birds
▁information
▁build
▁fuck
▁fly
▁walked
▁letters
▁sky
▁court
▁tail
▁writing
▁famous
▁pig
▁view
▁attention
▁step
▁soft
▁reading
▁blow
▁welcome
▁wash
▁stars
▁corner
▁council
▁likes
▁dropped
▁distance
▁parts
▁pop
▁month
▁bath
▁level
▁starts
▁battle
▁paul
▁leaves
▁due
▁hill
▁horses
▁pretend
▁record
▁grandma
▁interest
▁meeting
▁bank
▁pounds
▁germany
▁difficult
▁local
▁winter
▁wonderful
▁lead
▁ate
▁plate
▁lose
▁monkey
▁drop
▁dry
▁elephant
▁shape
▁count
▁eggs
▁japan
▁shows
▁popular
▁teddy
▁store
▁countries
▁object
▁bright
▁laughed
▁sign
▁spot
▁wet
▁species
▁ears
▁mad
▁hang
▁video
▁rabbit
▁michael
▁crayon
▁fix
▁grew
▁union
▁crazy
▁names
▁report
▁character
▁amy
▁cream
▁jim
▁interesting
▁central
▁twelve
▁liked
▁trust
▁favorite
▁future
▁kitty
▁lying
▁slowly
▁bobby
▁finger
▁charge
▁cook
▁term
▁glass
▁sheep
▁rain
▁below
▁egg
▁whoa
▁post
▁worth
▁kingdom
▁doubt
▁needed
▁unless
▁track
▁showed
▁secret
▁include
▁alive
▁betty
▁paid
▁grow
▁fingers
▁surprise
▁camera
▁largest
▁questions
▁grass
▁period
▁wide
▁closed
▁stories
▁india
▁cries
▁square
▁dogs
▁western
▁mountain
▁interested
▁sad
▁loved
▁problems
▁forgot
▁speaking
▁beat
▁self
▁grand
▁sam
▁smile
▁action
▁bigger
▁covered
▁forty
▁serious
▁sleeping
▁terrible
▁hate
▁scared
▁match
▁neck
▁hide
▁moves
▁leg
▁health
▁circle
▁dirty
▁robert
▁center
▁roll
▁roman
▁support
▁chocolate
▁clever
▁lion
▁key
▁dream
▁stage
▁base
▁hardly
▁loud
▁machine
▁promise
▁henry
▁asleep
▁leader
▁aft
▁therefore
▁study
▁various
▁conversation
▁province
▁served
▁mess
▁direction
▁japanese
▁prince
▁drawing
▁share
▁europe
▁aye
▁tall
▁counter
▁helped
▁perfect
▁carl
▁mouse
▁tiny
▁natural
▁size
▁modern
▁press
▁ways
▁joined
▁older
▁picked
▁california
▁tiger
▁likely
▁caused
▁total
▁sue
▁bite
▁spent
▁final
▁considered
▁sarah
▁nature
▁similar
▁beyond
▁card
▁bell
▁shoot
▁flying
▁entered
▁calling
▁military
▁coat
▁political
▁spoon
▁learned
▁directed
▁politician
▁tower
▁fighting
▁forest
▁peace
▁lines
▁choo
▁radio
▁driving
▁shirt
▁role
▁wake
▁spring
▁declared
▁spanish
▁numbers
▁worse
▁meat
▁att
▁northern
▁agreed
▁award
▁van
▁computer
▁lower
▁whispered
▁rich
▁san
▁situation
▁social
▁movies
▁upstairs
▁enemy
▁danger
▁soldiers
▁beach
▁shore
▁oops
▁eleanor
▁angry
▁drew
▁produced
▁expect
▁simple
▁education
▁director
▁sunday
▁energy
▁laid
▁join
▁dressed
▁starting
▁fresh
▁colors
▁stupid
▁sharp
▁knock
▁ancient
▁original
▁australia
▁european
▁missing
▁william
▁discovered
▁jesus
▁hiding
▁placed
▁songs
▁houses
▁anne
▁dick
▁babies
▁naughty
▁beside
▁windows
▁pain
▁besides
▁meaning
▁pointing
▁driver
▁cookie
▁neither
▁steps
▁ladies
▁absolutely
▁professional
▁personal
▁formed
▁luck
▁lucky
▁tries
▁length
▁speed
▁forth
▁dollars
▁royal
▁ear
▁snake
▁arrived
▁blocks
▁date
▁census
▁pocket
▁note
▁puppet
▁pen
▁skin
▁plane
▁threw
▁escape
▁filled
▁gate
▁charles
▁society
▁continues
▁lee
▁urs
▁sold
▁dolly
▁hmm
▁raised
▁actor
▁higher
▁sell
▁falling
▁mostly
▁block
▁easily
▁spend
▁woods
▁adult
▁butter
▁damn
▁coast
▁hotel
▁watched
▁wheel
▁weather
▁pleasure
▁wearing
▁china
▁shoe
▁phil
▁difference
▁goodness
▁private
▁trip
▁immediately
▁puzzle
▁completely
▁cost
▁background
▁pulled
▁storm
▁nina
▁ended
▁gas
▁dangerous
▁tony
▁richard
▁southern
▁missed
▁price
▁thinks
▁anywhere
▁bang
▁smell
▁current
▁twice
▁breath
▁magic
▁article
▁jane
▁huge
▁handle
▁scene
▁municipality
▁surprised
▁deck
▁feed
▁purple
▁sugar
▁amount
▁tur
▁taste
▁saturday
▁fox
▁account
▁empty
▁cousin
▁monster
▁announced
▁believed
▁professor
▁lid
▁brush
▁spread
▁governor
▁fruit
▁smoke
▁experience
▁centre
▁effect
▁singer
▁sib
▁market
▁paris
▁lad
▁lights
▁joy
▁duty
▁community
▁subject
▁bar
▁paint
▁begin
▁runs
▁maggie
▁result
▁explain
▁iron
▁edge
▁per
▁enjoy
▁pleased
▁expected
▁spirit
▁double
▁charlie
▁walks
▁imagine
▁mountains
▁science
▁notice
▁published
▁fallen
▁groups
▁lieutenant
▁opening
▁russian
▁swimming
▁election
▁pause
▁ill
▁begins
▁bowl
▁castle
▁heads
▁slow
▁necessary
▁officers
▁soul
▁earlier
▁growing
▁guns
▁founded
▁spoken
▁terms
▁movement
▁italian
▁areas
▁sex
▁choice
▁evidence
▁val
▁mike
▁trade
▁eastern
▁test
▁supper
▁plants
▁tears
▁rule
▁stairs
▁event
▁flat
▁golden
▁princess
▁female
▁knife
▁flower
▁purpose
▁faith
▁fourth
▁awful
▁crew
▁christian
▁plant
▁bloody
▁accident
▁tone
▁usual
▁brothers
▁grown
▁sand
▁fifteen
▁prime
▁ocean
▁located
▁canada
▁laura
▁medicine
▁button
▁basket
▁italy
▁journey
▁nurse
▁africa
▁path
▁bow
▁keeping
▁carefully
▁shake
▁eleven
▁promised
▁anna
▁search
▁empire
▁proud
▁saved
▁otherwise
▁dancing
▁agree
▁whoops
▁range
▁fri
▁rights
▁telephone
▁extra
▁quarter
▁watches
▁ordered
▁nods
▁version
▁soa
▁strength
▁oil
▁success
▁listening
▁washington
▁development
▁jen
▁native
▁chinese
▁roof
▁slide
▁involved
▁falls
▁title
▁tells
▁obviously
▁choose
▁noticed
▁generally
▁shoulder
▁alice
▁ross
▁offer
▁martin
▁smaller
▁rate
▁pot
▁changes
▁research
▁message
▁training
▁friday
▁calls
▁aged
▁taught
▁super
▁fellows
▁guard
▁orders
▁lips
▁fault
▁command
▁prison
▁republic
▁mistake
▁regular
▁finding
▁prize
▁pair
▁flight
▁youth
▁bonnet
▁row
▁adam
▁islands
▁pound
▁meal
▁rough
▁sudden
▁style
▁events
▁sides
▁ann
▁pleasant
▁rocks
▁showing
▁impossible
▁boo
▁rya
▁program
▁ned
▁allow
▁everywhere
▁climb
▁brain
▁closer
▁normal
▁beauty
▁surface
▁murder
▁spain
▁shown
▁gentleman
▁drinking
▁cases
▁downstairs
▁greater
▁official
▁santa
▁teach
▁brave
▁stands
▁bay
▁judge
▁civil
▁possibly
▁colonel
▁related
▁yum
▁wheels
▁tongue
▁forces
▁honor
▁texas
▁entire
▁ninety
▁division
▁sixty
▁pie
▁prepared
▁remained
▁calm
▁rules
▁commander
▁managed
▁jumped
▁leading
▁seconds
▁cards
▁championship
▁students
▁complete
▁cities
▁worried
▁studio
▁services
▁riding
▁farmer
▁pants
▁papa
▁sits
▁carrying
▁evil
▁gray
▁lift
▁boss
▁crash
▁pizza
▁doors
▁actress
▁excited
▁developed
▁marriage
▁suggested
▁valley
▁suit
▁languages
▁greek
▁gentlemen
▁fixed
▁practice
▁bits
▁academy
▁ships
▁sung
▁plans
▁forgotten
▁awards
▁heat
▁appearance
▁faces
▁definitely
▁committee
▁process
▁male
▁shouted
▁pulls
▁sandwich
▁players
▁schools
▁opens
▁crime
▁channel
▁weight
▁protect
▁greatest
▁mister
▁kay
▁quietly
▁security
▁records
▁dare
▁saint
▁bessie
▁softly
▁opportunity
▁included
▁loves
▁mamma
▁kick
▁opposite
▁metal
▁gordon
▁bike
▁continue
▁stayed
▁steven
▁holiday
▁mass
▁helping
▁nope
▁bedroom
▁model
▁sports
▁dutch
▁rope
▁heaven
▁museum
▁bound
▁nineteen
▁morrow
▁cast
▁throat
▁afterwards
▁manager
▁knee
▁speech
▁spider
▁tie
▁wan
▁walls
▁formula
▁safety
▁towel
▁younger
▁directly
▁crowd
▁project
▁offered
▁wolf
▁media
▁apparently
▁highest
▁thick
▁ideas
▁successful
▁papers
▁cloth
▁wine
▁remain
▁knowledge
▁fred
▁biggest
▁holy
▁balls
▁yyy
▁decision
▁marry
▁salt
▁eaten
▁secretary
▁clown
▁easier
▁coach
▁balloon
▁cabin
▁smiled
▁teams
▁toast
▁site
▁sake
▁travel
▁boats
▁bout
▁accept
▁smart
▁ourselves
▁glasses
▁retired
▁plain
▁respect
▁frightened
▁sighs
▁memory
▁swim
▁yup
▁smith
▁forced
▁microphone
▁painting
▁whispers
▁roz
▁ass
▁risk
▁yard
▁larger
▁knowing
▁pages
▁writer
▁shopping
▁goodbye
▁mentioned
▁boots
▁somewhat
▁elected
▁add
▁flew
▁giant
▁corn
▁picking
▁max
▁eighty
▁monday
▁dinosaur
▁wings
▁loss
▁shook
▁settled
▁filler
▁mate
▁silent
▁cats
▁lawyer
▁theory
▁olympics
▁wedding
▁drops
▁types
▁powerful
▁palace
▁fancy
▁studied
▁excellent
▁pet
▁pool
▁honest
▁airport
▁nursery
▁zoo
▁rings
▁explained
▁fairy
▁upper
▁anxious
▁medical
▁perfectly
▁chairman
▁washing
▁keys
▁disease
▁production
▁signed
▁hanging
▁string
▁buddy
▁comfortable
▁grace
▁port
▁mission
▁release
▁waited
▁hearing
▁desk
▁acting
▁available
▁talks
▁grandmother
▁cell
▁cancer
▁feels
▁indians
▁wise
▁passing
▁hills
▁activity
▁prove
▁fort
▁russia
▁gay
▁vote
▁louis
▁flag
▁soldier
▁decide
▁association
▁bin
▁response
▁attempt
▁enter
▁episode
▁appear
▁fishing
▁fence
▁brilliant
▁hero
▁faster
▁blanket
▁upset
▁roger
▁chris
▁pressure
▁shouts
▁thoughts
▁fought
▁reply
▁cute
▁culture
▁crown
▁value
▁soviet
▁willing
▁christ
▁average
▁serve
▁fad
▁clearly
▁staff
▁yay
▁fill
▁troops
▁magazine
▁lap
▁motion
▁mile
▁african
▁tight
▁drawn
▁library
▁throwing
▁footnote
▁effort
▁iii
▁forever
▁smiling
▁andy
▁stones
▁bathroom
▁pushed
▁cooking
▁property
▁shakes
▁condition
▁policy
▁fashion
▁justice
▁objects
▁baseball
▁characters
▁dozen
▁bert
▁swing
▁stream
▁rid
▁artist
▁hung
▁relationship
▁tractor
▁stan
▁ireland
▁worst
▁disappeared
▁dan
▁waves
▁author
▁birth
▁parliament
▁thin
▁rise
▁remembered
▁forms
▁soup
▁knocked
▁fired
▁emperor
▁knees
▁concerned
▁barn
▁chicago
▁weird
▁presence
▁foreign
▁includes
▁thrown
▁ruth
▁failed
▁throws
▁described
▁established
▁friendly
▁fully
▁bee
▁sail
▁jones
▁manage
▁waste
▁amazing
▁rush
▁lara
▁ends
▁treat
▁families
▁doggie
▁australian
▁percent
▁shh
▁mexico
▁feelings
▁gently
▁fool
▁vessel
▁drama
▁thumb
▁joseph
▁understood
▁tied
▁crayons
▁grandpa
▁address
▁realize
▁seriously
▁grandfather
▁belong
▁previous
▁florida
▁material
▁helps
▁independent
▁wished
▁los
▁opinion
▁expand
▁currently
▁notes
▁wave
▁data
▁agent
▁jimmy
▁becoming
▁tale
▁darkness
▁rome
▁patient
▁section
▁scott
▁mirror
▁dying
▁haha
▁correct
▁elizabeth
▁statistics
▁cap
▁shoulders
▁degree
▁cups
▁buried
▁shooting
▁peas
▁consider
▁figures
▁socks
▁planet
▁ellie
▁gentle
▁tip
▁contact
▁mixed
▁fifth
▁boxes
▁dada
▁lies
▁pushes
▁totally
▁drove
▁bunch
▁airplane
▁garage
▁spell
▁originally
▁design
▁effects
▁rolling
▁jumping
▁canadian
▁voices
▁gift
▁merry
▁mail
▁penny
▁latin
▁sword
▁performance
▁joke
▁edward
▁damage
▁freedom
▁mainly
▁hidden
▁wipe
▁butterfly
▁repeated
▁tummy
▁plus
▁folks
▁julia
▁reported
▁recording
▁killing
▁determined
▁sets
▁goat
▁industry
▁tommy
▁trains
▁plastic
▁puppy
▁bull
▁network
▁eventually
▁reasons
▁cutting
▁fortune
▁fields
▁features
▁observed
▁gosh
▁owned
▁toes
▁breaking
▁hop
▁touched
▁alexander
▁realized
▁arthur
▁forgive
▁religion
▁americans
▁lock
▁boom
▁blind
▁scotland
▁recently
▁medal
▁active
▁strike
▁pooh
▁religious
▁hockey
▁bush
▁stops
▁narrow
▁buildings
▁stranger
▁pan
▁individual
▁expression
▁ted
▁trail
▁ladder
▁pack
▁staying
▁direct
▁yummy
▁turkey
▁burning
▁influence
▁divided
▁bears
▁rice
▁chest
▁recorded
▁trick
▁deer
▁victory
▁mention
▁horrible
▁learning
▁branch
▁brian
▁whenever
▁sisters
▁normally
▁motor
▁signal
▁matches
▁burn
▁separate
▁task
▁sees
▁scientists
▁bitch
▁paying
▁cookies
▁beep
▁gathered
▁winning
▁boston
▁ray
▁slightly
▁madam
▁standard
▁locked
▁traffic
▁steve
▁grave
▁newspaper
▁carriage
▁trunk
▁bones
▁advice
▁sweetheart
▁companies
▁britain
▁clouds
▁desire
▁holes
▁issue
▁wore
▁dreams
▁instant
▁owner
▁destroyed
▁climate
▁caterpillar
▁authority
▁owl
▁loose
▁seventy
▁companion
▁tough
▁receive
▁hunting
▁curious
▁pour
▁border
▁performed
▁student
▁electric
▁frogs
▁musical
▁partner
▁grant
▁pencil
▁weapons
▁slept
▁nick
▁streets
▁wooden
▁positive
▁delight
▁postman
▁doggy
▁excitement
▁create
▁cloud
▁quack
▁mud
▁yards
▁brings
▁tent
▁broad
▁prisoners
▁treasure
▁referring
▁systems
▁hug
▁copy
▁zzz
▁grey
▁cash
▁duh
▁chase
▁auntie
▁bodies
▁jerry
▁candy
▁shout
▁icecream
▁results
▁bags
▁source
▁democratic
▁banana
▁planning
▁becomes
▁patsy
▁aware
▁weekend
▁stub
▁polly
▁railway
▁removed
▁proved
▁harm
▁tickle
▁dorothy
▁weak
▁dust
▁sticks
▁operation
▁nana
▁trial
▁chairs
▁category
▁creature
▁adventure
▁odd
▁aid
▁tim
▁oth
▁thousands
▁stubs
▁familiar
▁comedy
▁racing
▁bless
▁handed
▁angeles
▁federal
▁sport
▁laws
▁neat
▁mayor
▁lifted
▁shame
▁ours
▁tank
▁rising
▁touches
▁temple
▁jean
▁asia
▁stepped
▁rooms
▁listened
▁congress
▁bone
▁jobs
▁allah
▁awake
▁queer
▁dragon
▁wounded
▁sang
▁pilot
▁toilet
▁truly
▁raise
▁branches
▁hearts
▁useful
▁poo
▁irish
▁alarm
▁enjoyed
▁switzerland
▁tour
▁daily
▁code
▁introduced
▁sorts
▁bricks
▁equal
▁folk
▁humans
▁sons
▁signs
▁underneath
▁courage
▁mighty
▁kim
▁moo
▁detective
▁beer
▁technology
▁hunt
▁quality
▁goal
▁nearer
▁festival
▁hurried
▁shower
▁competition
▁peggy
▁fireman
▁recorder
▁chips
▁organization
▁structure
▁mat
▁lucy
▁blows
▁difficulty
▁kat
▁landed
▁responsible
▁nation
▁studies
▁invited
▁losing
▁chain
▁steady
▁giggles
▁changing
▁armed
▁blame
▁turtle
▁dolls
▁angel
▁treated
▁novel
▁washed
▁cows
▁split
▁aah
▁required
▁lonely
▁replaced
▁territory
▁captured
▁nervous
▁campaign
▁ordinary
▁grab
▁host
▁remains
▁purse
▁eve
▁becky
▁woof
▁nest
▁exciting
▁temperature
▁spare
▁marks
▁firm
▁provided
▁pony
▁handsome
▁burst
▁pipe
▁accepted
▁engaged
▁jacket
▁selling
▁catholic
▁credit
▁couch
▁speaks
▁unit
▁guilty
▁score
▁ugly
▁jigsaw
▁glance
▁oliver
▁presents
▁slave
▁leaf
▁shouting
▁designed
▁lisa
▁shell
▁ghost
▁hammer
▁eric
▁cave
▁prisoner
▁apartment
▁recognized
▁col
▁trousers
▁conditions
▁delicious
▁guide
▁parties
▁advantage
▁piano
▁pity
▁robin
▁tuesday
▁relief
▁florence
▁chosen
▁ages
▁pushing
▁rushed
▁contract
▁pile
▁appointed
▁sixteen
▁colour
▁lorry
▁doo
▁setting
▁rescue
▁finds
▁waters
▁labour
▁comfort
▁nicole
▁conference
▁etc
▁refused
▁tropical
▁attacked
▁powers
▁economic
▁legal
▁laughter
▁eighteen
▁appears
▁walter
▁produce
▁arts
▁slipped
▁sore
▁egypt
▁physical
▁planned
▁pale
▁potato
▁screams
▁affairs
▁hoping
▁wing
▁lamb
▁increased
▁donald
▁volume
▁provide
▁nations
▁shadow
▁drunk
▁soap
▁towns
▁belt
▁chemical
▁treatment
▁admit
▁alex
▁supply
▁circumstances
▁policeman
▁mistress
▁oldest
▁dishes
▁pray
▁thursday
▁kar
▁favor
▁stock
▁caroline
▁duke
▁ela
▁collection
▁increase
▁jail
▁fourteen
▁crossed
▁load
▁intended
▁warning
▁picnic
▁revolution
▁climbing
▁wagon
▁universe
▁stomach
▁beans
▁guest
▁recent
▁zealand
▁mmm
▁expensive
▁drug
▁lane
▁kidding
▁gained
▁content
▁satisfied
▁reaching
▁brazil
▁screen
▁destroy
▁honour
▁dig
▁approach
▁hook
▁nancy
▁rolled
▁majesty
▁map
▁sergeant
▁drugs
▁desert
▁sally
▁pigs
▁connected
▁demanded
▁lessons
▁addition
▁pride
▁smiles
▁brick
▁refers
▁avoid
▁express
▁jenny
▁wha
▁escaped
▁fate
▁extremely
▁circus
▁giraffe
▁fur
▁unknown
▁claim
▁selected
▁scary
▁lesson
▁prevent
▁wednesday
▁climbed
▁basically
▁quit
▁tunnel
▁daniel
▁actual
▁text
▁breathing
▁adventures
▁hoped
▁shock
▁despite
▁colored
▁ducks
▁senior
▁pakistan
▁jimmie
▁scale
▁blowing
▁seek
▁hasta
▁contents
▁occasion
▁teaching
▁route
▁pole
▁eagerly
▁gods
▁traditional
▁shining
▁navy
▁mel
▁nights
▁coal
▁leans
▁bucket
▁rolls
▁workers
▁seated
▁moments
▁dawn
▁progress
▁sentence
▁den
▁maid
▁mix
▁champion
▁wrestling
▁tracks
▁vice
▁pond
▁file
▁marie
▁mount
▁arrest
▁slight
▁weapon
▁entrance
▁abe
▁belongs
▁distant
▁susan
▁molly
▁ken
▁fleet
▁witch
▁enemies
▁advance
▁whispering
▁buttons
▁daisy
▁harder
▁sandy
▁cells
▁austria
▁sweden
▁bent
▁assembly
▁kissed
▁worn
▁marked
▁pitcher
▁gain
▁lois
▁sunshine
▁rear
▁annie
▁painted
▁splash
▁netherlands
▁mid
▁shops
▁hundreds
▁plates
▁maria
▁bubbles
▁thirteen
▁innocent
▁roles
▁jason
▁snap
▁victim
▁access
▁advanced
▁dude
▁construction
▁slaves
▁driven
▁tin
▁ugh
▁teachers
▁wound
▁beast
▁virginia
▁passengers
▁rivers
▁debut
▁bump
▁involuntary
▁tax
▁suffered
▁swear
▁eager
▁details
▁fed
▁horn
▁rare
▁producer
▁goods
▁nuts
▁sending
▁passage
▁independence
▁statement
▁doctors
▁shed
▁basketball
▁entertainment
▁spirits
▁kings
▁burned
▁atlantic
▁seats
▁philip
▁protection
▁nonsense
▁ouch
▁steal
▁beg
▁rachel
▁emergency
▁bomb
▁refer
▁proposed
▁bart
▁dish
▁apples
▁noble
▁distributed
▁inhabitants
▁slip
▁affair
▁economy
▁presented
▁priest
▁wales
▁issues
▁recognize
▁arrested
▁bible
▁causes
▁cage
▁homes
▁oven
▁stole
▁sink
▁mabel
▁spots
▁limited
▁junior
▁voc
▁shaking
▁dollar
▁pee
▁killer
▁glo
▁pirate
▁pillow
▁drinks
▁kisses
▁completed
▁woo
▁exist
▁location
▁arranged
▁dem
▁opera
▁peanut
▁splendid
▁covers
▁mickey
▁draws
▁tools
▁guests
▁margaret
▁craft
▁grapes
▁films
▁mystery
▁jelly
▁happiness
▁landing
▁els
▁whisper
▁succeeded
▁buying
▁creek
▁chose
▁log
▁jackson
▁creatures
▁bishop
▁principal
▁measure
▁confidence
▁settle
▁sylvia
▁management
▁precious
▁returning
▁ability
▁naturally
▁suggest
▁potatoes
▁aha
▁audience
▁madame
▁israel
▁louise
▁nap
▁clap
▁trucks
▁johnny
▁ellen
▁switch
▁appreciate
▁occupied
▁kissing
▁hut
▁companions
▁barbara
▁punch
▁screaming
▁sounded
▁noisy
▁majority
▁disney
▁hits
▁transport
▁internet
▁contains
▁platform
▁andrew
▁matthew
▁failure
▁roads
▁height
▁bushes
▁lincoln
▁steel
▁institute
▁equipment
▁ambulance
▁hay
▁flash
▁attempts
▁follows
▁unusual
▁aircraft
▁smooth
▁backwards
▁brief
▁christopher
▁kate
▁wire
▁jewish
▁settlement
▁units
▁politics
▁glory
▁exercise
▁exchange
▁faced
▁sailor
▁johnson
▁primary
▁steam
▁arab
▁stronger
▁servant
▁suffering
▁meanwhile
▁ryan
▁description
▁gina
▁cheeks
▁struggle
▁sigh
▁jam
▁surrounded
▁pussy
▁compared
▁net
▁sleepy
▁matt
▁brand
▁poet
▁solid
▁crocodile
▁powder
▁theatre
▁balance
▁seized
▁sexual
▁beds
▁bees
▁eddie
▁danny
▁efforts
▁raining
▁persons
▁pure
▁fork
▁fan
▁proof
▁korea
▁basic
▁delighted
▁discovery
▁shapes
▁de
▁je
▁het
▁een
▁en
▁niet
▁zijn
▁wat
▁ze
▁voor
▁er
▁maar
▁aan
▁heb
▁dit
▁ook
▁nog
▁uit
▁kan
▁hier
▁moet
▁heeft
▁wel
▁jij
▁geen
▁ja
▁hebben
▁deze
▁goed
▁wil
▁nu
▁weet
▁hoe
▁hem
▁waar
▁haar
▁meer
▁gaan
▁al
▁gaat
▁daar
▁zou
▁wordt
▁kom
▁worden
▁kunnen
▁veel
▁ons
▁zal
▁iets
▁waarom
▁tot
▁alleen
▁laat
▁mensen
▁moeten
▁twee
▁zien
▁eens
▁toch
▁nou
▁weer
▁alles
▁wie
▁maken
▁komt
▁weg
▁doe
▁echt
▁werd
▁jou
▁tijd
▁jaar
▁nooit
▁komen
▁hun
▁denk
▁andere
▁terug
▁tegen
▁laten
▁kijk
▁leven
▁zei
▁mag
▁onze
▁na
▁staat
▁af
▁zie
▁zit
▁nodig
▁iemand
▁misschien
▁omdat
▁altijd
▁kunt
▁zoals
▁niets
▁dag
▁zij
▁waren
▁grote
▁zeggen
▁alle
▁één
▁geef
▁oké
▁gewoon
▁eerste
▁hou
▁maak
▁zegt
▁onder
▁allemaal
▁vind
▁zeg
▁vader
▁weten
▁huis
▁doet
▁uw
▁kinderen
▁drie
▁zitten
▁kun
▁anders
▁gedaan
▁welke
▁iedereen
▁dood
▁hele
▁vragen
▁jouw
▁vinden
▁moeder
▁willen
▁nieuwe
▁tussen
▁ging
▁wacht
▁wilde
▁geld
▁vrouw
▁beter
▁binnen
▁volgende
▁kon
▁werk
▁zullen
▁zelf
▁lang
▁zeker
▁leuk
▁ziet
▁samen
▁maakt
▁uur
▁kijken
▁vraag
▁wilt
▁eerst
▁wereld
▁klaar
▁zonder
▁dacht
▁snel
▁kwam
▁niemand
▁krijgen
▁nederland
▁eten
▁gezien
▁geven
▁naam
▁niks
▁eigen
▁gemaakt
▁tekst
▁mooi
▁genoeg
▁dank
▁dingen
▁neem
▁achter
▁opdracht
▁auto
▁meneer
▁beetje
▁houden
▁natuurlijk
▁blijven
▁hé
▁stad
▁laatste
▁bedankt
▁helpen
▁vaak
▁hoor
▁wist
▁praten
▁jongen
▁wanneer
▁elke
▁kleine
▁spijt
▁groot
▁verder
▁graag
▁zelfs
▁hallo
▁hadden
▁beste
▁paar
▁bijna
▁gebruik
▁ooit
▁soms
▁plaats
▁verschillende
▁vandaag
▁lijkt
▁geeft
▁gek
▁werden
▁zet
▁blijf
▁jongens
▁zag
▁werken
▁meisje
▁tijdens
▁daarom
▁stap
▁deed
▁schrijf
▁nemen
▁alsjeblieft
▁vriend
▁krijgt
▁woorden
▁vindt
▁vier
▁informatie
▁he
▁gebruikt
▁buiten
▁idee
▁manier
▁luister
▁spelen
▁horen
▁eigenlijk
▁mannen
▁tweede
▁thuis
▁deel
▁hoofd
▁hen
▁heet
▁pas
▁oude
▁antwoord
▁zoek
▁vijf
▁denken
▁halen
▁morgen
▁gebruiken
▁geweldig
▁soort
▁kant
▁lees
▁aantal
▁zoon
▁boek
▁lekker
▁oud
▁verhaal
▁familie
▁dagen
▁ogen
▁houdt
▁jaren
▁gebeurt
▁krijg
▁boven
▁geleden
▁woord
▁daarna
▁gelijk
▁precies
▁oorlog
▁denkt
▁zin
▁foto
▁koning
▁vroeg
▁betekent
▁gezegd
▁hoop
▁kamer
▁vrienden
▁pak
▁zat
▁landen
▁minder
▁klein
▁gevonden
▁vertel
▁juist
▁geloof
▁ander
▁vooral
▁werkt
▁rustig
▁bestaat
▁elk
▁blijft
▁leren
▁kans
▁mogelijk
▁blij
▁hoort
▁lopen
▁probleem
▁minuten
▁wachten
▁mooie
▁rond
▁vanaf
▁zoeken
▁sinds
▁terwijl
▁vrouwen
▁belangrijk
▁kreeg
▁gehad
▁brengen
▁eruit
▁verdomme
▁bron
▁ongeveer
▁hond
▁deur
▁vanavond
▁voel
▁echte
▁handen
▁slecht
▁vrij
▁probeer
▁ding
▁beginnen
▁jezelf
▁onderwerp
▁ouders
▁lezen
▁dieren
▁duidelijk
▁tien
▁mogen
▁vol
▁hart
▁nummer
▁stond
▁hetzelfde
▁stuk
▁nieuw
▁groep
▁pijn
▁gelukkig
▁aarde
▁ergens
▁grond
▁orde
▁lucht
▁mevrouw
▁begrijp
▁nederlandse
▁voordat
▁problemen
▁sommige
▁licht
▁zorg
▁druk
▁grootste
▁bekend
▁eerder
▁politie
▁liefde
▁vallen
▁moeilijk
▁hulp
▁zes
▁via
▁slapen
▁valt
▁einde
▁proberen
▁ver
▁broer
▁bekijk
▁kent
▁begint
▁geloven
▁gehoord
▁mens
▁pakken
▁schat
▁meeste
▁spreken
▁gaf
▁wees
▁les
▁vergeten
▁loopt
▁beeld
▁beneden
▁gezicht
▁afbeelding
▁onderzoek
▁stoppen
▁genoemd
▁schiet
▁schrijven
▁muziek
▁enkele
▁vooruit
▁nieuws
▁kennis
▁geluid
▁gebied
▁bezig
▁vraagt
▁breng
▁weinig
▁miljoen
▁naast
▁lichaam
▁drinken
▁zee
▁bel
▁anderen
▁gegeven
▁meester
▁praat
▁dochter
▁voorbij
▁bloed
▁amerikaanse
▁mis
▁nacht
▁wakker
▁kwamen
▁begon
▁zeer
▁lange
▁staten
▁neemt
▁verteld
▁vroeger
▁betalen
▁kopen
▁maanden
▁doden
▁reden
▁duitsland
▁overal
▁meter
▁punten
▁eeuw
▁recht
▁meestal
▁prima
▁dokter
▁welkom
▁fijn
▁rijden
▁waarschijnlijk
▁mond
▁figuur
▁kaart
▁geval
▁straks
▁kop
▁leger
▁voelt
▁klopt
▁alstublieft
▁beide
▁veilig
▁ter
▁redden
▁amerika
▁vorm
▁stil
▁eén
▁buurt
▁antwoorden
▁rijk
▁fout
▁uiteindelijk
▁vermoord
▁zon
▁meest
▁der
▁inhoud
▁klas
▁meisjes
▁vergeet
▁weken
▁baas
▁eet
▁avond
▁opnieuw
▁heer
▁eind
▁klinkt
▁voorbeeld
▁delen
▁schip
▁hoorde
▁regering
▁hieronder
▁geboren
▁veranderen
▁baan
▁geluk
▁afbeeldingen
▁frankrijk
▁ieder
▁macht
▁partij
▁heren
▁spel
▁oma
▁gevraagd
▁sterven
▁onderdeel
▁bal
▁vechten
▁kracht
▁bellen
▁mam
▁links
▁kapitein
▁zichzelf
▁succes
▁persoon
▁verenigde
▁kies
▁regels
▁hoog
▁rol
▁rust
▁hield
▁boos
▁punt
▁eerlijk
▁belangrijke
▁geschiedenis
▁midden
▁doel
▁erin
▁telefoon
▁ruimte
▁zeven
▁liever
▁houd
▁zinnen
▁sterk
▁prachtig
▁leerlingen
▁speelt
▁verloren
▁slag
▁eindelijk
▁winnen
▁acht
▁langer
▁kerk
▁schuld
▁zwarte
▁waarheid
▁toekomst
▁stemmen
▁keek
▁voorzichtig
▁pap
▁begrepen
▁boeken
▁vriendin
▁ziek
▁rode
▁iedere
▁trouwen
▁soorten
▁mezelf
▁opa
▁groter
▁normaal
▁prijs
▁gevoel
▁google
▁witte
▁kleur
▁stellen
▁slechts
▁nam
▁bestaan
▁duitse
▁jonge
▁euro
▁examen
▁paard
▁wedstrijd
▁trein
▁wilden
▁steden
▁energie
▁belangrijkste
▁derde
▁koffie
▁reis
▁dames
▁maand
▁europese
▁kiezen
▁kwijt
▁allebei
▁vuur
▁geschreven
▁bedrijf
▁verschil
▁gisteren
▁straat
▁viel
▁vliegen
▁echter
▁zaak
▁feest
▁eiland
▁koningin
▁jezus
▁tafel
▁stem
▁bepaalde
▁begonnen
▁geleerd
▁trots
▁boot
▁uitleggen
▁haat
▁vliegtuig
▁rivier
▁oom
▁namen
▁voelen
▁zus
▁trek
▁youtube
▁kwaad
▁verwacht
▁zuid
▁hoge
▁docent
▁pa
▁kort
▁grappig
▁programma
▁slechte
▁dansen
▁begrijpen
▁loop
▁gang
▁trekken
▁makkelijk
▁inderdaad
▁lachen
▁stukje
▁planten
▁plezier
▁spullen
▁volgen
▁lief
▁ontmoet
▁woont
▁vervolgens
▁vertrouwen
▁nergens
▁veranderd
▁verliefd
▁nederlands
▁noord
▁ontmoeten
▁vertelt
▁leeft
▁vertelde
▁klootzak
▁situatie
▁wikipedia
▁leiden
▁redenen
▁taal
▁enkel
▁politieke
▁liep
▁voorbeelden
▁thema
▁totaal
▁toets
▁jong
▁npo
▁teken
▁koud
▁hemel
▁vorige
▁behalve
▁gesproken
▁bleef
▁bereken
▁luisteren
▁lieve
▁dorp
▁brengt
▁probeert
▁sneller
▁alinea
▁franse
▁generaal
▁dragen
▁beschermen
▁voedsel
▁vreemd
▁stuur
▁vormen
▁lijn
▁gebracht
▁droom
▁slaap
▁gebeurde
▁tegenwoordig
▁rij
▁plaatsen
▁bouwen
▁inwoners
▁rood
▁wapen
▁verkopen
▁overheid
▁gevaarlijk
▁lijst
▁verlaten
▁schieten
▁duurt
▁oog
▁engeland
▁gekozen
▁getrouwd
▁kleren
▁gehouden
▁stof
▁rug
▁commons
▁sturen
▁gewonnen
▁amsterdam
▁keuze
▁voorkomen
▁leggen
▁waard
▁zingen
▁mening
▁parijs
▁lag
▁wikimedia
▁kapot
▁ziekenhuis
▁dier
▁pagina
▁voelde
▁korte
▁neus
▁slaan
▁vakantie
▁genomen
▁periode
▁zwaar
▁rennen
▁wapens
▁gevallen
▁probeerde
▁speciale
▁muur
▁filmpje
▁ongeluk
▁vele
▁verliezen
▁natuur
▁hoewel
▁helpt
▁gegevens
▁invloed
▁seconden
▁engels
▁vertrekken
▁uitleg
▁slim
▁bos
▁fantastisch
▁prins
▁beantwoord
▁leek
▁gevaar
▁lijken
▁hoef
▁kilometer
▁regel
▁krant
▁geheim
▁gesloten
▁aandacht
▁bevolking
▁gebouwd
▁tabel
▁bronnen
▁rechts
▁goud
▁helft
▁verkeerd
▁vreselijk
▁moe
▁jan
▁klasgenoot
▁honger
▁rusland
▁klik
▁gered
▁raar
▁papier
▁producten
▁unie
▁oplossing
▁spanje
▁diep
▁serieus
▁winkel
▁schatje
▁negen
▁toon
▁kerel
▁raad
▁johannes
▁afrika
▁vogel
▁verleden
▁leer
▁arme
▁prinses
▁politiek
▁bepaald
▁bekijken
▁opdrachten
▁begrijpt
▁goedemorgen
▁ijs
▁ineens
▁maan
▁kosten
▁zak
▁artikel
▁gezin
▁basis
▁vrede
▁meid
▁idioot
▁zomer
▁willem
▁afstand
▁huilen
▁passen
▁voorstellen
▁belgië
▁vrijheid
▁spreek
▁bedoeld
▁geest
▁schoenen
▁oefening
▁gesprek
▁volg
▁sluit
▁gebieden
▁sla
▁dienst
▁bereiken
▁bewegen
▁stappen
▁tekening
▁tante
▁hoger
▁hangt
▁richting
▁verklaring
▁stoel
▁wit
▁langzaam
▁stom
▁jammer
▁betaald
▁meerdere
▁onzin
▁beloof
▁soldaten
▁dikke
▁koninkrijk
▁hierbij
▁vlees
▁leeftijd
▁controle
▁fiets
▁verkocht
▁londen
▁broek
▁verhalen
▁publiek
▁tuin
▁gedacht
▁noorden
▁gaten
▁titel
▁relatie
▁strijd
▁vlucht
▁kantoor
▁manieren
▁bomen
▁raam
▁enorme
▁zwart
▁verdienen
▁gevangenis
▁januari
▁hoogte
▁vul
▁gouden
▁actie
▁blauwe
▁voeten
▁reactie
▁plannen
▁angst
▁dromen
▁bloemen
▁schrijft
▁benen
▁missen
▁riep
▁spreekt
▁mei
▁donker
▁huwelijk
▁gestolen
▁tekenen
▁waarde
▁gelukt
▁systeem
▁volgt
▁gewone
▁verschillen
▁erger
▁keizer
▁dom
▁draaien
▁laag
▁verkeerde
▁lastig
▁activiteit
▁gelezen
▁beweging
▁armen
▁werkte
▁positie
▁volledig
▁dame
▁gedood
▁leider
▁zuiden
▁hee
▁bijzonder
▁omgeving
▁gevolg
▁bedrijven
▁gedachten
▁speciaal
▁eer
▁schrijver
▁draait
▁frans
▁bekende
▁bezoek
▁ruzie
▁glas
▁oke
▁kunst
▁dak
▁schreef
▁thee
▁voet
▁gevolgen
▁leeg
▁stelt
▁republiek
▁meiden
▁beantwoorden
▁groene
▁terecht
▁huizen
▁steen
▁vissen
▁teksten
▁beurt
▁bracht
▁allen
▁prachtige
▁ontdekt
▁keuken
▁gebeld
▁kasteel
▁melk
▁groeien
▁afspraak
▁heerlijk
▁heilige
▁sluiten
▁oosten
▁onderdelen
▁absoluut
▁helaas
▁bewijs
▁universiteit
▁huid
▁bevat
▁been
▁planeet
▁beoordeling
▁sleutel
▁verboden
▁gedrag
▁vijand
▁honden
▁trekt
▁geraakt
▁seks
▁gestuurd
▁besloten
▁brug
▁aanval
▁rekening
▁boeren
▁gast
▁vogels
▁speel
▁stelling
▁adem
▁zwemmen
▁stierf
▁enorm
▁zware
▁gooi
▁ziekte
▁hangen
▁sociale
▁trap
▁haast
▁alweer
▁steek
▁blauw
▁ma
▁cultuur
▁slaat
▁snelheid
▁oefenen
▁activiteiten
▁gefeliciteerd
▁zagen
▁berg
▁westen
▁britse
▁bericht
▁hoofdstad
▁gewerkt
▁pakt
▁temperatuur
▁koop
▁hoek
▁tas
▁regen
▁taak
▁gekocht
▁economie
▁juni
▁burgers
▁verslag
▁slot
▁functie
▁onmogelijk
▁website
▁gratis
▁leo
▁maat
▁oost
▁stoffen
▁hoeven
▁grens
▁wens
▁missie
▁jongeren
▁gat
▁italië
▁groen
▁noemt
▁oktober
▁gespeeld
▁formule
▁geprobeerd
▁gooien
▁gebruikte
▁verband
▁verdwenen
▁groepen
▁bergen
▁juli
▁vreemde
▁draagt
▁ach
▁raakt
▁ster
▁schoon
▁paarden
▁wijn
▁herinneren
▁opeens
▁romeinse
▁tijden
▁speelde
▁gebroken
▁leert
▁schema
▁dik
▁ziel
▁vervangen
▁kleuren
▁partijen
▁gelooft
▁leden
▁berekening
▁voldoende
▁gemist
▁maximaal
▁oranje
▁rechter
▁ruim
▁tanden
▁economische
▁ware
▁risico
▁gevecht
▁ouder
▁ideeën
▁as
▁hoeveelheid
▁amerikanen
▁christus
▁wint
▁provincie
▁bespreek
▁reizen
▁weergegeven
▁rijdt
▁theorie
▁grapje
▁revolutie
▁liefje
▁leidt
▁draai
▁oren
▁hout
▁verjaardag
▁ontvangen
▁verkiezingen
▁brood
▁kust
▁sterke
▁overleven
▁interessant
▁gevangen
▁twaalf
▁nummers
▁gewond
▁hersenen
▁liedje
▁personen
▁maart
▁proces
▁betekenis
▁stroom
▁burgemeester
▁knap
▁duizenden
▁cel
▁dronken
▁onderwijs
▁beest
▁stenen
▁vieren
▁jurk
▁gedeelte
▁indruk
▁augustus
▁ontwikkeling
▁onderzoeken
▁huidige
▁dichtbij
▁russische
▁kleding
▁mijne
▁beloofd
▁graden
▁zand
▁bewijzen
▁kolonel
▁vertrouw
▁tevreden
▁benedictus
▁springen
▁kaarten
▁leest
▁wisten
▁veiligheid
▁zuurstof
▁gemakkelijk
▁klimaat
▁plekken
▁kont
▁vlag
▁boodschap
▁rot
▁sneeuw
▁achteruit
▁gegeten
▁gemiddelde
▁serie
▁feit
▁kip
▁aanwezig
▁tenzij
▁poes
▁ouwe
▁hel
▁jas
▁stukken
▁wagen
▁scholen
▁honderd
▁directeur
▁ongelooflijk
▁hoogste
▁herkennen
▁middel
▁slaapt
▁juffrouw
▁handel
▁veld
▁advocaat
▁televisie
▁cellen
▁vangen
▁ochtend
▁duur
▁bepalen
▁schepen
▁kenmerken
▁moord
▁presentatie
▁verdient
▁centrum
▁sterren
▁schade
▁cijfers
▁schuldig
▁markt
▁pad
▁lul
▁geheel
▁volgorde
▁gasten
▁mooiste
▁volwassen
▁verrassing
▁minuut
▁belang
▁kikker
▁persoonlijk
▁vaste
▁doos
▁bereid
▁vlug
▁ronde
▁product
▁dachten
▁bevel
▁zuster
▁meegenomen
▁kleiner
▁koude
▁nationale
▁trok
▁toren
▁stelen
▁nederlanders
▁das
▁lach
▁dans
▁wegen
▁stopt
▁besluit
▁lied
▁oceaan
▁kus
▁grafiek
▁twintig
▁beelden
▁feestje
▁leerling
▁zweer
▁populair
▁eieren
▁duizend
▁fles
▁moderne
▁trouw
▁soldaat
▁vernietigen
▁blijkbaar
▁zwaard
▁kwalijk
▁sommigen
▁paleis
▁nek
▁organisatie
▁levend
▁verlies
▁buik
▁doorgaan
▁materiaal
▁veroorzaakt
▁link
▁toestemming
▁aanvallen
▁begrippen
▁bom
▁bouw
▁uitspraak
▁overleden
▁bereikt
▁ondanks
▁bedoeling
▁nauwelijks
▁ontsnappen
▁geweld
▁boer
▁opgenomen
▁bleek
▁sprak
▁vannacht
▁binnenkort
▁grotere
▁rekenen
▁sovjet
▁goden
▁zakken
▁nadenken
▁regio
▁onmiddellijk
▁duits
▁algemeen
▁romeinen
▁staart
▁breken
▁optreden
▁gezond
▁hopelijk
▁olie
▁vorig
▁besloot
▁karel
▁bezit
▁berlijn
▁belachelijk
▁officieel
▁sloeg
▁koe
▁rijke
▁weggaan
▁bureau
▁blik
▁harde
▁kaas
▁welterusten
▁joden
▁vingers
▁vecht
▁miljoenen
▁betaal
▁bord
▁oorzaak
▁seizoen
▁inkomen
▁bodem
▁verdeeld
▁vrolijk
▁min
▁geregeld
▁gestopt
▁betaalt
▁rechten
▁samenleving
▁beiden
▁grap
▁tegelijk
▁pistool
▁werkelijk
▁stijl
▁clemens
▁parlement
▁hitler
▁betrokken
▁ervaring
▁niveau
▁februari
▁verantwoordelijk
▁oostenrijk
▁hoed
▁goos
▁vierde
▁begraven
▁verandering
▁taart
▁vertrek
▁wijze
▁favoriete
▁online
▁straf
▁persoonlijke
▁geschikt
▁duitsers
▁verdwijnen
▁fouten
▁zacht
▁tegenover
▁des
▁dol
▁gemiddeld
▁mist
▁rotterdam
▁getekend
▁suiker
▁tonen
▁eilanden
▁polen
▁ontslagen
▁hoofdstuk
▁zwanger
▁kast
▁utrecht
▁kalm
▁uren
▁steken
▁resultaat
▁kussen
▁zaterdag
▁gebleven
▁finale
▁vinger
▁krachten
▁paus
▁simpel
▁kamp
▁gebouwen
▁gedragen
▁lacht
▁kopje
▁rook
▁steun
▁leraar
▁vergelijking
▁reed
▁bestand
▁reacties
▁advies
▁zondag
▁beschrijven
▁gevoelens
▁gemeen
▁koken
▁au
▁sterker
▁majesteit
▁moed
▁conclusie
▁schilderij
▁netjes
▁versie
▁gras
▁bestond
▁volle
▁sint
▁wezen
▁nat
▁droog
▁ontstond
▁aap
▁roos
▁verslaan
▁excuses
▁spoor
▁handig
▁belde
▁spaanse
▁warme
▁luitenant
▁verenigd
▁ei
▁openen
▁vluchten
▁normale
▁boerderij
▁holland
▁productie
▁hopen
▁komende
▁broers
▁gebeurtenissen
▁vriendje
▁kruis
▁gebaseerd
▁voetbal
▁jeugd
▁vrijdag
▁simon
▁vermogen
▁mes
▁wetenschap
▁bier
▁bekeken
▁geholpen
▁reageren
▁controleren
▁woestijn
▁groei
▁opnemen
▁ontbijt
▁verschrikkelijk
▁lengte
▁draag
▁luistert
▁lijk
▁plotseling
▁keus
▁viii
▁bezorgd
▁oefeningen
▁menselijke
▁module
▁taxi
▁eng
▁roken
▁joost
▁bedrag
▁durf
▁beroemde
▁tong
▁verbonden
▁vergeef
▁winnaar
▁pakte
▁klok
▁bedoelde
▁talent
▁begrip
▁bieden
▁muis
▁lenen
▁medicijnen
▁schijnt
▁document
▁operatie
▁gezondheid
▁elf
▁tips
▁dichterbij
▁telt
▁mogelijke
▁perfecte
▁spannend
▁vliegt
▁ruikt
▁bespreken
▁bestuur
▁beslissing
▁meedoen
▁victor
▁verkoop
▁stilte
▁eenheid
▁militaire
▁milieu
▁ondertussen
▁volledige
▁at
▁afgesproken
▁werkwoorden
▁ballen
▁eigenaar
▁rivieren
▁vak
▁geslagen
▁vuile
▁massa
▁afhankelijk
▁studenten
▁pius
▁fabriek
▁kiest
▁lever
▁plaatjes
▁beroep
▁bacteriën
▁genaamd
▁adres
▁kerst
▁aangegeven
▁lol
▁rand
▁dorpen
▁eenvoudig
▁konijn
▁touw
▁voornamelijk
▁toevallig
▁vertrokken
▁wc
▁olympische
▁kilo
▁gestorven
▁provincies
▁vii
▁klanten
▁geniet
▁lessen
▁verslagen
▁argumenten
▁eikel
▁liegen
▁mogelijkheden
▁kampioen
▁inleiding
▁kerstmis
▁troepen
▁schoonheid
▁oudste
▁veranderde
▁kritiek
▁las
▁opgericht
▁miljard
▁homo
▁minimaal
▁smaak
▁maandag
▁winst
▁buitenland
▁verlaat
▁jagen
▁bloem
▁leef
▁bruiloft
▁elektrische
▁aangeven
▁griekse
▁gemeenten
▁gele
▁heks
▁groeit
▁vies
▁jake
▁verwachten
▁kaartje
▁poster
▁gepakt
▁stukjes
▁makkelijker
▁regelmatig
▁resultaten
▁cent
▁wraak
▁premier
▁klap
▁vóór
▁vet
▁lager
▁donkere
▁gewicht
▁gedicht
▁onderzoekers
▁bond
▁vriendelijk
▁duurde
▁wetten
▁opstand
▁oppervlakte
▁gezocht
▁wassen
▁dna
▁akkoord
▁fietsen
▁vijanden
▁geopend
▁landbouw
▁zocht
▁omstandigheden
▁democratie
▁oor
▁compleet
▁egypte
▁natuurlijke
▁jaloers
▁commandant
▁collega
▁honderden
▁voordeel
▁neef
▁zout
▁vaders
▁sheriff
▁leefde
▁leerde
▁verzamelen
▁azië
▁verdorie
▁dichter
▁papieren
▁eeuwig
▁voorwerp
▁reclame
▁bril
▁lage
▁argument
▁prijzen
▁afscheid
▁merken
▁oplossen
▁ernstig
▁spul
▁sterft
▁genieten
▁poort
▁geboorte
▁agenten
▁varken
▁gedurende
▁carrière
▁ich
▁geel
▁opleiding
▁paniek
▁bezoeken
▁aangenaam
▁vergelijken
▁cadeau
▁botten
▁intro
▁woonde
▁gedoe
▁spanning
▁knop
▁geplaatst
▁wetenschappers
▁gevolgd
▁moeders
▁haag
▁koopt
▁slaven
▁afval
▁levens
▁muren
▁beschreven
▁australië
▁napoleon
▁tellen
▁speler
▁stuurt
▁signaal
▁grondwet
▁stadion
▁saai
▁gaaf
▁tekeningen
▁interview
▁moordenaar
▁albert
▁vertrekt
▁bak
▁toegang
▁actief
▁alcohol
▁deuren
▁zwak
▁ontwerp
▁vloer
▁verzet
▁sprong
▁verhuizen
▁samenvatting
▁studeren
▁wensen
▁voorzitter
▁mogelijkheid
▁dertig
▁zelfmoord
▁blok
▁geweer
▁verstopt
▁rusten
▁duivel
▁vaarwel
▁verbaasd
▁zwembad
▁eisen
▁drankje
▁ontdekken
▁slang
▁voorstel
▁twijfel
▁gescheiden
▁moeilijke
▁vliegtuigen
▁stroomt
▁ramp
▁vasthouden
▁onderwerpen
▁levert
▁broeder
▁pauze
▁houten
▁grenzen
▁ontsnapt
▁sleutels
▁liefste
▁soep
▁gekeken
▁blanke
▁katholieke
▁overwinning
▁beroemd
▁neuken
▁schaal
▁vergadering
▁uwe
▁oudere
▁toeristen
▁wauw
▁mars
▁theater
▁ergste
▁griekenland
▁zelfstandig
▁spelers
▁varen
▁behoort
▁dierentuin
▁geur
▁verpest
▁ren
▁noch
▁liter
▁talen
▁brak
▁lamp
▁vergeven
▁getallen
▁ophalen
▁verborgen
▁dienen
▁vergelijk
▁uitvoeren
▁graven
▁geweten
▁geloofde
▁gezellig
▁apparaat
▁uitgevoerd
▁aanbod
▁feiten
▁sporen
▁turkije
▁lijden
▁fragment
▁wijs
▁werkelijkheid
▁robot
▁verkeer
▁fase
▁lodewijk
▁rollen
▁appel
▁sexy
▁vlieg
▁machines
▁kindje
▁geïnteresseerd
▁officiële
▁plaat
▁vleugels
▁spiegel
▁afmaken
▁graaf
▁aangevallen
▁verdedigen
▁industrie
▁piloot
▁samenwerking
▁menselijk
▁maatregelen
▁spieren
▁gram
▁vervelend
▁vreselijke
▁kevin
▁liedjes
▁bladeren
▁leeuw
▁mannetje
▁kaartjes
▁nogmaals
▁dubbele
▁verliest
▁warmte
▁wedstrijden
▁afdeling
▁vernietigd
▁eindigt
▁leveren
▁geheugen
▁herinneringen
▁vliegveld
▁troep
▁nationaal
▁spelletje
▁boekje
▁israël
▁slachtoffers
▁koninklijke
▁zaal
▁brazilië
▁behaald
▁stopte
▁bidden
▁beslissen
▁eigenschappen
▁uitgenodigd
▁vijftig
▁genezen
▁gewend
▁bescherming
▁roze
▁brieven
▁geslapen
▁hogere
▁magie
▁branden
▁golf
▁zweden
▁maarten
▁techniek
▁patiënt
▁samenwerken
▁bewoners
▁droeg
▁beschrijf
▁gestoord
▁kerstman
▁graf
▁winkels
▁koos
▁maatschappij
▁privé
▁opzoeken
▁cirkel
▁podium
▁behandeld
▁discussie
▁controleer
▁amerikaans
▁russen
▁aankomen
▁proef
▁verdiend
▁lege
▁tel
▁kist
▁crisis
▁omlaag
▁drank
▁veranderingen
▁tranen
▁beslist
▁hondje
▁daan
▁nerveus
▁gericht
▁schattig
▁werkwoord
▁klant
▁klasse
▁draak
▁nazi
▁kranten
▁snelle
▁arbeiders
▁zicht
▁lossen
▁kanten
▁beweegt
▁bladzijde
▁openbaar
▁californië
▁stevig
▁hal
▁locatie
▁getal
▁dankbaar
▁lagen
▁buren
▁von
▁testen
▁ierland
▁schaduw
▁insecten
▁zijde
▁caesar
▁gezelschap
▁schreeuwen
▁koeien
▁filmpjes
▁logisch
▁maag
▁jarig
▁virus
▁verdrietig
▁hendrik
▁kanker
▁uitspraken
▁voorzien
▁dagelijks
▁dave
▁dief
▁neerslag
▁bevatten
▁paulus
▁voorlopig
▁onderzocht
▁roy
▁koers
▁steekt
▁elektriciteit
▁ontwikkeld
▁chef
▁verbinding
▁bewaren
▁indianen
▁genoegen
▁groningen
▁symbool
▁ruiken
▁terrein
▁mensheid
▁verdriet
▁uitstekend
▁verbeteren
▁durft
▁japanse
▁wandelen
▁levende
▁koffer
▁volgend
▁broertje
▁majoor
▁gehele
▁kwestie
▁reet
▁gouverneur
▁blad
▁verplicht
▁ministerie
▁rapport
▁lui
▁biedt
▁beschikbaar
▁middag
▁hek
▁toegevoegd
▁olifant
▁gevormd
▁hoogheid
▁hans
▁behandeling
▁overzicht
▁belgische
▁lelijk
▁kamers
▁verraden
▁vocht
▁kogel
▁verbergen
▁gevaarlijke
▁haren
▁fans
▁zeeland
▁ontmoette
▁merk
▁belasting
▁stephanus
▁klasgenoten
▁geleid
▁volwassenen
▁italiaanse
▁wiskunde
▁scherm
▁straten
▁verkoopt
▁goederen
▁gooit
▁personeel
▁fransen
▁gevangenen
▁schouders
▁opgelost
▁huiswerk
▁klimmen
▁hielp
▁poten
▁eenzaam
▁lijnen
▁brandstof
▁overtuigen
▁biologie
▁verantwoordelijkheid
▁gebeurtenis
▁oekraïne
▁beleid
▁experiment
▁nicht
▁klonk
▁streep
▁centimeter
▁kleinere
▁oorspronkelijk
▁paragraaf
▁richten
▁sinterklaas
▁ijzer
▁sukkel
▁glazen
▁wezens
▁verklaren
▁lippen
▁eeuwen
▁verdieping
▁verbrand
▁emma
▁genade
▁boem
▁borst
▁opgesloten
▁vriendschap
▁woede
▁hoopte
▁geduld
▁trainen
▁uitzending
▁ontworpen
▁draaide
▁verklaar
▁omgaan
▁afronding
▁kanaal
▁maatje
▁acteur
▁wiens
▁opgeven
▁kern
▁werknemers
▁hoer
▁sociaal
▁speelgoed
▁getuige
▁hof
▁breekt
▁stam
▁afgesloten
▁katten
▁volgde
▁stok
▁jacht
▁ontbreekt
▁methode
▁dinsdag
▁herken
▁helder
▁knappe
▁gewacht
▁zielig
▁ist
▁organismen
▁letterlijk
▁gemeenschap
▁britten
▁redelijk
▁karakter
▁klaas
▁scheiden
▁benzine
▁ridder
▁potter
▁vullen
▁knieën
▁opgewonden
▁achtergrond
▁verzoek
▁functies
▁aangenomen
▁pers
▁landschap
▁zingt
▁bruce
▁technologie
▁verstoppen
▁middelen
▁combinatie
▁fabrieken
▁stijgt
▁gedronken
▁keel
▁diverse
▁zing
▁grot
▁ontwikkelen
▁zusje
▁regent
▁echtgenoot
▁leefden
▁geliefde
▁kees
▁mol
▁hierboven
▁schrikken
▁vijfde
▁klassieke
▁starten
▁vervoer
▁ruil
▁ruik
▁lente
▁hartelijk
▁aspecten
▁ron
▁reageert
▁kerels
▁slimme
▁gevochten
▁afspraken
▁proeven
▁wolken
▁kloppen
▁vieze
▁groeten
▁begrafenis
▁behandelen
▁lokale
▁armoede
▁rijn
▁bende
▁bibliotheek
▁streng
▁zonde
▁schouder
▁teleurgesteld
▁onafhankelijk
▁dwars
▁groeide
▁kabinet
▁download
▁positief
▁ton
▁literatuur
▁ijsje
▁rondje
▁houding
▁berichten
▁bezoekers
▁bijbel
▁historische
▁ballon
▁voltooid
▁taylor
▁vloog
▁chauffeur
▁vijftien
▁rat
▁opgepakt
▁bestuderen
▁zwitserland
▁zachtjes
▁voorwerpen
▁rende
▁oorzaken
▁vrouwelijke
▁banden
▁donderdag
▁overige
▁herinnert
▁senator
▁briefje
▁uiterlijk
▁helikopter
▁gearresteerd
▁apart
▁gelegd
▁ademen
▁officier
▁medelijden
▁voorkomt
▁boodschappen
▁studie
▁ingang
▁vrees
▁gereed
▁marcus
▁algemene
▁stal
▁magische
▁chr
▁kandidaat
▁springt
▁plat
▁badkamer
▁cijfer
▁uitgaven
▁rondom
▁slavernij
▁waarden
▁kwaliteit
▁produceren
▁vos
▁kopie
▁medische
▁onschuldig
▁raden
▁bas
▁benodigdheden
▁verf
▁rechtbank
▁slachtoffer
▁poging
▁vriendinnen
▁jury
▁ongelofelijk
▁longen
▁kou
▁grootte
▁vietnam
▁meten
▁avontuur
▁aanbieden
▁joodse
▁schilderijen
▁overleg
▁generatie
▁troon
▁waarschuwen
▁verdwijnt
▁supermarkt
▁huisje
▁duwen
▁achtergelaten
▁slaapkamer
▁bewust
▁veroorzaken
▁kolonie
▁elementen
▁scherp
▁verwijderd
▁doelwit
▁plein
▁drukken
▁aanraken
▁platteland
▁raket
▁nul
▁nicolaas
▁materialen
▁velen
▁organen
▁marine
▁droge
▁tempel
▁zone
▁mede
▁kunstenaar
▁app
▁gelogen
▁burger
▁vals
▁concert
▁bruin
▁eva
▁tijger
▁spelletjes
▁herstellen
▁toeval
▁verhouding
▁betekende
▁trappen
▁veilige
▁engel
▁indonesië
▁chinees
▁tijdelijk
▁externe
▁www
▁filips
▁benoemen
▁interesse
▁bot
▁champagne
▁aanwezigheid
▁beschermd
▁plassen
▁redt
▁tegelijkertijd
▁aangekomen
▁gekend
▁moskou
▁schot
▁sterf
▁politici
▁cia
▁donder
▁bijen
▁kelly
▁woensdag
▁doei
▁vergeleken
▁plicht
▁moge
▁kocht
▁waarschuwing
▁personages
▁momenteel
▁voetballen
▁xii
▁kroon
▁lichten
▁tegenstelling
▁iris
▁bijlage
▁grijze
▁piet
▁herinnering
▁monsters
▁factoren
▁voorbereid
▁vuil
▁bram
▁bruine
▁negatief
▁nieuwsgierig
▁fbi
▁metaal
▁ezel
▁stiekem
▁leugenaar
▁tegenstander
▁positieve
▁democratische
▁toernooi
▁bestaande
▁dapper
▁bossen
▁jaap
▁opruimen
▁afsluiting
▁gedwongen
▁handelen
▁verwijzen
▁loon
▁patiënten
▁moeilijker
▁schuur
▁dek
▁ontdekte
▁sara
▁inclusief
▁rob
▁puzzel
▁tovenaar
▁verspreid
▁zetels
▁denemarken
▁charlotte
▁apen
▁scène
▁ontwerpen
▁kok
▁bemanning
▁grijp
▁koekjes
▁datum
▁bravo
▁pensioen
▁identiteit
▁toestand
▁jesse
▁bepaal
▁vermeld
▁zichtbaar
▁voordelen
▁beschrijving
▁onbekende
▁accepteren
▁emmer
▁onszelf
▁vrachtwagen
▁verdrag
▁ajax
▁constant
▁snijden
▁beker
▁minste
▁ontslag
▁verdween
▁geheimen
▁kelder
▁kansen
▁benieuwd
▁café
▁gitaar
▁zekerheid
▁percentage
▁bewaard
▁negatieve
▁gooide
▁dergelijke
▁naakt
▁lening
▁computers
▁europees
▁onthoud
▁applaus
▁commissie
▁voormalige
▁passagiers
▁afrikaanse
▁ramen
▁diner
▁aandelen
▁universum
▁verplaatsen
▁leuker
▁schitterend
▁bepaalt
▁beveiliging
▁doelen
▁gepland
▁vergissing
▁stijgen
▁noorwegen
▁verwoest
▁eend
▁portugal
▁verscheen
▁belofte
▁momenten
▁verspreiden
▁johan
▁snelweg
▁rente
▁presenteren
▁gen
▁tekort
▁berekenen
▁bol
▁douche
▁leiders
▁traditie
▁verdachte
▁figuren
▁legende
▁straling
▁misdaad
▁gegooid
▁brandt
▁koekje
▁platen
▁hongarije
▁koningen
▁situaties
▁overeenkomst
▁gelopen
▁lawaai
▁uitgebreid
▁thijs
▁mooier
▁vulkaan
▁verstandig
▁bewaar
▁smaakt
▁bevelen
▁onbekend
▁zelfde
▁vuren
▁zwakke
▁getrokken
▁helden
▁patrick
▁brein
▁uitgelegd
▁enthousiast
▁gevuld
▁diepe
▁vloot
▁koen
▁lucas
▁hol
▁achterkant
▁schrijvers
▁ervaren
▁verlegen
▁doc
▁opgegeten
▁oorlogen
▁dochters
▁treinen
▁stelletje
▁gepubliceerd
▁sophie
▁verwerkt
▁schoen
▁neergeschoten
▁jeetje
▁ein
▁stinkt
▁omgezet
▁luke
▁lading
▁vat
▁geesten
▁greep
▁slagen
▁strak
▁zenuwachtig
▁vrouwtje
▁grootvader
▁dunne
▁voortaan
▁vloeistof
▁verwijderen
▁diensten
▁gezonde
▁ellende
▁trut
▁robbie
▁draad
▁wereldwijd
▁amper
▁aardbeving
▁stichting
▁tak
▁heuvel
▁duisternis
▁bezet
▁kooi
▁bakken
▁nep
▁chaos
▁pik
▁werkloosheid
▁verwerken
▁metalen
▁uitgezonden
▁overtuigd
▁ophangen
你
一
这
人
说
那
大
也
小
还
后
家
一个
这个
多
生
道
和
心
点
老
她
回
年
面
开
话
当
长
发
成
让
只
经
自己
实
十
前
现在
他们
但
方
打
三
学
太
吃
两
动
见
手
二
明
果
问
听
从
干
那个
比
女
头
本
主
关
然后
法
高
感
因为
气
水
电
像
西
解
你的
重
无
东
白
直
体
但是
日
机
哥
欢
钱
爱
外
王
新
活
已经
谁
还有
死
信
带
个人
花
姐
少
军
马
美
车
可能
孩子
结
今天
五
变
四
百
山
更
月
难
那么
加
选
亲
错
平
请
门
路
喜欢
口
眼
帮
将
朋友
答
原
度
大家
张
他的
表
时间
球
万
文
量
男
任
海
数
其实
事情
性
光
一起
清
应该
管
这些
玩
晚
报
金
八
为什么
怕
战
房
色
问题
内
风
条
中国
影
以后
近
买
跑
父
教
九
两个
特别
强
飞
乐
书
底
六
神
远
非常
红
准
空
饭
根
城
这里
笑
一些
千
喝
字
七
紧
不过
火
xxx
一次
病
包
林
北
节
你好
市
单
工作
发现
流
第一
老师
树
伤
留
生活
睡
需要
线
南
李
失
之后
程
象
青
满
杀
周
轻
亮
而且
慢
星
建
兴
关系
拉
奶
肯
半
零
音
写
里面
台
拜
转
地方
答案
怪
一天
段
游
调
希望
步
感觉
酒
忙
黑
有人
急
敢
站
义
团
热
黄
区
哈哈
深
官
展
班
石
鱼
所有
苦
排
二十
只是
画
久
基
龙
网
最后
xxxx
世界
设
领
先生
志
聊
之前
歌
比较
元
过去
断
楚
重要
公司
狗
论
脸
毛
切
夜
跳
只有
兵
香
晚上
类
fra
河
食
药
板
布
办法
情况
卖
米
那些
草
故事
华
德
鼠
猫
刻
刘
福
穿
微
电话
xxxxx
牛
只要
江
值
熊
皮
价
历
脑
费
陈
角
菜
儿子
云
静
lin
英
找到
ine
负
line
极
假
推
礼
速
后来
erl
梦
拍
克
坏
党
嘴
脚
雨
鸡
语
虽然
兔
幸
第二
叶
背
味
村
简
武
选项
土
木
属
剧
集
追
唱
曾
油
姑娘
国家
蛋
闻
雪
最近
广
xxxxxx
哭
存
鬼
春
投
超
以前
怀
双
环
压
严
必须
她的
兄弟
结果
在一起
血
钟
洗
通过
店
温
女人
铁
乱
汉
列
派
松
解析
贵
围
偷
权
电影
麻
创
玉
不同
比赛
小姐
顺
肉
每天
高兴
读
其他
守
低
图
宫
选择
营
机会
课
igh
三个
发展
容易
枪
园
惊
猪
坚
罪
离开
日本
杨
休
群
呼
冷
州
苏
修
永
想要
股
狼
累
抱
男人
任何
虎
房子
鸟
漂
三十
明天
女孩
舞
史
衣服
一切
屋
个月
女儿
划
船
身体
姐姐
结婚
决定
成为
主要
痛
银
源
罗
影响
社会
小时
毒
眼睛
野
孙
运动
手机
错误
田
直接
农
退
它们
借
有些
彩
哎呀
父亲
得到
同志
很好
夏
奶奶
弹
沙
卡
美国
老板
互
羊
率
哥哥
姓
开心
翻
床
省
同学
吸
富
圆
医院
绿
声音
赵
漂亮
安全
顶
动物
胜
日子
就像
康
完全
乡
狐
反正
唐
年轻
刀
秀
波
终于
担心
洞
公主
eft
烧
兰
父母
lef
猴
短
人们
层
学习
圈
学生
丝
左
方式
纸
敌
冰
封
拜拜
杯
笔
医生
刺
袋
降
学校
票
耳
如何
要求
货
挑
恋
昨天
名字
努力
豆
湖
秋
旅
蓝
欢迎
一般
爷爷
辛
大学
迷
洋
粉
十五
颜
茶
健
新的
减
能力
最好
新闻
词
十二
补
幸福
败
部分
恐
阿姨
保护
仙
人生
感情
诗
忍
喊
理解
注意
丢
骨
除了
牌
太阳
织
镜
冬
经济
每个
成功
灯
经常
勇
晓
馆
腿
折
游戏
困
甚至
森
完成
范
狐狸
研究
浪
家人
蛙
射
傻
简单
十年
输
天天
右
北京
自然
舒
丁
脱
更多
牙
帅
施
睡觉
人民
休息
总是
餐
解决
生气
老鼠
十一
文化
暗
恶
快乐
包括
宁
胖
爬
植
县
条件
参加
宋
吹
季
环境
母亲
考虑
原因
永远
雷
最大
稳
妖
任务
厂
外面
平时
轮
青蛙
属于
哇
th
烟
麻烦
帮助
吃了
der
改变
回答
nde
酸
技术
好吃
设计
祖
灰
留下
码
摇
戴
作用
甜
尾
街
妹妹
说明
暖
后面
梅
秦
关于
鞋
基本
束
瓜
生命
庆
杰
限
糖
市场
接受
未来
电视
宗
液
分钟
她们
净
上海
摸
苹果
全部
奖
篮
绝对
核
镇
变化
棒
小孩
城市
嫁
精神
同意
赢
猜
珠
鹿
目的
宣
亿
雄
拼
行动
五十
盖
方向
国王
老公
麦
房间
巨
害怕
速度
韩
聪
家庭
四十
ime
历史
鼓
计划
磨
队长
美丽
窗
徐
饿
泡
针
沈
十八
很快
打电话
思考
男孩
烈
代表
荣
存在
冠
珍
现场
第三
硬
偏
位置
反应
炸
方法
键
弟弟
庄
各种
也许
诚
状态
桥
安排
处理
介绍
汤
软
负责
合作
弱
染
瓶
面对
人类
夫人
报告
音乐
危险
活动
腾
产生
正常
组织
签
兔子
港
登
警察
丹
政府
许多
厅
恨
责任
实际
解释
太太
老人
物体
盛
朱
tim
times
劝
离婚
鬼子
飞机
符
主人
肚子
使用
谷
主任
吉
辛苦
植物
箱
峰
教育
泪
人员
丈
奇怪
爆
森林
董
企业
闪
鸭
梁
蒙
叔叔
首先
十四
域
科学
调查
洲
材料
照片
利用
领导
小熊
前面
身份
小小
笨
桃
mat
十六
旧
结束
想法
墙
滑
目前
爱情
四个
刷
锅
有时候
日本人
岛
共产党
关键
师父
赏
佛
怀疑
氧
挣
早上
证明
保证
粮
伟
鼻
控制
部队
扬
聪明
合适
扔
实现
碗
感受
形成
剑
妻子
池
时代
郎
郑
颜色
宝宝
大小
丰
骑
实验
忠
拖
赚
观察
获得
踢
舒服
女朋友
分享
唉
行为
严重
ath
健康
厚
司令
分析
生物
心情
屁
奔
情绪
琴
服务
穷
大象
可爱
启
凤
来自
空间
礼物
迟
疯
咬
圣
肥
习惯
放弃
系统
项目
知识
租
力量
阴
压力
序
内容
全国
记住
猎
足球
更好
空气
王子
慧
提供
孔
判断
十九
扫
自由
质量
磁
演员
宇
不明
食物
库
敌人
门口
乔
禁
十七
淡
纯
瞎
滴
细胞
抬
赞
sqrt
六十
宽
泥
脏
地球
恋爱
心理
专业
嘿
婚姻
岸
nee
物质
ndf
fla
欠
最终
生产
师傅
适合
男朋友
尖
燕
中央
钻
敏
宝贝
紧张
观众
证据
钢
每个人
卷
国际
伤害
秘密
命令
投资
老虎
罚
价值
堆
管理
怜
猴子
隆
方便
距离
羽
小狗
吐
地区
建议
锁
曹
态度
壁
直到
脾
梦想
沟
蛇
表达
月亮
石头
蜂
训练
腰
生日
上次
相关
怒
篮球
普通
中间
汽车
亲自
泽
增加
阳光
关心
银行
共同
喝酒
意见
内心
窝
丈夫
必要
每一个
欣
认真
洪
尤其
飘
龟
估计
困难
尸
炮
值得
豪
柳
民族
狮
兴趣
小猪
革命
小猫
帮忙
直播
思想
产品
皇帝
政治
梯
想象
竹
聊天
挖
帽
下午
艺术
妖怪
可惜
垃圾
甘
紫
有机
烂
饱
ian
英雄
汇
目标
魏
蚁
成绩
现象
通知
寻找
检查
老大
塔
情感
表演
埋
八十
郭
真实
七十
分手
敲
脑袋
战争
耳朵
孝
具体
岩
中心
味道
尾巴
成长
湾
喷
女生
丑
种子
现实
将来
底下
人物
辣
基础
哭了
国民
夫妻
实际上
脾气
科技
同样
扑
以上
一旦
湿
箭
教授
仁
受伤
提醒
接触
一生
实力
经验
水平
弯
缝
建设
懒
办公
毕业
记者
侯
结构
手术
附近
超过
挑战
伏
自我
盐
干净
邻
拥有
秒
鹰
难过
链
芬
意识
题目
伦
分子
作品
仪
赖
头发
繁
恢复
工程
赌
焦
依然
痛苦
事实
单位
地下
苗
凌
蒋
贼
勤
提高
承认
年龄
脑子
氏
一半
年纪
稳定
浮
导演
曼
沿
蚂蚁
警方
误会
几乎
欺负
版
标准
狮子
传统
醉
最高
执行
盒
胸
建立
唱歌
伤心
鼻子
汗
相同
星星
奏
九十
红色
泉
朗
添
背后
当地
人才
旗
粗
扣
一切都
姜
失败
玲
行业
上学
瘦
再次
试试
指挥
仿
天气
动作
好玩
加入
然而
恒
少年
后悔
潮
裂
松鼠
忘记
矛
斤
洁
眉
队伍
网上
创造
有用
坡
鹅
多多
法律
能量
贤
冠军
兽
满意
温度
晶
大声
嘟
好奇
记录
教练
cd
交流
信任
首歌
显示
国内
加上
读书
等于
时刻
电脑
申
消费
功能
桶
拒绝
一面
文章
天空
cdo
cdot
理由
胎
伙伴
主席
同事
锦
霸
肖
随时
凯
情报
星期
莲
政策
劫
肺
泰
俊
柱
尤其是
铜
轻轻
盆
基本上
程度
资源
涛
参与
径
周围
阶段
建筑
价格
贪
壳
孟
床上
结合
坑
病人
墨
大海
薄
剪
感动
ver
可怕
讨厌
记忆
假的
绳
正式
浑
邓
看起来
机器
砸
南方
性格
资料
烤
尊重
溶液
专家
煮
意外
五个
舞台
贾
制度
脆
客人
明星
巨大
事件
东北
累了
独立
委屈
矛盾
熟悉
咖啡
冬天
改革
氧化
从来没有
经理
全球
办公室
炒
偷偷
丛
生长
治疗
火车
侧
相对
嘴巴
平台
消失
强大
牺牲
晋
职业
复杂
太子
彻底
减少
扭
激动
遥
考试
椅
英国
冯
男生
咕
桑
叶子
今日
蝴蝶
空中
暂时
吸引
夹
颈
提前
角色
作者
方案
百万
书记
否则
允
制造
对手
翅膀
工资
温暖
尽管
挤
享受
交通
渡
体育
胜利
侵
增长
土地
师兄
不久
追求
会议
裤
萝卜
角度
绿色
腐
柴
婷
制作
做饭
芳
线索
体现
传播
拳
相互
纵
国外
工具
岳
昌
犯罪
春天
战斗
范围
特点
测量
卫生
顺利
悬
陶
出生
董事
晕
今晚
印象
部门
少了
排除
肩
堡
表面
开车
效果
昆
十个
肠
平安
羞
逆
利益
家长
期间
成熟
掌握
失望
辉
死亡
为何
作业
女子
陵
理想
祥
棋
球队
姐妹
资金
津
玻璃
或许
眼泪
白天
开放
便宜
善良
翼
漏
乌龟
南京
电子
渴
粮食
邀请
饶
需求
帽子
碳
胃
通常
旅游
仍然
解放
生态
广州
积极
跃
誓
鸡蛋
晒
尿
常常
铃
计算
二月
破坏
最多
吞
驴
一月
袁
iao
案件
等待
阁
匙
电视剧
娃娃
重点
蔡
大师
溪
恭喜
讨论
笼
水果
军队
台湾
完美
面包
厨房
培养
推荐
中华
中午
现代
羡慕
瞬间
调整
勇敢
沟通
虾
白色
不足
姚
创新
语言
旅行
进步
伞
律师
惠
任何人
规模
小说
允许
邻居
墓
收入
寿
国民党
动员
粉丝
真相
彭
钥匙
数字
遇见
女性
伪
青年
命运
寺
基因
酷
军事
蒸
公众
豹
自信
风险
鹏
大多
世纪
热闹
玩具
蟹
统一
形式
地面
夏天
状况
男子
游泳
eng
司机
及时
准确
文明
婚礼
心灵
生病
联合
丰富
始终
农民
罐
公里
拨
百年
回忆
员工
尘
工业
球员
团队
大部分
蜜蜂
虹
帝国
琳
伟大
耶
学院
平衡
斜
内部
厕
留下来
庙
劳动
木头
赢了
每年
西方
兴奋
刺猬
体验
战场
信心
割
冻
萧
无聊
科长
合同
浪费
舌
有趣
有效
武器
刺激
逐渐
反对
持续
安慰
霍
原子
轻松
棉
酒店
月份
原则
洗澡
水中
面积
广告
跳舞
第四
券
高度
黎
税
公平
工人
生存
交易
屁股
化学
心疼
时光
智慧
邦
青春
产业
黄色
进一步
西瓜
蛋糕
卢
寸
树林
成就
和平
媒体
一代
六个
浅
裙
阅读
形状
厕所
机构
方程
稍微
大地
损失
羽毛
多数
特征
原本
作战
子弹
晴
合理
竞争
欧洲
对待
人大
跨
蓝色
观点
超级
笑话
岭
脖子
气体
创业
描述
接近
模式
元素
资本
数量
公鸡
烫
欣赏
道路
提升
业务
点头
以下
孙子
销售
传说
尸体
地点
ing
锻炼
潘
文学
客户
院子
群众
力气
保险
愿望
古代
炉
战士
适应
下雨
细节
运动员
鸭子
葬
资格
有利
话题
采访
神奇
法院
花园
雾
无数
感兴趣
辜
到达
死者
电台
反映
新鲜
洒
病毒
孤独
威胁
撕
神秘
山羊
雕
胡子
多个
慢慢地
文字
芽
两次
著名
迈
转移
三月
输了
美元
绣
勇气
镜子
患者
葡萄
博士
乌鸦
加强
班长
玄
留言
捐
军人
营养
湘
怀孕
矮
平均
动力
不适
更大
俄
半夜
鼓励
下降
碧
长颈鹿
汁
掌柜
不满
陌生
黄金
数学
神经
操作
臂
早晨
蘑菇
飞行
疯了
树叶
区域
主题
柏
骄傲
楠
核心
电流
避免
函数
外国
已知
赫
对面
腹
校长
七月
筋
规则
连续
花儿
法国
崔
页
权利
煤
美女
刮
个案
五月
事故
热情
金融
措施
决心
民主
蹲
广东
惊喜
温柔
工厂
四月
报仇
公开
区别
八月
薛
要么
农村
三角
心态
窗户
进攻
亲戚
概念
人口
商业
练习
表情
理论
酱
充分
土壤
膜
翔
指导
六月
教训
家乡
灿
玫瑰
猎人
有限
向前
宣传
尝试
科学家
上午
晚安
士兵
藤
珍惜
快递
千年
金属
成年
北方
重庆
攻击
类型
微笑
手指
皇后
突破
茂
完整
幼儿园
吻
div
较大
影子
一致
氢
停止
走路
评价
强调
胶
请求
老了
circ
qsl
王后
往下
昂
椅子
爪
泛
优势
坤
eta
草地
有名
污染
卵
深圳
物理
大门
都市
砖
含有
放大
娱乐
黑色
移动
加速
风格
眼神
蠢
出口
人工
暴露
系列
儿童
基金
维持
弥
蜘蛛
创作
魔法
坛
医疗
玉米
武汉
降低
翁
叮
犹豫
尴尬
骨头
崖
han
眼镜
姑姑
最爱
评论
槽
醋
战略
难得
严格
公园
保障
收获
海洋
投入
快速
杀死
宏
保密
彪
申请
渣
祖国
最小
早餐
珊
网友
爱好
辽
壶
测试
村民
爆炸
整体
感染
先进
掌声
推动
周末
吸收
后果
光明
外人
文件
印度
咸
促进
东方
八个
密码
社会主义
韩国
单身
树枝
身后
精灵
抓到
丸
山东
霞
草原
相亲
乳
寂寞
确认
大臣
偶尔
幸运
九月
蛋白
冲动
燕子
报纸
天才
逸
监狱
痒
大多数
自杀
传递
蜗牛
肝
大脑
做梦
生成
浇
鞋子
舞蹈
肌
十月
政委
天真
类似
瑶
批评
固定
位于
轴
气球
护士
机场
岩石
干部
鹊
扩大
餐厅
今后
危机
背景
讲话
kan
权力
继承
氧气
改造
猫咪
互动
浴
浪漫
囊
多种
商人
德国
鹤
口袋
减肥
夜晚
贸易
斌
心脏
比例
释放
靠近
驾驶
成本
蚕
运气
家属
绳子
资产
感冒
欧阳
宿舍
农业
被子
gle
股份
盒子
上市
苏联
设计师
无奈
能源
更重
小美
腔
双手
贷款
栏
综合
跑步
自动
庞
居民
郡
买卖
钉
来源
体积
良心
维护
瓶子
摇头
失踪
惊讶
规划
资讯
梳
芒
教室
错过
亭
定义
铁路
承诺
打架
垫
个体
上级
中共
机械
缸
口水
强烈
自行车
性质
果实
牙齿
形容
村子
周期
沙发
紧急
财产
呈现
经典
爆发
艰难
支付
祝福
舰
舅舅
最新
惩罚
发明
辞职
犬
樱
检测
总统
勉
杭州
韦
成员
品牌
集合
悄悄地
培训
牛奶
母鸡
眨
癌
秘书
枕
纪念
螃蟹
饭店
水分
专辑
上升
化妆
煎
恐怖
可能性
展示
坚决
年级
相当于
拓
肿
运输
瓷
疾病
淑
哎哟
解答
反复
第五
网球
池塘
弟子
恐惧
土匪
鸟儿
卫星
出国
麻雀
部长
嘟嘟
节奏
思维
成分
纱
饺子
楼下
小组
秋天
风景
确保
巫婆
大笑
仙女
pha
角落
点心
食品
剥
大气
协议
抱怨
流行
写作
怡
转化
神仙
乡亲
除非
演技
商品
七个
枫
lph
主持人
城堡
盲
财富
爱人
塑料
情人
天生
广播
高大
限制
月球
alpha
购买
彩虹
动机
碑
呱
熊猫
胳膊
十一月
个性
指示
株
平静
迟到
咽
黑暗
豆腐
画画
流动
作家
粥
河马
萍
统治
耐心
电动
奋斗
名单
难度
烦恼
珍珠
试验
火箭
小米
更新
加班
对话
镖
偶像
怪物
弦
蜡
遗传
重力
太平
畏
总理
诗人
拍摄
人群
地产
坚强
下落
日常
不利
现有
梨
发表
蚊
曲线
拥抱
叉
冒险
免费
特色
联络
卓
伤口
徒弟
豆豆
斗争
翻译
香味
最早
跟踪
组合
前辈
ots
烛
美食
鸽
天然
钢琴
旭
礼貌
男友
裤子
西北
有意义
分布
蕉
咒
美人
服装
长江
庆祝
推进
十二月
侦查
季节
推出
对外
奥运
例子
基地
鳄
叠
分数
频率
电路
从不
钩
喜鹊
可见
鞭
官方
洗衣
裙子
巢
打扫
灵魂
流浪
楼上
漆
从未
礼拜
大陆
渴望
发光
蔬菜
哑
不当
anr
探索
燃烧
喵
清晰
金子
效率
晚饭
云南
沙漠
假装
车站
防止
电荷
王朝
耿
包子
法官
尹
宇宙
朴
僧
物资
居住
保留
泡泡
天津
柿
成果
虫子
长度
支撑
医学
大胆
四川
明知
原理
素质
道德
游击
仓库
海上
场景
脚步
取消
仪式
消灭
集体
引发
助理
痕迹
团结
依靠
守护
路边
蜀
愤怒
身高
弓
前提
疯狂
花朵
返回
官员
认可
坚定
牡丹
可可
补充
车辆
雁
定性
常见
对比
熙
橡
鳄鱼
粘
蕾
奴才
决赛
未知
大街
校园
喜剧
歌手
缺乏
星球
通道
和尚
焦虑
三角形
猫头鹰
戒指
恐龙
演戏
最强
岁月
受害
杏
液体
秃
女神
装备
句子
实践
透明
帆
交换
锤
歌声
分类
最佳
mol
异常
阶级
广场
亲密
爵
重复
老年
天鹅
告别
自私
传奇
相似
胡萝卜
依据
更高
女友
非洲
硫
录音
标志
司马
瘾
舔
平方
激烈
欢乐
新娘
电池
外界
歌曲
吨
文物
费用
同情
电阻
夫妇
收集
魔鬼
逻辑
王国
号码
重量
egi
气质
陕西
混合
口罩
模型
江南
孔雀
路线
隐藏
总之
肺炎
健身
楼梯
数列
轨道
皱
卸
靖
磁铁
利润
酒吧
舌头
股票
疑问
积累
郝
结局
应对
莓
土豆
新疆
第十
借口
改善
回复
好友
成年人
散步
发射
棚
勺
顺序
独特
不公
差异
农夫
冲突
浸
剧本
住院
详细
诸葛
季度
手艺
远方
证券
欺骗
辣椒
杯子
支队
图书
魅力
黏
说服
叙述
绑架
袜
詹
投票
热点
警告
博物馆
每当
自主
剧情
小偷
民间
sha
正面
货币
巨人
分配
公路
连线
气候
鱼儿
美味
增强
珍贵
义务
绒
亚洲
潭
对应
摩擦
妇女
成都
播出
葫芦
搞笑
传承
报名
镜头
蓬
卧室
框
和谐
肾
奇迹
地图
治理
消费者
包围
市长
扁
指数
南瓜
橘
悲伤
回应
jiu
赔偿
消耗
花瓣
人性
解放军
保卫
坟
分离
报复
花生
主张
暴力
湖南
开花
依赖
饿死
聚会
桃子
登记
出租
香蕉
钠
教师
严肃
菲菲
杀害
无辜
出院
打破
缺点
振动
孤单
无限
鲜花
平等
河南
浙江
俄罗斯
炸弹
投降
马车
火锅
巴巴
韵
莺
成人
发行
理念
霜
地铁
天亮
勋
樊
梅花
加工
发起
笑容
勉强
阿拉
