{
  "version": "1.0",
  "truncation": null,
  "padding": null,
  "added_tokens": [
    {
      "id": 0,
      "content": "[UNK]",
      "single_word": false,
      "lstrip": false,
      "rstrip": false,
      "normalized": false,
      "special": true
    },
    {
      "id": 1,
      "content": "[CLS]",
      "single_word": false,
      "lstrip": false,
      "rstrip": false,
      "normalized": false,
      "special": true
    },
    {
      "id": 2,
      "content": "[SEP]",
      "single_word": false,
      "lstrip": false,
      "rstrip": false,
      "normalized": false,
      "special": true
    },
    {
      "id": 3,
      "content": "[PAD]",
      "single_word": false,
      "lstrip": false,
      "rstrip": false,
      "normalized": false,
      "special": true
    },
    {
      "id": 4,
      "content": "[MASK]",
      "single_word": false,
      "lstrip": false,
      "rstrip": false,
      "normalized": false,
      "special": true
    }
  ],
  "normalizer": {
    "type": "Sequence",
    "normalizers": [
      {
        "type": "NFKC"
      }
    ]
  },
  "pre_tokenizer": {
    "type": "Metaspace",
    "replacement": "▁",
    "prepend_scheme": "always",
    "split": true
  },
  "post_processor": {
    "type": "TemplateProcessing",
    "single": [
      {
        "SpecialToken": {
          "id": "[CLS]",
          "type_id": 0
        }
      },
      {
        "Sequence": {
          "id": "A",
          "type_id": 0
        }
      },
      {
        "SpecialToken": {
          "id": "[SEP]",
          "type_id": 0
        }
      }
    ],
    "pair": [
      {
        "SpecialToken": {
          "id": "[CLS]",
          "type_id": 0
        }
      },
      {
        "Sequence": {
          "id": "A",
          "type_id": 0
        }
      },
      {
        "SpecialToken": {
          "id": "[SEP]",
          "type_id": 0
        }
      },
      {
        "Sequence": {
          "id": "B",
          "type_id": 0
        }
      },
      {
        "SpecialToken": {
          "id": "[SEP]",
          "type_id": 0
        }
      }
    ],
    "special_tokens": {
      "[CLS]": {
        "id": "[CLS]",
        "ids": [
          1
        ],
        "tokens": [
          "[CLS]"
        ]
      },
      "[SEP]": {
        "id": "[SEP]",
        "ids": [
          2
        ],
        "tokens": [
          "[SEP]"
        ]
      }
    }
  },
  "decoder": {
    "type": "Metaspace",
    "replacement": "▁",
    "prepend_scheme": "always",
    "split": true
  },
  "model": {
    "type": "BPE",
    "dropout": null,
    "unk_token": "[UNK]",
    "continuing_subword_prefix": null,
    "end_of_word_suffix": null,
    "fuse_unk": false,
    "byte_fallback": false,
    "ignore_merges": false,
    "vocab": {
      "[UNK]": 0,
      "[CLS]": 1,
      "[SEP]": 2,
      "[PAD]": 3,
      "[MASK]": 4,
      "\t": 5,
      "\n": 6,
      "!": 7,
      "\"": 8,
      "#": 9,
      "$": 10,
      "%": 11,
      "&": 12,
      "'": 13,
      "(": 14,
      ")": 15,
      "*": 16,
      "+": 17,
      ",": 18,
      "-": 19,
      ".": 20,
      "/": 21,
      "0": 22,
      "1": 23,
      "2": 24,
      "3": 25,
      "4": 26,
      "5": 27,
      "6": 28,
      "7": 29,
      "8": 30,
      "9": 31,
      ":": 32,
      ";": 33,
      "<": 34,
      "=": 35,
      ">": 36,
      "?": 37,
      "@": 38,
      "A": 39,
      "B": 40,
      "C": 41,
      "D": 42,
      "E": 43,
      "F": 44,
      "G": 45,
      "H": 46,
      "I": 47,
      "J": 48,
      "K": 49,
      "L": 50,
      "M": 51,
      "N": 52,
      "O": 53,
      "P": 54,
      "Q": 55,
      "R": 56,
      "S": 57,
      "T": 58,
      "U": 59,
      "V": 60,
      "W": 61,
      "X": 62,
      "Y": 63,
      "Z": 64,
      "[": 65,
      "\\": 66,
      "]": 67,
      "^": 68,
      "_": 69,
      "a": 70,
      "b": 71,
      "c": 72,
      "d": 73,
      "e": 74,
      "f": 75,
      "g": 76,
      "h": 77,
      "i": 78,
      "j": 79,
      "k": 80,
      "l": 81,
      "m": 82,
      "n": 83,
      "o": 84,
      "p": 85,
      "q": 86,
      "r": 87,
      "s": 88,
      "t": 89,
      "u": 90,
      "v": 91,
      "w": 92,
      "x": 93,
      "y": 94,
      "z": 95,
      "{": 96,
      "|": 97,
      "}": 98,
      "~": 99,
      "": 100,
      "": 101,
      "": 102,
      "": 103,
      "": 104,
      "¡": 105,
      "¢": 106,
      "£": 107,
      "¤": 108,
      "¥": 109,
      "¦": 110,
      "§": 111,
      "©": 112,
      "¬": 113,
      "­": 114,
      "®": 115,
      "°": 116,
      "±": 117,
      "¶": 118,
      "·": 119,
      "¿": 120,
      "À": 121,
      "Á": 122,
      "Â": 123,
      "Ã": 124,
      "Ä": 125,
      "Å": 126,
      "Æ": 127,
      "Ç": 128,
      "È": 129,
      "É": 130,
      "Ê": 131,
      "Ë": 132,
      "Ì": 133,
      "Í": 134,
      "Î": 135,
      "Ï": 136,
      "Ð": 137,
      "Ñ": 138,
      "Ò": 139,
      "Ó": 140,
      "Ô": 141,
      "Õ": 142,
      "Ö": 143,
      "×": 144,
      "Ø": 145,
      "Ù": 146,
      "Ú": 147,
      "Û": 148,
      "Ü": 149,
      "Ý": 150,
      "Þ": 151,
      "ß": 152,
      "à": 153,
      "á": 154,
      "â": 155,
      "ã": 156,
      "ä": 157,
      "å": 158,
      "æ": 159,
      "ç": 160,
      "è": 161,
      "é": 162,
      "ê": 163,
      "ë": 164,
      "ì": 165,
      "í": 166,
      "î": 167,
      "ï": 168,
      "ð": 169,
      "ñ": 170,
      "ò": 171,
      "ó": 172,
      "ô": 173,
      "õ": 174,
      "ö": 175,
      "÷": 176,
      "ø": 177,
      "ù": 178,
      "ú": 179,
      "û": 180,
      "ü": 181,
      "ý": 182,
      "þ": 183,
      "ÿ": 184,
      "Ā": 185,
      "ā": 186,
      "Ă": 187,
      "ă": 188,
      "Ą": 189,
      "ą": 190,
      "Ć": 191,
      "ć": 192,
      "Ĉ": 193,
      "ĉ": 194,
      "Ċ": 195,
      "ċ": 196,
      "Č": 197,
      "č": 198,
      "Ď": 199,
      "ď": 200,
      "Đ": 201,
      "đ": 202,
      "Ē": 203,
      "ē": 204,
      "Ĕ": 205,
      "ĕ": 206,
      "Ė": 207,
      "ė": 208,
      "Ę": 209,
      "ę": 210,
      "Ě": 211,
      "ě": 212,
      "Ĝ": 213,
      "ĝ": 214,
      "Ğ": 215,
      "ğ": 216,
      "Ġ": 217,
      "ġ": 218,
      "Ģ": 219,
      "ģ": 220,
      "Ĥ": 221,
      "ĥ": 222,
      "Ħ": 223,
      "ħ": 224,
      "ĩ": 225,
      "Ī": 226,
      "ī": 227,
      "ĭ": 228,
      "į": 229,
      "İ": 230,
      "ı": 231,
      "ĵ": 232,
      "Ķ": 233,
      "ķ": 234,
      "ĺ": 235,
      "Ļ": 236,
      "ļ": 237,
      "Ľ": 238,
      "ľ": 239,
      "Ł": 240,
      "ł": 241,
      "Ń": 242,
      "ń": 243,
      "Ņ": 244,
      "ņ": 245,
      "ň": 246,
      "Ŋ": 247,
      "ŋ": 248,
      "Ō": 249,
      "ō": 250,
      "ŏ": 251,
      "Ő": 252,
      "ő": 253,
      "Œ": 254,
      "œ": 255,
      "ŕ": 256,
      "ŗ": 257,
      "Ř": 258,
      "ř": 259,
      "Ś": 260,
      "ś": 261,
      "Ŝ": 262,
      "ŝ": 263,
      "Ş": 264,
      "ş": 265,
      "Š": 266,
      "š": 267,
      "Ţ": 268,
      "ţ": 269,
      "Ť": 270,
      "ť": 271,
      "Ŧ": 272,
      "ũ": 273,
      "Ū": 274,
      "ū": 275,
      "ŭ": 276,
      "ů": 277,
      "ű": 278,
      "Ų": 279,
      "ų": 280,
      "ŵ": 281,
      "ŷ": 282,
      "Ÿ": 283,
      "Ź": 284,
      "ź": 285,
      "Ż": 286,
      "ż": 287,
      "Ž": 288,
      "ž": 289,
      "Ƅ": 290,
      "Ɔ": 291,
      "Ƌ": 292,
      "ƌ": 293,
      "ƍ": 294,
      "Ǝ": 295,
      "Ə": 296,
      "Ƒ": 297,
      "ƒ": 298,
      "Ƙ": 299,
      "ƙ": 300,
      "ơ": 301,
      "Ʃ": 302,
      "ư": 303,
      "ƴ": 304,
      "ƿ": 305,
      "ǁ": 306,
      "ǂ": 307,
      "ǃ": 308,
      "Ǎ": 309,
      "ǎ": 310,
      "ǐ": 311,
      "ǒ": 312,
      "ǔ": 313,
      "ǖ": 314,
      "ǘ": 315,
      "ǚ": 316,
      "ǜ": 317,
      "ǝ": 318,
      "Ǟ": 319,
      "ǟ": 320,
      "Ǡ": 321,
      "ǡ": 322,
      "ǣ": 323,
      "Ǧ": 324,
      "ǧ": 325,
      "ǩ": 326,
      "Ǫ": 327,
      "ǫ": 328,
      "ǵ": 329,
      "Ƕ": 330,
      "Ǹ": 331,
      "ǹ": 332,
      "Ǻ": 333,
      "ǻ": 334,
      "ǿ": 335,
      "Ȁ": 336,
      "ȁ": 337,
      "Ȃ": 338,
      "ȃ": 339,
      "Ș": 340,
      "ș": 341,
      "Ț": 342,
      "ț": 343,
      "Ȝ": 344,
      "ȝ": 345,
      "Ȟ": 346,
      "ȟ": 347,
      "Ȧ": 348,
      "ȧ": 349,
      "Ⱥ": 350,
      "Ɂ": 351,
      "ɂ": 352,
      "ɉ": 353,
      "ɏ": 354,
      "ɐ": 355,
      "ɑ": 356,
      "ɒ": 357,
      "ɓ": 358,
      "ɔ": 359,
      "ɕ": 360,
      "ɖ": 361,
      "ɗ": 362,
      "ɘ": 363,
      "ə": 364,
      "ɛ": 365,
      "ɜ": 366,
      "ɝ": 367,
      "ɟ": 368,
      "ɡ": 369,
      "ɣ": 370,
      "ɥ": 371,
      "ɦ": 372,
      "ɨ": 373,
      "ɩ": 374,
      "ɪ": 375,
      "ɫ": 376,
      "ɬ": 377,
      "ɮ": 378,
      "ɯ": 379,
      "ɲ": 380,
      "ɳ": 381,
      "ɶ": 382,
      "ɷ": 383,
      "ɸ": 384,
      "ɹ": 385,
      "ɺ": 386,
      "ɽ": 387,
      "ɾ": 388,
      "ʀ": 389,
      "ʁ": 390,
      "ʂ": 391,
      "ʃ": 392,
      "ʇ": 393,
      "ʈ": 394,
      "ʉ": 395,
      "ʊ": 396,
      "ʋ": 397,
      "ʌ": 398,
      "ʎ": 399,
      "ʏ": 400,
      "ʐ": 401,
      "ʑ": 402,
      "ʒ": 403,
      "ʔ": 404,
      "ʕ": 405,
      "ʖ": 406,
      "ʘ": 407,
      "ʙ": 408,
      "ʝ": 409,
      "ʟ": 410,
      "ʧ": 411,
      "ʹ": 412,
      "ʻ": 413,
      "ʽ": 414,
      "ʾ": 415,
      "ʿ": 416,
      "ˀ": 417,
      "˂": 418,
      "ˆ": 419,
      "ˇ": 420,
      "ˈ": 421,
      "ˊ": 422,
      "ˋ": 423,
      "ˌ": 424,
      "ˍ": 425,
      "ː": 426,
      "˥": 427,
      "˦": 428,
      "˧": 429,
      "˨": 430,
      "˩": 431,
      "˹": 432,
      "˺": 433,
      "̀": 434,
      "́": 435,
      "̃": 436,
      "̄": 437,
      "̆": 438,
      "̇": 439,
      "̈": 440,
      "̉": 441,
      "̊": 442,
      "̋": 443,
      "̌": 444,
      "̍": 445,
      "̎": 446,
      "̏": 447,
      "̐": 448,
      "̑": 449,
      "̒": 450,
      "̓": 451,
      "̔": 452,
      "̕": 453,
      "̖": 454,
      "̗": 455,
      "̘": 456,
      "̙": 457,
      "̚": 458,
      "̛": 459,
      "̜": 460,
      "̝": 461,
      "̞": 462,
      "̟": 463,
      "̠": 464,
      "̢": 465,
      "̣": 466,
      "̤": 467,
      "̥": 468,
      "̦": 469,
      "̧": 470,
      "̨": 471,
      "̩": 472,
      "̪": 473,
      "̫": 474,
      "̬": 475,
      "̭": 476,
      "̮": 477,
      "̯": 478,
      "̰": 479,
      "̱": 480,
      "̲": 481,
      "̳": 482,
      "̴": 483,
      "̵": 484,
      "̶": 485,
      "̷": 486,
      "̸": 487,
      "̹": 488,
      "̺": 489,
      "̻": 490,
      "̽": 491,
      "̾": 492,
      "̿": 493,
      "͂": 494,
      "ͅ": 495,
      "͆": 496,
      "͇": 497,
      "͈": 498,
      "͉": 499,
      "͊": 500,
      "͋": 501,
      "͍": 502,
      "͎": 503,
      "͑": 504,
      "͒": 505,
      "͓": 506,
      "͕": 507,
      "͖": 508,
      "͗": 509,
      "͘": 510,
      "͙": 511,
      "͚": 512,
      "͛": 513,
      "͜": 514,
      "͝": 515,
      "͠": 516,
      "͡": 517,
      "Ό": 518,
      "Ύ": 519,
      "Α": 520,
      "Β": 521,
      "Γ": 522,
      "Δ": 523,
      "Ε": 524,
      "Ζ": 525,
      "Η": 526,
      "Θ": 527,
      "Ι": 528,
      "Κ": 529,
      "Λ": 530,
      "Μ": 531,
      "Ν": 532,
      "Ξ": 533,
      "Ο": 534,
      "Π": 535,
      "Ρ": 536,
      "΢": 537,
      "Σ": 538,
      "Τ": 539,
      "Υ": 540,
      "Φ": 541,
      "Χ": 542,
      "Ψ": 543,
      "Ω": 544,
      "ά": 545,
      "έ": 546,
      "ή": 547,
      "ί": 548,
      "α": 549,
      "β": 550,
      "γ": 551,
      "δ": 552,
      "ε": 553,
      "ζ": 554,
      "η": 555,
      "θ": 556,
      "ι": 557,
      "κ": 558,
      "λ": 559,
      "μ": 560,
      "ν": 561,
      "ξ": 562,
      "ο": 563,
      "π": 564,
      "ρ": 565,
      "ς": 566,
      "σ": 567,
      "τ": 568,
      "υ": 569,
      "φ": 570,
      "χ": 571,
      "ψ": 572,
      "ω": 573,
      "ϊ": 574,
      "ό": 575,
      "ύ": 576,
      "ώ": 577,
      "Ͼ": 578,
      "Ё": 579,
      "Ђ": 580,
      "Є": 581,
      "І": 582,
      "Ї": 583,
      "Ј": 584,
      "Ў": 585,
      "Џ": 586,
      "А": 587,
      "Б": 588,
      "В": 589,
      "Г": 590,
      "Д": 591,
      "Е": 592,
      "Ж": 593,
      "З": 594,
      "И": 595,
      "Й": 596,
      "К": 597,
      "Л": 598,
      "М": 599,
      "Н": 600,
      "О": 601,
      "П": 602,
      "Р": 603,
      "С": 604,
      "Т": 605,
      "У": 606,
      "Ф": 607,
      "Х": 608,
      "Ц": 609,
      "Ч": 610,
      "Ш": 611,
      "Щ": 612,
      "Э": 613,
      "Ю": 614,
      "Я": 615,
      "а": 616,
      "б": 617,
      "в": 618,
      "г": 619,
      "д": 620,
      "е": 621,
      "ж": 622,
      "з": 623,
      "и": 624,
      "й": 625,
      "к": 626,
      "л": 627,
      "м": 628,
      "н": 629,
      "о": 630,
      "п": 631,
      "р": 632,
      "с": 633,
      "т": 634,
      "у": 635,
      "ф": 636,
      "х": 637,
      "ц": 638,
      "ч": 639,
      "ш": 640,
      "щ": 641,
      "ъ": 642,
      "ы": 643,
      "ь": 644,
      "э": 645,
      "ю": 646,
      "я": 647,
      "ё": 648,
      "є": 649,
      "і": 650,
      "ї": 651,
      "ј": 652,
      "љ": 653,
      "њ": 654,
      "ћ": 655,
      "ў": 656,
      "џ": 657,
      "Ѡ": 658,
      "ѡ": 659,
      "ѧ": 660,
      "Ѯ": 661,
      "ѯ": 662,
      "ѱ": 663,
      "Ѳ": 664,
      "ѳ": 665,
      "Ѵ": 666,
      "ѵ": 667,
      "Ҁ": 668,
      "ҁ": 669,
      "Ґ": 670,
      "ґ": 671,
      "Ғ": 672,
      "ғ": 673,
      "Қ": 674,
      "қ": 675,
      "ң": 676,
      "ҫ": 677,
      "ү": 678,
      "Ұ": 679,
      "ұ": 680,
      "ҳ": 681,
      "Ҷ": 682,
      "ҷ": 683,
      "Ә": 684,
      "ә": 685,
      "Ө": 686,
      "ө": 687,
      "Հ": 688,
      "ա": 689,
      "դ": 690,
      "ե": 691,
      "ի": 692,
      "հ": 693,
      "յ": 694,
      "ն": 695,
      "ր": 696,
      "օ": 697,
      "֎": 698,
      "֮": 699,
      "ְ": 700,
      "ֲ": 701,
      "ִ": 702,
      "ֵ": 703,
      "ֶ": 704,
      "ַ": 705,
      "ָ": 706,
      "ֹ": 707,
      "ֻ": 708,
      "ּ": 709,
      "־": 710,
      "ׁ": 711,
      "ׂ": 712,
      "א": 713,
      "ב": 714,
      "ג": 715,
      "ד": 716,
      "ה": 717,
      "ו": 718,
      "ז": 719,
      "ח": 720,
      "ט": 721,
      "י": 722,
      "ך": 723,
      "כ": 724,
      "ל": 725,
      "ם": 726,
      "מ": 727,
      "ן": 728,
      "נ": 729,
      "ס": 730,
      "ע": 731,
      "פ": 732,
      "ץ": 733,
      "צ": 734,
      "ר": 735,
      "ש": 736,
      "ת": 737,
      "״": 738,
      "،": 739,
      "؟": 740,
      "ء": 741,
      "آ": 742,
      "أ": 743,
      "إ": 744,
      "ئ": 745,
      "ا": 746,
      "ب": 747,
      "ة": 748,
      "ت": 749,
      "ث": 750,
      "ج": 751,
      "ح": 752,
      "خ": 753,
      "د": 754,
      "ذ": 755,
      "ر": 756,
      "ز": 757,
      "س": 758,
      "ش": 759,
      "ص": 760,
      "ض": 761,
      "ط": 762,
      "ظ": 763,
      "ع": 764,
      "غ": 765,
      "ـ": 766,
      "ف": 767,
      "ق": 768,
      "ك": 769,
      "ل": 770,
      "م": 771,
      "ن": 772,
      "ه": 773,
      "و": 774,
      "ى": 775,
      "ي": 776,
      "ً": 777,
      "ٌ": 778,
      "ٍ": 779,
      "َ": 780,
      "ُ": 781,
      "ِ": 782,
      "ّ": 783,
      "ْ": 784,
      "ٓ": 785,
      "ٔ": 786,
      "١": 787,
      "٢": 788,
      "٤": 789,
      "٥": 790,
      "٦": 791,
      "٧": 792,
      "٨": 793,
      "٩": 794,
      "ٰ": 795,
      "ٱ": 796,
      "ٴ": 797,
      "پ": 798,
      "چ": 799,
      "ڑ": 800,
      "ڠ": 801,
      "ک": 802,
      "ڬ": 803,
      "گ": 804,
      "ں": 805,
      "ھ": 806,
      "ہ": 807,
      "ی": 808,
      "ے": 809,
      "ۖ": 810,
      "ۗ": 811,
      "ۚ": 812,
      "۝": 813,
      "۞": 814,
      "ۢ": 815,
      "ۥ": 816,
      "ۦ": 817,
      "ۭ": 818,
      "۰": 819,
      "܂": 820,
      "ܐ": 821,
      "ܙ": 822,
      "ܝ": 823,
      "ܠ": 824,
      "ܢ": 825,
      "ܦ": 826,
      "އ": 827,
      "މ": 828,
      "ލ": 829,
      "ސ": 830,
      "ޤ": 831,
      "ަ": 832,
      "ާ": 833,
      "ީ": 834,
      "ު": 835,
      "ް": 836,
      "ँ": 837,
      "ं": 838,
      "ः": 839,
      "अ": 840,
      "आ": 841,
      "इ": 842,
      "ई": 843,
      "उ": 844,
      "ऊ": 845,
      "ए": 846,
      "ऐ": 847,
      "ऑ": 848,
      "ओ": 849,
      "औ": 850,
      "क": 851,
      "ख": 852,
      "ग": 853,
      "घ": 854,
      "ङ": 855,
      "च": 856,
      "छ": 857,
      "ज": 858,
      "झ": 859,
      "ञ": 860,
      "ट": 861,
      "ठ": 862,
      "ड": 863,
      "ढ": 864,
      "ण": 865,
      "त": 866,
      "थ": 867,
      "द": 868,
      "ध": 869,
      "न": 870,
      "प": 871,
      "फ": 872,
      "ब": 873,
      "भ": 874,
      "म": 875,
      "य": 876,
      "र": 877,
      "ऱ": 878,
      "ल": 879,
      "ळ": 880,
      "व": 881,
      "श": 882,
      "ष": 883,
      "स": 884,
      "ह": 885,
      "़": 886,
      "ा": 887,
      "ि": 888,
      "ी": 889,
      "ु": 890,
      "ू": 891,
      "ृ": 892,
      "ॅ": 893,
      "े": 894,
      "ै": 895,
      "ॉ": 896,
      "ो": 897,
      "ौ": 898,
      "्": 899,
      "ॐ": 900,
      "।": 901,
      "॥": 902,
      "०": 903,
      "१": 904,
      "२": 905,
      "३": 906,
      "४": 907,
      "५": 908,
      "६": 909,
      "७": 910,
      "८": 911,
      "९": 912,
      "ঁ": 913,
      "ং": 914,
      "অ": 915,
      "আ": 916,
      "ই": 917,
      "উ": 918,
      "ও": 919,
      "ক": 920,
      "খ": 921,
      "গ": 922,
      "ঘ": 923,
      "চ": 924,
      "ছ": 925,
      "জ": 926,
      "ঞ": 927,
      "ট": 928,
      "ঠ": 929,
      "ড": 930,
      "ণ": 931,
      "ত": 932,
      "থ": 933,
      "দ": 934,
      "ধ": 935,
      "ন": 936,
      "প": 937,
      "ফ": 938,
      "ব": 939,
      "ভ": 940,
      "ম": 941,
      "য": 942,
      "র": 943,
      "ল": 944,
      "শ": 945,
      "ষ": 946,
      "স": 947,
      "হ": 948,
      "়": 949,
      "া": 950,
      "ি": 951,
      "ী": 952,
      "ু": 953,
      "ূ": 954,
      "ে": 955,
      "ৈ": 956,
      "ো": 957,
      "্": 958,
      "২": 959,
      "৩": 960,
      "৭": 961,
      "৮": 962,
      "৲": 963,
      "৳": 964,
      "ਂ": 965,
      "ਅ": 966,
      "ਆ": 967,
      "ਇ": 968,
      "ਈ": 969,
      "ਉ": 970,
      "ਕ": 971,
      "ਖ": 972,
      "ਗ": 973,
      "ਚ": 974,
      "ਛ": 975,
      "ਜ": 976,
      "ਟ": 977,
      "ਠ": 978,
      "ਡ": 979,
      "ਣ": 980,
      "ਤ": 981,
      "ਥ": 982,
      "ਦ": 983,
      "ਧ": 984,
      "ਨ": 985,
      "ਪ": 986,
      "ਫ": 987,
      "ਬ": 988,
      "ਮ": 989,
      "ਰ": 990,
      "ਲ": 991,
      "ਵ": 992,
      "ਸ": 993,
      "ਹ": 994,
      "਼": 995,
      "ਾ": 996,
      "ਿ": 997,
      "ੀ": 998,
      "ੁ": 999,
      "ੂ": 1000,
      "ੇ": 1001,
      "ੈ": 1002,
      "ੋ": 1003,
      "੍": 1004,
      "ੰ": 1005,
      "ੱ": 1006,
      "ં": 1007,
      "અ": 1008,
      "આ": 1009,
      "ઈ": 1010,
      "ઉ": 1011,
      "એ": 1012,
      "ઓ": 1013,
      "ક": 1014,
      "ખ": 1015,
      "ગ": 1016,
      "ચ": 1017,
      "છ": 1018,
      "જ": 1019,
      "ટ": 1020,
      "ડ": 1021,
      "ઢ": 1022,
      "ણ": 1023,
      "ત": 1024,
      "થ": 1025,
      "દ": 1026,
      "ધ": 1027,
      "ન": 1028,
      "પ": 1029,
      "ફ": 1030,
      "બ": 1031,
      "ભ": 1032,
      "મ": 1033,
      "ય": 1034,
      "ર": 1035,
      "લ": 1036,
      "વ": 1037,
      "શ": 1038,
      "સ": 1039,
      "હ": 1040,
      "ા": 1041,
      "િ": 1042,
      "ી": 1043,
      "ુ": 1044,
      "ૂ": 1045,
      "ે": 1046,
      "ો": 1047,
      "્": 1048,
      "૫": 1049,
      "ଁ": 1050,
      "ଂ": 1051,
      "ଃ": 1052,
      "ଅ": 1053,
      "ଆ": 1054,
      "ଇ": 1055,
      "ଈ": 1056,
      "ଉ": 1057,
      "ଏ": 1058,
      "ଓ": 1059,
      "କ": 1060,
      "ଖ": 1061,
      "ଗ": 1062,
      "ଘ": 1063,
      "ଙ": 1064,
      "ଚ": 1065,
      "ଛ": 1066,
      "ଜ": 1067,
      "ଝ": 1068,
      "ଞ": 1069,
      "ଟ": 1070,
      "ଠ": 1071,
      "ଡ": 1072,
      "ଢ": 1073,
      "ଣ": 1074,
      "ତ": 1075,
      "ଥ": 1076,
      "ଦ": 1077,
      "ଧ": 1078,
      "ନ": 1079,
      "ପ": 1080,
      "ଫ": 1081,
      "ବ": 1082,
      "ଭ": 1083,
      "ମ": 1084,
      "ଯ": 1085,
      "ର": 1086,
      "ଲ": 1087,
      "ଳ": 1088,
      "ଵ": 1089,
      "ଶ": 1090,
      "ଷ": 1091,
      "ସ": 1092,
      "ହ": 1093,
      "଼": 1094,
      "ା": 1095,
      "ି": 1096,
      "ୀ": 1097,
      "ୁ": 1098,
      "ୂ": 1099,
      "ୃ": 1100,
      "େ": 1101,
      "ୋ": 1102,
      "ୌ": 1103,
      "୍": 1104,
      "ୟ": 1105,
      "୭": 1106,
      "୮": 1107,
      "ୱ": 1108,
      "அ": 1109,
      "ஆ": 1110,
      "இ": 1111,
      "உ": 1112,
      "எ": 1113,
      "ஏ": 1114,
      "ஐ": 1115,
      "ஒ": 1116,
      "ஓ": 1117,
      "க": 1118,
      "ங": 1119,
      "ச": 1120,
      "ஜ": 1121,
      "ஞ": 1122,
      "ட": 1123,
      "ண": 1124,
      "த": 1125,
      "ந": 1126,
      "ன": 1127,
      "ப": 1128,
      "ம": 1129,
      "ய": 1130,
      "ர": 1131,
      "ற": 1132,
      "ல": 1133,
      "ள": 1134,
      "ழ": 1135,
      "வ": 1136,
      "ஷ": 1137,
      "ஸ": 1138,
      "ஹ": 1139,
      "ா": 1140,
      "ி": 1141,
      "ீ": 1142,
      "ு": 1143,
      "ூ": 1144,
      "ெ": 1145,
      "ே": 1146,
      "ை": 1147,
      "ொ": 1148,
      "ோ": 1149,
      "ௌ": 1150,
      "்": 1151,
      "ం": 1152,
      "అ": 1153,
      "ఆ": 1154,
      "ఇ": 1155,
      "ఉ": 1156,
      "ఊ": 1157,
      "ఎ": 1158,
      "ఏ": 1159,
      "ఐ": 1160,
      "ఒ": 1161,
      "ఓ": 1162,
      "క": 1163,
      "ఖ": 1164,
      "గ": 1165,
      "చ": 1166,
      "జ": 1167,
      "ట": 1168,
      "ఠ": 1169,
      "డ": 1170,
      "ఢ": 1171,
      "ణ": 1172,
      "త": 1173,
      "థ": 1174,
      "ద": 1175,
      "ధ": 1176,
      "న": 1177,
      "ప": 1178,
      "ఫ": 1179,
      "బ": 1180,
      "భ": 1181,
      "మ": 1182,
      "య": 1183,
      "ర": 1184,
      "ల": 1185,
      "ళ": 1186,
      "వ": 1187,
      "శ": 1188,
      "ష": 1189,
      "స": 1190,
      "హ": 1191,
      "ా": 1192,
      "ి": 1193,
      "ీ": 1194,
      "ు": 1195,
      "ూ": 1196,
      "ె": 1197,
      "ే": 1198,
      "ై": 1199,
      "ొ": 1200,
      "ో": 1201,
      "్": 1202,
      "ಂ": 1203,
      "ಃ": 1204,
      "ಅ": 1205,
      "ಆ": 1206,
      "ಇ": 1207,
      "ಈ": 1208,
      "ಉ": 1209,
      "ಋ": 1210,
      "ಎ": 1211,
      "ಏ": 1212,
      "ಐ": 1213,
      "ಒ": 1214,
      "ಓ": 1215,
      "ಕ": 1216,
      "ಖ": 1217,
      "ಗ": 1218,
      "ಘ": 1219,
      "ಚ": 1220,
      "ಛ": 1221,
      "ಜ": 1222,
      "ಟ": 1223,
      "ಠ": 1224,
      "ಡ": 1225,
      "ಣ": 1226,
      "ತ": 1227,
      "ಥ": 1228,
      "ದ": 1229,
      "ಧ": 1230,
      "ನ": 1231,
      "ಪ": 1232,
      "ಫ": 1233,
      "ಬ": 1234,
      "ಭ": 1235,
      "ಮ": 1236,
      "ಯ": 1237,
      "ರ": 1238,
      "ಲ": 1239,
      "ಳ": 1240,
      "ವ": 1241,
      "ಶ": 1242,
      "ಷ": 1243,
      "ಸ": 1244,
      "ಹ": 1245,
      "ಾ": 1246,
      "ಿ": 1247,
      "ೀ": 1248,
      "ು": 1249,
      "ೂ": 1250,
      "ೃ": 1251,
      "ೆ": 1252,
      "ೇ": 1253,
      "ೈ": 1254,
      "ೊ": 1255,
      "ೋ": 1256,
      "ೌ": 1257,
      "್": 1258,
      "ං": 1259,
      "ක": 1260,
      "ජ": 1261,
      "ට": 1262,
      "ඩ": 1263,
      "ණ": 1264,
      "ත": 1265,
      "න": 1266,
      "බ": 1267,
      "ම": 1268,
      "ය": 1269,
      "ර": 1270,
      "ල": 1271,
      "ව": 1272,
      "ශ": 1273,
      "ස": 1274,
      "්": 1275,
      "ා": 1276,
      "ි": 1277,
      "ී": 1278,
      "ෙ": 1279,
      "ේ": 1280,
      "ො": 1281,
      "ෝ": 1282,
      "ก": 1283,
      "ข": 1284,
      "ค": 1285,
      "ง": 1286,
      "จ": 1287,
      "ช": 1288,
      "ซ": 1289,
      "ณ": 1290,
      "ด": 1291,
      "ต": 1292,
      "ถ": 1293,
      "ท": 1294,
      "ธ": 1295,
      "น": 1296,
      "บ": 1297,
      "ป": 1298,
      "พ": 1299,
      "ภ": 1300,
      "ม": 1301,
      "ย": 1302,
      "ร": 1303,
      "ฤ": 1304,
      "ล": 1305,
      "ว": 1306,
      "ศ": 1307,
      "ษ": 1308,
      "ส": 1309,
      "ห": 1310,
      "อ": 1311,
      "ะ": 1312,
      "ั": 1313,
      "า": 1314,
      "ิ": 1315,
      "ี": 1316,
      "ุ": 1317,
      "ู": 1318,
      "เ": 1319,
      "แ": 1320,
      "โ": 1321,
      "ใ": 1322,
      "ไ": 1323,
      "็": 1324,
      "่": 1325,
      "้": 1326,
      "์": 1327,
      "ํ": 1328,
      "ຂ": 1329,
      "ຄ": 1330,
      "ນ": 1331,
      "ພ": 1332,
      "ມ": 1333,
      "ລ": 1334,
      "ວ": 1335,
      "ສ": 1336,
      "າ": 1337,
      "ິ": 1338,
      "ແ": 1339,
      "་": 1340,
      "།": 1341,
      "ཁ": 1342,
      "ང": 1343,
      "ར": 1344,
      "ོ": 1345,
      "ྫ": 1346,
      "စ": 1347,
      "ဗ": 1348,
      "မ": 1349,
      "ာ": 1350,
      "၀": 1351,
      "၁": 1352,
      "၂": 1353,
      "၃": 1354,
      "၄": 1355,
      "၅": 1356,
      "၆": 1357,
      "၇": 1358,
      "၈": 1359,
      "၉": 1360,
      "ა": 1361,
      "დ": 1362,
      "ე": 1363,
      "ვ": 1364,
      "თ": 1365,
      "ი": 1366,
      "ლ": 1367,
      "მ": 1368,
      "ნ": 1369,
      "ო": 1370,
      "რ": 1371,
      "ტ": 1372,
      "უ": 1373,
      "ქ": 1374,
      "შ": 1375,
      "ᄀ": 1376,
      "ᄂ": 1377,
      "ᅀ": 1378,
      "ሀ": 1379,
      "ሁ": 1380,
      "ሂ": 1381,
      "ህ": 1382,
      "ለ": 1383,
      "ሐ": 1384,
      "መ": 1385,
      "ሠ": 1386,
      "ረ": 1387,
      "ቀ": 1388,
      "በ": 1389,
      "ተ": 1390,
      "ነ": 1391,
      "ና": 1392,
      "አ": 1393,
      "ከ": 1394,
      "ወ": 1395,
      "ዐ": 1396,
      "የ": 1397,
      "ደ": 1398,
      "ገ": 1399,
      "ጠ": 1400,
      "ጸ": 1401,
      "ፈ": 1402,
      "Ꭰ": 1403,
      "Ꭱ": 1404,
      "Ꭲ": 1405,
      "Ꭳ": 1406,
      "Ꭴ": 1407,
      "Ꭵ": 1408,
      "Ꭶ": 1409,
      "Ꭷ": 1410,
      "Ꭸ": 1411,
      "Ꭹ": 1412,
      "Ꭺ": 1413,
      "Ꭻ": 1414,
      "Ꭼ": 1415,
      "Ꭽ": 1416,
      "Ꭾ": 1417,
      "Ꭿ": 1418,
      "Ꮀ": 1419,
      "Ꮁ": 1420,
      "Ꮂ": 1421,
      "Ꮃ": 1422,
      "Ꮄ": 1423,
      "Ꮅ": 1424,
      "Ꮆ": 1425,
      "Ꮇ": 1426,
      "Ꮈ": 1427,
      "Ꮉ": 1428,
      "Ꮊ": 1429,
      "Ꮋ": 1430,
      "Ꮌ": 1431,
      "Ꮍ": 1432,
      "Ꮎ": 1433,
      "Ꮏ": 1434,
      "Ꮐ": 1435,
      "Ꮑ": 1436,
      "Ꮒ": 1437,
      "Ꮓ": 1438,
      "Ꮔ": 1439,
      "Ꮕ": 1440,
      "Ꮖ": 1441,
      "Ꮗ": 1442,
      "Ꮘ": 1443,
      "Ꮙ": 1444,
      "Ꮚ": 1445,
      "Ꮛ": 1446,
      "Ꮜ": 1447,
      "Ꮝ": 1448,
      "Ꮞ": 1449,
      "Ꮟ": 1450,
      "Ꮠ": 1451,
      "Ꮡ": 1452,
      "Ꮢ": 1453,
      "Ꮣ": 1454,
      "Ꮤ": 1455,
      "Ꮥ": 1456,
      "Ꮦ": 1457,
      "Ꮧ": 1458,
      "Ꮨ": 1459,
      "Ꮩ": 1460,
      "Ꮪ": 1461,
      "Ꮫ": 1462,
      "Ꮬ": 1463,
      "Ꮭ": 1464,
      "Ꮮ": 1465,
      "Ꮯ": 1466,
      "Ꮰ": 1467,
      "Ꮱ": 1468,
      "Ꮲ": 1469,
      "Ꮳ": 1470,
      "Ꮴ": 1471,
      "Ꮵ": 1472,
      "Ꮶ": 1473,
      "Ꮷ": 1474,
      "Ꮸ": 1475,
      "Ꮹ": 1476,
      "Ꮺ": 1477,
      "Ꮻ": 1478,
      "Ꮼ": 1479,
      "Ꮽ": 1480,
      "Ꮾ": 1481,
      "Ꮿ": 1482,
      "Ᏸ": 1483,
      "Ᏹ": 1484,
      "Ᏺ": 1485,
      "Ᏻ": 1486,
      "Ᏼ": 1487,
      "ᐃ": 1488,
      "ᐱ": 1489,
      "ᐳ": 1490,
      "ᐸ": 1491,
      "ᑎ": 1492,
      "ᑐ": 1493,
      "ᑕ": 1494,
      "ᑖ": 1495,
      "ᑦ": 1496,
      "ᑭ": 1497,
      "ᒃ": 1498,
      "ᓄ": 1499,
      "ᓇ": 1500,
      "ᓗ": 1501,
      "ᕗ": 1502,
      "ᕿ": 1503,
      "ᖃ": 1504,
      "ᖅ": 1505,
      "᚛": 1506,
      "᚜": 1507,
      "᛫": 1508,
      "᛬": 1509,
      "᛭": 1510,
      "ក": 1511,
      "ខ": 1512,
      "គ": 1513,
      "ឃ": 1514,
      "ង": 1515,
      "ច": 1516,
      "ឆ": 1517,
      "ដ": 1518,
      "ឌ": 1519,
      "ទ": 1520,
      "ធ": 1521,
      "ន": 1522,
      "ប": 1523,
      "ព": 1524,
      "ភ": 1525,
      "ម": 1526,
      "យ": 1527,
      "រ": 1528,
      "ល": 1529,
      "វ": 1530,
      "ស": 1531,
      "ឡ": 1532,
      "អ": 1533,
      "ា": 1534,
      "ី": 1535,
      "ឹ": 1536,
      "ុ": 1537,
      "ួ": 1538,
      "ើ": 1539,
      "ៀ": 1540,
      "េ": 1541,
      "ែ": 1542,
      "ៃ": 1543,
      "ោ": 1544,
      "ំ": 1545,
      "៉": 1546,
      "្": 1547,
      "០": 1548,
      "១": 1549,
      "២": 1550,
      "៣": 1551,
      "៤": 1552,
      "៥": 1553,
      "៦": 1554,
      "៧": 1555,
      "៨": 1556,
      "៩": 1557,
      "ᶏ": 1558,
      "Ḁ": 1559,
      "ḁ": 1560,
      "ḃ": 1561,
      "ḇ": 1562,
      "ḋ": 1563,
      "Ḍ": 1564,
      "ḍ": 1565,
      "ḏ": 1566,
      "ḗ": 1567,
      "Ḙ": 1568,
      "Ḡ": 1569,
      "ḡ": 1570,
      "Ḥ": 1571,
      "ḥ": 1572,
      "Ḩ": 1573,
      "ḫ": 1574,
      "ḱ": 1575,
      "ḳ": 1576,
      "ḵ": 1577,
      "ḷ": 1578,
      "ḻ": 1579,
      "ḿ": 1580,
      "Ṁ": 1581,
      "ṁ": 1582,
      "Ṃ": 1583,
      "ṃ": 1584,
      "ṅ": 1585,
      "ṇ": 1586,
      "ṉ": 1587,
      "ṓ": 1588,
      "ṗ": 1589,
      "ṙ": 1590,
      "ṛ": 1591,
      "ṟ": 1592,
      "Ṣ": 1593,
      "ṣ": 1594,
      "ṫ": 1595,
      "Ṭ": 1596,
      "ṭ": 1597,
      "Ṯ": 1598,
      "ṯ": 1599,
      "Ṱ": 1600,
      "Ṳ": 1601,
      "ṹ": 1602,
      "ẏ": 1603,
      "Ẓ": 1604,
      "ẓ": 1605,
      "ẖ": 1606,
      "ẞ": 1607,
      "Ạ": 1608,
      "ạ": 1609,
      "Ả": 1610,
      "ả": 1611,
      "Ấ": 1612,
      "ấ": 1613,
      "Ầ": 1614,
      "ầ": 1615,
      "Ẩ": 1616,
      "ẩ": 1617,
      "Ẫ": 1618,
      "ẫ": 1619,
      "Ậ": 1620,
      "ậ": 1621,
      "Ắ": 1622,
      "ắ": 1623,
      "Ằ": 1624,
      "ằ": 1625,
      "Ẳ": 1626,
      "ẳ": 1627,
      "Ẵ": 1628,
      "ẵ": 1629,
      "Ặ": 1630,
      "ặ": 1631,
      "Ẹ": 1632,
      "ẹ": 1633,
      "ẻ": 1634,
      "ẽ": 1635,
      "Ế": 1636,
      "ế": 1637,
      "ề": 1638,
      "ể": 1639,
      "ễ": 1640,
      "ệ": 1641,
      "ỉ": 1642,
      "ị": 1643,
      "Ọ": 1644,
      "ọ": 1645,
      "Ỏ": 1646,
      "ỏ": 1647,
      "ố": 1648,
      "ồ": 1649,
      "ổ": 1650,
      "ỗ": 1651,
      "ộ": 1652,
      "ớ": 1653,
      "ờ": 1654,
      "ở": 1655,
      "ợ": 1656,
      "ụ": 1657,
      "ủ": 1658,
      "ứ": 1659,
      "ừ": 1660,
      "ử": 1661,
      "ữ": 1662,
      "ự": 1663,
      "ỳ": 1664,
      "ỹ": 1665,
      "ἀ": 1666,
      "ἂ": 1667,
      "ἄ": 1668,
      "Ἀ": 1669,
      "Ἁ": 1670,
      "Ἄ": 1671,
      "ἐ": 1672,
      "ἑ": 1673,
      "ἔ": 1674,
      "ἕ": 1675,
      "Ἐ": 1676,
      "Ἑ": 1677,
      "Ἔ": 1678,
      "ἡ": 1679,
      "ἣ": 1680,
      "ἤ": 1681,
      "ἥ": 1682,
      "Ἤ": 1683,
      "Ἥ": 1684,
      "ἰ": 1685,
      "ἱ": 1686,
      "ἴ": 1687,
      "Ἰ": 1688,
      "Ἴ": 1689,
      "Ἶ": 1690,
      "ὀ": 1691,
      "ὁ": 1692,
      "ὄ": 1693,
      "ὅ": 1694,
      "Ὃ": 1695,
      "ὐ": 1696,
      "ὑ": 1697,
      "ὕ": 1698,
      "Ὕ": 1699,
      "Ὠ": 1700,
      "ὰ": 1701,
      "ὲ": 1702,
      "ὴ": 1703,
      "ὶ": 1704,
      "ὸ": 1705,
      "ὺ": 1706,
      "ῃ": 1707,
      "ῆ": 1708,
      "ῇ": 1709,
      "ῖ": 1710,
      "ῥ": 1711,
      "ῦ": 1712,
      "Ῥ": 1713,
      "ῶ": 1714,
      "ῷ": 1715,
      "​": 1716,
      "‌": 1717,
      "‍": 1718,
      "‎": 1719,
      "‏": 1720,
      "‐": 1721,
      "‒": 1722,
      "―": 1723,
      "‖": 1724,
      "†": 1725,
      "‡": 1726,
      "•": 1727,
      "‧": 1728,
      "‪": 1729,
      "‬": 1730,
      "‭": 1731,
      "‰": 1732,
      "′": 1733,
      "‹": 1734,
      "›": 1735,
      "※": 1736,
      "‿": 1737,
      "⁂": 1738,
      "⁄": 1739,
      "⁎": 1740,
      "⁓": 1741,
      "⁠": 1742,
      "⁣": 1743,
      "₡": 1744,
      "₣": 1745,
      "₤": 1746,
      "₩": 1747,
      "₪": 1748,
      "₫": 1749,
      "€": 1750,
      "₮": 1751,
      "₯": 1752,
      "₱": 1753,
      "₴": 1754,
      "₵": 1755,
      "₹": 1756,
      "₺": 1757,
      "₽": 1758,
      "₿": 1759,
      "⃣": 1760,
      "⃰": 1761,
      "℧": 1762,
      "Ↄ": 1763,
      "↊": 1764,
      "↋": 1765,
      "←": 1766,
      "↑": 1767,
      "→": 1768,
      "↓": 1769,
      "↔": 1770,
      "↗": 1771,
      "↘": 1772,
      "↫": 1773,
      "↵": 1774,
      "⇆": 1775,
      "⇌": 1776,
      "⇒": 1777,
      "⇔": 1778,
      "⇧": 1779,
      "⇨": 1780,
      "⇱": 1781,
      "∀": 1782,
      "∂": 1783,
      "∃": 1784,
      "∆": 1785,
      "∇": 1786,
      "∈": 1787,
      "∉": 1788,
      "∍": 1789,
      "∑": 1790,
      "−": 1791,
      "∕": 1792,
      "∗": 1793,
      "∘": 1794,
      "∙": 1795,
      "√": 1796,
      "∝": 1797,
      "∞": 1798,
      "∟": 1799,
      "∠": 1800,
      "∥": 1801,
      "∧": 1802,
      "∨": 1803,
      "∩": 1804,
      "∪": 1805,
      "∴": 1806,
      "∵": 1807,
      "∶": 1808,
      "∷": 1809,
      "∼": 1810,
      "≈": 1811,
      "≌": 1812,
      "≒": 1813,
      "≠": 1814,
      "≡": 1815,
      "≤": 1816,
      "≥": 1817,
      "≧": 1818,
      "⊆": 1819,
      "⊇": 1820,
      "⊕": 1821,
      "⊖": 1822,
      "⊙": 1823,
      "⊞": 1824,
      "⊥": 1825,
      "⋅": 1826,
      "⋯": 1827,
      "⌈": 1828,
      "⌉": 1829,
      "⌊": 1830,
      "⌋": 1831,
      "⌒": 1832,
      "⌘": 1833,
      "⎓": 1834,
      "⎡": 1835,
      "⎣": 1836,
      "⏰": 1837,
      "␀": 1838,
      "␁": 1839,
      "␂": 1840,
      "␃": 1841,
      "␄": 1842,
      "␅": 1843,
      "␆": 1844,
      "␇": 1845,
      "␈": 1846,
      "␉": 1847,
      "␊": 1848,
      "␋": 1849,
      "␌": 1850,
      "␍": 1851,
      "␎": 1852,
      "␏": 1853,
      "␐": 1854,
      "␑": 1855,
      "␒": 1856,
      "␓": 1857,
      "␔": 1858,
      "␕": 1859,
      "␖": 1860,
      "␗": 1861,
      "␘": 1862,
      "␙": 1863,
      "␚": 1864,
      "␛": 1865,
      "␜": 1866,
      "␝": 1867,
      "␞": 1868,
      "␟": 1869,
      "␡": 1870,
      "─": 1871,
      "━": 1872,
      "│": 1873,
      "┄": 1874,
      "┅": 1875,
      "┈": 1876,
      "┏": 1877,
      "┓": 1878,
      "┛": 1879,
      "├": 1880,
      "┞": 1881,
      "┫": 1882,
      "═": 1883,
      "╳": 1884,
      "▁": 1885,
      "█": 1886,
      "▔": 1887,
      "■": 1888,
      "□": 1889,
      "▪": 1890,
      "▲": 1891,
      "△": 1892,
      "▶": 1893,
      "►": 1894,
      "▼": 1895,
      "◀": 1896,
      "◆": 1897,
      "◇": 1898,
      "◉": 1899,
      "◊": 1900,
      "○": 1901,
      "◎": 1902,
      "●": 1903,
      "◢": 1904,
      "◤": 1905,
      "◦": 1906,
      "◻": 1907,
      "☀": 1908,
      "☁": 1909,
      "☃": 1910,
      "☄": 1911,
      "★": 1912,
      "☆": 1913,
      "☉": 1914,
      "☐": 1915,
      "☚": 1916,
      "☛": 1917,
      "☝": 1918,
      "☣": 1919,
      "☫": 1920,
      "☭": 1921,
      "☯": 1922,
      "☲": 1923,
      "☺": 1924,
      "☻": 1925,
      "☿": 1926,
      "♀": 1927,
      "♂": 1928,
      "♄": 1929,
      "♈": 1930,
      "♑": 1931,
      "♒": 1932,
      "♘": 1933,
      "♠": 1934,
      "♡": 1935,
      "♢": 1936,
      "♣": 1937,
      "♥": 1938,
      "♦": 1939,
      "♧": 1940,
      "♪": 1941,
      "♫": 1942,
      "♬": 1943,
      "♭": 1944,
      "♮": 1945,
      "♯": 1946,
      "⚠": 1947,
      "⚡": 1948,
      "⚥": 1949,
      "⚪": 1950,
      "✂": 1951,
      "✅": 1952,
      "✍": 1953,
      "✓": 1954,
      "✔": 1955,
      "✕": 1956,
      "✗": 1957,
      "✘": 1958,
      "✙": 1959,
      "✚": 1960,
      "✡": 1961,
      "✩": 1962,
      "✭": 1963,
      "✯": 1964,
      "✹": 1965,
      "✿": 1966,
      "❀": 1967,
      "❄": 1968,
      "❌": 1969,
      "❏": 1970,
      "❗": 1971,
      "❤": 1972,
      "❦": 1973,
      "❶": 1974,
      "❷": 1975,
      "➙": 1976,
      "➜": 1977,
      "➡": 1978,
      "➤": 1979,
      "➨": 1980,
      "⟨": 1981,
      "⟩": 1982,
      "⠀": 1983,
      "⠅": 1984,
      "⠇": 1985,
      "⠑": 1986,
      "⠓": 1987,
      "⠘": 1988,
      "⠙": 1989,
      "⠠": 1990,
      "⠢": 1991,
      "⠻": 1992,
      "⧼": 1993,
      "⧽": 1994,
      "⫋": 1995,
      "⬄": 1996,
      "⬅": 1997,
      "⬠": 1998,
      "⬱": 1999,
      "⭐": 2000,
      "ⱡ": 2001,
      "ⱥ": 2002,
      "ⲃ": 2003,
      "ⲉ": 2004,
      "ⲧ": 2005,
      "ⲱ": 2006,
      "ⴰ": 2007,
      "ⴱ": 2008,
      "ⴻ": 2009,
      "ⴽ": 2010,
      "ⵉ": 2011,
      "ⵍ": 2012,
      "ⵎ": 2013,
      "ⵏ": 2014,
      "ⵓ": 2015,
      "ⵔ": 2016,
      "ⵖ": 2017,
      "ⵛ": 2018,
      "ⵜ": 2019,
      "ⵢ": 2020,
      "⺠": 2021,
      "⺶": 2022,
      "⻋": 2023,
      "⻐": 2024,
      "⻓": 2025,
      "⻖": 2026,
      "⻗": 2027,
      "⻩": 2028,
      "⿰": 2029,
      "⿱": 2030,
      "⿺": 2031,
      "、": 2032,
      "。": 2033,
      "〃": 2034,
      "〇": 2035,
      "〈": 2036,
      "〉": 2037,
      "《": 2038,
      "》": 2039,
      "「": 2040,
      "」": 2041,
      "『": 2042,
      "』": 2043,
      "【": 2044,
      "】": 2045,
      "〔": 2046,
      "〕": 2047,
      "〗": 2048,
      "〜": 2049,
      "あ": 2050,
      "い": 2051,
      "う": 2052,
      "お": 2053,
      "か": 2054,
      "が": 2055,
      "き": 2056,
      "く": 2057,
      "け": 2058,
      "げ": 2059,
      "こ": 2060,
      "ご": 2061,
      "さ": 2062,
      "ざ": 2063,
      "し": 2064,
      "す": 2065,
      "ず": 2066,
      "せ": 2067,
      "そ": 2068,
      "た": 2069,
      "だ": 2070,
      "ち": 2071,
      "っ": 2072,
      "て": 2073,
      "で": 2074,
      "と": 2075,
      "ど": 2076,
      "な": 2077,
      "に": 2078,
      "の": 2079,
      "は": 2080,
      "ば": 2081,
      "ひ": 2082,
      "ぴ": 2083,
      "ふ": 2084,
      "ぷ": 2085,
      "ぺ": 2086,
      "ぽ": 2087,
      "ま": 2088,
      "め": 2089,
      "も": 2090,
      "や": 2091,
      "ら": 2092,
      "り": 2093,
      "る": 2094,
      "れ": 2095,
      "ろ": 2096,
      "わ": 2097,
      "ん": 2098,
      "ア": 2099,
      "ィ": 2100,
      "イ": 2101,
      "ウ": 2102,
      "ェ": 2103,
      "ォ": 2104,
      "オ": 2105,
      "カ": 2106,
      "ガ": 2107,
      "キ": 2108,
      "ク": 2109,
      "グ": 2110,
      "ケ": 2111,
      "コ": 2112,
      "サ": 2113,
      "ザ": 2114,
      "シ": 2115,
      "ジ": 2116,
      "ス": 2117,
      "ズ": 2118,
      "ゼ": 2119,
      "ソ": 2120,
      "タ": 2121,
      "チ": 2122,
      "ヂ": 2123,
      "ッ": 2124,
      "ツ": 2125,
      "デ": 2126,
      "ト": 2127,
      "ド": 2128,
      "ナ": 2129,
      "ニ": 2130,
      "ノ": 2131,
      "バ": 2132,
      "パ": 2133,
      "ビ": 2134,
      "フ": 2135,
      "ブ": 2136,
      "プ": 2137,
      "ベ": 2138,
      "ボ": 2139,
      "マ": 2140,
      "ミ": 2141,
      "メ": 2142,
      "ャ": 2143,
      "ュ": 2144,
      "ョ": 2145,
      "ヨ": 2146,
      "ラ": 2147,
      "リ": 2148,
      "ル": 2149,
      "ロ": 2150,
      "ワ": 2151,
      "ン": 2152,
      "・": 2153,
      "ー": 2154,
      "ㄉ": 2155,
      "ㄌ": 2156,
      "ㄍ": 2157,
      "ㄏ": 2158,
      "ㄐ": 2159,
      "ㄒ": 2160,
      "ㄘ": 2161,
      "ㄙ": 2162,
      "ㄚ": 2163,
      "ㄟ": 2164,
      "ㄢ": 2165,
      "ㄣ": 2166,
      "ㄤ": 2167,
      "ㄥ": 2168,
      "ㄨ": 2169,
      "ㄩ": 2170,
      "㇏": 2171,
      "㐱": 2172,
      "㓟": 2173,
      "㔙": 2174,
      "㝍": 2175,
      "㠁": 2176,
      "㠂": 2177,
      "㢀": 2178,
      "㧐": 2179,
      "㲴": 2180,
      "䀦": 2181,
      "䊁": 2182,
      "䏠": 2183,
      "䒩": 2184,
      "䓌": 2185,
      "䚺": 2186,
      "䜣": 2187,
      "䜩": 2188,
      "䣭": 2189,
      "䥻": 2190,
      "䩗": 2191,
      "䴕": 2192,
      "一": 2193,
      "丁": 2194,
      "七": 2195,
      "丅": 2196,
      "万": 2197,
      "丈": 2198,
      "三": 2199,
      "上": 2200,
      "下": 2201,
      "丌": 2202,
      "不": 2203,
      "与": 2204,
      "丐": 2205,
      "丑": 2206,
      "专": 2207,
      "且": 2208,
      "丕": 2209,
      "世": 2210,
      "丘": 2211,
      "丙": 2212,
      "业": 2213,
      "丛": 2214,
      "东": 2215,
      "丝": 2216,
      "丞": 2217,
      "丟": 2218,
      "丢": 2219,
      "两": 2220,
      "严": 2221,
      "並": 2222,
      "丧": 2223,
      "丨": 2224,
      "个": 2225,
      "丫": 2226,
      "丬": 2227,
      "中": 2228,
      "丰": 2229,
      "串": 2230,
      "临": 2231,
      "丶": 2232,
      "丷": 2233,
      "丸": 2234,
      "丹": 2235,
      "为": 2236,
      "主": 2237,
      "丽": 2238,
      "举": 2239,
      "丿": 2240,
      "乀": 2241,
      "乂": 2242,
      "乃": 2243,
      "久": 2244,
      "乇": 2245,
      "么": 2246,
      "义": 2247,
      "之": 2248,
      "乌": 2249,
      "乍": 2250,
      "乎": 2251,
      "乏": 2252,
      "乐": 2253,
      "乒": 2254,
      "乓": 2255,
      "乔": 2256,
      "乖": 2257,
      "乘": 2258,
      "乙": 2259,
      "乜": 2260,
      "九": 2261,
      "乞": 2262,
      "也": 2263,
      "习": 2264,
      "乡": 2265,
      "书": 2266,
      "乩": 2267,
      "买": 2268,
      "乱": 2269,
      "乳": 2270,
      "乾": 2271,
      "亀": 2272,
      "亂": 2273,
      "了": 2274,
      "予": 2275,
      "争": 2276,
      "亊": 2277,
      "事": 2278,
      "二": 2279,
      "亍": 2280,
      "于": 2281,
      "亏": 2282,
      "云": 2283,
      "互": 2284,
      "亓": 2285,
      "五": 2286,
      "井": 2287,
      "亘": 2288,
      "亚": 2289,
      "些": 2290,
      "亞": 2291,
      "亟": 2292,
      "亠": 2293,
      "亡": 2294,
      "亢": 2295,
      "交": 2296,
      "亥": 2297,
      "亦": 2298,
      "产": 2299,
      "亨": 2300,
      "亩": 2301,
      "享": 2302,
      "京": 2303,
      "亭": 2304,
      "亮": 2305,
      "亲": 2306,
      "亳": 2307,
      "亵": 2308,
      "亶": 2309,
      "亸": 2310,
      "亹": 2311,
      "人": 2312,
      "亻": 2313,
      "亿": 2314,
      "什": 2315,
      "仁": 2316,
      "仃": 2317,
      "仄": 2318,
      "仅": 2319,
      "仆": 2320,
      "仇": 2321,
      "仉": 2322,
      "今": 2323,
      "介": 2324,
      "仍": 2325,
      "从": 2326,
      "仑": 2327,
      "仓": 2328,
      "仔": 2329,
      "仕": 2330,
      "他": 2331,
      "仗": 2332,
      "付": 2333,
      "仙": 2334,
      "仝": 2335,
      "仞": 2336,
      "仟": 2337,
      "仡": 2338,
      "代": 2339,
      "令": 2340,
      "以": 2341,
      "仨": 2342,
      "仪": 2343,
      "们": 2344,
      "仮": 2345,
      "仰": 2346,
      "仲": 2347,
      "仵": 2348,
      "件": 2349,
      "价": 2350,
      "任": 2351,
      "仼": 2352,
      "份": 2353,
      "仿": 2354,
      "企": 2355,
      "伉": 2356,
      "伊": 2357,
      "伋": 2358,
      "伍": 2359,
      "伎": 2360,
      "伏": 2361,
      "伐": 2362,
      "休": 2363,
      "伕": 2364,
      "众": 2365,
      "优": 2366,
      "伙": 2367,
      "会": 2368,
      "伛": 2369,
      "伝": 2370,
      "伞": 2371,
      "伟": 2372,
      "传": 2373,
      "伢": 2374,
      "伤": 2375,
      "伥": 2376,
      "伦": 2377,
      "伧": 2378,
      "伪": 2379,
      "伫": 2380,
      "伯": 2381,
      "估": 2382,
      "伲": 2383,
      "伴": 2384,
      "伶": 2385,
      "伸": 2386,
      "伹": 2387,
      "伺": 2388,
      "伻": 2389,
      "似": 2390,
      "伽": 2391,
      "佁": 2392,
      "佃": 2393,
      "但": 2394,
      "佈": 2395,
      "位": 2396,
      "低": 2397,
      "住": 2398,
      "佐": 2399,
      "佑": 2400,
      "体": 2401,
      "何": 2402,
      "佗": 2403,
      "佘": 2404,
      "余": 2405,
      "佚": 2406,
      "佛": 2407,
      "作": 2408,
      "佝": 2409,
      "佞": 2410,
      "佟": 2411,
      "你": 2412,
      "佢": 2413,
      "佣": 2414,
      "佤": 2415,
      "佥": 2416,
      "佩": 2417,
      "佬": 2418,
      "佯": 2419,
      "佰": 2420,
      "佳": 2421,
      "佶": 2422,
      "佷": 2423,
      "佺": 2424,
      "佻": 2425,
      "佼": 2426,
      "佾": 2427,
      "使": 2428,
      "侁": 2429,
      "侂": 2430,
      "侃": 2431,
      "侄": 2432,
      "來": 2433,
      "侈": 2434,
      "侉": 2435,
      "侊": 2436,
      "例": 2437,
      "侍": 2438,
      "侎": 2439,
      "侏": 2440,
      "侑": 2441,
      "侓": 2442,
      "侔": 2443,
      "侗": 2444,
      "供": 2445,
      "依": 2446,
      "侠": 2447,
      "価": 2448,
      "侣": 2449,
      "侥": 2450,
      "侦": 2451,
      "侧": 2452,
      "侨": 2453,
      "侩": 2454,
      "侪": 2455,
      "侬": 2456,
      "侭": 2457,
      "侮": 2458,
      "侯": 2459,
      "侵": 2460,
      "便": 2461,
      "係": 2462,
      "促": 2463,
      "俄": 2464,
      "俅": 2465,
      "俊": 2466,
      "俎": 2467,
      "俏": 2468,
      "俐": 2469,
      "俑": 2470,
      "俗": 2471,
      "俘": 2472,
      "俚": 2473,
      "俛": 2474,
      "俜": 2475,
      "保": 2476,
      "俞": 2477,
      "俟": 2478,
      "信": 2479,
      "俣": 2480,
      "俦": 2481,
      "俨": 2482,
      "俩": 2483,
      "俪": 2484,
      "俬": 2485,
      "俭": 2486,
      "修": 2487,
      "俯": 2488,
      "俱": 2489,
      "俶": 2490,
      "俸": 2491,
      "俺": 2492,
      "俾": 2493,
      "倅": 2494,
      "倆": 2495,
      "倉": 2496,
      "個": 2497,
      "倌": 2498,
      "倍": 2499,
      "倏": 2500,
      "們": 2501,
      "倒": 2502,
      "倔": 2503,
      "倖": 2504,
      "倘": 2505,
      "候": 2506,
      "倚": 2507,
      "倜": 2508,
      "借": 2509,
      "倡": 2510,
      "倥": 2511,
      "倦": 2512,
      "倨": 2513,
      "倩": 2514,
      "倪": 2515,
      "倫": 2516,
      "倬": 2517,
      "倭": 2518,
      "倮": 2519,
      "倶": 2520,
      "倷": 2521,
      "债": 2522,
      "值": 2523,
      "倾": 2524,
      "偁": 2525,
      "偃": 2526,
      "假": 2527,
      "偈": 2528,
      "偌": 2529,
      "偎": 2530,
      "偏": 2531,
      "偓": 2532,
      "偕": 2533,
      "做": 2534,
      "停": 2535,
      "健": 2536,
      "偬": 2537,
      "偱": 2538,
      "側": 2539,
      "偶": 2540,
      "偷": 2541,
      "偸": 2542,
      "偻": 2543,
      "偾": 2544,
      "偿": 2545,
      "傀": 2546,
      "傅": 2547,
      "傈": 2548,
      "傍": 2549,
      "傑": 2550,
      "傕": 2551,
      "備": 2552,
      "傢": 2553,
      "傣": 2554,
      "傥": 2555,
      "储": 2556,
      "傩": 2557,
      "催": 2558,
      "傲": 2559,
      "傳": 2560,
      "傷": 2561,
      "傻": 2562,
      "僇": 2563,
      "像": 2564,
      "僖": 2565,
      "僚": 2566,
      "僜": 2567,
      "僣": 2568,
      "僦": 2569,
      "僧": 2570,
      "僭": 2571,
      "僮": 2572,
      "僰": 2573,
      "僳": 2574,
      "僵": 2575,
      "價": 2576,
      "僻": 2577,
      "儆": 2578,
      "儇": 2579,
      "儋": 2580,
      "儍": 2581,
      "儒": 2582,
      "儘": 2583,
      "償": 2584,
      "儡": 2585,
      "優": 2586,
      "儵": 2587,
      "儿": 2588,
      "兀": 2589,
      "允": 2590,
      "元": 2591,
      "兄": 2592,
      "充": 2593,
      "兆": 2594,
      "兇": 2595,
      "先": 2596,
      "光": 2597,
      "克": 2598,
      "免": 2599,
      "児": 2600,
      "兑": 2601,
      "兒": 2602,
      "兔": 2603,
      "兕": 2604,
      "兖": 2605,
      "党": 2606,
      "兜": 2607,
      "兢": 2608,
      "入": 2609,
      "內": 2610,
      "全": 2611,
      "兩": 2612,
      "八": 2613,
      "公": 2614,
      "六": 2615,
      "兮": 2616,
      "兰": 2617,
      "共": 2618,
      "关": 2619,
      "兴": 2620,
      "兵": 2621,
      "其": 2622,
      "具": 2623,
      "典": 2624,
      "兹": 2625,
      "养": 2626,
      "兼": 2627,
      "兽": 2628,
      "冀": 2629,
      "冁": 2630,
      "冂": 2631,
      "内": 2632,
      "円": 2633,
      "冇": 2634,
      "冈": 2635,
      "冉": 2636,
      "冋": 2637,
      "册": 2638,
      "再": 2639,
      "冏": 2640,
      "冒": 2641,
      "冕": 2642,
      "冗": 2643,
      "写": 2644,
      "军": 2645,
      "农": 2646,
      "冠": 2647,
      "冢": 2648,
      "冤": 2649,
      "冥": 2650,
      "冫": 2651,
      "冬": 2652,
      "冯": 2653,
      "冰": 2654,
      "冱": 2655,
      "冲": 2656,
      "决": 2657,
      "冴": 2658,
      "况": 2659,
      "冶": 2660,
      "冷": 2661,
      "冻": 2662,
      "冼": 2663,
      "冽": 2664,
      "净": 2665,
      "凄": 2666,
      "准": 2667,
      "凇": 2668,
      "凉": 2669,
      "凊": 2670,
      "凋": 2671,
      "凌": 2672,
      "凍": 2673,
      "减": 2674,
      "凑": 2675,
      "凛": 2676,
      "凝": 2677,
      "几": 2678,
      "凡": 2679,
      "凤": 2680,
      "凫": 2681,
      "凭": 2682,
      "凯": 2683,
      "凰": 2684,
      "凱": 2685,
      "凳": 2686,
      "凵": 2687,
      "凶": 2688,
      "凸": 2689,
      "凹": 2690,
      "出": 2691,
      "击": 2692,
      "凼": 2693,
      "函": 2694,
      "凿": 2695,
      "刀": 2696,
      "刁": 2697,
      "刂": 2698,
      "刃": 2699,
      "分": 2700,
      "切": 2701,
      "刈": 2702,
      "刊": 2703,
      "刍": 2704,
      "刎": 2705,
      "刑": 2706,
      "划": 2707,
      "刓": 2708,
      "刖": 2709,
      "列": 2710,
      "刘": 2711,
      "则": 2712,
      "刚": 2713,
      "创": 2714,
      "初": 2715,
      "删": 2716,
      "判": 2717,
      "別": 2718,
      "刨": 2719,
      "利": 2720,
      "别": 2721,
      "刮": 2722,
      "到": 2723,
      "刳": 2724,
      "制": 2725,
      "刷": 2726,
      "券": 2727,
      "刹": 2728,
      "刺": 2729,
      "刻": 2730,
      "刽": 2731,
      "刿": 2732,
      "剁": 2733,
      "剂": 2734,
      "剃": 2735,
      "則": 2736,
      "削": 2737,
      "剌": 2738,
      "前": 2739,
      "剐": 2740,
      "剑": 2741,
      "剔": 2742,
      "剖": 2743,
      "剚": 2744,
      "剛": 2745,
      "剜": 2746,
      "剡": 2747,
      "剥": 2748,
      "剧": 2749,
      "剩": 2750,
      "剪": 2751,
      "副": 2752,
      "割": 2753,
      "創": 2754,
      "剽": 2755,
      "剿": 2756,
      "劈": 2757,
      "劓": 2758,
      "力": 2759,
      "劝": 2760,
      "办": 2761,
      "功": 2762,
      "加": 2763,
      "务": 2764,
      "劣": 2765,
      "动": 2766,
      "助": 2767,
      "努": 2768,
      "劫": 2769,
      "劭": 2770,
      "励": 2771,
      "劲": 2772,
      "劳": 2773,
      "劵": 2774,
      "劻": 2775,
      "劼": 2776,
      "劾": 2777,
      "势": 2778,
      "勁": 2779,
      "勃": 2780,
      "勇": 2781,
      "勉": 2782,
      "勋": 2783,
      "勐": 2784,
      "勒": 2785,
      "勔": 2786,
      "動": 2787,
      "勖": 2788,
      "勘": 2789,
      "務": 2790,
      "勝": 2791,
      "勞": 2792,
      "募": 2793,
      "勣": 2794,
      "勤": 2795,
      "勰": 2796,
      "勵": 2797,
      "勺": 2798,
      "勾": 2799,
      "勿": 2800,
      "匀": 2801,
      "包": 2802,
      "匆": 2803,
      "匈": 2804,
      "匍": 2805,
      "匏": 2806,
      "匐": 2807,
      "匕": 2808,
      "化": 2809,
      "北": 2810,
      "匙": 2811,
      "匚": 2812,
      "匝": 2813,
      "匠": 2814,
      "匡": 2815,
      "匣": 2816,
      "匪": 2817,
      "匮": 2818,
      "匯": 2819,
      "匹": 2820,
      "区": 2821,
      "医": 2822,
      "匾": 2823,
      "匿": 2824,
      "區": 2825,
      "十": 2826,
      "千": 2827,
      "卅": 2828,
      "升": 2829,
      "午": 2830,
      "卉": 2831,
      "半": 2832,
      "卍": 2833,
      "华": 2834,
      "协": 2835,
      "卐": 2836,
      "卑": 2837,
      "卒": 2838,
      "卓": 2839,
      "協": 2840,
      "单": 2841,
      "卖": 2842,
      "南": 2843,
      "単": 2844,
      "博": 2845,
      "卜": 2846,
      "卞": 2847,
      "卟": 2848,
      "占": 2849,
      "卡": 2850,
      "卢": 2851,
      "卤": 2852,
      "卦": 2853,
      "卧": 2854,
      "卨": 2855,
      "卩": 2856,
      "卫": 2857,
      "卮": 2858,
      "卯": 2859,
      "印": 2860,
      "危": 2861,
      "即": 2862,
      "却": 2863,
      "卵": 2864,
      "卷": 2865,
      "卸": 2866,
      "卺": 2867,
      "卻": 2868,
      "卿": 2869,
      "厂": 2870,
      "厄": 2871,
      "厅": 2872,
      "历": 2873,
      "厉": 2874,
      "压": 2875,
      "厌": 2876,
      "厕": 2877,
      "厘": 2878,
      "厚": 2879,
      "厝": 2880,
      "原": 2881,
      "厢": 2882,
      "厣": 2883,
      "厥": 2884,
      "厦": 2885,
      "厨": 2886,
      "厩": 2887,
      "厭": 2888,
      "厮": 2889,
      "厲": 2890,
      "去": 2891,
      "县": 2892,
      "叁": 2893,
      "参": 2894,
      "參": 2895,
      "又": 2896,
      "叉": 2897,
      "及": 2898,
      "友": 2899,
      "双": 2900,
      "反": 2901,
      "发": 2902,
      "叔": 2903,
      "取": 2904,
      "受": 2905,
      "变": 2906,
      "叙": 2907,
      "叛": 2908,
      "叟": 2909,
      "叠": 2910,
      "叢": 2911,
      "口": 2912,
      "古": 2913,
      "句": 2914,
      "另": 2915,
      "叨": 2916,
      "叩": 2917,
      "只": 2918,
      "叫": 2919,
      "召": 2920,
      "叭": 2921,
      "叮": 2922,
      "可": 2923,
      "台": 2924,
      "叱": 2925,
      "史": 2926,
      "右": 2927,
      "叵": 2928,
      "叶": 2929,
      "号": 2930,
      "司": 2931,
      "叹": 2932,
      "叻": 2933,
      "叼": 2934,
      "叽": 2935,
      "吁": 2936,
      "吃": 2937,
      "各": 2938,
      "吆": 2939,
      "合": 2940,
      "吉": 2941,
      "吊": 2942,
      "吋": 2943,
      "同": 2944,
      "名": 2945,
      "后": 2946,
      "吏": 2947,
      "吐": 2948,
      "向": 2949,
      "吒": 2950,
      "吓": 2951,
      "吔": 2952,
      "吕": 2953,
      "吖": 2954,
      "吗": 2955,
      "吚": 2956,
      "君": 2957,
      "吝": 2958,
      "吞": 2959,
      "吟": 2960,
      "吠": 2961,
      "吡": 2962,
      "吥": 2963,
      "否": 2964,
      "吧": 2965,
      "吨": 2966,
      "吩": 2967,
      "含": 2968,
      "听": 2969,
      "吭": 2970,
      "吮": 2971,
      "启": 2972,
      "吱": 2973,
      "吲": 2974,
      "吳": 2975,
      "吴": 2976,
      "吵": 2977,
      "吶": 2978,
      "吸": 2979,
      "吹": 2980,
      "吻": 2981,
      "吼": 2982,
      "吾": 2983,
      "呀": 2984,
      "呃": 2985,
      "呆": 2986,
      "呈": 2987,
      "告": 2988,
      "呋": 2989,
      "呎": 2990,
      "呐": 2991,
      "呑": 2992,
      "呒": 2993,
      "呓": 2994,
      "呔": 2995,
      "呕": 2996,
      "呖": 2997,
      "呗": 2998,
      "员": 2999,
      "呛": 3000,
      "呜": 3001,
      "呢": 3002,
      "呣": 3003,
      "呤": 3004,
      "呦": 3005,
      "周": 3006,
      "呯": 3007,
      "呱": 3008,
      "呲": 3009,
      "味": 3010,
      "呵": 3011,
      "呶": 3012,
      "呷": 3013,
      "呸": 3014,
      "呻": 3015,
      "呼": 3016,
      "命": 3017,
      "呿": 3018,
      "咀": 3019,
      "咁": 3020,
      "咂": 3021,
      "咄": 3022,
      "咆": 3023,
      "咋": 3024,
      "和": 3025,
      "咎": 3026,
      "咏": 3027,
      "咐": 3028,
      "咒": 3029,
      "咔": 3030,
      "咕": 3031,
      "咖": 3032,
      "咗": 3033,
      "咘": 3034,
      "咙": 3035,
      "咚": 3036,
      "咛": 3037,
      "咝": 3038,
      "咡": 3039,
      "咣": 3040,
      "咤": 3041,
      "咥": 3042,
      "咦": 3043,
      "咧": 3044,
      "咨": 3045,
      "咩": 3046,
      "咪": 3047,
      "咫": 3048,
      "咬": 3049,
      "咭": 3050,
      "咯": 3051,
      "咱": 3052,
      "咲": 3053,
      "咳": 3054,
      "咴": 3055,
      "咵": 3056,
      "咷": 3057,
      "咸": 3058,
      "咹": 3059,
      "咻": 3060,
      "咽": 3061,
      "咾": 3062,
      "咿": 3063,
      "哀": 3064,
      "品": 3065,
      "哂": 3066,
      "哄": 3067,
      "哆": 3068,
      "哇": 3069,
      "哈": 3070,
      "哉": 3071,
      "哋": 3072,
      "响": 3073,
      "哎": 3074,
      "哏": 3075,
      "哐": 3076,
      "哑": 3077,
      "哒": 3078,
      "哓": 3079,
      "哔": 3080,
      "哕": 3081,
      "哗": 3082,
      "哙": 3083,
      "哚": 3084,
      "哝": 3085,
      "哞": 3086,
      "哟": 3087,
      "員": 3088,
      "哥": 3089,
      "哦": 3090,
      "哧": 3091,
      "哨": 3092,
      "哩": 3093,
      "哪": 3094,
      "哭": 3095,
      "哮": 3096,
      "哲": 3097,
      "哳": 3098,
      "哺": 3099,
      "哼": 3100,
      "哽": 3101,
      "哿": 3102,
      "唁": 3103,
      "唆": 3104,
      "唇": 3105,
      "唉": 3106,
      "唏": 3107,
      "唐": 3108,
      "唑": 3109,
      "唒": 3110,
      "唔": 3111,
      "唗": 3112,
      "唛": 3113,
      "唝": 3114,
      "唠": 3115,
      "唡": 3116,
      "唢": 3117,
      "唤": 3118,
      "唦": 3119,
      "唧": 3120,
      "唬": 3121,
      "售": 3122,
      "唯": 3123,
      "唰": 3124,
      "唱": 3125,
      "唳": 3126,
      "唵": 3127,
      "唷": 3128,
      "唸": 3129,
      "唻": 3130,
      "唼": 3131,
      "唾": 3132,
      "唿": 3133,
      "啁": 3134,
      "啃": 3135,
      "啄": 3136,
      "商": 3137,
      "啉": 3138,
      "啊": 3139,
      "啌": 3140,
      "問": 3141,
      "啐": 3142,
      "啕": 3143,
      "啖": 3144,
      "啜": 3145,
      "啡": 3146,
      "啤": 3147,
      "啥": 3148,
      "啦": 3149,
      "啧": 3150,
      "啪": 3151,
      "啫": 3152,
      "啬": 3153,
      "啭": 3154,
      "啮": 3155,
      "啰": 3156,
      "啵": 3157,
      "啶": 3158,
      "啷": 3159,
      "啸": 3160,
      "啻": 3161,
      "啼": 3162,
      "啾": 3163,
      "喀": 3164,
      "喁": 3165,
      "喂": 3166,
      "喃": 3167,
      "善": 3168,
      "喆": 3169,
      "喇": 3170,
      "喈": 3171,
      "喉": 3172,
      "喊": 3173,
      "喋": 3174,
      "喎": 3175,
      "喏": 3176,
      "喑": 3177,
      "喔": 3178,
      "喘": 3179,
      "喙": 3180,
      "喚": 3181,
      "喜": 3182,
      "喝": 3183,
      "喟": 3184,
      "喦": 3185,
      "喧": 3186,
      "喬": 3187,
      "單": 3188,
      "喰": 3189,
      "喱": 3190,
      "喲": 3191,
      "喳": 3192,
      "喵": 3193,
      "喷": 3194,
      "喹": 3195,
      "喻": 3196,
      "喽": 3197,
      "喾": 3198,
      "嗄": 3199,
      "嗅": 3200,
      "嗉": 3201,
      "嗌": 3202,
      "嗍": 3203,
      "嗎": 3204,
      "嗐": 3205,
      "嗑": 3206,
      "嗒": 3207,
      "嗓": 3208,
      "嗔": 3209,
      "嗖": 3210,
      "嗙": 3211,
      "嗜": 3212,
      "嗝": 3213,
      "嗞": 3214,
      "嗟": 3215,
      "嗡": 3216,
      "嗣": 3217,
      "嗤": 3218,
      "嗥": 3219,
      "嗦": 3220,
      "嗨": 3221,
      "嗪": 3222,
      "嗫": 3223,
      "嗬": 3224,
      "嗮": 3225,
      "嗯": 3226,
      "嗲": 3227,
      "嗳": 3228,
      "嗵": 3229,
      "嗷": 3230,
      "嗽": 3231,
      "嘀": 3232,
      "嘁": 3233,
      "嘈": 3234,
      "嘉": 3235,
      "嘌": 3236,
      "嘎": 3237,
      "嘏": 3238,
      "嘓": 3239,
      "嘘": 3240,
      "嘚": 3241,
      "嘛": 3242,
      "嘞": 3243,
      "嘟": 3244,
      "嘡": 3245,
      "嘢": 3246,
      "嘣": 3247,
      "嘤": 3248,
      "嘧": 3249,
      "嘩": 3250,
      "嘬": 3251,
      "嘭": 3252,
      "嘱": 3253,
      "嘲": 3254,
      "嘴": 3255,
      "嘶": 3256,
      "嘹": 3257,
      "嘻": 3258,
      "嘿": 3259,
      "噁": 3260,
      "噌": 3261,
      "噍": 3262,
      "噎": 3263,
      "噏": 3264,
      "噓": 3265,
      "噔": 3266,
      "噗": 3267,
      "噘": 3268,
      "噙": 3269,
      "噜": 3270,
      "噢": 3271,
      "噤": 3272,
      "器": 3273,
      "噩": 3274,
      "噪": 3275,
      "噫": 3276,
      "噬": 3277,
      "噭": 3278,
      "噱": 3279,
      "噴": 3280,
      "噶": 3281,
      "噹": 3282,
      "噻": 3283,
      "噼": 3284,
      "嚄": 3285,
      "嚅": 3286,
      "嚇": 3287,
      "嚎": 3288,
      "嚏": 3289,
      "嚐": 3290,
      "嚒": 3291,
      "嚓": 3292,
      "嚕": 3293,
      "嚣": 3294,
      "嚭": 3295,
      "嚯": 3296,
      "嚱": 3297,
      "嚲": 3298,
      "嚴": 3299,
      "嚷": 3300,
      "嚼": 3301,
      "囀": 3302,
      "囉": 3303,
      "囊": 3304,
      "囍": 3305,
      "囐": 3306,
      "囔": 3307,
      "囗": 3308,
      "囚": 3309,
      "四": 3310,
      "囝": 3311,
      "回": 3312,
      "囟": 3313,
      "因": 3314,
      "囡": 3315,
      "团": 3316,
      "囤": 3317,
      "囧": 3318,
      "囫": 3319,
      "园": 3320,
      "囯": 3321,
      "困": 3322,
      "囱": 3323,
      "围": 3324,
      "囵": 3325,
      "囹": 3326,
      "固": 3327,
      "国": 3328,
      "图": 3329,
      "囿": 3330,
      "圃": 3331,
      "圄": 3332,
      "圆": 3333,
      "圈": 3334,
      "圉": 3335,
      "圊": 3336,
      "國": 3337,
      "圍": 3338,
      "圏": 3339,
      "園": 3340,
      "圓": 3341,
      "圖": 3342,
      "團": 3343,
      "圜": 3344,
      "土": 3345,
      "圣": 3346,
      "在": 3347,
      "圩": 3348,
      "圪": 3349,
      "圬": 3350,
      "圭": 3351,
      "圮": 3352,
      "圯": 3353,
      "地": 3354,
      "圳": 3355,
      "圹": 3356,
      "场": 3357,
      "圻": 3358,
      "圾": 3359,
      "址": 3360,
      "坂": 3361,
      "均": 3362,
      "坊": 3363,
      "坌": 3364,
      "坍": 3365,
      "坎": 3366,
      "坏": 3367,
      "坐": 3368,
      "坑": 3369,
      "块": 3370,
      "坚": 3371,
      "坛": 3372,
      "坜": 3373,
      "坝": 3374,
      "坞": 3375,
      "坟": 3376,
      "坠": 3377,
      "坡": 3378,
      "坤": 3379,
      "坦": 3380,
      "坨": 3381,
      "坩": 3382,
      "坪": 3383,
      "坯": 3384,
      "坳": 3385,
      "坷": 3386,
      "坻": 3387,
      "坼": 3388,
      "垂": 3389,
      "垃": 3390,
      "垄": 3391,
      "垅": 3392,
      "垆": 3393,
      "垉": 3394,
      "型": 3395,
      "垌": 3396,
      "垍": 3397,
      "垒": 3398,
      "垓": 3399,
      "垚": 3400,
      "垛": 3401,
      "垝": 3402,
      "垟": 3403,
      "垠": 3404,
      "垡": 3405,
      "垢": 3406,
      "垣": 3407,
      "垤": 3408,
      "垦": 3409,
      "垧": 3410,
      "垩": 3411,
      "垫": 3412,
      "垭": 3413,
      "垮": 3414,
      "垴": 3415,
      "垸": 3416,
      "埂": 3417,
      "埃": 3418,
      "埇": 3419,
      "埋": 3420,
      "城": 3421,
      "埒": 3422,
      "埔": 3423,
      "埘": 3424,
      "埙": 3425,
      "埚": 3426,
      "埝": 3427,
      "域": 3428,
      "埠": 3429,
      "埤": 3430,
      "埭": 3431,
      "埳": 3432,
      "埶": 3433,
      "埸": 3434,
      "培": 3435,
      "基": 3436,
      "埼": 3437,
      "埽": 3438,
      "堂": 3439,
      "堅": 3440,
      "堆": 3441,
      "堇": 3442,
      "堉": 3443,
      "堌": 3444,
      "堍": 3445,
      "堑": 3446,
      "堕": 3447,
      "堙": 3448,
      "堞": 3449,
      "堠": 3450,
      "堡": 3451,
      "堤": 3452,
      "堪": 3453,
      "堰": 3454,
      "報": 3455,
      "場": 3456,
      "堵": 3457,
      "堺": 3458,
      "塁": 3459,
      "塆": 3460,
      "塊": 3461,
      "塌": 3462,
      "塍": 3463,
      "塑": 3464,
      "塔": 3465,
      "塘": 3466,
      "塚": 3467,
      "塞": 3468,
      "填": 3469,
      "塬": 3470,
      "塯": 3471,
      "塵": 3472,
      "塽": 3473,
      "塾": 3474,
      "墀": 3475,
      "墁": 3476,
      "境": 3477,
      "墅": 3478,
      "墉": 3479,
      "墊": 3480,
      "墎": 3481,
      "墒": 3482,
      "墓": 3483,
      "増": 3484,
      "墘": 3485,
      "墙": 3486,
      "墚": 3487,
      "增": 3488,
      "墟": 3489,
      "墨": 3490,
      "墩": 3491,
      "墫": 3492,
      "墼": 3493,
      "壁": 3494,
      "壅": 3495,
      "壇": 3496,
      "壌": 3497,
      "壑": 3498,
      "壕": 3499,
      "壖": 3500,
      "壞": 3501,
      "壤": 3502,
      "士": 3503,
      "壬": 3504,
      "壮": 3505,
      "壯": 3506,
      "声": 3507,
      "壳": 3508,
      "壶": 3509,
      "壸": 3510,
      "壹": 3511,
      "壽": 3512,
      "处": 3513,
      "备": 3514,
      "変": 3515,
      "复": 3516,
      "夏": 3517,
      "夔": 3518,
      "夕": 3519,
      "外": 3520,
      "夙": 3521,
      "多": 3522,
      "夜": 3523,
      "够": 3524,
      "夠": 3525,
      "夢": 3526,
      "夤": 3527,
      "夥": 3528,
      "大": 3529,
      "天": 3530,
      "太": 3531,
      "夫": 3532,
      "夬": 3533,
      "夭": 3534,
      "央": 3535,
      "夯": 3536,
      "失": 3537,
      "头": 3538,
      "夷": 3539,
      "夸": 3540,
      "夹": 3541,
      "夺": 3542,
      "夾": 3543,
      "奁": 3544,
      "奂": 3545,
      "奄": 3546,
      "奇": 3547,
      "奈": 3548,
      "奉": 3549,
      "奋": 3550,
      "奎": 3551,
      "奏": 3552,
      "契": 3553,
      "奓": 3554,
      "奔": 3555,
      "奕": 3556,
      "奖": 3557,
      "套": 3558,
      "奘": 3559,
      "奚": 3560,
      "奠": 3561,
      "奢": 3562,
      "奥": 3563,
      "奧": 3564,
      "奪": 3565,
      "奭": 3566,
      "奮": 3567,
      "女": 3568,
      "奴": 3569,
      "奶": 3570,
      "奸": 3571,
      "她": 3572,
      "奻": 3573,
      "好": 3574,
      "妁": 3575,
      "如": 3576,
      "妃": 3577,
      "妄": 3578,
      "妆": 3579,
      "妇": 3580,
      "妈": 3581,
      "妊": 3582,
      "妍": 3583,
      "妒": 3584,
      "妓": 3585,
      "妖": 3586,
      "妗": 3587,
      "妙": 3588,
      "妞": 3589,
      "妣": 3590,
      "妤": 3591,
      "妥": 3592,
      "妨": 3593,
      "妩": 3594,
      "妪": 3595,
      "妫": 3596,
      "妮": 3597,
      "妯": 3598,
      "妲": 3599,
      "妳": 3600,
      "妸": 3601,
      "妹": 3602,
      "妺": 3603,
      "妻": 3604,
      "妾": 3605,
      "姆": 3606,
      "姊": 3607,
      "始": 3608,
      "姐": 3609,
      "姑": 3610,
      "姒": 3611,
      "姓": 3612,
      "委": 3613,
      "姗": 3614,
      "姘": 3615,
      "姚": 3616,
      "姜": 3617,
      "姝": 3618,
      "姞": 3619,
      "姟": 3620,
      "姣": 3621,
      "姥": 3622,
      "姨": 3623,
      "姫": 3624,
      "姬": 3625,
      "姮": 3626,
      "姳": 3627,
      "姹": 3628,
      "姻": 3629,
      "姽": 3630,
      "姿": 3631,
      "威": 3632,
      "娃": 3633,
      "娄": 3634,
      "娅": 3635,
      "娆": 3636,
      "娇": 3637,
      "娈": 3638,
      "娉": 3639,
      "娌": 3640,
      "娑": 3641,
      "娓": 3642,
      "娘": 3643,
      "娜": 3644,
      "娟": 3645,
      "娠": 3646,
      "娡": 3647,
      "娣": 3648,
      "娥": 3649,
      "娩": 3650,
      "娱": 3651,
      "娲": 3652,
      "娴": 3653,
      "娶": 3654,
      "娼": 3655,
      "婀": 3656,
      "婆": 3657,
      "婉": 3658,
      "婊": 3659,
      "婕": 3660,
      "婚": 3661,
      "婞": 3662,
      "婢": 3663,
      "婥": 3664,
      "婦": 3665,
      "婧": 3666,
      "婪": 3667,
      "婳": 3668,
      "婴": 3669,
      "婵": 3670,
      "婶": 3671,
      "婷": 3672,
      "婺": 3673,
      "婻": 3674,
      "婿": 3675,
      "媒": 3676,
      "媚": 3677,
      "媛": 3678,
      "媪": 3679,
      "媲": 3680,
      "媳": 3681,
      "媵": 3682,
      "媷": 3683,
      "媸": 3684,
      "媽": 3685,
      "媾": 3686,
      "嫁": 3687,
      "嫂": 3688,
      "嫄": 3689,
      "嫉": 3690,
      "嫋": 3691,
      "嫌": 3692,
      "嫐": 3693,
      "嫒": 3694,
      "嫔": 3695,
      "嫖": 3696,
      "嫘": 3697,
      "嫚": 3698,
      "嫠": 3699,
      "嫡": 3700,
      "嫣": 3701,
      "嫦": 3702,
      "嫩": 3703,
      "嫪": 3704,
      "嫫": 3705,
      "嫰": 3706,
      "嫱": 3707,
      "嫲": 3708,
      "嬅": 3709,
      "嬉": 3710,
      "嬖": 3711,
      "嬗": 3712,
      "嬛": 3713,
      "嬰": 3714,
      "嬲": 3715,
      "嬴": 3716,
      "嬷": 3717,
      "嬿": 3718,
      "孀": 3719,
      "子": 3720,
      "孑": 3721,
      "孒": 3722,
      "孓": 3723,
      "孔": 3724,
      "孕": 3725,
      "字": 3726,
      "存": 3727,
      "孙": 3728,
      "孚": 3729,
      "孛": 3730,
      "孜": 3731,
      "孝": 3732,
      "孟": 3733,
      "孢": 3734,
      "季": 3735,
      "孤": 3736,
      "孥": 3737,
      "学": 3738,
      "孩": 3739,
      "孪": 3740,
      "孫": 3741,
      "孬": 3742,
      "孰": 3743,
      "孱": 3744,
      "孳": 3745,
      "孵": 3746,
      "學": 3747,
      "孺": 3748,
      "孽": 3749,
      "孿": 3750,
      "宀": 3751,
      "宁": 3752,
      "它": 3753,
      "宄": 3754,
      "宅": 3755,
      "宇": 3756,
      "守": 3757,
      "安": 3758,
      "宋": 3759,
      "完": 3760,
      "宏": 3761,
      "宓": 3762,
      "宕": 3763,
      "宗": 3764,
      "官": 3765,
      "宙": 3766,
      "定": 3767,
      "宛": 3768,
      "宜": 3769,
      "宝": 3770,
      "实": 3771,
      "宠": 3772,
      "审": 3773,
      "客": 3774,
      "宣": 3775,
      "室": 3776,
      "宥": 3777,
      "宦": 3778,
      "宪": 3779,
      "宫": 3780,
      "宬": 3781,
      "宮": 3782,
      "宰": 3783,
      "害": 3784,
      "宴": 3785,
      "宵": 3786,
      "家": 3787,
      "宸": 3788,
      "容": 3789,
      "宽": 3790,
      "宾": 3791,
      "宿": 3792,
      "寂": 3793,
      "寄": 3794,
      "寅": 3795,
      "密": 3796,
      "寇": 3797,
      "富": 3798,
      "寐": 3799,
      "寒": 3800,
      "寓": 3801,
      "寔": 3802,
      "寝": 3803,
      "寞": 3804,
      "察": 3805,
      "寡": 3806,
      "寤": 3807,
      "寥": 3808,
      "實": 3809,
      "寧": 3810,
      "寨": 3811,
      "寫": 3812,
      "寮": 3813,
      "寰": 3814,
      "寶": 3815,
      "寸": 3816,
      "对": 3817,
      "寺": 3818,
      "寻": 3819,
      "导": 3820,
      "対": 3821,
      "寿": 3822,
      "封": 3823,
      "射": 3824,
      "将": 3825,
      "將": 3826,
      "專": 3827,
      "尉": 3828,
      "尊": 3829,
      "尋": 3830,
      "對": 3831,
      "小": 3832,
      "少": 3833,
      "尓": 3834,
      "尔": 3835,
      "尕": 3836,
      "尖": 3837,
      "尘": 3838,
      "尚": 3839,
      "尜": 3840,
      "尝": 3841,
      "尢": 3842,
      "尤": 3843,
      "尥": 3844,
      "尧": 3845,
      "尪": 3846,
      "尬": 3847,
      "就": 3848,
      "尴": 3849,
      "尷": 3850,
      "尸": 3851,
      "尹": 3852,
      "尺": 3853,
      "尻": 3854,
      "尼": 3855,
      "尽": 3856,
      "尾": 3857,
      "尿": 3858,
      "局": 3859,
      "屁": 3860,
      "层": 3861,
      "屃": 3862,
      "屄": 3863,
      "居": 3864,
      "屈": 3865,
      "屉": 3866,
      "届": 3867,
      "屋": 3868,
      "屌": 3869,
      "屎": 3870,
      "屏": 3871,
      "屐": 3872,
      "屑": 3873,
      "展": 3874,
      "屙": 3875,
      "屛": 3876,
      "属": 3877,
      "屠": 3878,
      "屡": 3879,
      "屣": 3880,
      "層": 3881,
      "履": 3882,
      "屦": 3883,
      "屮": 3884,
      "屯": 3885,
      "山": 3886,
      "屹": 3887,
      "屿": 3888,
      "岀": 3889,
      "岁": 3890,
      "岂": 3891,
      "岈": 3892,
      "岌": 3893,
      "岐": 3894,
      "岑": 3895,
      "岔": 3896,
      "岖": 3897,
      "岗": 3898,
      "岘": 3899,
      "岙": 3900,
      "岚": 3901,
      "岛": 3902,
      "岜": 3903,
      "岡": 3904,
      "岢": 3905,
      "岨": 3906,
      "岩": 3907,
      "岫": 3908,
      "岬": 3909,
      "岭": 3910,
      "岱": 3911,
      "岳": 3912,
      "岷": 3913,
      "岸": 3914,
      "岿": 3915,
      "峁": 3916,
      "峄": 3917,
      "峋": 3918,
      "峒": 3919,
      "峙": 3920,
      "峡": 3921,
      "峣": 3922,
      "峤": 3923,
      "峥": 3924,
      "峦": 3925,
      "峨": 3926,
      "峪": 3927,
      "峭": 3928,
      "峯": 3929,
      "峰": 3930,
      "島": 3931,
      "峻": 3932,
      "崀": 3933,
      "崂": 3934,
      "崃": 3935,
      "崆": 3936,
      "崇": 3937,
      "崎": 3938,
      "崐": 3939,
      "崑": 3940,
      "崔": 3941,
      "崖": 3942,
      "崛": 3943,
      "崤": 3944,
      "崦": 3945,
      "崧": 3946,
      "崩": 3947,
      "崭": 3948,
      "崮": 3949,
      "崴": 3950,
      "崽": 3951,
      "崾": 3952,
      "嵁": 3953,
      "嵇": 3954,
      "嵊": 3955,
      "嵋": 3956,
      "嵌": 3957,
      "嵘": 3958,
      "嵛": 3959,
      "嵩": 3960,
      "嵫": 3961,
      "嵬": 3962,
      "嵯": 3963,
      "嵴": 3964,
      "嶂": 3965,
      "嶒": 3966,
      "嶙": 3967,
      "嶷": 3968,
      "巅": 3969,
      "巉": 3970,
      "巍": 3971,
      "巘": 3972,
      "川": 3973,
      "州": 3974,
      "巡": 3975,
      "巢": 3976,
      "工": 3977,
      "左": 3978,
      "巧": 3979,
      "巨": 3980,
      "巩": 3981,
      "巫": 3982,
      "差": 3983,
      "巯": 3984,
      "己": 3985,
      "已": 3986,
      "巳": 3987,
      "巴": 3988,
      "巷": 3989,
      "巻": 3990,
      "巽": 3991,
      "巾": 3992,
      "巿": 3993,
      "币": 3994,
      "市": 3995,
      "布": 3996,
      "帅": 3997,
      "帆": 3998,
      "师": 3999,
      "希": 4000,
      "帏": 4001,
      "帐": 4002,
      "帑": 4003,
      "帔": 4004,
      "帕": 4005,
      "帖": 4006,
      "帘": 4007,
      "帙": 4008,
      "帚": 4009,
      "帛": 4010,
      "帜": 4011,
      "帝": 4012,
      "带": 4013,
      "帧": 4014,
      "師": 4015,
      "席": 4016,
      "帮": 4017,
      "帯": 4018,
      "帶": 4019,
      "帷": 4020,
      "常": 4021,
      "帼": 4022,
      "帽": 4023,
      "幂": 4024,
      "幄": 4025,
      "幅": 4026,
      "幌": 4027,
      "幍": 4028,
      "幔": 4029,
      "幕": 4030,
      "幛": 4031,
      "幞": 4032,
      "幡": 4033,
      "幢": 4034,
      "幣": 4035,
      "幫": 4036,
      "干": 4037,
      "平": 4038,
      "年": 4039,
      "幵": 4040,
      "并": 4041,
      "幷": 4042,
      "幸": 4043,
      "幹": 4044,
      "幺": 4045,
      "幻": 4046,
      "幼": 4047,
      "幽": 4048,
      "幾": 4049,
      "广": 4050,
      "庀": 4051,
      "広": 4052,
      "庄": 4053,
      "庆": 4054,
      "庇": 4055,
      "床": 4056,
      "序": 4057,
      "庐": 4058,
      "庑": 4059,
      "库": 4060,
      "应": 4061,
      "底": 4062,
      "庖": 4063,
      "店": 4064,
      "庙": 4065,
      "庚": 4066,
      "府": 4067,
      "庞": 4068,
      "废": 4069,
      "庠": 4070,
      "庥": 4071,
      "度": 4072,
      "座": 4073,
      "庭": 4074,
      "庳": 4075,
      "庵": 4076,
      "庶": 4077,
      "康": 4078,
      "庸": 4079,
      "庹": 4080,
      "庾": 4081,
      "廂": 4082,
      "廈": 4083,
      "廉": 4084,
      "廊": 4085,
      "廋": 4086,
      "廑": 4087,
      "廒": 4088,
      "廓": 4089,
      "廕": 4090,
      "廖": 4091,
      "廙": 4092,
      "廚": 4093,
      "廛": 4094,
      "廣": 4095,
      "廪": 4096,
      "廵": 4097,
      "延": 4098,
      "廷": 4099,
      "建": 4100,
      "廿": 4101,
      "开": 4102,
      "弁": 4103,
      "异": 4104,
      "弃": 4105,
      "弄": 4106,
      "弈": 4107,
      "弊": 4108,
      "弋": 4109,
      "式": 4110,
      "弑": 4111,
      "弓": 4112,
      "引": 4113,
      "弗": 4114,
      "弘": 4115,
      "弛": 4116,
      "弟": 4117,
      "张": 4118,
      "弢": 4119,
      "弥": 4120,
      "弦": 4121,
      "弧": 4122,
      "弩": 4123,
      "弭": 4124,
      "弯": 4125,
      "弱": 4126,
      "張": 4127,
      "弶": 4128,
      "強": 4129,
      "弹": 4130,
      "强": 4131,
      "弼": 4132,
      "彀": 4133,
      "彈": 4134,
      "彊": 4135,
      "彌": 4136,
      "彎": 4137,
      "归": 4138,
      "当": 4139,
      "录": 4140,
      "彖": 4141,
      "彗": 4142,
      "彘": 4143,
      "彝": 4144,
      "形": 4145,
      "彤": 4146,
      "彦": 4147,
      "彧": 4148,
      "彩": 4149,
      "彪": 4150,
      "彬": 4151,
      "彭": 4152,
      "彰": 4153,
      "影": 4154,
      "彳": 4155,
      "彷": 4156,
      "役": 4157,
      "彻": 4158,
      "彼": 4159,
      "往": 4160,
      "征": 4161,
      "徂": 4162,
      "径": 4163,
      "待": 4164,
      "徇": 4165,
      "很": 4166,
      "徉": 4167,
      "徊": 4168,
      "律": 4169,
      "後": 4170,
      "徐": 4171,
      "徒": 4172,
      "徕": 4173,
      "得": 4174,
      "徘": 4175,
      "徙": 4176,
      "徜": 4177,
      "從": 4178,
      "御": 4179,
      "徨": 4180,
      "復": 4181,
      "循": 4182,
      "徭": 4183,
      "微": 4184,
      "徳": 4185,
      "徵": 4186,
      "德": 4187,
      "徹": 4188,
      "徼": 4189,
      "徽": 4190,
      "心": 4191,
      "忄": 4192,
      "必": 4193,
      "忆": 4194,
      "忌": 4195,
      "忍": 4196,
      "忏": 4197,
      "忐": 4198,
      "忑": 4199,
      "忒": 4200,
      "忖": 4201,
      "志": 4202,
      "忘": 4203,
      "忙": 4204,
      "忝": 4205,
      "忠": 4206,
      "忡": 4207,
      "忤": 4208,
      "忧": 4209,
      "忪": 4210,
      "快": 4211,
      "忭": 4212,
      "忮": 4213,
      "忱": 4214,
      "念": 4215,
      "忸": 4216,
      "忻": 4217,
      "忽": 4218,
      "忾": 4219,
      "忿": 4220,
      "怀": 4221,
      "态": 4222,
      "怂": 4223,
      "怃": 4224,
      "怄": 4225,
      "怅": 4226,
      "怆": 4227,
      "怍": 4228,
      "怎": 4229,
      "怏": 4230,
      "怒": 4231,
      "怔": 4232,
      "怕": 4233,
      "怖": 4234,
      "怙": 4235,
      "怜": 4236,
      "思": 4237,
      "怠": 4238,
      "怡": 4239,
      "急": 4240,
      "怦": 4241,
      "性": 4242,
      "怨": 4243,
      "怩": 4244,
      "怪": 4245,
      "怫": 4246,
      "怮": 4247,
      "怯": 4248,
      "怵": 4249,
      "总": 4250,
      "怼": 4251,
      "怿": 4252,
      "恁": 4253,
      "恂": 4254,
      "恃": 4255,
      "恋": 4256,
      "恍": 4257,
      "恐": 4258,
      "恒": 4259,
      "恕": 4260,
      "恙": 4261,
      "恚": 4262,
      "恢": 4263,
      "恣": 4264,
      "恤": 4265,
      "恨": 4266,
      "恩": 4267,
      "恪": 4268,
      "恫": 4269,
      "恬": 4270,
      "恭": 4271,
      "息": 4272,
      "恰": 4273,
      "恳": 4274,
      "恵": 4275,
      "恶": 4276,
      "恸": 4277,
      "恹": 4278,
      "恺": 4279,
      "恻": 4280,
      "恼": 4281,
      "恽": 4282,
      "恿": 4283,
      "悃": 4284,
      "悄": 4285,
      "悅": 4286,
      "悉": 4287,
      "悌": 4288,
      "悍": 4289,
      "悒": 4290,
      "悔": 4291,
      "悖": 4292,
      "悚": 4293,
      "悛": 4294,
      "悝": 4295,
      "悟": 4296,
      "悠": 4297,
      "悢": 4298,
      "患": 4299,
      "悦": 4300,
      "您": 4301,
      "悫": 4302,
      "悬": 4303,
      "悭": 4304,
      "悮": 4305,
      "悯": 4306,
      "悱": 4307,
      "悲": 4308,
      "悴": 4309,
      "悶": 4310,
      "悸": 4311,
      "悻": 4312,
      "悼": 4313,
      "悽": 4314,
      "情": 4315,
      "惆": 4316,
      "惇": 4317,
      "惊": 4318,
      "惋": 4319,
      "惑": 4320,
      "惓": 4321,
      "惕": 4322,
      "惗": 4323,
      "惘": 4324,
      "惚": 4325,
      "惛": 4326,
      "惜": 4327,
      "惝": 4328,
      "惟": 4329,
      "惠": 4330,
      "惡": 4331,
      "惦": 4332,
      "惧": 4333,
      "惨": 4334,
      "惩": 4335,
      "惫": 4336,
      "惬": 4337,
      "惭": 4338,
      "惮": 4339,
      "惯": 4340,
      "惰": 4341,
      "惱": 4342,
      "想": 4343,
      "惴": 4344,
      "惶": 4345,
      "惹": 4346,
      "惺": 4347,
      "愀": 4348,
      "愁": 4349,
      "愄": 4350,
      "愆": 4351,
      "愈": 4352,
      "愉": 4353,
      "愋": 4354,
      "愍": 4355,
      "愎": 4356,
      "意": 4357,
      "愔": 4358,
      "愕": 4359,
      "愚": 4360,
      "愛": 4361,
      "感": 4362,
      "愠": 4363,
      "愣": 4364,
      "愤": 4365,
      "愦": 4366,
      "愧": 4367,
      "愫": 4368,
      "愿": 4369,
      "慄": 4370,
      "慅": 4371,
      "慈": 4372,
      "慌": 4373,
      "慎": 4374,
      "慑": 4375,
      "慓": 4376,
      "慕": 4377,
      "慘": 4378,
      "慜": 4379,
      "慢": 4380,
      "慣": 4381,
      "慥": 4382,
      "慧": 4383,
      "慨": 4384,
      "慮": 4385,
      "慰": 4386,
      "慵": 4387,
      "慶": 4388,
      "慷": 4389,
      "憂": 4390,
      "憋": 4391,
      "憎": 4392,
      "憑": 4393,
      "憔": 4394,
      "憙": 4395,
      "憧": 4396,
      "憨": 4397,
      "憩": 4398,
      "憬": 4399,
      "憷": 4400,
      "憾": 4401,
      "懂": 4402,
      "懆": 4403,
      "懈": 4404,
      "應": 4405,
      "懊": 4406,
      "懋": 4407,
      "懑": 4408,
      "懒": 4409,
      "懔": 4410,
      "懦": 4411,
      "懮": 4412,
      "懰": 4413,
      "懲": 4414,
      "懵": 4415,
      "懶": 4416,
      "懽": 4417,
      "懾": 4418,
      "懿": 4419,
      "戆": 4420,
      "戈": 4421,
      "戊": 4422,
      "戌": 4423,
      "戍": 4424,
      "戎": 4425,
      "戏": 4426,
      "成": 4427,
      "我": 4428,
      "戒": 4429,
      "戓": 4430,
      "戕": 4431,
      "或": 4432,
      "戗": 4433,
      "战": 4434,
      "戚": 4435,
      "戛": 4436,
      "戟": 4437,
      "戡": 4438,
      "戣": 4439,
      "戥": 4440,
      "截": 4441,
      "戬": 4442,
      "戮": 4443,
      "戰": 4444,
      "戲": 4445,
      "戳": 4446,
      "戴": 4447,
      "戶": 4448,
      "户": 4449,
      "戽": 4450,
      "戾": 4451,
      "房": 4452,
      "所": 4453,
      "扁": 4454,
      "扃": 4455,
      "扇": 4456,
      "扈": 4457,
      "扉": 4458,
      "手": 4459,
      "扌": 4460,
      "才": 4461,
      "扎": 4462,
      "扑": 4463,
      "扒": 4464,
      "打": 4465,
      "扔": 4466,
      "托": 4467,
      "扛": 4468,
      "扞": 4469,
      "扠": 4470,
      "扣": 4471,
      "扥": 4472,
      "扦": 4473,
      "执": 4474,
      "扨": 4475,
      "扩": 4476,
      "扪": 4477,
      "扫": 4478,
      "扬": 4479,
      "扭": 4480,
      "扮": 4481,
      "扯": 4482,
      "扰": 4483,
      "扱": 4484,
      "扳": 4485,
      "扶": 4486,
      "批": 4487,
      "扼": 4488,
      "扽": 4489,
      "找": 4490,
      "承": 4491,
      "技": 4492,
      "抃": 4493,
      "抄": 4494,
      "抉": 4495,
      "把": 4496,
      "抑": 4497,
      "抒": 4498,
      "抓": 4499,
      "抔": 4500,
      "投": 4501,
      "抖": 4502,
      "抗": 4503,
      "折": 4504,
      "抚": 4505,
      "抛": 4506,
      "抟": 4507,
      "抠": 4508,
      "抡": 4509,
      "抢": 4510,
      "护": 4511,
      "报": 4512,
      "抨": 4513,
      "披": 4514,
      "抬": 4515,
      "抱": 4516,
      "抵": 4517,
      "抹": 4518,
      "抺": 4519,
      "抻": 4520,
      "押": 4521,
      "抽": 4522,
      "抿": 4523,
      "拂": 4524,
      "拃": 4525,
      "拄": 4526,
      "担": 4527,
      "拆": 4528,
      "拇": 4529,
      "拈": 4530,
      "拉": 4531,
      "拊": 4532,
      "拋": 4533,
      "拌": 4534,
      "拍": 4535,
      "拎": 4536,
      "拏": 4537,
      "拐": 4538,
      "拑": 4539,
      "拒": 4540,
      "拓": 4541,
      "拔": 4542,
      "拖": 4543,
      "拗": 4544,
      "拘": 4545,
      "拙": 4546,
      "拚": 4547,
      "招": 4548,
      "拜": 4549,
      "拟": 4550,
      "拢": 4551,
      "拣": 4552,
      "拤": 4553,
      "拥": 4554,
      "拦": 4555,
      "拧": 4556,
      "拨": 4557,
      "择": 4558,
      "拫": 4559,
      "括": 4560,
      "拭": 4561,
      "拮": 4562,
      "拯": 4563,
      "拱": 4564,
      "拳": 4565,
      "拴": 4566,
      "拷": 4567,
      "拼": 4568,
      "拽": 4569,
      "拾": 4570,
      "拿": 4571,
      "持": 4572,
      "挂": 4573,
      "指": 4574,
      "挈": 4575,
      "按": 4576,
      "挎": 4577,
      "挐": 4578,
      "挑": 4579,
      "挓": 4580,
      "挖": 4581,
      "挚": 4582,
      "挛": 4583,
      "挝": 4584,
      "挞": 4585,
      "挟": 4586,
      "挠": 4587,
      "挡": 4588,
      "挢": 4589,
      "挣": 4590,
      "挤": 4591,
      "挥": 4592,
      "挨": 4593,
      "挪": 4594,
      "挫": 4595,
      "振": 4596,
      "挲": 4597,
      "挹": 4598,
      "挺": 4599,
      "挽": 4600,
      "捂": 4601,
      "捄": 4602,
      "捅": 4603,
      "捆": 4604,
      "捉": 4605,
      "捋": 4606,
      "捌": 4607,
      "捍": 4608,
      "捎": 4609,
      "捏": 4610,
      "捐": 4611,
      "捕": 4612,
      "捞": 4613,
      "损": 4614,
      "捡": 4615,
      "换": 4616,
      "捣": 4617,
      "捧": 4618,
      "捨": 4619,
      "捭": 4620,
      "据": 4621,
      "捯": 4622,
      "捱": 4623,
      "捶": 4624,
      "捷": 4625,
      "捺": 4626,
      "捻": 4627,
      "掀": 4628,
      "掂": 4629,
      "掃": 4630,
      "掇": 4631,
      "授": 4632,
      "掉": 4633,
      "掊": 4634,
      "掌": 4635,
      "掎": 4636,
      "掏": 4637,
      "掐": 4638,
      "排": 4639,
      "掖": 4640,
      "掘": 4641,
      "掠": 4642,
      "採": 4643,
      "探": 4644,
      "掣": 4645,
      "接": 4646,
      "控": 4647,
      "推": 4648,
      "掩": 4649,
      "措": 4650,
      "掬": 4651,
      "掮": 4652,
      "掰": 4653,
      "掳": 4654,
      "掴": 4655,
      "掷": 4656,
      "掸": 4657,
      "掺": 4658,
      "掼": 4659,
      "掾": 4660,
      "揀": 4661,
      "揄": 4662,
      "揆": 4663,
      "揉": 4664,
      "揍": 4665,
      "揎": 4666,
      "描": 4667,
      "提": 4668,
      "揑": 4669,
      "插": 4670,
      "揕": 4671,
      "揖": 4672,
      "換": 4673,
      "揠": 4674,
      "握": 4675,
      "揣": 4676,
      "揩": 4677,
      "揪": 4678,
      "揭": 4679,
      "揮": 4680,
      "揰": 4681,
      "揳": 4682,
      "援": 4683,
      "揶": 4684,
      "揷": 4685,
      "揸": 4686,
      "揺": 4687,
      "揽": 4688,
      "揾": 4689,
      "揿": 4690,
      "搀": 4691,
      "搁": 4692,
      "搂": 4693,
      "搅": 4694,
      "損": 4695,
      "搏": 4696,
      "搐": 4697,
      "搓": 4698,
      "搔": 4699,
      "搛": 4700,
      "搜": 4701,
      "搞": 4702,
      "搠": 4703,
      "搡": 4704,
      "搦": 4705,
      "搧": 4706,
      "搪": 4707,
      "搬": 4708,
      "搭": 4709,
      "搯": 4710,
      "搴": 4711,
      "携": 4712,
      "搽": 4713,
      "搿": 4714,
      "摁": 4715,
      "摄": 4716,
      "摆": 4717,
      "摇": 4718,
      "摈": 4719,
      "摊": 4720,
      "摒": 4721,
      "摔": 4722,
      "摘": 4723,
      "摞": 4724,
      "摧": 4725,
      "摩": 4726,
      "摭": 4727,
      "摸": 4728,
      "摹": 4729,
      "摺": 4730,
      "摽": 4731,
      "撂": 4732,
      "撅": 4733,
      "撇": 4734,
      "撑": 4735,
      "撒": 4736,
      "撕": 4737,
      "撞": 4738,
      "撤": 4739,
      "撩": 4740,
      "撬": 4741,
      "播": 4742,
      "撮": 4743,
      "撰": 4744,
      "撲": 4745,
      "撵": 4746,
      "撷": 4747,
      "撸": 4748,
      "撹": 4749,
      "撺": 4750,
      "撼": 4751,
      "撿": 4752,
      "擀": 4753,
      "擁": 4754,
      "擂": 4755,
      "擅": 4756,
      "操": 4757,
      "擎": 4758,
      "擐": 4759,
      "擒": 4760,
      "擔": 4761,
      "擗": 4762,
      "擘": 4763,
      "擞": 4764,
      "擠": 4765,
      "擡": 4766,
      "擢": 4767,
      "擤": 4768,
      "擦": 4769,
      "擱": 4770,
      "擺": 4771,
      "擾": 4772,
      "擿": 4773,
      "攀": 4774,
      "攒": 4775,
      "攘": 4776,
      "攞": 4777,
      "攤": 4778,
      "攥": 4779,
      "攪": 4780,
      "攫": 4781,
      "攮": 4782,
      "支": 4783,
      "攲": 4784,
      "收": 4785,
      "攸": 4786,
      "改": 4787,
      "攻": 4788,
      "攽": 4789,
      "放": 4790,
      "政": 4791,
      "故": 4792,
      "效": 4793,
      "敌": 4794,
      "敏": 4795,
      "救": 4796,
      "敕": 4797,
      "敖": 4798,
      "敗": 4799,
      "教": 4800,
      "敛": 4801,
      "敝": 4802,
      "敞": 4803,
      "敢": 4804,
      "散": 4805,
      "敦": 4806,
      "敫": 4807,
      "敬": 4808,
      "数": 4809,
      "敲": 4810,
      "整": 4811,
      "敵": 4812,
      "敷": 4813,
      "數": 4814,
      "文": 4815,
      "斋": 4816,
      "斌": 4817,
      "斐": 4818,
      "斑": 4819,
      "斓": 4820,
      "斗": 4821,
      "料": 4822,
      "斛": 4823,
      "斜": 4824,
      "斟": 4825,
      "斡": 4826,
      "斤": 4827,
      "斥": 4828,
      "斧": 4829,
      "斨": 4830,
      "斩": 4831,
      "斫": 4832,
      "断": 4833,
      "斯": 4834,
      "新": 4835,
      "斶": 4836,
      "斷": 4837,
      "方": 4838,
      "於": 4839,
      "施": 4840,
      "旁": 4841,
      "旃": 4842,
      "旄": 4843,
      "旅": 4844,
      "旆": 4845,
      "旋": 4846,
      "旌": 4847,
      "旎": 4848,
      "族": 4849,
      "旒": 4850,
      "旖": 4851,
      "旗": 4852,
      "无": 4853,
      "既": 4854,
      "日": 4855,
      "旦": 4856,
      "旧": 4857,
      "旨": 4858,
      "早": 4859,
      "旬": 4860,
      "旭": 4861,
      "旮": 4862,
      "旯": 4863,
      "旰": 4864,
      "旱": 4865,
      "时": 4866,
      "旷": 4867,
      "旸": 4868,
      "旺": 4869,
      "旻": 4870,
      "旽": 4871,
      "昀": 4872,
      "昂": 4873,
      "昃": 4874,
      "昄": 4875,
      "昆": 4876,
      "昇": 4877,
      "昉": 4878,
      "昊": 4879,
      "昌": 4880,
      "明": 4881,
      "昏": 4882,
      "易": 4883,
      "昔": 4884,
      "昕": 4885,
      "昙": 4886,
      "星": 4887,
      "映": 4888,
      "春": 4889,
      "昧": 4890,
      "昨": 4891,
      "昪": 4892,
      "昭": 4893,
      "是": 4894,
      "昱": 4895,
      "昳": 4896,
      "昴": 4897,
      "昵": 4898,
      "昶": 4899,
      "昼": 4900,
      "显": 4901,
      "晁": 4902,
      "時": 4903,
      "晃": 4904,
      "晋": 4905,
      "晌": 4906,
      "晏": 4907,
      "晒": 4908,
      "晓": 4909,
      "晔": 4910,
      "晕": 4911,
      "晖": 4912,
      "晗": 4913,
      "晚": 4914,
      "晞": 4915,
      "晟": 4916,
      "晤": 4917,
      "晦": 4918,
      "晨": 4919,
      "晩": 4920,
      "晬": 4921,
      "普": 4922,
      "景": 4923,
      "晰": 4924,
      "晳": 4925,
      "晴": 4926,
      "晶": 4927,
      "晷": 4928,
      "智": 4929,
      "晻": 4930,
      "晾": 4931,
      "暂": 4932,
      "暄": 4933,
      "暇": 4934,
      "暉": 4935,
      "暌": 4936,
      "暑": 4937,
      "暖": 4938,
      "暗": 4939,
      "暝": 4940,
      "暠": 4941,
      "暧": 4942,
      "暨": 4943,
      "暫": 4944,
      "暮": 4945,
      "暱": 4946,
      "暴": 4947,
      "暹": 4948,
      "暼": 4949,
      "暾": 4950,
      "曈": 4951,
      "曌": 4952,
      "曙": 4953,
      "曛": 4954,
      "曜": 4955,
      "曝": 4956,
      "曠": 4957,
      "曦": 4958,
      "曩": 4959,
      "曬": 4960,
      "曰": 4961,
      "曲": 4962,
      "曳": 4963,
      "更": 4964,
      "曷": 4965,
      "書": 4966,
      "曹": 4967,
      "曼": 4968,
      "曾": 4969,
      "替": 4970,
      "最": 4971,
      "朁": 4972,
      "會": 4973,
      "朆": 4974,
      "月": 4975,
      "有": 4976,
      "朊": 4977,
      "朋": 4978,
      "服": 4979,
      "朐": 4980,
      "朓": 4981,
      "朔": 4982,
      "朕": 4983,
      "朗": 4984,
      "望": 4985,
      "朝": 4986,
      "期": 4987,
      "朦": 4988,
      "木": 4989,
      "未": 4990,
      "末": 4991,
      "本": 4992,
      "札": 4993,
      "术": 4994,
      "朱": 4995,
      "朴": 4996,
      "朵": 4997,
      "机": 4998,
      "朽": 4999,
      "杀": 5000,
      "杂": 5001,
      "权": 5002,
      "杄": 5003,
      "杆": 5004,
      "杈": 5005,
      "杉": 5006,
      "杋": 5007,
      "杌": 5008,
      "李": 5009,
      "杏": 5010,
      "材": 5011,
      "村": 5012,
      "杓": 5013,
      "杖": 5014,
      "杜": 5015,
      "杞": 5016,
      "束": 5017,
      "杠": 5018,
      "条": 5019,
      "来": 5020,
      "杧": 5021,
      "杨": 5022,
      "杪": 5023,
      "杭": 5024,
      "杮": 5025,
      "杯": 5026,
      "杰": 5027,
      "東": 5028,
      "杲": 5029,
      "杳": 5030,
      "杵": 5031,
      "杷": 5032,
      "杼": 5033,
      "松": 5034,
      "板": 5035,
      "极": 5036,
      "构": 5037,
      "枇": 5038,
      "枉": 5039,
      "枋": 5040,
      "析": 5041,
      "枕": 5042,
      "林": 5043,
      "枚": 5044,
      "果": 5045,
      "枝": 5046,
      "枞": 5047,
      "枢": 5048,
      "枣": 5049,
      "枥": 5050,
      "枨": 5051,
      "枪": 5052,
      "枫": 5053,
      "枬": 5054,
      "枭": 5055,
      "枯": 5056,
      "枰": 5057,
      "枳": 5058,
      "枴": 5059,
      "枵": 5060,
      "架": 5061,
      "枷": 5062,
      "枸": 5063,
      "枹": 5064,
      "枻": 5065,
      "柁": 5066,
      "柃": 5067,
      "柄": 5068,
      "柏": 5069,
      "某": 5070,
      "柑": 5071,
      "柒": 5072,
      "染": 5073,
      "柔": 5074,
      "柘": 5075,
      "柙": 5076,
      "柚": 5077,
      "柜": 5078,
      "柝": 5079,
      "柞": 5080,
      "柠": 5081,
      "柢": 5082,
      "查": 5083,
      "柩": 5084,
      "柬": 5085,
      "柯": 5086,
      "柰": 5087,
      "柱": 5088,
      "柳": 5089,
      "柴": 5090,
      "柵": 5091,
      "柺": 5092,
      "査": 5093,
      "柽": 5094,
      "柿": 5095,
      "栀": 5096,
      "栂": 5097,
      "栄": 5098,
      "栅": 5099,
      "标": 5100,
      "栈": 5101,
      "栉": 5102,
      "栊": 5103,
      "栋": 5104,
      "栌": 5105,
      "栎": 5106,
      "栏": 5107,
      "树": 5108,
      "栓": 5109,
      "栖": 5110,
      "栗": 5111,
      "栘": 5112,
      "栝": 5113,
      "校": 5114,
      "栩": 5115,
      "株": 5116,
      "栱": 5117,
      "栲": 5118,
      "栳": 5119,
      "样": 5120,
      "核": 5121,
      "根": 5122,
      "格": 5123,
      "栽": 5124,
      "栾": 5125,
      "桀": 5126,
      "桁": 5127,
      "桂": 5128,
      "桃": 5129,
      "桄": 5130,
      "桅": 5131,
      "框": 5132,
      "案": 5133,
      "桉": 5134,
      "桌": 5135,
      "桎": 5136,
      "桐": 5137,
      "桑": 5138,
      "桓": 5139,
      "桔": 5140,
      "桕": 5141,
      "桜": 5142,
      "桠": 5143,
      "桡": 5144,
      "桢": 5145,
      "档": 5146,
      "桤": 5147,
      "桥": 5148,
      "桦": 5149,
      "桧": 5150,
      "桨": 5151,
      "桩": 5152,
      "桫": 5153,
      "桴": 5154,
      "桶": 5155,
      "桷": 5156,
      "桼": 5157,
      "梁": 5158,
      "梅": 5159,
      "梆": 5160,
      "梏": 5161,
      "梓": 5162,
      "梗": 5163,
      "條": 5164,
      "梠": 5165,
      "梢": 5166,
      "梦": 5167,
      "梧": 5168,
      "梨": 5169,
      "梭": 5170,
      "梯": 5171,
      "械": 5172,
      "梳": 5173,
      "梵": 5174,
      "梿": 5175,
      "检": 5176,
      "棂": 5177,
      "棄": 5178,
      "棉": 5179,
      "棋": 5180,
      "棍": 5181,
      "棒": 5182,
      "棓": 5183,
      "棕": 5184,
      "棗": 5185,
      "棘": 5186,
      "棚": 5187,
      "棠": 5188,
      "棣": 5189,
      "棨": 5190,
      "棪": 5191,
      "棫": 5192,
      "森": 5193,
      "棰": 5194,
      "棱": 5195,
      "棲": 5196,
      "棵": 5197,
      "棹": 5198,
      "棺": 5199,
      "棼": 5200,
      "椁": 5201,
      "椅": 5202,
      "椋": 5203,
      "植": 5204,
      "椎": 5205,
      "椐": 5206,
      "椒": 5207,
      "検": 5208,
      "椟": 5209,
      "椤": 5210,
      "椪": 5211,
      "椭": 5212,
      "椰": 5213,
      "椴": 5214,
      "椹": 5215,
      "椽": 5216,
      "椿": 5217,
      "楂": 5218,
      "楔": 5219,
      "楚": 5220,
      "楛": 5221,
      "楝": 5222,
      "楞": 5223,
      "楠": 5224,
      "楣": 5225,
      "楦": 5226,
      "楫": 5227,
      "業": 5228,
      "楮": 5229,
      "楯": 5230,
      "楱": 5231,
      "楲": 5232,
      "極": 5233,
      "楷": 5234,
      "楸": 5235,
      "楹": 5236,
      "楼": 5237,
      "楽": 5238,
      "概": 5239,
      "榄": 5240,
      "榆": 5241,
      "榈": 5242,
      "榉": 5243,
      "榔": 5244,
      "榕": 5245,
      "榖": 5246,
      "榘": 5247,
      "榛": 5248,
      "榜": 5249,
      "榧": 5250,
      "榨": 5251,
      "榫": 5252,
      "榭": 5253,
      "榮": 5254,
      "榴": 5255,
      "榷": 5256,
      "榻": 5257,
      "槁": 5258,
      "槃": 5259,
      "槊": 5260,
      "槌": 5261,
      "槎": 5262,
      "槐": 5263,
      "槖": 5264,
      "槛": 5265,
      "槜": 5266,
      "槟": 5267,
      "槭": 5268,
      "槲": 5269,
      "槻": 5270,
      "槽": 5271,
      "槿": 5272,
      "樂": 5273,
      "樊": 5274,
      "樓": 5275,
      "樗": 5276,
      "樘": 5277,
      "樟": 5278,
      "模": 5279,
      "樣": 5280,
      "樨": 5281,
      "横": 5282,
      "樯": 5283,
      "樱": 5284,
      "樵": 5285,
      "樹": 5286,
      "樺": 5287,
      "樽": 5288,
      "樾": 5289,
      "橄": 5290,
      "橇": 5291,
      "橋": 5292,
      "橐": 5293,
      "橑": 5294,
      "橘": 5295,
      "橙": 5296,
      "橛": 5297,
      "機": 5298,
      "橡": 5299,
      "橦": 5300,
      "橱": 5301,
      "橹": 5302,
      "檀": 5303,
      "檄": 5304,
      "檇": 5305,
      "檐": 5306,
      "檗": 5307,
      "檝": 5308,
      "檠": 5309,
      "檣": 5310,
      "檥": 5311,
      "檩": 5312,
      "檫": 5313,
      "檬": 5314,
      "檵": 5315,
      "櫃": 5316,
      "櫈": 5317,
      "櫋": 5318,
      "欠": 5319,
      "次": 5320,
      "欢": 5321,
      "欣": 5322,
      "欤": 5323,
      "欧": 5324,
      "欲": 5325,
      "欷": 5326,
      "欸": 5327,
      "欹": 5328,
      "欺": 5329,
      "欻": 5330,
      "款": 5331,
      "歃": 5332,
      "歆": 5333,
      "歇": 5334,
      "歉": 5335,
      "歌": 5336,
      "歎": 5337,
      "歐": 5338,
      "歔": 5339,
      "歕": 5340,
      "歘": 5341,
      "歙": 5342,
      "歠": 5343,
      "歡": 5344,
      "止": 5345,
      "正": 5346,
      "此": 5347,
      "步": 5348,
      "武": 5349,
      "歧": 5350,
      "歪": 5351,
      "歲": 5352,
      "歸": 5353,
      "歹": 5354,
      "死": 5355,
      "歼": 5356,
      "殁": 5357,
      "殂": 5358,
      "殃": 5359,
      "殄": 5360,
      "殆": 5361,
      "殇": 5362,
      "殉": 5363,
      "殊": 5364,
      "残": 5365,
      "殍": 5366,
      "殒": 5367,
      "殓": 5368,
      "殖": 5369,
      "殚": 5370,
      "殛": 5371,
      "殡": 5372,
      "殪": 5373,
      "殳": 5374,
      "殴": 5375,
      "段": 5376,
      "殷": 5377,
      "殽": 5378,
      "殿": 5379,
      "毀": 5380,
      "毁": 5381,
      "毂": 5382,
      "毅": 5383,
      "毋": 5384,
      "母": 5385,
      "毎": 5386,
      "每": 5387,
      "毐": 5388,
      "毒": 5389,
      "毓": 5390,
      "比": 5391,
      "毕": 5392,
      "毗": 5393,
      "毙": 5394,
      "毛": 5395,
      "毡": 5396,
      "毫": 5397,
      "毬": 5398,
      "毯": 5399,
      "毳": 5400,
      "毽": 5401,
      "氅": 5402,
      "氆": 5403,
      "氇": 5404,
      "氍": 5405,
      "氏": 5406,
      "氐": 5407,
      "民": 5408,
      "氓": 5409,
      "气": 5410,
      "氕": 5411,
      "氖": 5412,
      "気": 5413,
      "氘": 5414,
      "氙": 5415,
      "氚": 5416,
      "氛": 5417,
      "氜": 5418,
      "氞": 5419,
      "氟": 5420,
      "氡": 5421,
      "氢": 5422,
      "氣": 5423,
      "氤": 5424,
      "氦": 5425,
      "氧": 5426,
      "氨": 5427,
      "氩": 5428,
      "氪": 5429,
      "氮": 5430,
      "氯": 5431,
      "氰": 5432,
      "氲": 5433,
      "水": 5434,
      "氵": 5435,
      "永": 5436,
      "氹": 5437,
      "氽": 5438,
      "氾": 5439,
      "汀": 5440,
      "汁": 5441,
      "求": 5442,
      "汆": 5443,
      "汇": 5444,
      "汉": 5445,
      "汊": 5446,
      "汎": 5447,
      "汐": 5448,
      "汔": 5449,
      "汕": 5450,
      "汗": 5451,
      "汛": 5452,
      "汜": 5453,
      "汝": 5454,
      "汞": 5455,
      "江": 5456,
      "池": 5457,
      "污": 5458,
      "汤": 5459,
      "汧": 5460,
      "汨": 5461,
      "汩": 5462,
      "汪": 5463,
      "汭": 5464,
      "汰": 5465,
      "汲": 5466,
      "汴": 5467,
      "汶": 5468,
      "汹": 5469,
      "決": 5470,
      "汽": 5471,
      "汾": 5472,
      "沁": 5473,
      "沂": 5474,
      "沃": 5475,
      "沅": 5476,
      "沆": 5477,
      "沈": 5478,
      "沉": 5479,
      "沌": 5480,
      "沏": 5481,
      "沐": 5482,
      "沒": 5483,
      "沓": 5484,
      "沔": 5485,
      "沖": 5486,
      "沙": 5487,
      "沚": 5488,
      "沛": 5489,
      "沟": 5490,
      "没": 5491,
      "沢": 5492,
      "沣": 5493,
      "沤": 5494,
      "沥": 5495,
      "沦": 5496,
      "沧": 5497,
      "沪": 5498,
      "沫": 5499,
      "沬": 5500,
      "沭": 5501,
      "沮": 5502,
      "沱": 5503,
      "河": 5504,
      "沷": 5505,
      "沸": 5506,
      "油": 5507,
      "治": 5508,
      "沼": 5509,
      "沽": 5510,
      "沾": 5511,
      "沿": 5512,
      "泄": 5513,
      "泅": 5514,
      "泉": 5515,
      "泊": 5516,
      "泌": 5517,
      "泐": 5518,
      "泓": 5519,
      "泔": 5520,
      "法": 5521,
      "泗": 5522,
      "泙": 5523,
      "泛": 5524,
      "泞": 5525,
      "泠": 5526,
      "泡": 5527,
      "波": 5528,
      "泣": 5529,
      "泥": 5530,
      "注": 5531,
      "泪": 5532,
      "泫": 5533,
      "泮": 5534,
      "泯": 5535,
      "泰": 5536,
      "泱": 5537,
      "泳": 5538,
      "泵": 5539,
      "泷": 5540,
      "泸": 5541,
      "泺": 5542,
      "泻": 5543,
      "泼": 5544,
      "泽": 5545,
      "泾": 5546,
      "洁": 5547,
      "洄": 5548,
      "洇": 5549,
      "洋": 5550,
      "洌": 5551,
      "洎": 5552,
      "洐": 5553,
      "洒": 5554,
      "洗": 5555,
      "洙": 5556,
      "洛": 5557,
      "洞": 5558,
      "洣": 5559,
      "津": 5560,
      "洧": 5561,
      "洨": 5562,
      "洪": 5563,
      "洮": 5564,
      "洱": 5565,
      "洲": 5566,
      "洳": 5567,
      "洵": 5568,
      "洹": 5569,
      "活": 5570,
      "洼": 5571,
      "洽": 5572,
      "派": 5573,
      "流": 5574,
      "浃": 5575,
      "浄": 5576,
      "浅": 5577,
      "浆": 5578,
      "浇": 5579,
      "浊": 5580,
      "测": 5581,
      "济": 5582,
      "浏": 5583,
      "浐": 5584,
      "浑": 5585,
      "浒": 5586,
      "浓": 5587,
      "浔": 5588,
      "浙": 5589,
      "浚": 5590,
      "浜": 5591,
      "浞": 5592,
      "浠": 5593,
      "浣": 5594,
      "浥": 5595,
      "浦": 5596,
      "浩": 5597,
      "浪": 5598,
      "浭": 5599,
      "浮": 5600,
      "浴": 5601,
      "海": 5602,
      "浸": 5603,
      "浼": 5604,
      "涂": 5605,
      "涅": 5606,
      "消": 5607,
      "涉": 5608,
      "涊": 5609,
      "涌": 5610,
      "涎": 5611,
      "涑": 5612,
      "涓": 5613,
      "涔": 5614,
      "涕": 5615,
      "涘": 5616,
      "涙": 5617,
      "涛": 5618,
      "涝": 5619,
      "涞": 5620,
      "涟": 5621,
      "涠": 5622,
      "涡": 5623,
      "涣": 5624,
      "涤": 5625,
      "润": 5626,
      "涧": 5627,
      "涨": 5628,
      "涩": 5629,
      "涪": 5630,
      "涮": 5631,
      "涯": 5632,
      "液": 5633,
      "涴": 5634,
      "涵": 5635,
      "涸": 5636,
      "涼": 5637,
      "涿": 5638,
      "淀": 5639,
      "淄": 5640,
      "淅": 5641,
      "淆": 5642,
      "淇": 5643,
      "淈": 5644,
      "淋": 5645,
      "淌": 5646,
      "淑": 5647,
      "淓": 5648,
      "淖": 5649,
      "淘": 5650,
      "淙": 5651,
      "淚": 5652,
      "淝": 5653,
      "淞": 5654,
      "淡": 5655,
      "淤": 5656,
      "淦": 5657,
      "淫": 5658,
      "淬": 5659,
      "淮": 5660,
      "深": 5661,
      "淳": 5662,
      "混": 5663,
      "淸": 5664,
      "淹": 5665,
      "添": 5666,
      "淼": 5667,
      "清": 5668,
      "渊": 5669,
      "渌": 5670,
      "渍": 5671,
      "渎": 5672,
      "渐": 5673,
      "渑": 5674,
      "渓": 5675,
      "渔": 5676,
      "渗": 5677,
      "渚": 5678,
      "渝": 5679,
      "渠": 5680,
      "渡": 5681,
      "渣": 5682,
      "渤": 5683,
      "渥": 5684,
      "渧": 5685,
      "温": 5686,
      "渭": 5687,
      "港": 5688,
      "渲": 5689,
      "渴": 5690,
      "游": 5691,
      "渺": 5692,
      "渻": 5693,
      "湃": 5694,
      "湄": 5695,
      "湉": 5696,
      "湊": 5697,
      "湍": 5698,
      "湎": 5699,
      "湓": 5700,
      "湔": 5701,
      "湖": 5702,
      "湘": 5703,
      "湛": 5704,
      "湜": 5705,
      "湟": 5706,
      "湣": 5707,
      "湦": 5708,
      "湧": 5709,
      "湩": 5710,
      "湫": 5711,
      "湮": 5712,
      "湯": 5713,
      "湲": 5714,
      "湾": 5715,
      "湿": 5716,
      "満": 5717,
      "溃": 5718,
      "溅": 5719,
      "溇": 5720,
      "溉": 5721,
      "溏": 5722,
      "源": 5723,
      "準": 5724,
      "溘": 5725,
      "溜": 5726,
      "溟": 5727,
      "溢": 5728,
      "溥": 5729,
      "溧": 5730,
      "溪": 5731,
      "溫": 5732,
      "溯": 5733,
      "溱": 5734,
      "溴": 5735,
      "溶": 5736,
      "溷": 5737,
      "溺": 5738,
      "溼": 5739,
      "溽": 5740,
      "滁": 5741,
      "滂": 5742,
      "滅": 5743,
      "滇": 5744,
      "滋": 5745,
      "滏": 5746,
      "滑": 5747,
      "滓": 5748,
      "滔": 5749,
      "滕": 5750,
      "滖": 5751,
      "滚": 5752,
      "滞": 5753,
      "滟": 5754,
      "满": 5755,
      "滢": 5756,
      "滤": 5757,
      "滥": 5758,
      "滦": 5759,
      "滨": 5760,
      "滩": 5761,
      "滫": 5762,
      "滳": 5763,
      "滴": 5764,
      "滹": 5765,
      "滺": 5766,
      "滽": 5767,
      "滾": 5768,
      "滿": 5769,
      "漁": 5770,
      "漂": 5771,
      "漆": 5772,
      "漉": 5773,
      "漏": 5774,
      "漓": 5775,
      "演": 5776,
      "漕": 5777,
      "漠": 5778,
      "漢": 5779,
      "漦": 5780,
      "漩": 5781,
      "漪": 5782,
      "漫": 5783,
      "漯": 5784,
      "漱": 5785,
      "漳": 5786,
      "漸": 5787,
      "漼": 5788,
      "漾": 5789,
      "潆": 5790,
      "潇": 5791,
      "潋": 5792,
      "潍": 5793,
      "潏": 5794,
      "潘": 5795,
      "潜": 5796,
      "潞": 5797,
      "潟": 5798,
      "潢": 5799,
      "潤": 5800,
      "潦": 5801,
      "潭": 5802,
      "潮": 5803,
      "潲": 5804,
      "潴": 5805,
      "潸": 5806,
      "潺": 5807,
      "潼": 5808,
      "潽": 5809,
      "澂": 5810,
      "澄": 5811,
      "澆": 5812,
      "澈": 5813,
      "澍": 5814,
      "澎": 5815,
      "澔": 5816,
      "澗": 5817,
      "澜": 5818,
      "澡": 5819,
      "澤": 5820,
      "澦": 5821,
      "澧": 5822,
      "澨": 5823,
      "澳": 5824,
      "澶": 5825,
      "澹": 5826,
      "激": 5827,
      "濂": 5828,
      "濑": 5829,
      "濒": 5830,
      "濕": 5831,
      "濛": 5832,
      "濞": 5833,
      "濠": 5834,
      "濡": 5835,
      "濩": 5836,
      "濮": 5837,
      "濯": 5838,
      "濱": 5839,
      "濺": 5840,
      "瀑": 5841,
      "瀚": 5842,
      "瀛": 5843,
      "瀣": 5844,
      "瀵": 5845,
      "灌": 5846,
      "灏": 5847,
      "灜": 5848,
      "灞": 5849,
      "火": 5850,
      "灬": 5851,
      "灭": 5852,
      "灯": 5853,
      "灰": 5854,
      "灵": 5855,
      "灶": 5856,
      "灸": 5857,
      "灼": 5858,
      "災": 5859,
      "灾": 5860,
      "灿": 5861,
      "炀": 5862,
      "炅": 5863,
      "炆": 5864,
      "炉": 5865,
      "炊": 5866,
      "炎": 5867,
      "炏": 5868,
      "炒": 5869,
      "炔": 5870,
      "炕": 5871,
      "炖": 5872,
      "炙": 5873,
      "炜": 5874,
      "炝": 5875,
      "炟": 5876,
      "炫": 5877,
      "炬": 5878,
      "炭": 5879,
      "炮": 5880,
      "炯": 5881,
      "炳": 5882,
      "炷": 5883,
      "炸": 5884,
      "点": 5885,
      "為": 5886,
      "炼": 5887,
      "炽": 5888,
      "烀": 5889,
      "烁": 5890,
      "烂": 5891,
      "烃": 5892,
      "烈": 5893,
      "烊": 5894,
      "烏": 5895,
      "烘": 5896,
      "烙": 5897,
      "烛": 5898,
      "烜": 5899,
      "烟": 5900,
      "烤": 5901,
      "烦": 5902,
      "烧": 5903,
      "烨": 5904,
      "烩": 5905,
      "烫": 5906,
      "烬": 5907,
      "热": 5908,
      "烯": 5909,
      "烷": 5910,
      "烹": 5911,
      "烽": 5912,
      "焉": 5913,
      "焊": 5914,
      "焐": 5915,
      "焑": 5916,
      "焓": 5917,
      "焕": 5918,
      "焖": 5919,
      "焗": 5920,
      "焘": 5921,
      "焙": 5922,
      "焚": 5923,
      "無": 5924,
      "焦": 5925,
      "焯": 5926,
      "焰": 5927,
      "焱": 5928,
      "然": 5929,
      "煅": 5930,
      "煉": 5931,
      "煊": 5932,
      "煌": 5933,
      "煎": 5934,
      "煕": 5935,
      "煙": 5936,
      "煜": 5937,
      "煞": 5938,
      "煣": 5939,
      "煤": 5940,
      "煦": 5941,
      "照": 5942,
      "煨": 5943,
      "煩": 5944,
      "煮": 5945,
      "煲": 5946,
      "煳": 5947,
      "煴": 5948,
      "煸": 5949,
      "煽": 5950,
      "熄": 5951,
      "熇": 5952,
      "熊": 5953,
      "熏": 5954,
      "熔": 5955,
      "熘": 5956,
      "熙": 5957,
      "熜": 5958,
      "熟": 5959,
      "熠": 5960,
      "熨": 5961,
      "熬": 5962,
      "熱": 5963,
      "熳": 5964,
      "熵": 5965,
      "熹": 5966,
      "熺": 5967,
      "燃": 5968,
      "燊": 5969,
      "燋": 5970,
      "燎": 5971,
      "燒": 5972,
      "燔": 5973,
      "燕": 5974,
      "燖": 5975,
      "燚": 5976,
      "燥": 5977,
      "燧": 5978,
      "燮": 5979,
      "燹": 5980,
      "燼": 5981,
      "爆": 5982,
      "爚": 5983,
      "爛": 5984,
      "爝": 5985,
      "爨": 5986,
      "爪": 5987,
      "爬": 5988,
      "爭": 5989,
      "爰": 5990,
      "爱": 5991,
      "爵": 5992,
      "父": 5993,
      "爷": 5994,
      "爸": 5995,
      "爹": 5996,
      "爺": 5997,
      "爻": 5998,
      "爽": 5999,
      "爾": 6000,
      "爿": 6001,
      "牆": 6002,
      "片": 6003,
      "版": 6004,
      "牌": 6005,
      "牍": 6006,
      "牒": 6007,
      "牖": 6008,
      "牙": 6009,
      "牛": 6010,
      "牝": 6011,
      "牟": 6012,
      "牠": 6013,
      "牡": 6014,
      "牢": 6015,
      "牤": 6016,
      "牦": 6017,
      "牧": 6018,
      "物": 6019,
      "牯": 6020,
      "牲": 6021,
      "牵": 6022,
      "特": 6023,
      "牺": 6024,
      "牽": 6025,
      "犀": 6026,
      "犁": 6027,
      "犄": 6028,
      "犇": 6029,
      "犊": 6030,
      "犍": 6031,
      "犏": 6032,
      "犑": 6033,
      "犒": 6034,
      "犟": 6035,
      "犬": 6036,
      "犭": 6037,
      "犯": 6038,
      "犰": 6039,
      "犲": 6040,
      "犴": 6041,
      "状": 6042,
      "犷": 6043,
      "犸": 6044,
      "犹": 6045,
      "狀": 6046,
      "狁": 6047,
      "狂": 6048,
      "狃": 6049,
      "狄": 6050,
      "狈": 6051,
      "狍": 6052,
      "狎": 6053,
      "狐": 6054,
      "狒": 6055,
      "狗": 6056,
      "狙": 6057,
      "狝": 6058,
      "狞": 6059,
      "狠": 6060,
      "狡": 6061,
      "狤": 6062,
      "狩": 6063,
      "独": 6064,
      "狭": 6065,
      "狮": 6066,
      "狯": 6067,
      "狰": 6068,
      "狱": 6069,
      "狲": 6070,
      "狳": 6071,
      "狴": 6072,
      "狷": 6073,
      "狸": 6074,
      "狺": 6075,
      "狻": 6076,
      "狼": 6077,
      "猁": 6078,
      "猂": 6079,
      "猇": 6080,
      "猊": 6081,
      "猎": 6082,
      "猕": 6083,
      "猖": 6084,
      "猗": 6085,
      "猛": 6086,
      "猜": 6087,
      "猝": 6088,
      "猞": 6089,
      "猡": 6090,
      "猢": 6091,
      "猥": 6092,
      "猩": 6093,
      "猪": 6094,
      "猫": 6095,
      "猬": 6096,
      "献": 6097,
      "猰": 6098,
      "猱": 6099,
      "猴": 6100,
      "猷": 6101,
      "猸": 6102,
      "猹": 6103,
      "猾": 6104,
      "猿": 6105,
      "獅": 6106,
      "獎": 6107,
      "獐": 6108,
      "獒": 6109,
      "獗": 6110,
      "獠": 6111,
      "獬": 6112,
      "獭": 6113,
      "獯": 6114,
      "獲": 6115,
      "獴": 6116,
      "獵": 6117,
      "獾": 6118,
      "玄": 6119,
      "率": 6120,
      "玉": 6121,
      "王": 6122,
      "玎": 6123,
      "玑": 6124,
      "玕": 6125,
      "玖": 6126,
      "玘": 6127,
      "玛": 6128,
      "玟": 6129,
      "玠": 6130,
      "玡": 6131,
      "玥": 6132,
      "玦": 6133,
      "玩": 6134,
      "玫": 6135,
      "玮": 6136,
      "环": 6137,
      "现": 6138,
      "玲": 6139,
      "玳": 6140,
      "玷": 6141,
      "玹": 6142,
      "玺": 6143,
      "玻": 6144,
      "珀": 6145,
      "珂": 6146,
      "珅": 6147,
      "珈": 6148,
      "珉": 6149,
      "珊": 6150,
      "珍": 6151,
      "珏": 6152,
      "珐": 6153,
      "珑": 6154,
      "珙": 6155,
      "珞": 6156,
      "珠": 6157,
      "珣": 6158,
      "珥": 6159,
      "珦": 6160,
      "珩": 6161,
      "珪": 6162,
      "班": 6163,
      "珮": 6164,
      "珰": 6165,
      "珲": 6166,
      "珺": 6167,
      "現": 6168,
      "球": 6169,
      "琅": 6170,
      "理": 6171,
      "琉": 6172,
      "琊": 6173,
      "琍": 6174,
      "琏": 6175,
      "琐": 6176,
      "琚": 6177,
      "琛": 6178,
      "琢": 6179,
      "琥": 6180,
      "琦": 6181,
      "琨": 6182,
      "琪": 6183,
      "琬": 6184,
      "琮": 6185,
      "琯": 6186,
      "琰": 6187,
      "琳": 6188,
      "琴": 6189,
      "琵": 6190,
      "琶": 6191,
      "琹": 6192,
      "琼": 6193,
      "瑀": 6194,
      "瑁": 6195,
      "瑄": 6196,
      "瑑": 6197,
      "瑕": 6198,
      "瑗": 6199,
      "瑙": 6200,
      "瑚": 6201,
      "瑛": 6202,
      "瑜": 6203,
      "瑝": 6204,
      "瑞": 6205,
      "瑟": 6206,
      "瑪": 6207,
      "瑭": 6208,
      "瑰": 6209,
      "瑶": 6210,
      "瑷": 6211,
      "瑾": 6212,
      "璀": 6213,
      "璁": 6214,
      "璃": 6215,
      "璆": 6216,
      "璇": 6217,
      "璈": 6218,
      "璋": 6219,
      "璌": 6220,
      "璎": 6221,
      "璐": 6222,
      "璘": 6223,
      "璜": 6224,
      "璞": 6225,
      "璟": 6226,
      "璠": 6227,
      "璧": 6228,
      "璨": 6229,
      "環": 6230,
      "璲": 6231,
      "璺": 6232,
      "璿": 6233,
      "瓊": 6234,
      "瓒": 6235,
      "瓘": 6236,
      "瓜": 6237,
      "瓞": 6238,
      "瓠": 6239,
      "瓢": 6240,
      "瓣": 6241,
      "瓤": 6242,
      "瓦": 6243,
      "瓮": 6244,
      "瓯": 6245,
      "瓴": 6246,
      "瓶": 6247,
      "瓷": 6248,
      "甄": 6249,
      "甍": 6250,
      "甏": 6251,
      "甑": 6252,
      "甓": 6253,
      "甕": 6254,
      "甘": 6255,
      "甙": 6256,
      "甚": 6257,
      "甜": 6258,
      "生": 6259,
      "產": 6260,
      "産": 6261,
      "甥": 6262,
      "用": 6263,
      "甩": 6264,
      "甫": 6265,
      "甬": 6266,
      "甭": 6267,
      "甯": 6268,
      "田": 6269,
      "由": 6270,
      "甲": 6271,
      "申": 6272,
      "电": 6273,
      "甶": 6274,
      "男": 6275,
      "甸": 6276,
      "町": 6277,
      "画": 6278,
      "甾": 6279,
      "畅": 6280,
      "畈": 6281,
      "畋": 6282,
      "界": 6283,
      "畎": 6284,
      "畏": 6285,
      "畔": 6286,
      "留": 6287,
      "畚": 6288,
      "畛": 6289,
      "畜": 6290,
      "畢": 6291,
      "畤": 6292,
      "略": 6293,
      "畦": 6294,
      "番": 6295,
      "畫": 6296,
      "異": 6297,
      "畲": 6298,
      "畴": 6299,
      "當": 6300,
      "畸": 6301,
      "畹": 6302,
      "畿": 6303,
      "疃": 6304,
      "疆": 6305,
      "疊": 6306,
      "疋": 6307,
      "疏": 6308,
      "疑": 6309,
      "疔": 6310,
      "疖": 6311,
      "疗": 6312,
      "疙": 6313,
      "疚": 6314,
      "疝": 6315,
      "疟": 6316,
      "疠": 6317,
      "疡": 6318,
      "疢": 6319,
      "疣": 6320,
      "疤": 6321,
      "疥": 6322,
      "疪": 6323,
      "疫": 6324,
      "疮": 6325,
      "疯": 6326,
      "疱": 6327,
      "疲": 6328,
      "疳": 6329,
      "疴": 6330,
      "疵": 6331,
      "疸": 6332,
      "疹": 6333,
      "疼": 6334,
      "疽": 6335,
      "疾": 6336,
      "痂": 6337,
      "病": 6338,
      "症": 6339,
      "痈": 6340,
      "痉": 6341,
      "痊": 6342,
      "痍": 6343,
      "痒": 6344,
      "痔": 6345,
      "痕": 6346,
      "痖": 6347,
      "痘": 6348,
      "痛": 6349,
      "痞": 6350,
      "痢": 6351,
      "痣": 6352,
      "痤": 6353,
      "痦": 6354,
      "痧": 6355,
      "痨": 6356,
      "痩": 6357,
      "痪": 6358,
      "痫": 6359,
      "痰": 6360,
      "痱": 6361,
      "痲": 6362,
      "痴": 6363,
      "痹": 6364,
      "痼": 6365,
      "痿": 6366,
      "瘀": 6367,
      "瘁": 6368,
      "瘅": 6369,
      "瘆": 6370,
      "瘌": 6371,
      "瘐": 6372,
      "瘖": 6373,
      "瘗": 6374,
      "瘘": 6375,
      "瘙": 6376,
      "瘟": 6377,
      "瘠": 6378,
      "瘢": 6379,
      "瘤": 6380,
      "瘦": 6381,
      "瘩": 6382,
      "瘪": 6383,
      "瘫": 6384,
      "瘮": 6385,
      "瘴": 6386,
      "瘵": 6387,
      "瘸": 6388,
      "瘾": 6389,
      "瘿": 6390,
      "療": 6391,
      "癌": 6392,
      "癍": 6393,
      "癔": 6394,
      "癖": 6395,
      "癘": 6396,
      "癜": 6397,
      "癞": 6398,
      "癣": 6399,
      "癤": 6400,
      "癫": 6401,
      "癯": 6402,
      "癲": 6403,
      "癸": 6404,
      "登": 6405,
      "發": 6406,
      "白": 6407,
      "百": 6408,
      "皂": 6409,
      "的": 6410,
      "皆": 6411,
      "皇": 6412,
      "皈": 6413,
      "皋": 6414,
      "皎": 6415,
      "皑": 6416,
      "皓": 6417,
      "皖": 6418,
      "皙": 6419,
      "皮": 6420,
      "皱": 6421,
      "皲": 6422,
      "皴": 6423,
      "皿": 6424,
      "盂": 6425,
      "盅": 6426,
      "盆": 6427,
      "盈": 6428,
      "益": 6429,
      "盍": 6430,
      "盎": 6431,
      "盏": 6432,
      "盐": 6433,
      "监": 6434,
      "盒": 6435,
      "盔": 6436,
      "盖": 6437,
      "盗": 6438,
      "盘": 6439,
      "盛": 6440,
      "盜": 6441,
      "盟": 6442,
      "盡": 6443,
      "盤": 6444,
      "盥": 6445,
      "盬": 6446,
      "目": 6447,
      "盯": 6448,
      "盱": 6449,
      "盲": 6450,
      "直": 6451,
      "相": 6452,
      "盹": 6453,
      "盼": 6454,
      "盾": 6455,
      "省": 6456,
      "眄": 6457,
      "眆": 6458,
      "眇": 6459,
      "眈": 6460,
      "眉": 6461,
      "看": 6462,
      "県": 6463,
      "眍": 6464,
      "眙": 6465,
      "真": 6466,
      "眠": 6467,
      "眦": 6468,
      "眨": 6469,
      "眩": 6470,
      "眬": 6471,
      "眯": 6472,
      "眶": 6473,
      "眷": 6474,
      "眸": 6475,
      "眺": 6476,
      "眼": 6477,
      "眾": 6478,
      "着": 6479,
      "睁": 6480,
      "睃": 6481,
      "睇": 6482,
      "睏": 6483,
      "睐": 6484,
      "睑": 6485,
      "睖": 6486,
      "睚": 6487,
      "睛": 6488,
      "睡": 6489,
      "睢": 6490,
      "督": 6491,
      "睥": 6492,
      "睦": 6493,
      "睨": 6494,
      "睫": 6495,
      "睬": 6496,
      "睭": 6497,
      "睹": 6498,
      "睽": 6499,
      "睾": 6500,
      "睿": 6501,
      "瞀": 6502,
      "瞄": 6503,
      "瞅": 6504,
      "瞇": 6505,
      "瞋": 6506,
      "瞌": 6507,
      "瞍": 6508,
      "瞎": 6509,
      "瞑": 6510,
      "瞒": 6511,
      "瞟": 6512,
      "瞠": 6513,
      "瞥": 6514,
      "瞧": 6515,
      "瞩": 6516,
      "瞪": 6517,
      "瞬": 6518,
      "瞭": 6519,
      "瞰": 6520,
      "瞳": 6521,
      "瞻": 6522,
      "瞽": 6523,
      "瞾": 6524,
      "瞿": 6525,
      "矅": 6526,
      "矇": 6527,
      "矍": 6528,
      "矗": 6529,
      "矛": 6530,
      "矜": 6531,
      "矢": 6532,
      "矣": 6533,
      "知": 6534,
      "矩": 6535,
      "矫": 6536,
      "矬": 6537,
      "短": 6538,
      "矮": 6539,
      "石": 6540,
      "矴": 6541,
      "矶": 6542,
      "矸": 6543,
      "矻": 6544,
      "矽": 6545,
      "矾": 6546,
      "矿": 6547,
      "砀": 6548,
      "码": 6549,
      "砂": 6550,
      "砌": 6551,
      "砍": 6552,
      "砑": 6553,
      "砒": 6554,
      "研": 6555,
      "砖": 6556,
      "砗": 6557,
      "砚": 6558,
      "砝": 6559,
      "砟": 6560,
      "砣": 6561,
      "砥": 6562,
      "砦": 6563,
      "砧": 6564,
      "砩": 6565,
      "砬": 6566,
      "砭": 6567,
      "砯": 6568,
      "砰": 6569,
      "破": 6570,
      "砷": 6571,
      "砸": 6572,
      "砹": 6573,
      "砺": 6574,
      "砻": 6575,
      "砾": 6576,
      "础": 6577,
      "硃": 6578,
      "硅": 6579,
      "硇": 6580,
      "硌": 6581,
      "硎": 6582,
      "硏": 6583,
      "硐": 6584,
      "硒": 6585,
      "硕": 6586,
      "硖": 6587,
      "硚": 6588,
      "硝": 6589,
      "硫": 6590,
      "硬": 6591,
      "确": 6592,
      "硷": 6593,
      "硼": 6594,
      "硿": 6595,
      "碁": 6596,
      "碇": 6597,
      "碉": 6598,
      "碌": 6599,
      "碍": 6600,
      "碎": 6601,
      "碏": 6602,
      "碑": 6603,
      "碓": 6604,
      "碗": 6605,
      "碘": 6606,
      "碚": 6607,
      "碛": 6608,
      "碜": 6609,
      "碟": 6610,
      "碡": 6611,
      "碣": 6612,
      "碧": 6613,
      "碩": 6614,
      "碰": 6615,
      "碱": 6616,
      "碳": 6617,
      "碴": 6618,
      "碼": 6619,
      "碾": 6620,
      "磁": 6621,
      "磅": 6622,
      "磊": 6623,
      "磋": 6624,
      "磐": 6625,
      "磔": 6626,
      "磕": 6627,
      "磙": 6628,
      "磞": 6629,
      "磡": 6630,
      "磨": 6631,
      "磬": 6632,
      "磲": 6633,
      "磴": 6634,
      "磵": 6635,
      "磷": 6636,
      "磺": 6637,
      "磾": 6638,
      "礁": 6639,
      "礅": 6640,
      "礓": 6641,
      "礤": 6642,
      "礴": 6643,
      "示": 6644,
      "礼": 6645,
      "社": 6646,
      "祀": 6647,
      "祁": 6648,
      "祆": 6649,
      "祇": 6650,
      "祈": 6651,
      "祉": 6652,
      "祎": 6653,
      "祐": 6654,
      "祓": 6655,
      "祖": 6656,
      "祗": 6657,
      "祚": 6658,
      "祛": 6659,
      "祜": 6660,
      "祝": 6661,
      "神": 6662,
      "祟": 6663,
      "祠": 6664,
      "祢": 6665,
      "祥": 6666,
      "祧": 6667,
      "票": 6668,
      "祭": 6669,
      "祯": 6670,
      "祷": 6671,
      "祸": 6672,
      "祺": 6673,
      "禀": 6674,
      "禁": 6675,
      "禄": 6676,
      "禅": 6677,
      "禇": 6678,
      "禊": 6679,
      "福": 6680,
      "禛": 6681,
      "禤": 6682,
      "禧": 6683,
      "禮": 6684,
      "禳": 6685,
      "禹": 6686,
      "禺": 6687,
      "离": 6688,
      "禽": 6689,
      "禾": 6690,
      "秀": 6691,
      "私": 6692,
      "秃": 6693,
      "秆": 6694,
      "秉": 6695,
      "秋": 6696,
      "种": 6697,
      "科": 6698,
      "秒": 6699,
      "秕": 6700,
      "秘": 6701,
      "租": 6702,
      "秣": 6703,
      "秤": 6704,
      "秦": 6705,
      "秧": 6706,
      "秩": 6707,
      "秫": 6708,
      "秬": 6709,
      "秭": 6710,
      "积": 6711,
      "称": 6712,
      "秸": 6713,
      "移": 6714,
      "秽": 6715,
      "秾": 6716,
      "稀": 6717,
      "稃": 6718,
      "程": 6719,
      "稍": 6720,
      "税": 6721,
      "稔": 6722,
      "稗": 6723,
      "稚": 6724,
      "稜": 6725,
      "稞": 6726,
      "稠": 6727,
      "稣": 6728,
      "稧": 6729,
      "種": 6730,
      "稳": 6731,
      "稷": 6732,
      "稹": 6733,
      "稻": 6734,
      "稼": 6735,
      "稽": 6736,
      "稿": 6737,
      "穆": 6738,
      "穑": 6739,
      "穗": 6740,
      "穩": 6741,
      "穫": 6742,
      "穰": 6743,
      "穴": 6744,
      "究": 6745,
      "穷": 6746,
      "穹": 6747,
      "空": 6748,
      "穿": 6749,
      "突": 6750,
      "窃": 6751,
      "窄": 6752,
      "窈": 6753,
      "窋": 6754,
      "窍": 6755,
      "窑": 6756,
      "窒": 6757,
      "窕": 6758,
      "窖": 6759,
      "窗": 6760,
      "窘": 6761,
      "窜": 6762,
      "窝": 6763,
      "窟": 6764,
      "窠": 6765,
      "窣": 6766,
      "窥": 6767,
      "窦": 6768,
      "窨": 6769,
      "窩": 6770,
      "窭": 6771,
      "窮": 6772,
      "窳": 6773,
      "窸": 6774,
      "窾": 6775,
      "窿": 6776,
      "立": 6777,
      "竖": 6778,
      "站": 6779,
      "竞": 6780,
      "竟": 6781,
      "章": 6782,
      "竣": 6783,
      "童": 6784,
      "竦": 6785,
      "竭": 6786,
      "端": 6787,
      "競": 6788,
      "竹": 6789,
      "竺": 6790,
      "竽": 6791,
      "竿": 6792,
      "笃": 6793,
      "笄": 6794,
      "笆": 6795,
      "笈": 6796,
      "笊": 6797,
      "笋": 6798,
      "笏": 6799,
      "笑": 6800,
      "笔": 6801,
      "笕": 6802,
      "笙": 6803,
      "笛": 6804,
      "笞": 6805,
      "笠": 6806,
      "笤": 6807,
      "笥": 6808,
      "符": 6809,
      "笨": 6810,
      "笪": 6811,
      "笫": 6812,
      "第": 6813,
      "笮": 6814,
      "笳": 6815,
      "笸": 6816,
      "笺": 6817,
      "笼": 6818,
      "笾": 6819,
      "等": 6820,
      "筊": 6821,
      "筋": 6822,
      "筌": 6823,
      "筏": 6824,
      "筐": 6825,
      "筑": 6826,
      "筒": 6827,
      "答": 6828,
      "策": 6829,
      "筘": 6830,
      "筚": 6831,
      "筛": 6832,
      "筜": 6833,
      "筝": 6834,
      "筠": 6835,
      "筢": 6836,
      "筮": 6837,
      "筯": 6838,
      "筰": 6839,
      "筱": 6840,
      "筲": 6841,
      "筳": 6842,
      "筵": 6843,
      "筷": 6844,
      "筹": 6845,
      "筼": 6846,
      "签": 6847,
      "简": 6848,
      "箂": 6849,
      "箅": 6850,
      "箍": 6851,
      "箏": 6852,
      "箐": 6853,
      "箓": 6854,
      "箔": 6855,
      "箕": 6856,
      "算": 6857,
      "箜": 6858,
      "箝": 6859,
      "管": 6860,
      "箢": 6861,
      "箧": 6862,
      "箨": 6863,
      "箩": 6864,
      "箪": 6865,
      "箫": 6866,
      "箬": 6867,
      "箭": 6868,
      "箱": 6869,
      "箴": 6870,
      "箸": 6871,
      "篁": 6872,
      "篆": 6873,
      "篇": 6874,
      "築": 6875,
      "篌": 6876,
      "篑": 6877,
      "篓": 6878,
      "篙": 6879,
      "篝": 6880,
      "篡": 6881,
      "篥": 6882,
      "篦": 6883,
      "篪": 6884,
      "篮": 6885,
      "篱": 6886,
      "篳": 6887,
      "篷": 6888,
      "篼": 6889,
      "篾": 6890,
      "簇": 6891,
      "簋": 6892,
      "簌": 6893,
      "簑": 6894,
      "簔": 6895,
      "簕": 6896,
      "簟": 6897,
      "簡": 6898,
      "簧": 6899,
      "簪": 6900,
      "簫": 6901,
      "簸": 6902,
      "簿": 6903,
      "籀": 6904,
      "籁": 6905,
      "籃": 6906,
      "籅": 6907,
      "籍": 6908,
      "籙": 6909,
      "籬": 6910,
      "米": 6911,
      "籴": 6912,
      "类": 6913,
      "籼": 6914,
      "籽": 6915,
      "粃": 6916,
      "粄": 6917,
      "粉": 6918,
      "粑": 6919,
      "粒": 6920,
      "粕": 6921,
      "粗": 6922,
      "粘": 6923,
      "粜": 6924,
      "粝": 6925,
      "粟": 6926,
      "粤": 6927,
      "粥": 6928,
      "粧": 6929,
      "粪": 6930,
      "粮": 6931,
      "粱": 6932,
      "粲": 6933,
      "粳": 6934,
      "粹": 6935,
      "粼": 6936,
      "粽": 6937,
      "精": 6938,
      "粿": 6939,
      "糁": 6940,
      "糅": 6941,
      "糇": 6942,
      "糊": 6943,
      "糌": 6944,
      "糍": 6945,
      "糕": 6946,
      "糖": 6947,
      "糗": 6948,
      "糙": 6949,
      "糜": 6950,
      "糟": 6951,
      "糠": 6952,
      "糧": 6953,
      "糨": 6954,
      "糯": 6955,
      "系": 6956,
      "約": 6957,
      "紉": 6958,
      "紊": 6959,
      "納": 6960,
      "紙": 6961,
      "級": 6962,
      "紛": 6963,
      "紝": 6964,
      "素": 6965,
      "索": 6966,
      "紧": 6967,
      "紫": 6968,
      "累": 6969,
      "細": 6970,
      "紵": 6971,
      "紹": 6972,
      "紿": 6973,
      "終": 6974,
      "絃": 6975,
      "結": 6976,
      "絜": 6977,
      "給": 6978,
      "絨": 6979,
      "絮": 6980,
      "統": 6981,
      "絲": 6982,
      "絷": 6983,
      "綁": 6984,
      "經": 6985,
      "綝": 6986,
      "綠": 6987,
      "綦": 6988,
      "維": 6989,
      "綮": 6990,
      "綱": 6991,
      "綴": 6992,
      "緊": 6993,
      "緌": 6994,
      "緑": 6995,
      "緒": 6996,
      "線": 6997,
      "締": 6998,
      "編": 6999,
      "緩": 7000,
      "緫": 7001,
      "緻": 7002,
      "縄": 7003,
      "縢": 7004,
      "縫": 7005,
      "縻": 7006,
      "總": 7007,
      "績": 7008,
      "繁": 7009,
      "繇": 7010,
      "繞": 7011,
      "繩": 7012,
      "繫": 7013,
      "繼": 7014,
      "纂": 7015,
      "纆": 7016,
      "續": 7017,
      "纕": 7018,
      "纛": 7019,
      "纟": 7020,
      "纠": 7021,
      "纡": 7022,
      "红": 7023,
      "纣": 7024,
      "纤": 7025,
      "纥": 7026,
      "约": 7027,
      "级": 7028,
      "纨": 7029,
      "纪": 7030,
      "纫": 7031,
      "纬": 7032,
      "纭": 7033,
      "纮": 7034,
      "纯": 7035,
      "纰": 7036,
      "纱": 7037,
      "纲": 7038,
      "纳": 7039,
      "纴": 7040,
      "纵": 7041,
      "纶": 7042,
      "纷": 7043,
      "纸": 7044,
      "纹": 7045,
      "纺": 7046,
      "纻": 7047,
      "纽": 7048,
      "纾": 7049,
      "线": 7050,
      "绀": 7051,
      "绁": 7052,
      "绂": 7053,
      "练": 7054,
      "组": 7055,
      "绅": 7056,
      "细": 7057,
      "织": 7058,
      "终": 7059,
      "绉": 7060,
      "绊": 7061,
      "绋": 7062,
      "绌": 7063,
      "绍": 7064,
      "绎": 7065,
      "经": 7066,
      "绐": 7067,
      "绑": 7068,
      "绒": 7069,
      "结": 7070,
      "绔": 7071,
      "绕": 7072,
      "绘": 7073,
      "给": 7074,
      "绚": 7075,
      "绛": 7076,
      "络": 7077,
      "绝": 7078,
      "绞": 7079,
      "统": 7080,
      "绡": 7081,
      "绢": 7082,
      "绣": 7083,
      "绥": 7084,
      "绦": 7085,
      "继": 7086,
      "绨": 7087,
      "绩": 7088,
      "绪": 7089,
      "绫": 7090,
      "续": 7091,
      "绮": 7092,
      "绯": 7093,
      "绰": 7094,
      "绱": 7095,
      "绳": 7096,
      "维": 7097,
      "绵": 7098,
      "绶": 7099,
      "绷": 7100,
      "绸": 7101,
      "绺": 7102,
      "绻": 7103,
      "综": 7104,
      "绽": 7105,
      "绾": 7106,
      "绿": 7107,
      "缀": 7108,
      "缁": 7109,
      "缃": 7110,
      "缄": 7111,
      "缅": 7112,
      "缆": 7113,
      "缇": 7114,
      "缈": 7115,
      "缉": 7116,
      "缊": 7117,
      "缍": 7118,
      "缎": 7119,
      "缑": 7120,
      "缒": 7121,
      "缓": 7122,
      "缔": 7123,
      "缕": 7124,
      "编": 7125,
      "缗": 7126,
      "缘": 7127,
      "缙": 7128,
      "缚": 7129,
      "缛": 7130,
      "缜": 7131,
      "缝": 7132,
      "缟": 7133,
      "缠": 7134,
      "缡": 7135,
      "缢": 7136,
      "缣": 7137,
      "缤": 7138,
      "缥": 7139,
      "缦": 7140,
      "缧": 7141,
      "缨": 7142,
      "缩": 7143,
      "缪": 7144,
      "缫": 7145,
      "缬": 7146,
      "缭": 7147,
      "缮": 7148,
      "缯": 7149,
      "缰": 7150,
      "缱": 7151,
      "缲": 7152,
      "缳": 7153,
      "缴": 7154,
      "缵": 7155,
      "缶": 7156,
      "缸": 7157,
      "缺": 7158,
      "缽": 7159,
      "罂": 7160,
      "罄": 7161,
      "罅": 7162,
      "罍": 7163,
      "罐": 7164,
      "网": 7165,
      "罔": 7166,
      "罕": 7167,
      "罗": 7168,
      "罘": 7169,
      "罚": 7170,
      "罝": 7171,
      "罟": 7172,
      "罡": 7173,
      "罢": 7174,
      "罥": 7175,
      "罨": 7176,
      "罩": 7177,
      "罪": 7178,
      "置": 7179,
      "罰": 7180,
      "罱": 7181,
      "署": 7182,
      "罴": 7183,
      "罹": 7184,
      "罽": 7185,
      "罾": 7186,
      "羁": 7187,
      "羅": 7188,
      "羊": 7189,
      "羌": 7190,
      "美": 7191,
      "羑": 7192,
      "羔": 7193,
      "羚": 7194,
      "羝": 7195,
      "羞": 7196,
      "羟": 7197,
      "羡": 7198,
      "群": 7199,
      "羧": 7200,
      "羨": 7201,
      "義": 7202,
      "羯": 7203,
      "羰": 7204,
      "羲": 7205,
      "羶": 7206,
      "羸": 7207,
      "羹": 7208,
      "羽": 7209,
      "羿": 7210,
      "翀": 7211,
      "翁": 7212,
      "翃": 7213,
      "翅": 7214,
      "翊": 7215,
      "翌": 7216,
      "翎": 7217,
      "習": 7218,
      "翔": 7219,
      "翕": 7220,
      "翘": 7221,
      "翟": 7222,
      "翠": 7223,
      "翡": 7224,
      "翦": 7225,
      "翩": 7226,
      "翮": 7227,
      "翰": 7228,
      "翱": 7229,
      "翳": 7230,
      "翻": 7231,
      "翼": 7232,
      "耀": 7233,
      "老": 7234,
      "考": 7235,
      "耄": 7236,
      "者": 7237,
      "耆": 7238,
      "耋": 7239,
      "而": 7240,
      "耍": 7241,
      "耐": 7242,
      "耒": 7243,
      "耔": 7244,
      "耕": 7245,
      "耗": 7246,
      "耘": 7247,
      "耙": 7248,
      "耜": 7249,
      "耠": 7250,
      "耥": 7251,
      "耦": 7252,
      "耧": 7253,
      "耨": 7254,
      "耰": 7255,
      "耱": 7256,
      "耳": 7257,
      "耶": 7258,
      "耷": 7259,
      "耸": 7260,
      "耻": 7261,
      "耽": 7262,
      "耿": 7263,
      "聂": 7264,
      "聃": 7265,
      "聆": 7266,
      "聊": 7267,
      "聋": 7268,
      "职": 7269,
      "聒": 7270,
      "联": 7271,
      "聖": 7272,
      "聘": 7273,
      "聚": 7274,
      "聞": 7275,
      "聡": 7276,
      "聩": 7277,
      "聪": 7278,
      "聯": 7279,
      "聰": 7280,
      "聱": 7281,
      "聲": 7282,
      "聽": 7283,
      "聿": 7284,
      "肃": 7285,
      "肄": 7286,
      "肅": 7287,
      "肆": 7288,
      "肇": 7289,
      "肉": 7290,
      "肋": 7291,
      "肌": 7292,
      "肓": 7293,
      "肖": 7294,
      "肘": 7295,
      "肚": 7296,
      "肛": 7297,
      "肜": 7298,
      "肝": 7299,
      "肠": 7300,
      "股": 7301,
      "肢": 7302,
      "肤": 7303,
      "肥": 7304,
      "肩": 7305,
      "肪": 7306,
      "肫": 7307,
      "肮": 7308,
      "肯": 7309,
      "肱": 7310,
      "育": 7311,
      "肴": 7312,
      "肺": 7313,
      "肼": 7314,
      "肽": 7315,
      "肾": 7316,
      "肿": 7317,
      "胀": 7318,
      "胁": 7319,
      "胃": 7320,
      "胄": 7321,
      "胆": 7322,
      "胈": 7323,
      "背": 7324,
      "胍": 7325,
      "胎": 7326,
      "胖": 7327,
      "胗": 7328,
      "胚": 7329,
      "胛": 7330,
      "胜": 7331,
      "胝": 7332,
      "胞": 7333,
      "胡": 7334,
      "胤": 7335,
      "胥": 7336,
      "胧": 7337,
      "胨": 7338,
      "胪": 7339,
      "胫": 7340,
      "胬": 7341,
      "胭": 7342,
      "胯": 7343,
      "胰": 7344,
      "胱": 7345,
      "胳": 7346,
      "胴": 7347,
      "胶": 7348,
      "胸": 7349,
      "胺": 7350,
      "胼": 7351,
      "能": 7352,
      "脁": 7353,
      "脂": 7354,
      "脅": 7355,
      "脆": 7356,
      "脉": 7357,
      "脊": 7358,
      "脍": 7359,
      "脎": 7360,
      "脏": 7361,
      "脐": 7362,
      "脑": 7363,
      "脓": 7364,
      "脔": 7365,
      "脖": 7366,
      "脘": 7367,
      "脚": 7368,
      "脞": 7369,
      "脩": 7370,
      "脯": 7371,
      "脱": 7372,
      "脲": 7373,
      "脸": 7374,
      "脾": 7375,
      "腆": 7376,
      "腈": 7377,
      "腊": 7378,
      "腋": 7379,
      "腌": 7380,
      "腐": 7381,
      "腑": 7382,
      "腓": 7383,
      "腔": 7384,
      "腕": 7385,
      "腚": 7386,
      "腥": 7387,
      "腦": 7388,
      "腧": 7389,
      "腩": 7390,
      "腭": 7391,
      "腮": 7392,
      "腰": 7393,
      "腱": 7394,
      "腳": 7395,
      "腴": 7396,
      "腸": 7397,
      "腹": 7398,
      "腺": 7399,
      "腻": 7400,
      "腼": 7401,
      "腾": 7402,
      "腿": 7403,
      "膀": 7404,
      "膂": 7405,
      "膈": 7406,
      "膊": 7407,
      "膏": 7408,
      "膑": 7409,
      "膘": 7410,
      "膛": 7411,
      "膜": 7412,
      "膝": 7413,
      "膦": 7414,
      "膨": 7415,
      "膳": 7416,
      "膺": 7417,
      "膻": 7418,
      "膽": 7419,
      "臀": 7420,
      "臂": 7421,
      "臃": 7422,
      "臆": 7423,
      "臉": 7424,
      "臊": 7425,
      "臌": 7426,
      "臜": 7427,
      "臣": 7428,
      "臧": 7429,
      "自": 7430,
      "臬": 7431,
      "臭": 7432,
      "至": 7433,
      "致": 7434,
      "臻": 7435,
      "臼": 7436,
      "臾": 7437,
      "舀": 7438,
      "舁": 7439,
      "舂": 7440,
      "舄": 7441,
      "舅": 7442,
      "舆": 7443,
      "與": 7444,
      "興": 7445,
      "舊": 7446,
      "舌": 7447,
      "舍": 7448,
      "舐": 7449,
      "舒": 7450,
      "舔": 7451,
      "舖": 7452,
      "舛": 7453,
      "舜": 7454,
      "舞": 7455,
      "舟": 7456,
      "舡": 7457,
      "舢": 7458,
      "舨": 7459,
      "航": 7460,
      "舫": 7461,
      "般": 7462,
      "舰": 7463,
      "舱": 7464,
      "舳": 7465,
      "舴": 7466,
      "舵": 7467,
      "舶": 7468,
      "舷": 7469,
      "舸": 7470,
      "船": 7471,
      "舻": 7472,
      "艄": 7473,
      "艇": 7474,
      "艉": 7475,
      "艋": 7476,
      "艏": 7477,
      "艘": 7478,
      "艮": 7479,
      "良": 7480,
      "艰": 7481,
      "艱": 7482,
      "色": 7483,
      "艳": 7484,
      "艹": 7485,
      "艺": 7486,
      "艾": 7487,
      "艿": 7488,
      "节": 7489,
      "芃": 7490,
      "芄": 7491,
      "芈": 7492,
      "芊": 7493,
      "芋": 7494,
      "芍": 7495,
      "芎": 7496,
      "芒": 7497,
      "芘": 7498,
      "芙": 7499,
      "芜": 7500,
      "芝": 7501,
      "芡": 7502,
      "芣": 7503,
      "芥": 7504,
      "芦": 7505,
      "芧": 7506,
      "芨": 7507,
      "芩": 7508,
      "芪": 7509,
      "芫": 7510,
      "芬": 7511,
      "芭": 7512,
      "芮": 7513,
      "芯": 7514,
      "芰": 7515,
      "花": 7516,
      "芳": 7517,
      "芴": 7518,
      "芷": 7519,
      "芸": 7520,
      "芹": 7521,
      "芼": 7522,
      "芽": 7523,
      "芾": 7524,
      "苁": 7525,
      "苄": 7526,
      "苇": 7527,
      "苈": 7528,
      "苋": 7529,
      "苌": 7530,
      "苍": 7531,
      "苎": 7532,
      "苏": 7533,
      "苑": 7534,
      "苒": 7535,
      "苓": 7536,
      "苔": 7537,
      "苕": 7538,
      "苗": 7539,
      "苘": 7540,
      "苛": 7541,
      "苜": 7542,
      "苞": 7543,
      "苟": 7544,
      "苡": 7545,
      "苢": 7546,
      "苣": 7547,
      "苤": 7548,
      "若": 7549,
      "苦": 7550,
      "苧": 7551,
      "苫": 7552,
      "苯": 7553,
      "英": 7554,
      "苲": 7555,
      "苴": 7556,
      "苷": 7557,
      "苹": 7558,
      "苻": 7559,
      "茁": 7560,
      "茂": 7561,
      "范": 7562,
      "茄": 7563,
      "茅": 7564,
      "茆": 7565,
      "茉": 7566,
      "茌": 7567,
      "茍": 7568,
      "茎": 7569,
      "茏": 7570,
      "茔": 7571,
      "茕": 7572,
      "茗": 7573,
      "茚": 7574,
      "茛": 7575,
      "茜": 7576,
      "茧": 7577,
      "茨": 7578,
      "茫": 7579,
      "茬": 7580,
      "茭": 7581,
      "茯": 7582,
      "茱": 7583,
      "茴": 7584,
      "茵": 7585,
      "茶": 7586,
      "茷": 7587,
      "茸": 7588,
      "茹": 7589,
      "茼": 7590,
      "荀": 7591,
      "荃": 7592,
      "荅": 7593,
      "荆": 7594,
      "荇": 7595,
      "草": 7596,
      "荏": 7597,
      "荐": 7598,
      "荑": 7599,
      "荒": 7600,
      "荔": 7601,
      "荖": 7602,
      "荘": 7603,
      "荚": 7604,
      "荛": 7605,
      "荜": 7606,
      "荞": 7607,
      "荟": 7608,
      "荠": 7609,
      "荡": 7610,
      "荣": 7611,
      "荤": 7612,
      "荥": 7613,
      "荦": 7614,
      "荧": 7615,
      "荨": 7616,
      "荩": 7617,
      "荪": 7618,
      "荫": 7619,
      "药": 7620,
      "荳": 7621,
      "荷": 7622,
      "荸": 7623,
      "荻": 7624,
      "荼": 7625,
      "荽": 7626,
      "莅": 7627,
      "莆": 7628,
      "莉": 7629,
      "莊": 7630,
      "莎": 7631,
      "莑": 7632,
      "莒": 7633,
      "莓": 7634,
      "莘": 7635,
      "莜": 7636,
      "莞": 7637,
      "莠": 7638,
      "莨": 7639,
      "莩": 7640,
      "莪": 7641,
      "莫": 7642,
      "莱": 7643,
      "莲": 7644,
      "莳": 7645,
      "莴": 7646,
      "获": 7647,
      "莸": 7648,
      "莹": 7649,
      "莺": 7650,
      "莽": 7651,
      "菀": 7652,
      "菁": 7653,
      "菅": 7654,
      "菇": 7655,
      "菊": 7656,
      "菋": 7657,
      "菌": 7658,
      "菏": 7659,
      "菑": 7660,
      "菔": 7661,
      "菖": 7662,
      "菘": 7663,
      "菜": 7664,
      "菟": 7665,
      "菠": 7666,
      "菡": 7667,
      "菩": 7668,
      "菪": 7669,
      "華": 7670,
      "菰": 7671,
      "菱": 7672,
      "菲": 7673,
      "菸": 7674,
      "菹": 7675,
      "菽": 7676,
      "萁": 7677,
      "萃": 7678,
      "萄": 7679,
      "萊": 7680,
      "萋": 7681,
      "萌": 7682,
      "萍": 7683,
      "萎": 7684,
      "萏": 7685,
      "萑": 7686,
      "萘": 7687,
      "萜": 7688,
      "萝": 7689,
      "萡": 7690,
      "萤": 7691,
      "营": 7692,
      "萦": 7693,
      "萧": 7694,
      "萨": 7695,
      "萩": 7696,
      "萬": 7697,
      "萱": 7698,
      "萸": 7699,
      "萼": 7700,
      "落": 7701,
      "葁": 7702,
      "葆": 7703,
      "葉": 7704,
      "葎": 7705,
      "葑": 7706,
      "葖": 7707,
      "著": 7708,
      "葚": 7709,
      "葛": 7710,
      "葡": 7711,
      "董": 7712,
      "葩": 7713,
      "葫": 7714,
      "葬": 7715,
      "葭": 7716,
      "葱": 7717,
      "葳": 7718,
      "葵": 7719,
      "葺": 7720,
      "蒂": 7721,
      "蒋": 7722,
      "蒌": 7723,
      "蒖": 7724,
      "蒙": 7725,
      "蒜": 7726,
      "蒡": 7727,
      "蒯": 7728,
      "蒱": 7729,
      "蒲": 7730,
      "蒴": 7731,
      "蒸": 7732,
      "蒹": 7733,
      "蒺": 7734,
      "蒼": 7735,
      "蒽": 7736,
      "蒿": 7737,
      "蓁": 7738,
      "蓄": 7739,
      "蓆": 7740,
      "蓇": 7741,
      "蓉": 7742,
      "蓊": 7743,
      "蓋": 7744,
      "蓍": 7745,
      "蓐": 7746,
      "蓑": 7747,
      "蓓": 7748,
      "蓖": 7749,
      "蓝": 7750,
      "蓞": 7751,
      "蓟": 7752,
      "蓠": 7753,
      "蓥": 7754,
      "蓦": 7755,
      "蓬": 7756,
      "蓴": 7757,
      "蓺": 7758,
      "蓼": 7759,
      "蓿": 7760,
      "蔌": 7761,
      "蔑": 7762,
      "蔓": 7763,
      "蔗": 7764,
      "蔘": 7765,
      "蔚": 7766,
      "蔡": 7767,
      "蔥": 7768,
      "蔫": 7769,
      "蔬": 7770,
      "蔭": 7771,
      "蔵": 7772,
      "蔷": 7773,
      "蔸": 7774,
      "蔹": 7775,
      "蔺": 7776,
      "蔻": 7777,
      "蔼": 7778,
      "蔽": 7779,
      "蕃": 7780,
      "蕈": 7781,
      "蕉": 7782,
      "蕊": 7783,
      "蕖": 7784,
      "蕙": 7785,
      "蕡": 7786,
      "蕤": 7787,
      "蕨": 7788,
      "蕩": 7789,
      "蕲": 7790,
      "蕴": 7791,
      "蕺": 7792,
      "蕻": 7793,
      "蕾": 7794,
      "薄": 7795,
      "薅": 7796,
      "薇": 7797,
      "薏": 7798,
      "薛": 7799,
      "薜": 7800,
      "薠": 7801,
      "薤": 7802,
      "薨": 7803,
      "薩": 7804,
      "薪": 7805,
      "薮": 7806,
      "薯": 7807,
      "薰": 7808,
      "薷": 7809,
      "薹": 7810,
      "藁": 7811,
      "藉": 7812,
      "藍": 7813,
      "藏": 7814,
      "藐": 7815,
      "藓": 7816,
      "藕": 7817,
      "藜": 7818,
      "藤": 7819,
      "藩": 7820,
      "藴": 7821,
      "藻": 7822,
      "藿": 7823,
      "蘅": 7824,
      "蘋": 7825,
      "蘑": 7826,
      "蘖": 7827,
      "蘩": 7828,
      "蘭": 7829,
      "蘸": 7830,
      "蘼": 7831,
      "虍": 7832,
      "虎": 7833,
      "虏": 7834,
      "虐": 7835,
      "虑": 7836,
      "虔": 7837,
      "處": 7838,
      "虚": 7839,
      "虛": 7840,
      "虞": 7841,
      "號": 7842,
      "虢": 7843,
      "虫": 7844,
      "虬": 7845,
      "虱": 7846,
      "虹": 7847,
      "虺": 7848,
      "虻": 7849,
      "虽": 7850,
      "虾": 7851,
      "虿": 7852,
      "蚀": 7853,
      "蚁": 7854,
      "蚂": 7855,
      "蚊": 7856,
      "蚋": 7857,
      "蚌": 7858,
      "蚓": 7859,
      "蚕": 7860,
      "蚜": 7861,
      "蚝": 7862,
      "蚠": 7863,
      "蚡": 7864,
      "蚣": 7865,
      "蚤": 7866,
      "蚧": 7867,
      "蚨": 7868,
      "蚩": 7869,
      "蚪": 7870,
      "蚬": 7871,
      "蚯": 7872,
      "蚰": 7873,
      "蚱": 7874,
      "蚴": 7875,
      "蚵": 7876,
      "蚶": 7877,
      "蚹": 7878,
      "蛀": 7879,
      "蛄": 7880,
      "蛆": 7881,
      "蛇": 7882,
      "蛈": 7883,
      "蛉": 7884,
      "蛊": 7885,
      "蛋": 7886,
      "蛎": 7887,
      "蛏": 7888,
      "蛐": 7889,
      "蛑": 7890,
      "蛔": 7891,
      "蛙": 7892,
      "蛛": 7893,
      "蛞": 7894,
      "蛟": 7895,
      "蛤": 7896,
      "蛩": 7897,
      "蛭": 7898,
      "蛮": 7899,
      "蛰": 7900,
      "蛱": 7901,
      "蛲": 7902,
      "蛳": 7903,
      "蛴": 7904,
      "蛸": 7905,
      "蛹": 7906,
      "蛾": 7907,
      "蜀": 7908,
      "蜂": 7909,
      "蜃": 7910,
      "蜇": 7911,
      "蜈": 7912,
      "蜉": 7913,
      "蜊": 7914,
      "蜍": 7915,
      "蜒": 7916,
      "蜓": 7917,
      "蜕": 7918,
      "蜗": 7919,
      "蜘": 7920,
      "蜚": 7921,
      "蜜": 7922,
      "蜡": 7923,
      "蜢": 7924,
      "蜣": 7925,
      "蜥": 7926,
      "蜩": 7927,
      "蜮": 7928,
      "蜴": 7929,
      "蜷": 7930,
      "蜻": 7931,
      "蜼": 7932,
      "蜿": 7933,
      "蝇": 7934,
      "蝈": 7935,
      "蝉": 7936,
      "蝌": 7937,
      "蝎": 7938,
      "蝓": 7939,
      "蝗": 7940,
      "蝙": 7941,
      "蝠": 7942,
      "蝣": 7943,
      "蝤": 7944,
      "蝥": 7945,
      "蝮": 7946,
      "蝰": 7947,
      "蝴": 7948,
      "蝶": 7949,
      "蝸": 7950,
      "蝻": 7951,
      "蝼": 7952,
      "蝽": 7953,
      "蝾": 7954,
      "螂": 7955,
      "螃": 7956,
      "螅": 7957,
      "螈": 7958,
      "螋": 7959,
      "融": 7960,
      "螓": 7961,
      "螟": 7962,
      "螣": 7963,
      "螨": 7964,
      "螫": 7965,
      "螬": 7966,
      "螭": 7967,
      "螯": 7968,
      "螳": 7969,
      "螵": 7970,
      "螺": 7971,
      "螾": 7972,
      "蟀": 7973,
      "蟆": 7974,
      "蟊": 7975,
      "蟋": 7976,
      "蟑": 7977,
      "蟒": 7978,
      "蟜": 7979,
      "蟠": 7980,
      "蟥": 7981,
      "蟦": 7982,
      "蟪": 7983,
      "蟮": 7984,
      "蟲": 7985,
      "蟹": 7986,
      "蟺": 7987,
      "蟾": 7988,
      "蠃": 7989,
      "蠋": 7990,
      "蠕": 7991,
      "蠖": 7992,
      "蠟": 7993,
      "蠡": 7994,
      "蠢": 7995,
      "蠵": 7996,
      "蠹": 7997,
      "蠼": 7998,
      "血": 7999,
      "衅": 8000,
      "行": 8001,
      "衍": 8002,
      "術": 8003,
      "衔": 8004,
      "街": 8005,
      "衙": 8006,
      "衛": 8007,
      "衝": 8008,
      "衡": 8009,
      "衢": 8010,
      "衣": 8011,
      "衤": 8012,
      "补": 8013,
      "表": 8014,
      "衩": 8015,
      "衫": 8016,
      "衬": 8017,
      "衮": 8018,
      "衰": 8019,
      "衲": 8020,
      "衷": 8021,
      "衹": 8022,
      "衽": 8023,
      "衾": 8024,
      "衿": 8025,
      "袁": 8026,
      "袂": 8027,
      "袄": 8028,
      "袅": 8029,
      "袆": 8030,
      "袈": 8031,
      "袋": 8032,
      "袍": 8033,
      "袒": 8034,
      "袓": 8035,
      "袖": 8036,
      "袜": 8037,
      "袢": 8038,
      "袤": 8039,
      "袪": 8040,
      "被": 8041,
      "袭": 8042,
      "袱": 8043,
      "袴": 8044,
      "袷": 8045,
      "袺": 8046,
      "袼": 8047,
      "袿": 8048,
      "裀": 8049,
      "裁": 8050,
      "裂": 8051,
      "装": 8052,
      "裆": 8053,
      "裉": 8054,
      "裌": 8055,
      "裏": 8056,
      "裒": 8057,
      "裔": 8058,
      "裕": 8059,
      "裘": 8060,
      "裙": 8061,
      "補": 8062,
      "裝": 8063,
      "裟": 8064,
      "裡": 8065,
      "裢": 8066,
      "裣": 8067,
      "裤": 8068,
      "裥": 8069,
      "裨": 8070,
      "裰": 8071,
      "裱": 8072,
      "裳": 8073,
      "裴": 8074,
      "裸": 8075,
      "裹": 8076,
      "裼": 8077,
      "製": 8078,
      "裾": 8079,
      "褂": 8080,
      "褋": 8081,
      "褐": 8082,
      "褒": 8083,
      "褓": 8084,
      "褔": 8085,
      "褙": 8086,
      "褚": 8087,
      "褛": 8088,
      "褡": 8089,
      "褥": 8090,
      "褪": 8091,
      "褫": 8092,
      "褰": 8093,
      "褴": 8094,
      "褶": 8095,
      "襁": 8096,
      "襄": 8097,
      "襜": 8098,
      "襞": 8099,
      "襟": 8100,
      "襦": 8101,
      "襻": 8102,
      "西": 8103,
      "要": 8104,
      "覃": 8105,
      "覆": 8106,
      "見": 8107,
      "規": 8108,
      "視": 8109,
      "親": 8110,
      "観": 8111,
      "覺": 8112,
      "见": 8113,
      "观": 8114,
      "规": 8115,
      "觅": 8116,
      "视": 8117,
      "觇": 8118,
      "览": 8119,
      "觉": 8120,
      "觊": 8121,
      "觌": 8122,
      "觍": 8123,
      "觎": 8124,
      "觐": 8125,
      "觑": 8126,
      "角": 8127,
      "觚": 8128,
      "觞": 8129,
      "解": 8130,
      "觥": 8131,
      "触": 8132,
      "觯": 8133,
      "觽": 8134,
      "觿": 8135,
      "言": 8136,
      "訇": 8137,
      "計": 8138,
      "討": 8139,
      "訓": 8140,
      "記": 8141,
      "訚": 8142,
      "訞": 8143,
      "訢": 8144,
      "訣": 8145,
      "許": 8146,
      "訴": 8147,
      "註": 8148,
      "訾": 8149,
      "詈": 8150,
      "詝": 8151,
      "試": 8152,
      "詨": 8153,
      "詩": 8154,
      "詭": 8155,
      "話": 8156,
      "該": 8157,
      "詹": 8158,
      "誉": 8159,
      "誊": 8160,
      "誌": 8161,
      "認": 8162,
      "誎": 8163,
      "誓": 8164,
      "誘": 8165,
      "語": 8166,
      "誠": 8167,
      "說": 8168,
      "誰": 8169,
      "課": 8170,
      "調": 8171,
      "談": 8172,
      "請": 8173,
      "諌": 8174,
      "諒": 8175,
      "論": 8176,
      "諲": 8177,
      "諳": 8178,
      "諾": 8179,
      "謇": 8180,
      "謊": 8181,
      "謋": 8182,
      "謎": 8183,
      "謚": 8184,
      "講": 8185,
      "謝": 8186,
      "謟": 8187,
      "謡": 8188,
      "譓": 8189,
      "識": 8190,
      "譜": 8191,
      "譞": 8192,
      "警": 8193,
      "譬": 8194,
      "護": 8195,
      "讀": 8196,
      "變": 8197,
      "讌": 8198,
      "讓": 8199,
      "讙": 8200,
      "讠": 8201,
      "计": 8202,
      "订": 8203,
      "讣": 8204,
      "认": 8205,
      "讥": 8206,
      "讦": 8207,
      "讧": 8208,
      "讨": 8209,
      "让": 8210,
      "讪": 8211,
      "讫": 8212,
      "讬": 8213,
      "训": 8214,
      "议": 8215,
      "讯": 8216,
      "记": 8217,
      "讱": 8218,
      "讲": 8219,
      "讳": 8220,
      "讴": 8221,
      "讵": 8222,
      "讶": 8223,
      "讷": 8224,
      "许": 8225,
      "讹": 8226,
      "论": 8227,
      "讼": 8228,
      "讽": 8229,
      "设": 8230,
      "访": 8231,
      "诀": 8232,
      "证": 8233,
      "诂": 8234,
      "诃": 8235,
      "评": 8236,
      "诅": 8237,
      "识": 8238,
      "诈": 8239,
      "诉": 8240,
      "诊": 8241,
      "诋": 8242,
      "诌": 8243,
      "词": 8244,
      "诎": 8245,
      "诏": 8246,
      "译": 8247,
      "诒": 8248,
      "诓": 8249,
      "诔": 8250,
      "试": 8251,
      "诗": 8252,
      "诘": 8253,
      "诙": 8254,
      "诚": 8255,
      "诛": 8256,
      "诜": 8257,
      "话": 8258,
      "诞": 8259,
      "诟": 8260,
      "诠": 8261,
      "诡": 8262,
      "询": 8263,
      "诣": 8264,
      "诤": 8265,
      "该": 8266,
      "详": 8267,
      "诧": 8268,
      "诨": 8269,
      "诩": 8270,
      "诫": 8271,
      "诬": 8272,
      "语": 8273,
      "诮": 8274,
      "误": 8275,
      "诰": 8276,
      "诱": 8277,
      "诲": 8278,
      "诳": 8279,
      "说": 8280,
      "诵": 8281,
      "诶": 8282,
      "请": 8283,
      "诸": 8284,
      "诹": 8285,
      "诺": 8286,
      "读": 8287,
      "诼": 8288,
      "诽": 8289,
      "课": 8290,
      "诿": 8291,
      "谀": 8292,
      "谁": 8293,
      "谂": 8294,
      "调": 8295,
      "谄": 8296,
      "谅": 8297,
      "谆": 8298,
      "谇": 8299,
      "谈": 8300,
      "谊": 8301,
      "谋": 8302,
      "谌": 8303,
      "谍": 8304,
      "谎": 8305,
      "谏": 8306,
      "谐": 8307,
      "谑": 8308,
      "谒": 8309,
      "谓": 8310,
      "谔": 8311,
      "谕": 8312,
      "谖": 8313,
      "谗": 8314,
      "谘": 8315,
      "谙": 8316,
      "谚": 8317,
      "谛": 8318,
      "谜": 8319,
      "谝": 8320,
      "谟": 8321,
      "谠": 8322,
      "谡": 8323,
      "谢": 8324,
      "谣": 8325,
      "谤": 8326,
      "谥": 8327,
      "谦": 8328,
      "谧": 8329,
      "谨": 8330,
      "谩": 8331,
      "谪": 8332,
      "谬": 8333,
      "谭": 8334,
      "谮": 8335,
      "谯": 8336,
      "谰": 8337,
      "谱": 8338,
      "谲": 8339,
      "谳": 8340,
      "谴": 8341,
      "谵": 8342,
      "谶": 8343,
      "谷": 8344,
      "谿": 8345,
      "豁": 8346,
      "豆": 8347,
      "豇": 8348,
      "豉": 8349,
      "豊": 8350,
      "豌": 8351,
      "豐": 8352,
      "豕": 8353,
      "豖": 8354,
      "豗": 8355,
      "豚": 8356,
      "象": 8357,
      "豢": 8358,
      "豪": 8359,
      "豫": 8360,
      "豬": 8361,
      "豳": 8362,
      "豸": 8363,
      "豹": 8364,
      "豺": 8365,
      "貂": 8366,
      "貅": 8367,
      "貉": 8368,
      "貌": 8369,
      "貎": 8370,
      "貐": 8371,
      "貓": 8372,
      "貔": 8373,
      "貘": 8374,
      "貙": 8375,
      "貝": 8376,
      "貨": 8377,
      "販": 8378,
      "貪": 8379,
      "貴": 8380,
      "貶": 8381,
      "買": 8382,
      "貼": 8383,
      "賀": 8384,
      "資": 8385,
      "賜": 8386,
      "賠": 8387,
      "賣": 8388,
      "賦": 8389,
      "賬": 8390,
      "賴": 8391,
      "賺": 8392,
      "賽": 8393,
      "贏": 8394,
      "贛": 8395,
      "贝": 8396,
      "贞": 8397,
      "负": 8398,
      "贡": 8399,
      "财": 8400,
      "责": 8401,
      "贤": 8402,
      "败": 8403,
      "账": 8404,
      "货": 8405,
      "质": 8406,
      "贩": 8407,
      "贪": 8408,
      "贫": 8409,
      "贬": 8410,
      "购": 8411,
      "贮": 8412,
      "贯": 8413,
      "贰": 8414,
      "贱": 8415,
      "贲": 8416,
      "贳": 8417,
      "贴": 8418,
      "贵": 8419,
      "贶": 8420,
      "贷": 8421,
      "贸": 8422,
      "费": 8423,
      "贺": 8424,
      "贻": 8425,
      "贼": 8426,
      "贽": 8427,
      "贾": 8428,
      "贿": 8429,
      "赀": 8430,
      "赁": 8431,
      "赂": 8432,
      "赃": 8433,
      "资": 8434,
      "赅": 8435,
      "赈": 8436,
      "赉": 8437,
      "赊": 8438,
      "赋": 8439,
      "赌": 8440,
      "赍": 8441,
      "赎": 8442,
      "赏": 8443,
      "赐": 8444,
      "赑": 8445,
      "赓": 8446,
      "赔": 8447,
      "赕": 8448,
      "赖": 8449,
      "赘": 8450,
      "赙": 8451,
      "赚": 8452,
      "赛": 8453,
      "赝": 8454,
      "赞": 8455,
      "赟": 8456,
      "赠": 8457,
      "赡": 8458,
      "赢": 8459,
      "赣": 8460,
      "赤": 8461,
      "赦": 8462,
      "赧": 8463,
      "赩": 8464,
      "赪": 8465,
      "赫": 8466,
      "赭": 8467,
      "走": 8468,
      "赳": 8469,
      "赴": 8470,
      "赵": 8471,
      "赶": 8472,
      "起": 8473,
      "赿": 8474,
      "趁": 8475,
      "趄": 8476,
      "超": 8477,
      "越": 8478,
      "趋": 8479,
      "趑": 8480,
      "趔": 8481,
      "趕": 8482,
      "趙": 8483,
      "趟": 8484,
      "趣": 8485,
      "足": 8486,
      "趴": 8487,
      "趵": 8488,
      "趸": 8489,
      "趺": 8490,
      "趼": 8491,
      "趾": 8492,
      "趿": 8493,
      "跂": 8494,
      "跃": 8495,
      "跄": 8496,
      "跆": 8497,
      "跋": 8498,
      "跌": 8499,
      "跎": 8500,
      "跏": 8501,
      "跐": 8502,
      "跑": 8503,
      "跖": 8504,
      "跗": 8505,
      "跘": 8506,
      "跚": 8507,
      "跛": 8508,
      "距": 8509,
      "跞": 8510,
      "跟": 8511,
      "跡": 8512,
      "跣": 8513,
      "跤": 8514,
      "跨": 8515,
      "跩": 8516,
      "跪": 8517,
      "跫": 8518,
      "跬": 8519,
      "路": 8520,
      "跳": 8521,
      "践": 8522,
      "跶": 8523,
      "跷": 8524,
      "跸": 8525,
      "跹": 8526,
      "跺": 8527,
      "跻": 8528,
      "跽": 8529,
      "踅": 8530,
      "踉": 8531,
      "踊": 8532,
      "踌": 8533,
      "踏": 8534,
      "踝": 8535,
      "踞": 8536,
      "踟": 8537,
      "踡": 8538,
      "踢": 8539,
      "踣": 8540,
      "踦": 8541,
      "踩": 8542,
      "踪": 8543,
      "踫": 8544,
      "踬": 8545,
      "踮": 8546,
      "踯": 8547,
      "踰": 8548,
      "踱": 8549,
      "踵": 8550,
      "踹": 8551,
      "踺": 8552,
      "踼": 8553,
      "踽": 8554,
      "蹀": 8555,
      "蹁": 8556,
      "蹂": 8557,
      "蹄": 8558,
      "蹇": 8559,
      "蹈": 8560,
      "蹉": 8561,
      "蹊": 8562,
      "蹋": 8563,
      "蹑": 8564,
      "蹒": 8565,
      "蹓": 8566,
      "蹙": 8567,
      "蹚": 8568,
      "蹞": 8569,
      "蹤": 8570,
      "蹦": 8571,
      "蹩": 8572,
      "蹬": 8573,
      "蹭": 8574,
      "蹯": 8575,
      "蹰": 8576,
      "蹲": 8577,
      "蹴": 8578,
      "蹶": 8579,
      "蹼": 8580,
      "蹿": 8581,
      "躁": 8582,
      "躅": 8583,
      "躇": 8584,
      "躍": 8585,
      "躏": 8586,
      "躐": 8587,
      "躞": 8588,
      "身": 8589,
      "躬": 8590,
      "躯": 8591,
      "躲": 8592,
      "躺": 8593,
      "車": 8594,
      "軍": 8595,
      "軎": 8596,
      "軏": 8597,
      "較": 8598,
      "載": 8599,
      "輕": 8600,
      "輗": 8601,
      "輛": 8602,
      "輪": 8603,
      "輮": 8604,
      "輶": 8605,
      "輸": 8606,
      "轆": 8607,
      "轜": 8608,
      "车": 8609,
      "轧": 8610,
      "轨": 8611,
      "轩": 8612,
      "转": 8613,
      "轭": 8614,
      "轮": 8615,
      "软": 8616,
      "轰": 8617,
      "轱": 8618,
      "轲": 8619,
      "轳": 8620,
      "轴": 8621,
      "轶": 8622,
      "轸": 8623,
      "轺": 8624,
      "轻": 8625,
      "轼": 8626,
      "载": 8627,
      "轾": 8628,
      "轿": 8629,
      "辀": 8630,
      "辂": 8631,
      "较": 8632,
      "辄": 8633,
      "辅": 8634,
      "辆": 8635,
      "辇": 8636,
      "辈": 8637,
      "辉": 8638,
      "辊": 8639,
      "辋": 8640,
      "辍": 8641,
      "辎": 8642,
      "辏": 8643,
      "辐": 8644,
      "辑": 8645,
      "输": 8646,
      "辔": 8647,
      "辕": 8648,
      "辖": 8649,
      "辗": 8650,
      "辘": 8651,
      "辙": 8652,
      "辚": 8653,
      "辛": 8654,
      "辜": 8655,
      "辞": 8656,
      "辟": 8657,
      "辣": 8658,
      "辦": 8659,
      "辧": 8660,
      "辨": 8661,
      "辩": 8662,
      "辫": 8663,
      "辰": 8664,
      "辱": 8665,
      "農": 8666,
      "辶": 8667,
      "边": 8668,
      "辽": 8669,
      "达": 8670,
      "迁": 8671,
      "迂": 8672,
      "迄": 8673,
      "迅": 8674,
      "过": 8675,
      "迈": 8676,
      "迎": 8677,
      "运": 8678,
      "近": 8679,
      "迓": 8680,
      "返": 8681,
      "迖": 8682,
      "还": 8683,
      "这": 8684,
      "进": 8685,
      "远": 8686,
      "违": 8687,
      "连": 8688,
      "迟": 8689,
      "迢": 8690,
      "迤": 8691,
      "迥": 8692,
      "迦": 8693,
      "迨": 8694,
      "迩": 8695,
      "迪": 8696,
      "迫": 8697,
      "迭": 8698,
      "述": 8699,
      "迳": 8700,
      "迴": 8701,
      "迷": 8702,
      "迸": 8703,
      "迹": 8704,
      "追": 8705,
      "退": 8706,
      "送": 8707,
      "适": 8708,
      "逃": 8709,
      "逄": 8710,
      "逅": 8711,
      "逆": 8712,
      "选": 8713,
      "逊": 8714,
      "逋": 8715,
      "逍": 8716,
      "透": 8717,
      "逐": 8718,
      "逑": 8719,
      "递": 8720,
      "途": 8721,
      "逖": 8722,
      "逗": 8723,
      "這": 8724,
      "通": 8725,
      "逛": 8726,
      "逝": 8727,
      "逞": 8728,
      "速": 8729,
      "造": 8730,
      "逡": 8731,
      "逢": 8732,
      "連": 8733,
      "逦": 8734,
      "逮": 8735,
      "週": 8736,
      "進": 8737,
      "逵": 8738,
      "逶": 8739,
      "逸": 8740,
      "逻": 8741,
      "逼": 8742,
      "逾": 8743,
      "遁": 8744,
      "遂": 8745,
      "遄": 8746,
      "遇": 8747,
      "遊": 8748,
      "運": 8749,
      "遍": 8750,
      "過": 8751,
      "遏": 8752,
      "遐": 8753,
      "遑": 8754,
      "遒": 8755,
      "道": 8756,
      "達": 8757,
      "遗": 8758,
      "遛": 8759,
      "遜": 8760,
      "遠": 8761,
      "遢": 8762,
      "遣": 8763,
      "遥": 8764,
      "遨": 8765,
      "適": 8766,
      "遭": 8767,
      "遮": 8768,
      "遴": 8769,
      "遵": 8770,
      "選": 8771,
      "遹": 8772,
      "遺": 8773,
      "遽": 8774,
      "避": 8775,
      "邀": 8776,
      "邂": 8777,
      "邃": 8778,
      "還": 8779,
      "邈": 8780,
      "邊": 8781,
      "邋": 8782,
      "邑": 8783,
      "邓": 8784,
      "邕": 8785,
      "邗": 8786,
      "邙": 8787,
      "邛": 8788,
      "邝": 8789,
      "邠": 8790,
      "邡": 8791,
      "邢": 8792,
      "那": 8793,
      "邦": 8794,
      "邪": 8795,
      "邬": 8796,
      "邮": 8797,
      "邯": 8798,
      "邰": 8799,
      "邱": 8800,
      "邳": 8801,
      "邵": 8802,
      "邶": 8803,
      "邸": 8804,
      "邹": 8805,
      "邺": 8806,
      "邻": 8807,
      "邽": 8808,
      "邾": 8809,
      "郁": 8810,
      "郄": 8811,
      "郅": 8812,
      "郇": 8813,
      "郊": 8814,
      "郎": 8815,
      "郑": 8816,
      "郓": 8817,
      "郗": 8818,
      "郜": 8819,
      "郝": 8820,
      "郞": 8821,
      "郡": 8822,
      "郢": 8823,
      "郤": 8824,
      "郦": 8825,
      "郧": 8826,
      "部": 8827,
      "郪": 8828,
      "郫": 8829,
      "郭": 8830,
      "郯": 8831,
      "郴": 8832,
      "郸": 8833,
      "都": 8834,
      "郾": 8835,
      "郿": 8836,
      "鄂": 8837,
      "鄃": 8838,
      "鄉": 8839,
      "鄐": 8840,
      "鄙": 8841,
      "鄚": 8842,
      "鄜": 8843,
      "鄞": 8844,
      "鄠": 8845,
      "鄢": 8846,
      "鄣": 8847,
      "鄮": 8848,
      "鄯": 8849,
      "鄰": 8850,
      "鄱": 8851,
      "酂": 8852,
      "酉": 8853,
      "酊": 8854,
      "酋": 8855,
      "酌": 8856,
      "配": 8857,
      "酎": 8858,
      "酐": 8859,
      "酒": 8860,
      "酖": 8861,
      "酗": 8862,
      "酚": 8863,
      "酝": 8864,
      "酞": 8865,
      "酡": 8866,
      "酢": 8867,
      "酣": 8868,
      "酥": 8869,
      "酩": 8870,
      "酪": 8871,
      "酬": 8872,
      "酮": 8873,
      "酯": 8874,
      "酰": 8875,
      "酱": 8876,
      "酲": 8877,
      "酵": 8878,
      "酶": 8879,
      "酷": 8880,
      "酸": 8881,
      "酹": 8882,
      "酽": 8883,
      "酾": 8884,
      "酿": 8885,
      "醅": 8886,
      "醇": 8887,
      "醉": 8888,
      "醊": 8889,
      "醋": 8890,
      "醌": 8891,
      "醍": 8892,
      "醐": 8893,
      "醒": 8894,
      "醚": 8895,
      "醛": 8896,
      "醢": 8897,
      "醨": 8898,
      "醪": 8899,
      "醫": 8900,
      "醬": 8901,
      "醭": 8902,
      "醮": 8903,
      "醴": 8904,
      "醵": 8905,
      "醺": 8906,
      "釂": 8907,
      "釆": 8908,
      "采": 8909,
      "釉": 8910,
      "释": 8911,
      "釋": 8912,
      "里": 8913,
      "重": 8914,
      "野": 8915,
      "量": 8916,
      "釐": 8917,
      "金": 8918,
      "釘": 8919,
      "釜": 8920,
      "針": 8921,
      "釣": 8922,
      "釦": 8923,
      "鈅": 8924,
      "鈒": 8925,
      "鈚": 8926,
      "鈡": 8927,
      "鈴": 8928,
      "鉆": 8929,
      "鉦": 8930,
      "鉴": 8931,
      "鉶": 8932,
      "銀": 8933,
      "銑": 8934,
      "銛": 8935,
      "銮": 8936,
      "銶": 8937,
      "鋒": 8938,
      "鋤": 8939,
      "鋪": 8940,
      "錁": 8941,
      "錄": 8942,
      "錉": 8943,
      "錒": 8944,
      "錡": 8945,
      "錢": 8946,
      "錤": 8947,
      "錯": 8948,
      "録": 8949,
      "錾": 8950,
      "鍋": 8951,
      "鍘": 8952,
      "鍛": 8953,
      "鍪": 8954,
      "鎂": 8955,
      "鎏": 8956,
      "鎮": 8957,
      "鎻": 8958,
      "鏈": 8959,
      "鏊": 8960,
      "鏖": 8961,
      "鏮": 8962,
      "鐘": 8963,
      "鐝": 8964,
      "鐲": 8965,
      "鐸": 8966,
      "鐻": 8967,
      "鑒": 8968,
      "鑫": 8969,
      "针": 8970,
      "钉": 8971,
      "钊": 8972,
      "钋": 8973,
      "钌": 8974,
      "钍": 8975,
      "钎": 8976,
      "钏": 8977,
      "钐": 8978,
      "钒": 8979,
      "钓": 8980,
      "钗": 8981,
      "钘": 8982,
      "钙": 8983,
      "钚": 8984,
      "钛": 8985,
      "钜": 8986,
      "钝": 8987,
      "钞": 8988,
      "钟": 8989,
      "钠": 8990,
      "钡": 8991,
      "钢": 8992,
      "钣": 8993,
      "钤": 8994,
      "钥": 8995,
      "钦": 8996,
      "钧": 8997,
      "钨": 8998,
      "钩": 8999,
      "钪": 9000,
      "钫": 9001,
      "钮": 9002,
      "钯": 9003,
      "钰": 9004,
      "钱": 9005,
      "钲": 9006,
      "钳": 9007,
      "钴": 9008,
      "钵": 9009,
      "钹": 9010,
      "钺": 9011,
      "钻": 9012,
      "钼": 9013,
      "钾": 9014,
      "钿": 9015,
      "铀": 9016,
      "铁": 9017,
      "铂": 9018,
      "铃": 9019,
      "铄": 9020,
      "铅": 9021,
      "铆": 9022,
      "铉": 9023,
      "铋": 9024,
      "铍": 9025,
      "铎": 9026,
      "铏": 9027,
      "铐": 9028,
      "铒": 9029,
      "铕": 9030,
      "铖": 9031,
      "铗": 9032,
      "铚": 9033,
      "铛": 9034,
      "铜": 9035,
      "铝": 9036,
      "铞": 9037,
      "铠": 9038,
      "铡": 9039,
      "铢": 9040,
      "铣": 9041,
      "铤": 9042,
      "铦": 9043,
      "铧": 9044,
      "铨": 9045,
      "铩": 9046,
      "铪": 9047,
      "铫": 9048,
      "铬": 9049,
      "铭": 9050,
      "铮": 9051,
      "铯": 9052,
      "铰": 9053,
      "铱": 9054,
      "铲": 9055,
      "铳": 9056,
      "铵": 9057,
      "银": 9058,
      "铷": 9059,
      "铸": 9060,
      "铺": 9061,
      "铻": 9062,
      "铼": 9063,
      "链": 9064,
      "铿": 9065,
      "销": 9066,
      "锁": 9067,
      "锂": 9068,
      "锃": 9069,
      "锄": 9070,
      "锅": 9071,
      "锆": 9072,
      "锇": 9073,
      "锈": 9074,
      "锉": 9075,
      "锋": 9076,
      "锌": 9077,
      "锏": 9078,
      "锐": 9079,
      "锑": 9080,
      "锒": 9081,
      "锔": 9082,
      "锕": 9083,
      "锖": 9084,
      "锗": 9085,
      "错": 9086,
      "锚": 9087,
      "锛": 9088,
      "锜": 9089,
      "锝": 9090,
      "锞": 9091,
      "锟": 9092,
      "锠": 9093,
      "锡": 9094,
      "锢": 9095,
      "锣": 9096,
      "锤": 9097,
      "锥": 9098,
      "锦": 9099,
      "锨": 9100,
      "锬": 9101,
      "锭": 9102,
      "键": 9103,
      "锯": 9104,
      "锰": 9105,
      "锱": 9106,
      "锲": 9107,
      "锵": 9108,
      "锶": 9109,
      "锷": 9110,
      "锸": 9111,
      "锹": 9112,
      "锺": 9113,
      "锻": 9114,
      "锾": 9115,
      "镀": 9116,
      "镁": 9117,
      "镂": 9118,
      "镇": 9119,
      "镉": 9120,
      "镊": 9121,
      "镌": 9122,
      "镍": 9123,
      "镏": 9124,
      "镐": 9125,
      "镑": 9126,
      "镒": 9127,
      "镓": 9128,
      "镔": 9129,
      "镕": 9130,
      "镖": 9131,
      "镙": 9132,
      "镚": 9133,
      "镛": 9134,
      "镜": 9135,
      "镝": 9136,
      "镞": 9137,
      "镠": 9138,
      "镡": 9139,
      "镢": 9140,
      "镣": 9141,
      "镤": 9142,
      "镧": 9143,
      "镨": 9144,
      "镪": 9145,
      "镫": 9146,
      "镬": 9147,
      "镭": 9148,
      "镯": 9149,
      "镰": 9150,
      "镱": 9151,
      "镲": 9152,
      "镳": 9153,
      "镵": 9154,
      "镶": 9155,
      "長": 9156,
      "长": 9157,
      "門": 9158,
      "閉": 9159,
      "開": 9160,
      "閏": 9161,
      "閒": 9162,
      "間": 9163,
      "閟": 9164,
      "関": 9165,
      "閩": 9166,
      "闆": 9167,
      "闇": 9168,
      "闚": 9169,
      "關": 9170,
      "门": 9171,
      "闩": 9172,
      "闪": 9173,
      "闫": 9174,
      "闬": 9175,
      "闭": 9176,
      "问": 9177,
      "闯": 9178,
      "闰": 9179,
      "闱": 9180,
      "闲": 9181,
      "闳": 9182,
      "间": 9183,
      "闵": 9184,
      "闷": 9185,
      "闸": 9186,
      "闹": 9187,
      "闺": 9188,
      "闻": 9189,
      "闼": 9190,
      "闽": 9191,
      "闾": 9192,
      "闿": 9193,
      "阀": 9194,
      "阁": 9195,
      "阂": 9196,
      "阄": 9197,
      "阅": 9198,
      "阆": 9199,
      "阇": 9200,
      "阈": 9201,
      "阉": 9202,
      "阊": 9203,
      "阋": 9204,
      "阌": 9205,
      "阍": 9206,
      "阎": 9207,
      "阏": 9208,
      "阐": 9209,
      "阑": 9210,
      "阒": 9211,
      "阔": 9212,
      "阕": 9213,
      "阖": 9214,
      "阗": 9215,
      "阙": 9216,
      "阚": 9217,
      "阜": 9218,
      "阝": 9219,
      "队": 9220,
      "阡": 9221,
      "阢": 9222,
      "阪": 9223,
      "阮": 9224,
      "阰": 9225,
      "阱": 9226,
      "防": 9227,
      "阳": 9228,
      "阴": 9229,
      "阵": 9230,
      "阶": 9231,
      "阻": 9232,
      "阼": 9233,
      "阽": 9234,
      "阿": 9235,
      "陀": 9236,
      "陂": 9237,
      "附": 9238,
      "际": 9239,
      "陆": 9240,
      "陇": 9241,
      "陈": 9242,
      "陉": 9243,
      "陋": 9244,
      "陌": 9245,
      "降": 9246,
      "陏": 9247,
      "限": 9248,
      "陔": 9249,
      "陕": 9250,
      "陛": 9251,
      "陜": 9252,
      "陝": 9253,
      "陟": 9254,
      "陡": 9255,
      "院": 9256,
      "陣": 9257,
      "除": 9258,
      "陧": 9259,
      "陨": 9260,
      "险": 9261,
      "陪": 9262,
      "陬": 9263,
      "陰": 9264,
      "陲": 9265,
      "陳": 9266,
      "陴": 9267,
      "陵": 9268,
      "陶": 9269,
      "陷": 9270,
      "陽": 9271,
      "隃": 9272,
      "隅": 9273,
      "隆": 9274,
      "隈": 9275,
      "隋": 9276,
      "隍": 9277,
      "随": 9278,
      "隐": 9279,
      "隔": 9280,
      "隗": 9281,
      "隘": 9282,
      "隙": 9283,
      "際": 9284,
      "障": 9285,
      "隟": 9286,
      "隧": 9287,
      "隨": 9288,
      "隰": 9289,
      "隱": 9290,
      "隳": 9291,
      "隴": 9292,
      "隶": 9293,
      "隹": 9294,
      "隻": 9295,
      "隼": 9296,
      "隽": 9297,
      "难": 9298,
      "雀": 9299,
      "雁": 9300,
      "雄": 9301,
      "雅": 9302,
      "集": 9303,
      "雇": 9304,
      "雉": 9305,
      "雌": 9306,
      "雍": 9307,
      "雎": 9308,
      "雏": 9309,
      "雑": 9310,
      "雒": 9311,
      "雕": 9312,
      "雖": 9313,
      "雙": 9314,
      "雞": 9315,
      "雠": 9316,
      "離": 9317,
      "難": 9318,
      "雨": 9319,
      "雩": 9320,
      "雪": 9321,
      "雯": 9322,
      "雲": 9323,
      "雳": 9324,
      "零": 9325,
      "雷": 9326,
      "雹": 9327,
      "電": 9328,
      "雾": 9329,
      "需": 9330,
      "霁": 9331,
      "霄": 9332,
      "霅": 9333,
      "霆": 9334,
      "震": 9335,
      "霈": 9336,
      "霉": 9337,
      "霍": 9338,
      "霎": 9339,
      "霏": 9340,
      "霓": 9341,
      "霖": 9342,
      "霙": 9343,
      "霜": 9344,
      "霞": 9345,
      "霧": 9346,
      "霪": 9347,
      "霭": 9348,
      "霰": 9349,
      "露": 9350,
      "霸": 9351,
      "霹": 9352,
      "霾": 9353,
      "青": 9354,
      "靓": 9355,
      "靖": 9356,
      "静": 9357,
      "靛": 9358,
      "靜": 9359,
      "非": 9360,
      "靠": 9361,
      "靡": 9362,
      "面": 9363,
      "靥": 9364,
      "革": 9365,
      "靬": 9366,
      "靳": 9367,
      "靴": 9368,
      "靶": 9369,
      "靼": 9370,
      "鞅": 9371,
      "鞋": 9372,
      "鞌": 9373,
      "鞍": 9374,
      "鞑": 9375,
      "鞒": 9376,
      "鞓": 9377,
      "鞔": 9378,
      "鞕": 9379,
      "鞘": 9380,
      "鞙": 9381,
      "鞠": 9382,
      "鞣": 9383,
      "鞨": 9384,
      "鞫": 9385,
      "鞭": 9386,
      "鞮": 9387,
      "鞯": 9388,
      "鞲": 9389,
      "鞴": 9390,
      "韓": 9391,
      "韦": 9392,
      "韧": 9393,
      "韩": 9394,
      "韪": 9395,
      "韫": 9396,
      "韬": 9397,
      "韭": 9398,
      "音": 9399,
      "韵": 9400,
      "韶": 9401,
      "韻": 9402,
      "響": 9403,
      "頁": 9404,
      "頂": 9405,
      "項": 9406,
      "須": 9407,
      "頓": 9408,
      "領": 9409,
      "頞": 9410,
      "頫": 9411,
      "頭": 9412,
      "頸": 9413,
      "顆": 9414,
      "題": 9415,
      "顏": 9416,
      "顗": 9417,
      "類": 9418,
      "顠": 9419,
      "顧": 9420,
      "页": 9421,
      "顶": 9422,
      "顷": 9423,
      "顸": 9424,
      "项": 9425,
      "顺": 9426,
      "须": 9427,
      "顼": 9428,
      "顽": 9429,
      "顾": 9430,
      "顿": 9431,
      "颀": 9432,
      "颁": 9433,
      "颂": 9434,
      "颃": 9435,
      "预": 9436,
      "颅": 9437,
      "领": 9438,
      "颇": 9439,
      "颈": 9440,
      "颉": 9441,
      "颊": 9442,
      "颌": 9443,
      "颍": 9444,
      "颏": 9445,
      "颐": 9446,
      "频": 9447,
      "颓": 9448,
      "颔": 9449,
      "颖": 9450,
      "颗": 9451,
      "题": 9452,
      "颙": 9453,
      "颚": 9454,
      "颛": 9455,
      "颜": 9456,
      "额": 9457,
      "颞": 9458,
      "颟": 9459,
      "颠": 9460,
      "颡": 9461,
      "颢": 9462,
      "颤": 9463,
      "颦": 9464,
      "颧": 9465,
      "風": 9466,
      "颩": 9467,
      "飄": 9468,
      "风": 9469,
      "飏": 9470,
      "飐": 9471,
      "飒": 9472,
      "飓": 9473,
      "飔": 9474,
      "飕": 9475,
      "飖": 9476,
      "飘": 9477,
      "飙": 9478,
      "飚": 9479,
      "飛": 9480,
      "飞": 9481,
      "食": 9482,
      "飢": 9483,
      "飧": 9484,
      "飨": 9485,
      "飪": 9486,
      "飯": 9487,
      "飲": 9488,
      "飽": 9489,
      "餅": 9490,
      "養": 9491,
      "餍": 9492,
      "餐": 9493,
      "餓": 9494,
      "館": 9495,
      "餬": 9496,
      "餮": 9497,
      "餵": 9498,
      "饔": 9499,
      "饕": 9500,
      "饘": 9501,
      "饣": 9502,
      "饥": 9503,
      "饧": 9504,
      "饨": 9505,
      "饩": 9506,
      "饪": 9507,
      "饬": 9508,
      "饭": 9509,
      "饮": 9510,
      "饯": 9511,
      "饰": 9512,
      "饱": 9513,
      "饲": 9514,
      "饴": 9515,
      "饵": 9516,
      "饶": 9517,
      "饷": 9518,
      "饸": 9519,
      "饹": 9520,
      "饺": 9521,
      "饼": 9522,
      "饽": 9523,
      "饿": 9524,
      "馀": 9525,
      "馁": 9526,
      "馄": 9527,
      "馅": 9528,
      "馆": 9529,
      "馈": 9530,
      "馊": 9531,
      "馋": 9532,
      "馍": 9533,
      "馏": 9534,
      "馐": 9535,
      "馑": 9536,
      "馒": 9537,
      "馓": 9538,
      "馔": 9539,
      "馕": 9540,
      "首": 9541,
      "馗": 9542,
      "香": 9543,
      "馥": 9544,
      "馨": 9545,
      "馬": 9546,
      "駁": 9547,
      "駹": 9548,
      "騑": 9549,
      "騙": 9550,
      "騨": 9551,
      "騰": 9552,
      "騳": 9553,
      "騾": 9554,
      "驅": 9555,
      "驆": 9556,
      "驕": 9557,
      "驚": 9558,
      "驢": 9559,
      "马": 9560,
      "驭": 9561,
      "驮": 9562,
      "驯": 9563,
      "驰": 9564,
      "驱": 9565,
      "驳": 9566,
      "驴": 9567,
      "驶": 9568,
      "驷": 9569,
      "驸": 9570,
      "驹": 9571,
      "驻": 9572,
      "驼": 9573,
      "驽": 9574,
      "驾": 9575,
      "驿": 9576,
      "骀": 9577,
      "骁": 9578,
      "骂": 9579,
      "骃": 9580,
      "骄": 9581,
      "骅": 9582,
      "骆": 9583,
      "骇": 9584,
      "骈": 9585,
      "骊": 9586,
      "骋": 9587,
      "验": 9588,
      "骏": 9589,
      "骐": 9590,
      "骑": 9591,
      "骒": 9592,
      "骓": 9593,
      "骖": 9594,
      "骗": 9595,
      "骘": 9596,
      "骙": 9597,
      "骚": 9598,
      "骛": 9599,
      "骜": 9600,
      "骝": 9601,
      "骞": 9602,
      "骟": 9603,
      "骠": 9604,
      "骡": 9605,
      "骢": 9606,
      "骤": 9607,
      "骥": 9608,
      "骧": 9609,
      "骨": 9610,
      "骰": 9611,
      "骶": 9612,
      "骷": 9613,
      "骸": 9614,
      "骺": 9615,
      "骼": 9616,
      "髀": 9617,
      "髁": 9618,
      "髂": 9619,
      "髄": 9620,
      "髅": 9621,
      "髋": 9622,
      "髌": 9623,
      "髑": 9624,
      "髓": 9625,
      "體": 9626,
      "高": 9627,
      "髙": 9628,
      "髡": 9629,
      "髦": 9630,
      "髫": 9631,
      "髭": 9632,
      "髮": 9633,
      "髯": 9634,
      "髻": 9635,
      "鬂": 9636,
      "鬃": 9637,
      "鬄": 9638,
      "鬆": 9639,
      "鬈": 9640,
      "鬏": 9641,
      "鬓": 9642,
      "鬚": 9643,
      "鬟": 9644,
      "鬣": 9645,
      "鬧": 9646,
      "鬯": 9647,
      "鬲": 9648,
      "鬶": 9649,
      "鬻": 9650,
      "鬼": 9651,
      "魁": 9652,
      "魂": 9653,
      "魃": 9654,
      "魄": 9655,
      "魅": 9656,
      "魆": 9657,
      "魇": 9658,
      "魈": 9659,
      "魉": 9660,
      "魍": 9661,
      "魎": 9662,
      "魏": 9663,
      "魑": 9664,
      "魔": 9665,
      "魘": 9666,
      "魚": 9667,
      "魟": 9668,
      "魯": 9669,
      "鮄": 9670,
      "鮋": 9671,
      "鮟": 9672,
      "鮣": 9673,
      "鮮": 9674,
      "鯉": 9675,
      "鯊": 9676,
      "鯤": 9677,
      "鰲": 9678,
      "鱂": 9679,
      "鱇": 9680,
      "鱷": 9681,
      "鱼": 9682,
      "鱿": 9683,
      "鲀": 9684,
      "鲁": 9685,
      "鲂": 9686,
      "鲅": 9687,
      "鲇": 9688,
      "鲈": 9689,
      "鲋": 9690,
      "鲍": 9691,
      "鲎": 9692,
      "鲑": 9693,
      "鲔": 9694,
      "鲙": 9695,
      "鲚": 9696,
      "鲛": 9697,
      "鲜": 9698,
      "鲞": 9699,
      "鲟": 9700,
      "鲠": 9701,
      "鲡": 9702,
      "鲢": 9703,
      "鲣": 9704,
      "鲤": 9705,
      "鲦": 9706,
      "鲧": 9707,
      "鲨": 9708,
      "鲩": 9709,
      "鲫": 9710,
      "鲭": 9711,
      "鲮": 9712,
      "鲯": 9713,
      "鲰": 9714,
      "鲱": 9715,
      "鲲": 9716,
      "鲳": 9717,
      "鲵": 9718,
      "鲶": 9719,
      "鲷": 9720,
      "鲸": 9721,
      "鲻": 9722,
      "鲼": 9723,
      "鲽": 9724,
      "鳃": 9725,
      "鳄": 9726,
      "鳅": 9727,
      "鳆": 9728,
      "鳊": 9729,
      "鳌": 9730,
      "鳍": 9731,
      "鳎": 9732,
      "鳏": 9733,
      "鳐": 9734,
      "鳓": 9735,
      "鳔": 9736,
      "鳕": 9737,
      "鳖": 9738,
      "鳗": 9739,
      "鳘": 9740,
      "鳙": 9741,
      "鳜": 9742,
      "鳝": 9743,
      "鳞": 9744,
      "鳟": 9745,
      "鳢": 9746,
      "鳥": 9747,
      "鳾": 9748,
      "鴨": 9749,
      "鴳": 9750,
      "鵬": 9751,
      "鶖": 9752,
      "鷟": 9753,
      "鷹": 9754,
      "鸑": 9755,
      "鸟": 9756,
      "鸠": 9757,
      "鸡": 9758,
      "鸢": 9759,
      "鸣": 9760,
      "鸥": 9761,
      "鸦": 9762,
      "鸧": 9763,
      "鸨": 9764,
      "鸩": 9765,
      "鸪": 9766,
      "鸫": 9767,
      "鸬": 9768,
      "鸭": 9769,
      "鸮": 9770,
      "鸯": 9771,
      "鸱": 9772,
      "鸲": 9773,
      "鸳": 9774,
      "鸵": 9775,
      "鸶": 9776,
      "鸷": 9777,
      "鸸": 9778,
      "鸹": 9779,
      "鸽": 9780,
      "鸾": 9781,
      "鸿": 9782,
      "鹁": 9783,
      "鹂": 9784,
      "鹃": 9785,
      "鹄": 9786,
      "鹅": 9787,
      "鹇": 9788,
      "鹈": 9789,
      "鹉": 9790,
      "鹊": 9791,
      "鹋": 9792,
      "鹌": 9793,
      "鹍": 9794,
      "鹏": 9795,
      "鹐": 9796,
      "鹑": 9797,
      "鹒": 9798,
      "鹓": 9799,
      "鹕": 9800,
      "鹖": 9801,
      "鹗": 9802,
      "鹘": 9803,
      "鹚": 9804,
      "鹜": 9805,
      "鹞": 9806,
      "鹣": 9807,
      "鹤": 9808,
      "鹦": 9809,
      "鹧": 9810,
      "鹩": 9811,
      "鹪": 9812,
      "鹫": 9813,
      "鹬": 9814,
      "鹭": 9815,
      "鹮": 9816,
      "鹰": 9817,
      "鹳": 9818,
      "鹿": 9819,
      "麂": 9820,
      "麇": 9821,
      "麈": 9822,
      "麋": 9823,
      "麒": 9824,
      "麓": 9825,
      "麗": 9826,
      "麝": 9827,
      "麞": 9828,
      "麟": 9829,
      "麦": 9830,
      "麴": 9831,
      "麵": 9832,
      "麸": 9833,
      "麻": 9834,
      "麼": 9835,
      "麽": 9836,
      "麾": 9837,
      "黃": 9838,
      "黄": 9839,
      "黉": 9840,
      "黍": 9841,
      "黎": 9842,
      "黏": 9843,
      "黑": 9844,
      "黒": 9845,
      "黔": 9846,
      "默": 9847,
      "黙": 9848,
      "黛": 9849,
      "黜": 9850,
      "黝": 9851,
      "點": 9852,
      "黟": 9853,
      "黠": 9854,
      "黢": 9855,
      "黥": 9856,
      "黧": 9857,
      "黩": 9858,
      "黮": 9859,
      "黯": 9860,
      "黻": 9861,
      "黼": 9862,
      "黾": 9863,
      "鼋": 9864,
      "鼍": 9865,
      "鼎": 9866,
      "鼐": 9867,
      "鼓": 9868,
      "鼗": 9869,
      "鼙": 9870,
      "鼠": 9871,
      "鼢": 9872,
      "鼬": 9873,
      "鼯": 9874,
      "鼴": 9875,
      "鼷": 9876,
      "鼹": 9877,
      "鼻": 9878,
      "鼾": 9879,
      "齁": 9880,
      "齊": 9881,
      "齐": 9882,
      "齑": 9883,
      "齒": 9884,
      "齜": 9885,
      "齡": 9886,
      "齢": 9887,
      "齮": 9888,
      "齾": 9889,
      "齿": 9890,
      "龀": 9891,
      "龁": 9892,
      "龂": 9893,
      "龃": 9894,
      "龄": 9895,
      "龅": 9896,
      "龆": 9897,
      "龇": 9898,
      "龈": 9899,
      "龉": 9900,
      "龊": 9901,
      "龋": 9902,
      "龌": 9903,
      "龍": 9904,
      "龐": 9905,
      "龙": 9906,
      "龚": 9907,
      "龛": 9908,
      "龟": 9909,
      "龠": 9910,
      "龢": 9911,
      "鿏": 9912,
      "ꜜ": 9913,
      "ꜣ": 9914,
      "ꜥ": 9915,
      "Ꜧ": 9916,
      "ꜧ": 9917,
      "꞉": 9918,
      "ꞌ": 9919,
      "ꞯ": 9920,
      "ꠀ": 9921,
      "ꠃ": 9922,
      "ꠇ": 9923,
      "ꠉ": 9924,
      "ꠌ": 9925,
      "ꠍ": 9926,
      "ꠎ": 9927,
      "ꠘ": 9928,
      "ꠞ": 9929,
      "ꠢ": 9930,
      "ꠣ": 9931,
      "ꠥ": 9932,
      "ꦏ": 9933,
      "ꦸ": 9934,
      "ꦾ": 9935,
      "ꦿ": 9936,
      "가": 9937,
      "각": 9938,
      "간": 9939,
      "갔": 9940,
      "같": 9941,
      "개": 9942,
      "객": 9943,
      "갤": 9944,
      "거": 9945,
      "건": 9946,
      "걸": 9947,
      "것": 9948,
      "게": 9949,
      "겠": 9950,
      "격": 9951,
      "결": 9952,
      "계": 9953,
      "고": 9954,
      "곳": 9955,
      "공": 9956,
      "과": 9957,
      "관": 9958,
      "광": 9959,
      "구": 9960,
      "국": 9961,
      "그": 9962,
      "근": 9963,
      "기": 9964,
      "김": 9965,
      "까": 9966,
      "께": 9967,
      "뀌": 9968,
      "낄": 9969,
      "나": 9970,
      "날": 9971,
      "내": 9972,
      "넣": 9973,
      "네": 9974,
      "년": 9975,
      "노": 9976,
      "느": 9977,
      "는": 9978,
      "능": 9979,
      "다": 9980,
      "단": 9981,
      "달": 9982,
      "당": 9983,
      "대": 9984,
      "더": 9985,
      "덧": 9986,
      "데": 9987,
      "도": 9988,
      "독": 9989,
      "돌": 9990,
      "동": 9991,
      "돼": 9992,
      "된": 9993,
      "드": 9994,
      "든": 9995,
      "들": 9996,
      "등": 9997,
      "디": 9998,
      "때": 9999,
      "또": 10000,
      "똑": 10001,
      "라": 10002,
      "락": 10003,
      "랑": 10004,
      "러": 10005,
      "럭": 10006,
      "럼": 10007,
      "렇": 10008,
      "레": 10009,
      "렛": 10010,
      "력": 10011,
      "로": 10012,
      "록": 10013,
      "론": 10014,
      "룡": 10015,
      "룹": 10016,
      "르": 10017,
      "른": 10018,
      "를": 10019,
      "리": 10020,
      "릭": 10021,
      "린": 10022,
      "릴": 10023,
      "림": 10024,
      "마": 10025,
      "막": 10026,
      "만": 10027,
      "맞": 10028,
      "맨": 10029,
      "머": 10030,
      "먹": 10031,
      "멋": 10032,
      "멤": 10033,
      "며": 10034,
      "면": 10035,
      "명": 10036,
      "모": 10037,
      "목": 10038,
      "무": 10039,
      "문": 10040,
      "미": 10041,
      "민": 10042,
      "밀": 10043,
      "바": 10044,
      "박": 10045,
      "방": 10046,
      "배": 10047,
      "버": 10048,
      "번": 10049,
      "범": 10050,
      "벤": 10051,
      "변": 10052,
      "별": 10053,
      "보": 10054,
      "복": 10055,
      "볼": 10056,
      "부": 10057,
      "붙": 10058,
      "브": 10059,
      "블": 10060,
      "비": 10061,
      "빈": 10062,
      "빼": 10063,
      "사": 10064,
      "산": 10065,
      "삼": 10066,
      "상": 10067,
      "새": 10068,
      "색": 10069,
      "생": 10070,
      "샤": 10071,
      "서": 10072,
      "석": 10073,
      "선": 10074,
      "설": 10075,
      "섭": 10076,
      "성": 10077,
      "세": 10078,
      "션": 10079,
      "소": 10080,
      "속": 10081,
      "솔": 10082,
      "송": 10083,
      "수": 10084,
      "숙": 10085,
      "숟": 10086,
      "슈": 10087,
      "스": 10088,
      "슷": 10089,
      "승": 10090,
      "시": 10091,
      "신": 10092,
      "실": 10093,
      "심": 10094,
      "십": 10095,
      "싶": 10096,
      "아": 10097,
      "악": 10098,
      "안": 10099,
      "않": 10100,
      "알": 10101,
      "애": 10102,
      "액": 10103,
      "야": 10104,
      "양": 10105,
      "어": 10106,
      "언": 10107,
      "없": 10108,
      "었": 10109,
      "에": 10110,
      "엔": 10111,
      "역": 10112,
      "엮": 10113,
      "연": 10114,
      "열": 10115,
      "영": 10116,
      "예": 10117,
      "오": 10118,
      "와": 10119,
      "요": 10120,
      "용": 10121,
      "우": 10122,
      "운": 10123,
      "울": 10124,
      "웅": 10125,
      "워": 10126,
      "원": 10127,
      "월": 10128,
      "위": 10129,
      "윈": 10130,
      "유": 10131,
      "윤": 10132,
      "으": 10133,
      "은": 10134,
      "을": 10135,
      "음": 10136,
      "의": 10137,
      "이": 10138,
      "인": 10139,
      "일": 10140,
      "임": 10141,
      "입": 10142,
      "있": 10143,
      "자": 10144,
      "작": 10145,
      "잖": 10146,
      "장": 10147,
      "재": 10148,
      "저": 10149,
      "적": 10150,
      "전": 10151,
      "절": 10152,
      "점": 10153,
      "젓": 10154,
      "정": 10155,
      "제": 10156,
      "져": 10157,
      "조": 10158,
      "좋": 10159,
      "죠": 10160,
      "주": 10161,
      "중": 10162,
      "즈": 10163,
      "지": 10164,
      "진": 10165,
      "질": 10166,
      "징": 10167,
      "찍": 10168,
      "찬": 10169,
      "창": 10170,
      "처": 10171,
      "천": 10172,
      "첫": 10173,
      "체": 10174,
      "초": 10175,
      "추": 10176,
      "충": 10177,
      "치": 10178,
      "친": 10179,
      "칼": 10180,
      "캐": 10181,
      "케": 10182,
      "켰": 10183,
      "퀵": 10184,
      "크": 10185,
      "키": 10186,
      "탁": 10187,
      "탄": 10188,
      "택": 10189,
      "터": 10190,
      "테": 10191,
      "투": 10192,
      "트": 10193,
      "특": 10194,
      "팀": 10195,
      "파": 10196,
      "판": 10197,
      "팝": 10198,
      "팬": 10199,
      "퍼": 10200,
      "펀": 10201,
      "편": 10202,
      "평": 10203,
      "필": 10204,
      "하": 10205,
      "학": 10206,
      "한": 10207,
      "할": 10208,
      "함": 10209,
      "해": 10210,
      "했": 10211,
      "행": 10212,
      "헐": 10213,
      "현": 10214,
      "호": 10215,
      "화": 10216,
      "확": 10217,
      "황": 10218,
      "획": 10219,
      "흥": 10220,
      "히": 10221,
      "": 10222,
      "": 10223,
      "": 10224,
      "": 10225,
      "": 10226,
      "": 10227,
      "": 10228,
      "": 10229,
      "": 10230,
      "": 10231,
      "": 10232,
      "": 10233,
      "": 10234,
      "": 10235,
      "": 10236,
      "": 10237,
      "": 10238,
      "": 10239,
      "": 10240,
      "": 10241,
      "": 10242,
      "": 10243,
      "": 10244,
      "": 10245,
      "": 10246,
      "": 10247,
      "": 10248,
      "": 10249,
      "": 10250,
      "": 10251,
      "": 10252,
      "": 10253,
      "": 10254,
      "": 10255,
      "": 10256,
      "": 10257,
      "": 10258,
      "": 10259,
      "": 10260,
      "": 10261,
      "": 10262,
      "": 10263,
      "": 10264,
      "": 10265,
      "": 10266,
      "": 10267,
      "": 10268,
      "": 10269,
      "": 10270,
      "": 10271,
      "": 10272,
      "": 10273,
      "": 10274,
      "": 10275,
      "": 10276,
      "": 10277,
      "": 10278,
      "": 10279,
      "": 10280,
      "": 10281,
      "": 10282,
      "": 10283,
      "": 10284,
      "": 10285,
      "": 10286,
      "": 10287,
      "": 10288,
      "": 10289,
      "": 10290,
      "": 10291,
      "": 10292,
      "": 10293,
      "": 10294,
      "": 10295,
      "": 10296,
      "": 10297,
      "": 10298,
      "": 10299,
      "": 10300,
      "": 10301,
      "": 10302,
      "": 10303,
      "": 10304,
      "": 10305,
      "": 10306,
      "": 10307,
      "": 10308,
      "": 10309,
      "": 10310,
      "": 10311,
      "": 10312,
      "": 10313,
      "︎": 10314,
      "️": 10315,
      "�": 10316,
      "𐎠": 10317,
      "𐎱": 10318,
      "𐎼": 10319,
      "𐎿": 10320,
      "𐨀": 10321,
      "𐨅": 10322,
      "𐨐": 10323,
      "𐨑": 10324,
      "𐨒": 10325,
      "𐨓": 10326,
      "𐨗": 10327,
      "𐨟": 10328,
      "𐨠": 10329,
      "𐨢": 10330,
      "𐨣": 10331,
      "𐨤": 10332,
      "𐨦": 10333,
      "𐨨": 10334,
      "𐨩": 10335,
      "𐨪": 10336,
      "𐨫": 10337,
      "𐨬": 10338,
      "𐨭": 10339,
      "𐨮": 10340,
      "𐨯": 10341,
      "𐨱": 10342,
      "𐩠": 10343,
      "𐩡": 10344,
      "𐩢": 10345,
      "𐩣": 10346,
      "𐩤": 10347,
      "𐩥": 10348,
      "𐩦": 10349,
      "𐩧": 10350,
      "𐩨": 10351,
      "𐩩": 10352,
      "𐩫": 10353,
      "𐩬": 10354,
      "𐩮": 10355,
      "𐩯": 10356,
      "𐩰": 10357,
      "𐩱": 10358,
      "𐩲": 10359,
      "𐩴": 10360,
      "𐩵": 10361,
      "𐩷": 10362,
      "𐩸": 10363,
      "𐩺": 10364,
      "𐭀": 10365,
      "𐭁": 10366,
      "𐭂": 10367,
      "𐭃": 10368,
      "𐭄": 10369,
      "𐭅": 10370,
      "𐭆": 10371,
      "𐭇": 10372,
      "𐭈": 10373,
      "𐭉": 10374,
      "𐭊": 10375,
      "𐭋": 10376,
      "𐭌": 10377,
      "𐭍": 10378,
      "𐭎": 10379,
      "𐭏": 10380,
      "𐭐": 10381,
      "𐭑": 10382,
      "𐭒": 10383,
      "𐭓": 10384,
      "𐭔": 10385,
      "𐭕": 10386,
      "𐰁": 10387,
      "𐰃": 10388,
      "𐰆": 10389,
      "𐰈": 10390,
      "𐰉": 10391,
      "𐰋": 10392,
      "𐰍": 10393,
      "𐰏": 10394,
      "𐰓": 10395,
      "𐰕": 10396,
      "𐰖": 10397,
      "𐰘": 10398,
      "𐰚": 10399,
      "𐰜": 10400,
      "𐰞": 10401,
      "𐰠": 10402,
      "𐰢": 10403,
      "𐰣": 10404,
      "𐰤": 10405,
      "𐰯": 10406,
      "𐰱": 10407,
      "𐰲": 10408,
      "𐰴": 10409,
      "𐰸": 10410,
      "𐰺": 10411,
      "𐰼": 10412,
      "𐰽": 10413,
      "𐰾": 10414,
      "𐱁": 10415,
      "𐱂": 10416,
      "𐱃": 10417,
      "𐱅": 10418,
      "𑀅": 10419,
      "𑀆": 10420,
      "𑀇": 10421,
      "𑀈": 10422,
      "𑀉": 10423,
      "𑀊": 10424,
      "𑀏": 10425,
      "𑀐": 10426,
      "𑀑": 10427,
      "𑀒": 10428,
      "𑀓": 10429,
      "𑀔": 10430,
      "𑀕": 10431,
      "𑀖": 10432,
      "𑀚": 10433,
      "𑀝": 10434,
      "𑀞": 10435,
      "𑀟": 10436,
      "𑀠": 10437,
      "𑀢": 10438,
      "𑀣": 10439,
      "𑀤": 10440,
      "𑀥": 10441,
      "𑀦": 10442,
      "𑀧": 10443,
      "𑀨": 10444,
      "𑀩": 10445,
      "𑀪": 10446,
      "𑀫": 10447,
      "𑀬": 10448,
      "𑀭": 10449,
      "𑀮": 10450,
      "𑀯": 10451,
      "𑀰": 10452,
      "𑀱": 10453,
      "𑀲": 10454,
      "𑀳": 10455,
      "𒂗": 10456,
      "𒄀": 10457,
      "𒆠": 10458,
      "𓅓": 10459,
      "𓆎": 10460,
      "𓊖": 10461,
      "𓏏": 10462,
      "𗣂": 10463,
      "𝄆": 10464,
      "𝄇": 10465,
      "🆖": 10466,
      "🇦": 10467,
      "🇫": 10468,
      "🇮": 10469,
      "🇱": 10470,
      "🇳": 10471,
      "🇶": 10472,
      "🇷": 10473,
      "🇸": 10474,
      "🇺": 10475,
      "🇿": 10476,
      "🌋": 10477,
      "🌌": 10478,
      "🎞": 10479,
      "🏆": 10480,
      "🏰": 10481,
      "🏴": 10482,
      "🏻": 10483,
      "🐐": 10484,
      "🐝": 10485,
      "👀": 10486,
      "👊": 10487,
      "👋": 10488,
      "👎": 10489,
      "👫": 10490,
      "👽": 10491,
      "💔": 10492,
      "💚": 10493,
      "💡": 10494,
      "💥": 10495,
      "📺": 10496,
      "🔓": 10497,
      "🔥": 10498,
      "🕷": 10499,
      "🖂": 10500,
      "😀": 10501,
      "😂": 10502,
      "😄": 10503,
      "😅": 10504,
      "😊": 10505,
      "😍": 10506,
      "😜": 10507,
      "😝": 10508,
      "😢": 10509,
      "😬": 10510,
      "😭": 10511,
      "😱": 10512,
      "😳": 10513,
      "🙏": 10514,
      "🚀": 10515,
      "🚨": 10516,
      "🜨": 10517,
      "🟢": 10518,
      "🤖": 10519,
      "🤦": 10520,
      "🤨": 10521,
      "🤯": 10522,
      "🤲": 10523,
      "🥀": 10524,
      "🥰": 10525,
      "🥳": 10526,
      "🥵": 10527,
      "🥹": 10528,
      "🦸": 10529,
      "🧚": 10530,
      "🧵": 10531,
      "𣡿": 10532,
      "𤞤": 10533,
      "𦆱": 10534,
      "𦰏": 10535,
      "𪣻": 10536,
      "𪩘": 10537,
      "𪭢": 10538,
      "𫐓": 10539,
      "𫔎": 10540,
      "𫗦": 10541,
      "𫘝": 10542,
      "𫘨": 10543,
      "𫛩": 10544,
      "𬀩": 10545,
      "𬀪": 10546,
      "𬩽": 10547,
      "𬯎": 10548,
      "𬴂": 10549,
      "󠁢": 10550,
      "󠁧": 10551,
      "󠁬": 10552,
      "󠁳": 10553,
      "󠁷": 10554,
      "󠁿": 10555,
      "􏿾": 10556,
      "en": 10557,
      ".\n": 10558,
      "er": 10559,
      "▁t": 10560,
      "an": 10561,
      "he": 10562,
      "in": 10563,
      "▁d": 10564,
      "▁w": 10565,
      "at": 10566,
      "▁o": 10567,
      "▁m": 10568,
      "▁s": 10569,
      "▁a": 10570,
      "▁.\n": 10571,
      ":\t": 10572,
      "▁b": 10573,
      "▁*": 10574,
      "et": 10575,
      "is": 10576,
      "ar": 10577,
      "ou": 10578,
      "or": 10579,
      "▁h": 10580,
      "▁g": 10581,
      "el": 10582,
      "▁v": 10583,
      "ij": 10584,
      "it": 10585,
      "▁n": 10586,
      "▁the": 10587,
      "on": 10588,
      "▁he": 10589,
      "es": 10590,
      "ed": 10591,
      "?\n": 10592,
      "▁I": 10593,
      "▁z": 10594,
      "ing": 10595,
      "ch": 10596,
      "▁de": 10597,
      "and": 10598,
      "▁l": 10599,
      "▁e": 10600,
      "▁p": 10601,
      "▁j": 10602,
      "▁k": 10603,
      "al": 10604,
      "▁in": 10605,
      "re": 10606,
      "▁f": 10607,
      "as": 10608,
      "▁c": 10609,
      "ie": 10610,
      "▁th": 10611,
      "om": 10612,
      "▁to": 10613,
      "aar": 10614,
      "OT": 10615,
      "MOT": 10616,
      "▁*MOT": 10617,
      "▁is": 10618,
      "CH": 10619,
      "CHI": 10620,
      "▁,": 10621,
      "▁y": 10622,
      "ll": 10623,
      "▁*MOT:\t": 10624,
      "▁H": 10625,
      "▁D": 10626,
      "st": 10627,
      "▁je": 10628,
      "▁of": 10629,
      "▁W": 10630,
      "▁and": 10631,
      "▁you": 10632,
      "ig": 10633,
      "oo": 10634,
      "ik": 10635,
      "▁een": 10636,
      "▁het": 10637,
      "oor": 10638,
      "▁on": 10639,
      "le": 10640,
      "▁*CHI": 10641,
      "▁*CHI:\t": 10642,
      "ot": 10643,
      "▁A": 10644,
      "ad": 10645,
      "id": 10646,
      "▁u": 10647,
      "▁?\n": 10648,
      "▁M": 10649,
      "..": 10650,
      "iet": 10651,
      "▁T": 10652,
      "▁S": 10653,
      "ere": 10654,
      "▁en": 10655,
      "ow": 10656,
      "'s": 10657,
      "▁van": 10658,
      "▁be": 10659,
      "▁st": 10660,
      "am": 10661,
      "▁ge": 10662,
      "▁r": 10663,
      "▁me": 10664,
      "▁we": 10665,
      "ak": 10666,
      "▁B": 10667,
      "ur": 10668,
      "ut": 10669,
      "il": 10670,
      "ent": 10671,
      "ve": 10672,
      "ijn": 10673,
      "ver": 10674,
      "▁it": 10675,
      "▁was": 10676,
      "ay": 10677,
      "ic": 10678,
      "▁J": 10679,
      "▁我": 10680,
      "▁op": 10681,
      "▁dat": 10682,
      "▁niet": 10683,
      "cht": 10684,
      "ag": 10685,
      "▁E": 10686,
      "oe": 10687,
      "▁Ik": 10688,
      "▁ver": 10689,
      "ee": 10690,
      "▁N": 10691,
      "▁te": 10692,
      "▁that": 10693,
      "▁ik": 10694,
      "im": 10695,
      "▁wh": 10696,
      "de": 10697,
      "un": 10698,
      "ra": 10699,
      "ol": 10700,
      "se": 10701,
      "den": 10702,
      "!\n": 10703,
      "▁G": 10704,
      "▁'": 10705,
      "▁do": 10706,
      "▁al": 10707,
      "gen": 10708,
      "▁你": 10709,
      "▁C": 10710,
      "est": 10711,
      "▁\"": 10712,
      "ijk": 10713,
      "der": 10714,
      "▁O": 10715,
      "th": 10716,
      "ro": 10717,
      "▁er": 10718,
      "ir": 10719,
      "ft": 10720,
      "ant": 10721,
      "▁ze": 10722,
      "us": 10723,
      "'t": 10724,
      "▁voor": 10725,
      "ven": 10726,
      "▁L": 10727,
      "ap": 10728,
      "ion": 10729,
      "ac": 10730,
      "▁re": 10731,
      "op": 10732,
      "ly": 10733,
      "▁go": 10734,
      "ht": 10735,
      "▁P": 10736,
      "▁zijn": 10737,
      "▁-": 10738,
      "▁heb": 10739,
      "▁for": 10740,
      "▁mo": 10741,
      "R:\t": 10742,
      "▁..": 10743,
      "ers": 10744,
      "▁met": 10745,
      "ken": 10746,
      "▁K": 10747,
      "ell": 10748,
      "▁1": 10749,
      "ill": 10750,
      "ier": 10751,
      "ld": 10752,
      "aat": 10753,
      "▁all": 10754,
      "▁Z": 10755,
      "▁*T": 10756,
      "▁V": 10757,
      "ith": 10758,
      "▁no": 10759,
      "AR": 10760,
      "ge": 10761,
      "ct": 10762,
      "▁De": 10763,
      "ok": 10764,
      "LD": 10765,
      "ien": 10766,
      "▁R": 10767,
      "e.\n": 10768,
      "▁ha": 10769,
      "▁die": 10770,
      "ight": 10771,
      "ist": 10772,
      "ET": 10773,
      "什么": 10774,
      "LD:\t": 10775,
      "▁wor": 10776,
      "GET": 10777,
      "ARGET": 10778,
      "_CHI": 10779,
      "▁*TARGET": 10780,
      "▁*TARGET_CHI": 10781,
      "。\n": 10782,
      "aan": 10783,
      "▁*TARGET_CHILD:\t": 10784,
      "▁aan": 10785,
      "▁with": 10786,
      "▁an": 10787,
      "em": 10788,
      "um": 10789,
      "▁le": 10790,
      "IN": 10791,
      "xx": 10792,
      "AT": 10793,
      "all": 10794,
      "ome": 10795,
      "▁over": 10796,
      "▁as": 10797,
      "▁F": 10798,
      "▁wat": 10799,
      "ust": 10800,
      "▁om": 10801,
      "▁这": 10802,
      "▁had": 10803,
      "▁Het": 10804,
      "▁Y": 10805,
      "INV": 10806,
      "▁sp": 10807,
      "hat": 10808,
      "▁*INV": 10809,
      "一个": 10810,
      "je": 10811,
      "ind": 10812,
      "▁The": 10813,
      "nd": 10814,
      "▁(": 10815,
      "ul": 10816,
      "▁[": 10817,
      "▁uit": 10818,
      "▁at": 10819,
      "ter": 10820,
      "ze": 10821,
      "$$": 10822,
      "if": 10823,
      "▁2": 10824,
      "▁als": 10825,
      "ah": 10826,
      "eer": 10827,
      "▁kn": 10828,
      "▁not": 10829,
      "ER:\t": 10830,
      "▁Je": 10831,
      "ast": 10832,
      "eld": 10833,
      "▁zo": 10834,
      "ould": 10835,
      "▁We": 10836,
      "ook": 10837,
      "▁have": 10838,
      "我们": 10839,
      "▁this": 10840,
      "ang": 10841,
      "▁pl": 10842,
      "▁sh": 10843,
      "就是": 10844,
      "ug": 10845,
      "▁maar": 10846,
      "art": 10847,
      "en.": 10848,
      "ood": 10849,
      "ce": 10850,
      "]\n": 10851,
      "▁...": 10852,
      "▁!\n": 10853,
      "▁naar": 10854,
      "ab": 10855,
      "▁her": 10856,
      "▁fr": 10857,
      "rou": 10858,
      "▁are": 10859,
      "ess": 10860,
      "HER:\t": 10861,
      "ri": 10862,
      "os": 10863,
      "nen": 10864,
      "▁ne": 10865,
      "这个": 10866,
      "ond": 10867,
      "rij": 10868,
      "we": 10869,
      "▁his": 10870,
      "▁moet": 10871,
      "aal": 10872,
      "ink": 10873,
      "▁dan": 10874,
      "▁He": 10875,
      "▁they": 10876,
      "▁sch": 10877,
      "ru": 10878,
      "te": 10879,
      "ens": 10880,
      "ard": 10881,
      "▁hij": 10882,
      "on't": 10883,
      "▁En": 10884,
      "▁Wat": 10885,
      "▁up": 10886,
      "▁know": 10887,
      "▁can": 10888,
      "elijk": 10889,
      "s.\n": 10890,
      "be": 10891,
      "没有": 10892,
      "ain": 10893,
      "▁wer": 10894,
      "▁ben": 10895,
      "▁*MOTHER:\t": 10896,
      "eah": 10897,
      "▁那": 10898,
      "▁In": 10899,
      "怎么": 10900,
      "her": 10901,
      "out": 10902,
      "ich": 10903,
      "▁man": 10904,
      "ull": 10905,
      "不是": 10906,
      "▁there": 10907,
      "▁your": 10908,
      "ck": 10909,
      "ry": 10910,
      "▁gr": 10911,
      "▁I'": 10912,
      "ike": 10913,
      "s,": 10914,
      "oh": 10915,
      "▁wel": 10916,
      "▁bl": 10917,
      "▁she": 10918,
      "▁ch": 10919,
      "▁what": 10920,
      "▁so": 10921,
      "▁Dat": 10922,
      "▁bij": 10923,
      "▁kan": 10924,
      "▁ook": 10925,
      "▁wil": 10926,
      "▁pro": 10927,
      "▁or": 10928,
      "acht": 10929,
      "▁...\n": 10930,
      "ank": 10931,
      "▁my": 10932,
      "een": 10933,
      "▁one": 10934,
      "itt": 10935,
      "ack": 10936,
      "ong": 10937,
      "▁nog": 10938,
      "ies": 10939,
      "eel": 10940,
      "▁sa": 10941,
      "eft": 10942,
      "aak": 10943,
      "▁pr": 10944,
      "▁Al": 10945,
      "▁waar": 10946,
      "pen": 10947,
      "ation": 10948,
      "▁hier": 10949,
      "▁get": 10950,
      "y.\n": 10951,
      "e,": 10952,
      "\"\n": 10953,
      "sch": 10954,
      "▁tw": 10955,
      "00": 10956,
      "elf": 10957,
      "▁out": 10958,
      "▁Th": 10959,
      "▁他": 10960,
      "▁Ze": 10961,
      "▁It": 10962,
      "▁door": 10963,
      "知道": 10964,
      "ip": 10965,
      "▁ab": 10966,
      "▁him": 10967,
      "n't": 10968,
      "ber": 10969,
      "▁kun": 10970,
      "▁*INV:\t": 10971,
      "ake": 10972,
      "▁like": 10973,
      "og": 10974,
      "qu": 10975,
      "▁com": 10976,
      "▁*F": 10977,
      "▁from": 10978,
      "ben": 10979,
      "ore": 10980,
      "▁Hij": 10981,
      "'re": 10982,
      "na": 10983,
      "od": 10984,
      "▁af": 10985,
      "xxx": 10986,
      "▁*MOT:\tw": 10987,
      "che": 10988,
      "▁but": 10989,
      "▁kom": 10990,
      "自己": 10991,
      "▁mijn": 10992,
      "▁heeft": 10993,
      "ort": 10994,
      "▁don't": 10995,
      "au": 10996,
      "▁You": 10997,
      "eren": 10998,
      "▁U": 10999,
      "▁su": 11000,
      "▁con": 11001,
      "ine": 11002,
      "▁goed": 11003,
      "one": 11004,
      "▁br": 11005,
      "▁dit": 11006,
      "...\n": 11007,
      "▁*FAT": 11008,
      "▁St": 11009,
      "ele": 11010,
      "ste": 11011,
      "▁ex": 11012,
      "现在": 11013,
      "▁hebben": 11014,
      "时候": 11015,
      "you": 11016,
      "ST": 11017,
      "▁by": 11018,
      "ame": 11019,
      "▁were": 11020,
      "ijd": 11021,
      "▁hem": 11022,
      "▁se": 11023,
      "▁them": 11024,
      "▁see": 11025,
      "own": 11026,
      "no": 11027,
      "ke": 11028,
      "uur": 11029,
      "ive": 11030,
      "▁19": 11031,
      "▁bo": 11032,
      "▁did": 11033,
      "▁geen": 11034,
      "our": 11035,
      "▁bet": 11036,
      "▁want": 11037,
      "s.": 11038,
      "IG": 11039,
      "uit": 11040,
      "es.\n": 11041,
      "iv": 11042,
      "▁不": 11043,
      "y,": 11044,
      "▁word": 11045,
      "ingen": 11046,
      "ten": 11047,
      "EST": 11048,
      "ide": 11049,
      "aten": 11050,
      "ied": 11051,
      "▁will": 11052,
      "sen": 11053,
      "ATO": 11054,
      "ally": 11055,
      "ff": 11056,
      "ESTIG": 11057,
      "▁*INVESTIG": 11058,
      "▁*INVESTIGATO": 11059,
      "eah.\n": 11060,
      "oon": 11061,
      "ek": 11062,
      "▁*INVESTIGATOR:\t": 11063,
      "▁*FAT:\t": 11064,
      "pp": 11065,
      "可以": 11066,
      "▁got": 11067,
      "▁about": 11068,
      "▁是": 11069,
      "▁haar": 11070,
      "▁un": 11071,
      "▁some": 11072,
      "ia": 11073,
      "oot": 11074,
      "▁meer": 11075,
      "▁look": 11076,
      "▁think": 11077,
      "ick": 11078,
      ":\n": 11079,
      "pt": 11080,
      "▁dr": 11081,
      "ite": 11082,
      "uk": 11083,
      "mer": 11084,
      "▁daar": 11085,
      "▁sl": 11086,
      "▁here": 11087,
      "oug": 11088,
      "oord": 11089,
      "▁said": 11090,
      "▁deze": 11091,
      "▁gaan": 11092,
      "▁just": 11093,
      "land": 11094,
      "bl": 11095,
      "▁jij": 11096,
      "▁nu": 11097,
      "orm": 11098,
      "oed": 11099,
      "▁ter": 11100,
      "他们": 11101,
      "icht": 11102,
      "▁Waar": 11103,
      "].\n": 11104,
      "▁Maar": 11105,
      "▁Als": 11106,
      "▁vr": 11107,
      "▁would": 11108,
      "▁onder": 11109,
      "▁Ch": 11110,
      "▁weet": 11111,
      "▁Een": 11112,
      "pl": 11113,
      "per": 11114,
      "▁ar": 11115,
      "to": 11116,
      "av": 11117,
      "▁zou": 11118,
      "aken": 11119,
      "eten": 11120,
      "elen": 11121,
      "▁el": 11122,
      "▁who": 11123,
      "lijk": 11124,
      "▁geb": 11125,
      "然后": 11126,
      "▁kl": 11127,
      "▁beg": 11128,
      "▁if": 11129,
      "▁doen": 11130,
      "ost": 11131,
      ".\"\n": 11132,
      "hing": 11133,
      ",\"": 11134,
      "▁hou": 11135,
      "ker": 11136,
      "ige": 11137,
      "▁I'm": 11138,
      "▁when": 11139,
      "ay.\n": 11140,
      "▁tim": 11141,
      "▁zeg": 11142,
      "▁bed": 11143,
      "觉得": 11144,
      "▁hand": 11145,
      "ullie": 11146,
      "ud": 11147,
      "▁20": 11148,
      "▁then": 11149,
      "▁gaat": 11150,
      "zen": 11151,
      "a.\n": 11152,
      "ate": 11153,
      "ool": 11154,
      "▁ga": 11155,
      "▁any": 11156,
      "▁now": 11157,
      "iets": 11158,
      "oek": 11159,
      "因为": 11160,
      "▁gew": 11161,
      "▁bent": 11162,
      "你们": 11163,
      "▁right": 11164,
      "▁cl": 11165,
      "other": 11166,
      "▁worden": 11167,
      "▁wordt": 11168,
      "rouw": 11169,
      "oll": 11170,
      "--": 11171,
      "h,": 11172,
      "ne": 11173,
      "es,": 11174,
      "▁ag": 11175,
      "▁我们": 11176,
      "▁*CHI:\ty": 11177,
      "ittle": 11178,
      "ound": 11179,
      "▁And": 11180,
      "uw": 11181,
      "那个": 11182,
      "ree": 11183,
      "are": 11184,
      "here": 11185,
      "ose": 11186,
      "that": 11187,
      "▁down": 11188,
      "▁·": 11189,
      "ther": 11190,
      "▁say": 11191,
      "▁Er": 11192,
      "▁bel": 11193,
      "▁mij": 11194,
      "这么": 11195,
      "▁best": 11196,
      "ach": 11197,
      "uis": 11198,
      "▁off": 11199,
      "▁even": 11200,
      "eder": 11201,
      "ear": 11202,
      "▁3": 11203,
      "dat": 11204,
      "ice": 11205,
      "▁就": 11206,
      "▁hoe": 11207,
      "▁vol": 11208,
      "▁been": 11209,
      "的时候": 11210,
      "▁back": 11211,
      "▁it.\n": 11212,
      "...": 11213,
      "▁一": 11214,
      "ings": 11215,
      "enk": 11216,
      "▁Hoe": 11217,
      "ing.\n": 11218,
      "▁jou": 11219,
      "atie": 11220,
      "这样": 11221,
      "ause": 11222,
      "jes": 11223,
      "▁ons": 11224,
      "ble": 11225,
      "▁us": 11226,
      "▁little": 11227,
      "nt": 11228,
      "▁Nee": 11229,
      "▁Ja": 11230,
      "ew": 11231,
      "agen": 11232,
      "▁put": 11233,
      "ass": 11234,
      "▁kunnen": 11235,
      "▁it's": 11236,
      "iss": 11237,
      "ect": 11238,
      "ian": 11239,
      "▁gel": 11240,
      "ure": 11241,
      "▁ont": 11242,
      "▁has": 11243,
      "▁going": 11244,
      "omm": 11245,
      "heid": 11246,
      "了,": 11247,
      "▁could": 11248,
      "▁*CHI:\tI": 11249,
      "end": 11250,
      "▁their": 11251,
      "▁mens": 11252,
      "▁xxx": 11253,
      "但是": 11254,
      "我的": 11255,
      "▁hebt": 11256,
      "onder": 11257,
      "▁hel": 11258,
      "▁Dit": 11259,
      "▁*MOT:\tyou": 11260,
      "▁Fr": 11261,
      "ire": 11262,
      "▁zal": 11263,
      "▁min": 11264,
      "▁veel": 11265,
      "▁which": 11266,
      "raag": 11267,
      "▁gev": 11268,
      "▁good": 11269,
      "oel": 11270,
      "ob": 11271,
      "ous": 11272,
      "▁好": 11273,
      "ert": 11274,
      "▁jullie": 11275,
      "所以": 11276,
      "▁weg": 11277,
      "way": 11278,
      "▁iets": 11279,
      "还是": 11280,
      "uh": 11281,
      "mand": 11282,
      "old": 11283,
      "int": 11284,
      "oc": 11285,
      "als": 11286,
      "oof": 11287,
      "wer": 11288,
      "已经": 11289,
      "▁eer": 11290,
      "▁gen": 11291,
      "▁qu": 11292,
      "▁有": 11293,
      "racht": 11294,
      "iend": 11295,
      "the": 11296,
      "gel": 11297,
      "▁What": 11298,
      "▁pe": 11299,
      "cause": 11300,
      "pr": 11301,
      "ish": 11302,
      "▁very": 11303,
      "'ll": 11304,
      "▁hun": 11305,
      "aren": 11306,
      "▁na": 11307,
      "▁Is": 11308,
      "▁zien": 11309,
      "ade": 11310,
      "men": 11311,
      "▁tot": 11312,
      "la": 11313,
      "eden": 11314,
      "igen": 11315,
      "▁Mr": 11316,
      "alk": 11317,
      "▁sn": 11318,
      "的人": 11319,
      "ark": 11320,
      "ger": 11321,
      "ief": 11322,
      "▁ged": 11323,
      "ment": 11324,
      "▁fl": 11325,
      "真的": 11326,
      "▁Wh": 11327,
      "orn": 11328,
      "▁two": 11329,
      "▁more": 11330,
      "aakt": 11331,
      "▁tr": 11332,
      "你的": 11333,
      "还有": 11334,
      "omet": 11335,
      "▁weer": 11336,
      "▁*MOT:\twhat": 11337,
      "▁per": 11338,
      "ater": 11339,
      "m.\n": 11340,
      "ep": 11341,
      "age": 11342,
      "ity": 11343,
      "▁play": 11344,
      "urn": 11345,
      "ett": 11346,
      "ock": 11347,
      "▁在": 11348,
      "▁terug": 11349,
      "▁No": 11350,
      "如果": 11351,
      "▁moeten": 11352,
      "amen": 11353,
      "▁ever": 11354,
      "man": 11355,
      "ord": 11356,
      "▁nie": 11357,
      "▁Kom": 11358,
      "▁car": 11359,
      "。\"": 11360,
      "innen": 11361,
      "可能": 11362,
      "sh": 11363,
      "fter": 11364,
      "今天": 11365,
      "▁tegen": 11366,
      "chter": 11367,
      "▁mee": 11368,
      "▁*CHI:\tw": 11369,
      "!\"": 11370,
      "omen": 11371,
      "sp": 11372,
      "esch": 11373,
      "reat": 11374,
      "不能": 11375,
      "▁mensen": 11376,
      "▁vert": 11377,
      "iek": 11378,
      "▁mu": 11379,
      "▁other": 11380,
      "孩子": 11381,
      "一下": 11382,
      "ed,": 11383,
      "af": 11384,
      "▁part": 11385,
      "▁into": 11386,
      ":\"": 11387,
      "ruik": 11388,
      "▁Be": 11389,
      "oen": 11390,
      "ild": 11391,
      "▁*MOT:\toh": 11392,
      "ople": 11393,
      "▁\"I": 11394,
      "ace": 11395,
      "▁twee": 11396,
      "▁*CHI:\t[": 11397,
      "▁werk": 11398,
      "irst": 11399,
      "▁All": 11400,
      "都是": 11401,
      ",我": 11402,
      "来了": 11403,
      "▁gon": 11404,
      "▁eens": 11405,
      "▁Br": 11406,
      "▁对": 11407,
      "▁But": 11408,
      "app": 11409,
      "▁小": 11410,
      "ann": 11411,
      "▁gez": 11412,
      "no.\n": 11413,
      "▁come": 11414,
      "▁tijd": 11415,
      "act": 11416,
      "iz": 11417,
      "ing,": 11418,
      "到了": 11419,
      "esp": 11420,
      "▁4": 11421,
      "▁kon": 11422,
      "▁echt": 11423,
      "▁alleen": 11424,
      "▁str": 11425,
      "▁am": 11426,
      "喜欢": 11427,
      "▁laat": 11428,
      "▁She": 11429,
      "▁land": 11430,
      "▁again": 11431,
      "▁time": 11432,
      "ans": 11433,
      "ci": 11434,
      "gens": 11435,
      "▁you.\n": 11436,
      "▁An": 11437,
      "ount": 11438,
      "▁Le": 11439,
      "▁water": 11440,
      "▁sm": 11441,
      "▁kw": 11442,
      "▁werd": 11443,
      "ough": 11444,
      "▁Daar": 11445,
      "▁toch": 11446,
      "▁ad": 11447,
      "▁komt": 11448,
      "oop": 11449,
      "▁Mar": 11450,
      "▁how": 11451,
[...]
